{
  "version": "1.0",
  "truncation": null,
  "padding": null,
  "added_tokens": [
    {
      "id": 0,
      "content": "<pad>",
      "single_word": false,
      "lstrip": false,
      "rstrip": false,
      "normalized": false,
      "special": true
    },
    {
      "id": 1,
      "content": "<unk>",
      "single_word": false,
      "lstrip": false,
      "rstrip": false,
      "normalized": false,
      "special": true
    },
    {
      "id": 2,
      "content": "<s>",
      "single_word": false,
      "lstrip": false,
      "rstrip": false,
      "normalized": false,
      "special": true
    },
    {
      "id": 3,
      "content": "</s>",
      "single_word": false,
      "lstrip": false,
      "rstrip": false,
      "normalized": false,
      "special": true
    }
  ],
  "normalizer": null,
  "pre_tokenizer": null,
  "post_processor": null,
  "decoder": null,
  "model": {
    "type": "Unigram",
    "unk_id": 1,
    "vocab": [
      [
        "<pad>",
        0.0
      ],
      [
        "<unk>",
        0.0
      ],
      [
        "<s>",
        0.0
      ],
      [
        "</s>",
        0.0
      ],
      [
        " ",
        -1.0075546297034226
      ],
      [
        ",",
        -3.741311885320659
      ],
      [
        ".",
        -3.92705192178871
      ],
      [
        "a",
        -3.9933162720622875
      ],
      [
        "\n",
        -4.084102941498324
      ],
      [
        "ng",
        -4.312552873186846
      ],
      [
        "ing",
        -4.339525600136625
      ],
      [
        "king",
        -4.365133603918462
      ],
      [
        "ning",
        -4.5776748219897065
      ],
      [
        "at",
        -4.8453947133630635
      ],
      [
        "na",
        -4.882863246672084
      ],
      [
        "s",
        -4.887391667105762
      ],
      [
        "ya",
        -5.021786661370616
      ],
      [
        "an",
        -5.172115717540276
      ],
      [
        "e",
        -5.258357271284142
      ],
      [
        "(",
        -5.283073764938296
      ],
      [
        ")",
        -5.2864524977494565
      ],
      [
        "yang",
        -5.340294312024602
      ],
      [
        "o",
        -5.356753343474555
      ],
      [
        ":",
        -5.43101232084666
      ],
      [
        "la",
        -5.490759882643804
      ],
      [
        "i",
        -5.53174978923076
      ],
      [
        "da",
        -5.607687547674763
      ],
      [
        "Ing",
        -5.668086883636004
      ],
      [
        "-",
        -5.68119018610574
      ],
      [
        "ku",
        -5.755250409398789
      ],
      [
        "mu",
        -5.855036137384435
      ],
      [
        "g",
        -5.961323775327118
      ],
      [
        "d",
        -5.966262111070666
      ],
      [
        "ding",
        -5.966423042975167
      ],
      [
        "metung",
        -5.973411146831575
      ],
      [
        "nang",
        -6.005367323841929
      ],
      [
        "ka",
        -6.038383725746188
      ],
      [
        ";",
        -6.089015277415207
      ],
      [
        "y",
        -6.08952788126534
      ],
      [
        "m",
        -6.109317183218359
      ],
      [
        "n",
        -6.14994729057072
      ],
      [
        "pa",
        -6.170179175972292
      ],
      [
        "I",
        -6.266718060554027
      ],
      [
        "ma",
        -6.284279027638412
      ],
      [
        "ne",
        -6.288309894644675
      ],
      [
        "t",
        -6.307992440350766
      ],
      [
        "of",
        -6.356914142194386
      ],
      [
        "keng",
        -6.357280066119124
      ],
      [
        "mi",
        -6.359842853599316
      ],
      [
        "At",
        -6.403314366746246
      ],
      [
        "A",
        -6.404551597932478
      ],
      [
        "u",
        -6.405460102840793
      ],
      [
        "kareng",
        -6.449920113399719
      ],
      [
        "k",
        -6.461706383246822
      ],
      [
        "nung",
        -6.510278912948573
      ],
      [
        "\"",
        -6.5302866606928
      ],
      [
        "reng",
        -6.596765147031663
      ],
      [
        "me",
        -6.602506587560979
      ],
      [
        "in",
        -6.606796960241876
      ],
      [
        "karing",
        -6.623489551677428
      ],
      [
        "man",
        -6.639411890670713
      ],
      [
        "lang",
        -6.646013481110481
      ],
      [
        "de",
        -6.680306964547203
      ],
      [
        "on",
        -6.695524383806024
      ],
      [
        "P",
        -6.718807421734658
      ],
      [
        "al",
        -6.7335555693072315
      ],
      [
        "atin",
        -6.742898764454926
      ],
      [
        "E",
        -6.760297016925234
      ],
      [
        "ampong",
        -6.767166174116717
      ],
      [
        "the",
        -6.811744987928442
      ],
      [
        "ra",
        -6.818625548851081
      ],
      [
        "?",
        -6.864269447826805
      ],
      [
        "deng",
        -6.885970606531814
      ],
      [
        "1",
        -6.890280265334484
      ],
      [
        "ring",
        -6.89699504397392
      ],
      [
        "yu",
        -6.9495829650774485
      ],
      [
        "p",
        -6.972654915428215
      ],
      [
        "/",
        -7.019787353428255
      ],
      [
        "ca",
        -7.0433859325926065
      ],
      [
        "!",
        -7.046666677902294
      ],
      [
        "c",
        -7.046775983306043
      ],
      [
        "Pa",
        -7.048704493687223
      ],
      [
        "Dios",
        -7.078668007150581
      ],
      [
        "iti",
        -7.120579334937512
      ],
      [
        "San",
        -7.122869690122123
      ],
      [
        "pang",
        -7.144214542816725
      ],
      [
        "balen",
        -7.147112729283835
      ],
      [
        "S",
        -7.152153152956709
      ],
      [
        "and",
        -7.169760138796841
      ],
      [
        "kung",
        -7.173656708269661
      ],
      [
        "ke",
        -7.182883738497238
      ],
      [
        "Suglu",
        -7.185169583746211
      ],
      [
        "|",
        -7.196965242408691
      ],
      [
        "King",
        -7.210000668019229
      ],
      [
        "2",
        -7.212403323960361
      ],
      [
        "K",
        -7.225552265502679
      ],
      [
        "tau",
        -7.226030832393801
      ],
      [
        "C",
        -7.226268614353255
      ],
      [
        "l",
        -7.241156892113077
      ],
      [
        "kang",
        -7.242978520908677
      ],
      [
        "ta",
        -7.244271609182535
      ],
      [
        "O",
        -7.2658617410439215
      ],
      [
        "kayang",
        -7.279023977589071
      ],
      [
        "maka",
        -7.288724536416023
      ],
      [
        "“",
        -7.297548755388719
      ],
      [
        "cu",
        -7.301933398491125
      ],
      [
        "para",
        -7.307425895232109
      ],
      [
        "neng",
        -7.318805927283872
      ],
      [
        "”",
        -7.3219642226444
      ],
      [
        "3",
        -7.344676223077233
      ],
      [
        "Ka",
        -7.3453961863257335
      ],
      [
        "no",
        -7.391658979652646
      ],
      [
        "pin",
        -7.39672628406579
      ],
      [
        "M",
        -7.403214174804477
      ],
      [
        "lalawigan",
        -7.408207703005872
      ],
      [
        "b",
        -7.419335274388956
      ],
      [
        "sa",
        -7.419631179483797
      ],
      [
        "D",
        -7.423191594200817
      ],
      [
        "to",
        -7.425833679725788
      ],
      [
        "mung",
        -7.434458949477504
      ],
      [
        "nu",
        -7.434754780042736
      ],
      [
        "re",
        -7.447324160969215
      ],
      [
        "it",
        -7.457381259241705
      ],
      [
        "naman",
        -7.458024447023903
      ],
      [
        "uling",
        -7.458165031177149
      ],
      [
        "G",
        -7.467079140961454
      ],
      [
        "Deng",
        -7.467866769844501
      ],
      [
        "es",
        -7.50950472282619
      ],
      [
        "4",
        -7.5173108699313
      ],
      [
        "ba",
        -7.517508616331733
      ],
      [
        "aldo",
        -7.518510607687091
      ],
      [
        "anti",
        -7.527173534692194
      ],
      [
        "ibat",
        -7.528963899326947
      ],
      [
        "Ma",
        -7.537660619441079
      ],
      [
        "alang",
        -7.547449569067874
      ],
      [
        "ampó",
        -7.5532702229560815
      ],
      [
        "Ding",
        -7.558019204242863
      ],
      [
        "B",
        -7.55949292670666
      ],
      [
        "com",
        -7.563231449816809
      ],
      [
        "5",
        -7.564483947730359
      ],
      [
        "mag",
        -7.565670522240444
      ],
      [
        "ban",
        -7.569035226506574
      ],
      [
        "7",
        -7.577987808103415
      ],
      [
        "Filipinas",
        -7.588100625779724
      ],
      [
        "ed",
        -7.593546094167878
      ],
      [
        "–",
        -7.594807755097249
      ],
      [
        "h",
        -7.617634484149498
      ],
      [
        "sinabi",
        -7.630543349978496
      ],
      [
        "r",
        -7.632227973673502
      ],
      [
        "anak",
        -7.6375601573228336
      ],
      [
        "Jesus",
        -7.639882163035356
      ],
      [
        "kanaku",
        -7.643042208734283
      ],
      [
        "Nung",
        -7.646242819804212
      ],
      [
        "6",
        -7.655457932883481
      ],
      [
        "dang",
        -7.661781719339157
      ],
      [
        "Palwal",
        -7.664221090654814
      ],
      [
        "bie",
        -7.6697733843482805
      ],
      [
        "is",
        -7.671159128225473
      ],
      [
        "ment",
        -7.678737516431335
      ],
      [
        "F",
        -7.681232515580736
      ],
      [
        "inyang",
        -7.684819159495445
      ],
      [
        "banua",
        -7.706582935730841
      ],
      [
        "Barangay",
        -7.708964252659044
      ],
      [
        "en",
        -7.709731078460734
      ],
      [
        "’",
        -7.721925994483652
      ],
      [
        "métu",
        -7.7436313765993345
      ],
      [
        "anggang",
        -7.748750332855644
      ],
      [
        "w",
        -7.7497696176018795
      ],
      [
        "T",
        -7.75111343605575
      ],
      [
        "rin",
        -7.7595391742429545
      ],
      [
        "mo",
        -7.762365681871121
      ],
      [
        "maki",
        -7.762723352485796
      ],
      [
        "8",
        -7.778312056455061
      ],
      [
        "populasyun",
        -7.780772685499534
      ],
      [
        "Agpang",
        -7.7872051560193665
      ],
      [
        "tamu",
        -7.790622928552573
      ],
      [
        "9",
        -7.792150207364424
      ],
      [
        "The",
        -7.809551346411771
      ],
      [
        "ko",
        -7.813047760475802
      ],
      [
        "er",
        -7.813067682925868
      ],
      [
        "Philippine",
        -7.8195771161609935
      ],
      [
        "pi",
        -7.8259410194077885
      ],
      [
        "ampo",
        -7.833291966894558
      ],
      [
        "karela",
        -7.834258216822696
      ],
      [
        "mang",
        -7.839745892364377
      ],
      [
        "Uling",
        -7.852104289766539
      ],
      [
        "Pob",
        -7.8523575402060635
      ],
      [
        "kanita",
        -7.853020164100671
      ],
      [
        "us",
        -7.8536166841224775
      ],
      [
        "18",
        -7.85630848952345
      ],
      [
        "uli",
        -7.860486475595233
      ],
      [
        "ance",
        -7.862104426792571
      ],
      [
        "dakal",
        -7.862415883392281
      ],
      [
        "L",
        -7.865692261808395
      ],
      [
        "ngeni",
        -7.866173980313715
      ],
      [
        "pu",
        -7.878630147396764
      ],
      [
        "bang",
        -7.880112422659161
      ],
      [
        "itang",
        -7.884528154514832
      ],
      [
        "nibatan",
        -7.886825491355141
      ],
      [
        "que",
        -7.893164452055974
      ],
      [
        "katau",
        -7.896403558150604
      ],
      [
        "keka",
        -7.902441544874669
      ],
      [
        "Mat",
        -7.909884839649213
      ],
      [
        "un",
        -7.909946086023309
      ],
      [
        "balu",
        -7.924680192376019
      ],
      [
        "System",
        -7.938955361238823
      ],
      [
        "ala",
        -7.942220309822906
      ],
      [
        "q",
        -7.9430323722978935
      ],
      [
        "kekang",
        -7.94864083985303
      ],
      [
        "Ginu",
        -7.950102455915537
      ],
      [
        "Manage",
        -7.952664682222829
      ],
      [
        "kea",
        -7.954571860377168
      ],
      [
        "karin",
        -7.956196270931939
      ],
      [
        "lugud",
        -7.961163931906114
      ],
      [
        "le",
        -7.961751246785367
      ],
      [
        "lakanbalen",
        -7.963653733548834
      ],
      [
        "ngan",
        -7.966317509129367
      ],
      [
        "yan",
        -7.968905927332682
      ],
      [
        "tang",
        -7.983130497611292
      ],
      [
        "Local",
        -7.983544187942663
      ],
      [
        "19",
        -7.9838480636842935
      ],
      [
        "Phil",
        -7.984050534820114
      ],
      [
        "di",
        -7.992692751863493
      ],
      [
        "manibat",
        -7.998448876084786
      ],
      [
        "emale",
        -8.003031593955587
      ],
      [
        "10",
        -8.006432959914726
      ],
      [
        "Code",
        -8.007038379154146
      ],
      [
        "Standard",
        -8.00776352334752
      ],
      [
        "barangay",
        -8.010949877225329
      ],
      [
        "erformance",
        -8.010967993631215
      ],
      [
        "kekayu",
        -8.01098804186833
      ],
      [
        "panaun",
        -8.01302747546864
      ],
      [
        "Mi",
        -8.013442326447358
      ],
      [
        "Mar",
        -8.0138558336477
      ],
      [
        "pot",
        -8.014059470500783
      ],
      [
        "as",
        -8.016250083417091
      ],
      [
        "Geographic",
        -8.017309193808593
      ],
      [
        "kayu",
        -8.019787657149543
      ],
      [
        "Govern",
        -8.020292027509779
      ],
      [
        "pamimal",
        -8.021439862361644
      ],
      [
        "Atlas",
        -8.023880805474763
      ],
      [
        "kayabe",
        -8.024397145387503
      ],
      [
        "…",
        -8.02613464298175
      ],
      [
        "or",
        -8.029361537795932
      ],
      [
        "mas",
        -8.030602427228978
      ],
      [
        "yatu",
        -8.032383735296236
      ],
      [
        "Demograpi",
        -8.035855253624822
      ],
      [
        "15",
        -8.046034886582891
      ],
      [
        "dake",
        -8.047298187404222
      ],
      [
        "karelang",
        -8.055110067151148
      ],
      [
        "atiu",
        -8.062792508036328
      ],
      [
        "pan",
        -8.072778167436006
      ],
      [
        "Y",
        -8.08019930729187
      ],
      [
        "keang",
        -8.08742564333361
      ],
      [
        "14",
        -8.088284877876966
      ],
      [
        "Luk",
        -8.089940762359209
      ],
      [
        "16",
        -8.09040001331347
      ],
      [
        "U",
        -8.095231033159074
      ],
      [
        "20",
        -8.096116110489397
      ],
      [
        "La",
        -8.097948902495776
      ],
      [
        "amanu",
        -8.108621561355637
      ],
      [
        "klasing",
        -8.120902294816958
      ],
      [
        "17",
        -8.12110968929849
      ],
      [
        "anyang",
        -8.129142603020485
      ],
      [
        "te",
        -8.132978448895093
      ],
      [
        "12",
        -8.136323156082085
      ],
      [
        "Dapo",
        -8.137771432493981
      ],
      [
        "13",
        -8.140794904735412
      ],
      [
        "dapat",
        -8.143800547496237
      ],
      [
        "R",
        -8.147703482283813
      ],
      [
        "do",
        -8.148303362431818
      ],
      [
        "aliwa",
        -8.151613314353405
      ],
      [
        "Me",
        -8.15389536783538
      ],
      [
        "Act",
        -8.156327898642122
      ],
      [
        "Lakanbalen",
        -8.15686651624015
      ],
      [
        "aliwang",
        -8.157101768953087
      ],
      [
        "kaya",
        -8.158008497129579
      ],
      [
        "’t",
        -8.163027994534925
      ],
      [
        "11",
        -8.166550470252893
      ],
      [
        "ita",
        -8.17291189131999
      ],
      [
        "ketang",
        -8.18752261634479
      ],
      [
        "mayap",
        -8.201759015329218
      ],
      [
        "co",
        -8.20828743816563
      ],
      [
        "tala",
        -8.209668099871529
      ],
      [
        "angga",
        -8.21218870927665
      ],
      [
        "balang",
        -8.21423374610097
      ],
      [
        "pusu",
        -8.2163049696515
      ],
      [
        "'",
        -8.223090573484615
      ],
      [
        "ti",
        -8.225287823772145
      ],
      [
        "bilang",
        -8.225738909872339
      ],
      [
        "pe",
        -8.22859766717593
      ],
      [
        "Ya",
        -8.23075240083066
      ],
      [
        "sablang",
        -8.23150858522705
      ],
      [
        "sarili",
        -8.234865003472251
      ],
      [
        "ampon",
        -8.240403687333385
      ],
      [
        "labuad",
        -8.2411504335928
      ],
      [
        "karé",
        -8.242199586994035
      ],
      [
        "'s",
        -8.249009275363974
      ],
      [
        "be",
        -8.254941571209276
      ],
      [
        "ila",
        -8.26649218960066
      ],
      [
        "Guinu",
        -8.267509313130036
      ],
      [
        "lu",
        -8.26783564748451
      ],
      [
        "pamag",
        -8.27224613240278
      ],
      [
        "panga",
        -8.273817586894973
      ],
      [
        "nanu",
        -8.283934092212537
      ],
      [
        "ni",
        -8.289430092323222
      ],
      [
        "akit",
        -8.298789936737341
      ],
      [
        "niti",
        -8.309641797634661
      ],
      [
        "ro",
        -8.309812710306147
      ],
      [
        "Ca",
        -8.309907634157083
      ],
      [
        "f",
        -8.31347350797827
      ],
      [
        "deti",
        -8.316011813930793
      ],
      [
        "H",
        -8.318989636507418
      ],
      [
        "for",
        -8.329111350187006
      ],
      [
        "taung",
        -8.335134614194097
      ],
      [
        "Kapampangan",
        -8.335435422014616
      ],
      [
        "lub",
        -8.342049755996822
      ],
      [
        "ran",
        -8.344838506470206
      ],
      [
        "si",
        -8.347753621186587
      ],
      [
        "Joh",
        -8.358930213343214
      ],
      [
        "á",
        -8.360664822409447
      ],
      [
        "pun",
        -8.363612678878141
      ],
      [
        "ngana",
        -8.363865566243813
      ],
      [
        "buri",
        -8.363916321662074
      ],
      [
        "‘",
        -8.36551312805089
      ],
      [
        "paman",
        -8.367162591930567
      ],
      [
        "Atin",
        -8.371553518910254
      ],
      [
        "India",
        -8.375131279430036
      ],
      [
        "dalan",
        -8.39315822985208
      ],
      [
        "Poblaci",
        -8.395599903178933
      ],
      [
        "bale",
        -8.397284694554088
      ],
      [
        "maragul",
        -8.399824050711825
      ],
      [
        "kakung",
        -8.40903140010095
      ],
      [
        "wan",
        -8.412912620251506
      ],
      [
        "W",
        -8.414486871355834
      ],
      [
        "Co",
        -8.415545403035278
      ],
      [
        "Santa",
        -8.419185056589505
      ],
      [
        "ly",
        -8.424254253647671
      ],
      [
        "z",
        -8.427776374840212
      ],
      [
        "bague",
        -8.429984248332866
      ],
      [
        "N",
        -8.431412379270814
      ],
      [
        "malyari",
        -8.432441995200932
      ],
      [
        "su",
        -8.439056537727986
      ],
      [
        "Mu",
        -8.439332650594157
      ],
      [
        "ri",
        -8.447149143748328
      ],
      [
        "24",
        -8.452443776598733
      ],
      [
        "by",
        -8.454187415372829
      ],
      [
        "website",
        -8.460440268818065
      ],
      [
        "commune",
        -8.463853726317698
      ],
      [
        "pami",
        -8.464932180578403
      ],
      [
        "21",
        -8.466189543817835
      ],
      [
        "tungkul",
        -8.471445883857745
      ],
      [
        "ensus",
        -8.474476527719466
      ],
      [
        "kapamilatan",
        -8.484565924170502
      ],
      [
        "kaniti",
        -8.484833071667495
      ],
      [
        "gamat",
        -8.484916503803769
      ],
      [
        "lalam",
        -8.485098747170031
      ],
      [
        "J",
        -8.486569131472674
      ],
      [
        "23",
        -8.487365311637761
      ],
      [
        "Offici",
        -8.489469688093429
      ],
      [
        "Na",
        -8.4900760487266
      ],
      [
        "murin",
        -8.490690143984704
      ],
      [
        "Iti",
        -8.492192462100753
      ],
      [
        "kekami",
        -8.492251548736508
      ],
      [
        "ini",
        -8.493735858995866
      ],
      [
        "ali",
        -8.49449315991852
      ],
      [
        "22",
        -8.502441461624644
      ],
      [
        " ",
        -8.503663449543957
      ],
      [
        "dé",
        -8.504565433085528
      ],
      [
        "se",
        -8.51217421262729
      ],
      [
        "del",
        -8.512711668369462
      ],
      [
        "lalaki",
        -8.513857704411837
      ],
      [
        "th",
        -8.513869427048053
      ],
      [
        "li",
        -8.515574391365234
      ],
      [
        "án",
        -8.517736381965594
      ],
      [
        "Dalerayan",
        -8.523349132301725
      ],
      [
        "mig",
        -8.523850537421703
      ],
      [
        "lagyu",
        -8.525360693232724
      ],
      [
        "ung",
        -8.526105477021206
      ],
      [
        "sasabian",
        -8.539703180802011
      ],
      [
        "manga",
        -8.541574752643623
      ],
      [
        "keti",
        -8.544004611743429
      ],
      [
        "Metung",
        -8.551727969251424
      ],
      [
        "Cristo",
        -8.554328721468778
      ],
      [
        "25",
        -8.555738653772167
      ],
      [
        "kami",
        -8.564263342590866
      ],
      [
        "bi",
        -8.56627014692905
      ],
      [
        "du",
        -8.573190777366294
      ],
      [
        "ikit",
        -8.580425770452127
      ],
      [
        "lugal",
        -8.585075249920767
      ],
      [
        "ating",
        -8.588011818405949
      ],
      [
        "ye",
        -8.588279035297244
      ],
      [
        "mata",
        -8.592271348665756
      ],
      [
        "rang",
        -8.600018764020987
      ],
      [
        "France",
        -8.602998777153825
      ],
      [
        "Inya",
        -8.60345349238274
      ],
      [
        "Ba",
        -8.607684861917896
      ],
      [
        "pag",
        -8.60777119612893
      ],
      [
        "bage",
        -8.609449796584673
      ],
      [
        "lin",
        -8.620926131022955
      ],
      [
        "—",
        -8.622177727837213
      ],
      [
        "kapata",
        -8.637095865848627
      ],
      [
        "idad",
        -8.637760632227145
      ],
      [
        "tu",
        -8.648363324109834
      ],
      [
        "lual",
        -8.654763678810426
      ],
      [
        "ING",
        -8.65515466654903
      ],
      [
        "wa",
        -8.660434227066585
      ],
      [
        "um",
        -8.671557012368375
      ],
      [
        "cung",
        -8.673631688578261
      ],
      [
        "26",
        -8.675290363323064
      ],
      [
        "tan",
        -8.67741488903441
      ],
      [
        "yung",
        -8.678695606415676
      ],
      [
        "Ban",
        -8.679909975495526
      ],
      [
        "palual",
        -8.682115826932186
      ],
      [
        "mal",
        -8.686089419298302
      ],
      [
        "Mag",
        -8.693332305453492
      ],
      [
        "tutu",
        -8.697859182213145
      ],
      [
        "Da",
        -8.699829676760192
      ],
      [
        "apat",
        -8.707124106239949
      ],
      [
        "Sa",
        -8.711025179508132
      ],
      [
        "uan",
        -8.711477056517152
      ],
      [
        "kabang",
        -8.712115523331205
      ],
      [
        "City",
        -8.712690990490987
      ],
      [
        "pam",
        -8.713333375716104
      ],
      [
        "tanaman",
        -8.713367694587815
      ],
      [
        "nan",
        -8.713893555101757
      ],
      [
        "obra",
        -8.716437084203438
      ],
      [
        "27",
        -8.71938272052014
      ],
      [
        "bayu",
        -8.723631110961964
      ],
      [
        "atyu",
        -8.72470891093488
      ],
      [
        "Ibpa",
        -8.725400198967723
      ],
      [
        "ika",
        -8.726953704663174
      ],
      [
        "sana",
        -8.728457102328363
      ],
      [
        "Sur",
        -8.730212890430154
      ],
      [
        "peka",
        -8.730770565728369
      ],
      [
        "mika",
        -8.732237638880953
      ],
      [
        "car",
        -8.733220472448334
      ],
      [
        "v",
        -8.73365908772921
      ],
      [
        "Ngeni",
        -8.73522952825261
      ],
      [
        "aduang",
        -8.736455416015868
      ],
      [
        "antimong",
        -8.737933877618097
      ],
      [
        "maging",
        -8.73846754871196
      ],
      [
        "estadu",
        -8.743372169983871
      ],
      [
        "babo",
        -8.743766697682592
      ],
      [
        "New",
        -8.751064453503517
      ],
      [
        "namang",
        -8.75218191570805
      ],
      [
        "Lawen",
        -8.758470214493133
      ],
      [
        "distritu",
        -8.768434725347568
      ],
      [
        "Image",
        -8.768495266946204
      ],
      [
        "tamung",
        -8.771558312300618
      ],
      [
        "lakad",
        -8.771561779552055
      ],
      [
        "University",
        -8.773671601342418
      ],
      [
        "katawan",
        -8.777875403526494
      ],
      [
        "28",
        -8.779184560434908
      ],
      [
        "sensu",
        -8.783223811242737
      ],
      [
        "bansa",
        -8.79069182076255
      ],
      [
        "gabun",
        -8.795883398490318
      ],
      [
        "id",
        -8.79758397141437
      ],
      [
        "keraklan",
        -8.79818800740912
      ],
      [
        "30",
        -8.799177165494388
      ],
      [
        "V",
        -8.799451630076282
      ],
      [
        "detang",
        -8.799948071762369
      ],
      [
        "Nanu",
        -8.801387243561898
      ],
      [
        "bu",
        -8.801389333066929
      ],
      [
        "x",
        -8.80328589249093
      ],
      [
        "aslagan",
        -8.804104270100625
      ],
      [
        "Juan",
        -8.80430153426643
      ],
      [
        "lalu",
        -8.805543882682159
      ],
      [
        "Ta",
        -8.806464800556341
      ],
      [
        "ki",
        -8.806994031909397
      ],
      [
        "lo",
        -8.807644277797827
      ],
      [
        "é",
        -8.808072159969909
      ],
      [
        "wari",
        -8.813093576620819
      ],
      [
        "babai",
        -8.815215181606217
      ],
      [
        "Maria",
        -8.818248073365844
      ],
      [
        "Ala",
        -8.82795761083363
      ],
      [
        "ud",
        -8.831549469364486
      ],
      [
        "atlung",
        -8.831971689771962
      ],
      [
        "In",
        -8.832112052176075
      ],
      [
        "tula",
        -8.835471199274718
      ],
      [
        "yo",
        -8.83556337328538
      ],
      [
        "ian",
        -8.838511137222387
      ],
      [
        "[",
        -8.84770152789427
      ],
      [
        "kasalanan",
        -8.848412198650614
      ],
      [
        "danum",
        -8.850047202387447
      ],
      [
        "De",
        -8.851279608011804
      ],
      [
        "Anak",
        -8.853601671631667
      ],
      [
        "bayung",
        -8.854195612662025
      ],
      [
        "mumunang",
        -8.85504212894958
      ],
      [
        "pepa",
        -8.857114620476072
      ],
      [
        "kilub",
        -8.859588172323953
      ],
      [
        "ar",
        -8.863254991023751
      ],
      [
        "ninu",
        -8.86934013785123
      ],
      [
        "iya",
        -8.870671686119856
      ],
      [
        "banwa",
        -8.871639569035379
      ],
      [
        "Espiritu",
        -8.87558469650281
      ],
      [
        "tungku",
        -8.880042931016686
      ],
      [
        "albugan",
        -8.880756247024003
      ],
      [
        "Jose",
        -8.880903497841736
      ],
      [
        "palwal",
        -8.881456388641986
      ],
      [
        "tin",
        -8.882158495268367
      ],
      [
        "ch",
        -8.88460092348324
      ],
      [
        "pasibayu",
        -8.88501852856163
      ],
      [
        "datang",
        -8.88591332314154
      ],
      [
        "cal",
        -8.893523905745443
      ],
      [
        "kaku",
        -8.89354765137511
      ],
      [
        "kapilan",
        -8.895408311246118
      ],
      [
        "ó",
        -8.897907908257856
      ],
      [
        "lan",
        -8.89974892325549
      ],
      [
        "kailangan",
        -8.900438067640156
      ],
      [
        "mibait",
        -8.901040831620502
      ],
      [
        "can",
        -8.902230924534791
      ],
      [
        "mete",
        -8.905962525289588
      ],
      [
        "Kanita",
        -8.908959765712954
      ],
      [
        "aku",
        -8.912020769763176
      ],
      [
        "el",
        -8.913676782354766
      ],
      [
        "amanung",
        -8.914603878400355
      ],
      [
        "ru",
        -8.917036866404104
      ],
      [
        "réng",
        -8.91718067918725
      ],
      [
        "agad",
        -8.918061240119311
      ],
      [
        "mong",
        -8.91920534310664
      ],
      [
        "College",
        -8.921880019748503
      ],
      [
        "megi",
        -8.92300401283406
      ],
      [
        "pung",
        -8.924415391741583
      ],
      [
        "anting",
        -8.926260964740582
      ],
      [
        "sakit",
        -8.926542584711246
      ],
      [
        "Re",
        -8.930410429838659
      ],
      [
        "bengi",
        -8.932512888296523
      ],
      [
        "Balen",
        -8.937475470131703
      ],
      [
        "nong",
        -8.940013154956517
      ],
      [
        "kong",
        -8.943318760943543
      ],
      [
        "batu",
        -8.943500288249922
      ],
      [
        "sala",
        -8.947034430925893
      ],
      [
        "ation",
        -8.949351308227437
      ],
      [
        "matas",
        -8.951070121672036
      ],
      [
        "tune",
        -8.95457989200018
      ],
      [
        "quing",
        -8.955017647675172
      ],
      [
        "bangsa",
        -8.957389280517832
      ],
      [
        "29",
        -8.959334352039903
      ],
      [
        "han",
        -8.959635826230194
      ],
      [
        "asawa",
        -8.961472837295577
      ],
      [
        "miras",
        -8.964410738279833
      ],
      [
        "meg",
        -8.968203268081137
      ],
      [
        "hi",
        -8.97457686024581
      ],
      [
        "Americanu",
        -8.97869767310898
      ],
      [
        "makananu",
        -8.984016157775084
      ],
      [
        "mapilan",
        -8.985072544453232
      ],
      [
        "Maka",
        -8.987932816126454
      ],
      [
        "sabian",
        -8.993821546765684
      ],
      [
        "from",
        -8.997738230316855
      ],
      [
        "min",
        -8.998496258182746
      ],
      [
        "ciudad",
        -9.00205123422961
      ],
      [
        "uri",
        -9.00376195777211
      ],
      [
        "Santo",
        -9.005830149119408
      ],
      [
        "abe",
        -9.011291714310193
      ],
      [
        "ausan",
        -9.013352042778521
      ],
      [
        "minuna",
        -9.0137687491878
      ],
      [
        "adwang",
        -9.017702801458153
      ],
      [
        "II",
        -9.018878444097187
      ],
      [
        "Inyang",
        -9.019440987959953
      ],
      [
        "sabla",
        -9.022194396999009
      ],
      [
        "banal",
        -9.027104575779326
      ],
      [
        "agpang",
        -9.028054179082446
      ],
      [
        "ic",
        -9.029668153993748
      ],
      [
        "mauli",
        -9.032695477537793
      ],
      [
        "né",
        -9.033374239905413
      ],
      [
        "Pedro",
        -9.034618356132459
      ],
      [
        "lukluk",
        -9.034778325633424
      ],
      [
        "inatang",
        -9.038860954185857
      ],
      [
        "ú",
        -9.041762760629732
      ],
      [
        "he",
        -9.043107020816837
      ],
      [
        "Al",
        -9.049981491113812
      ],
      [
        "gamit",
        -9.051638970124284
      ],
      [
        "with",
        -9.052627387417758
      ],
      [
        "ul",
        -9.053905326581717
      ],
      [
        "Rev",
        -9.055247601482925
      ],
      [
        "karinan",
        -9.055396011348893
      ],
      [
        "pangulu",
        -9.05729315481614
      ],
      [
        "pati",
        -9.057637110002538
      ],
      [
        "reti",
        -9.058216046800638
      ],
      [
        "Pi",
        -9.05857927536086
      ],
      [
        "ari",
        -9.0593518886431
      ],
      [
        "gan",
        -9.060878976749486
      ],
      [
        "sin",
        -9.062836672673855
      ],
      [
        "Pampanga",
        -9.063995106692849
      ],
      [
        "An",
        -9.065354132352645
      ],
      [
        "]",
        -9.066044444682895
      ],
      [
        "Am",
        -9.067189206533188
      ],
      [
        "kan",
        -9.072419042374268
      ],
      [
        "oras",
        -9.072501384958338
      ],
      [
        "salita",
        -9.072954496638545
      ],
      [
        "upaya",
        -9.073740395900803
      ],
      [
        "ve",
        -9.074694801818005
      ],
      [
        "Award",
        -9.075504488274603
      ],
      [
        "ion",
        -9.077356154385154
      ],
      [
        "bulan",
        -9.08552178882518
      ],
      [
        "sang",
        -9.089578092111545
      ],
      [
        "balayan",
        -9.093648840668145
      ],
      [
        "keya",
        -9.094416540145016
      ],
      [
        "il",
        -9.097708103284845
      ],
      [
        "jpg",
        -9.09849411657969
      ],
      [
        "Ener",
        -9.098810380627661
      ],
      [
        "Uli",
        -9.099174630202072
      ],
      [
        "maca",
        -9.101447573570514
      ],
      [
        "America",
        -9.111364470342146
      ],
      [
        "kalupa",
        -9.1130006891076
      ],
      [
        "kabud",
        -9.113289716885276
      ],
      [
        "kareti",
        -9.115385895193178
      ],
      [
        "arapan",
        -9.1156898298645
      ],
      [
        "Mo",
        -9.117364988269102
      ],
      [
        "laban",
        -9.118977186456437
      ],
      [
        "pala",
        -9.1207632984689
      ],
      [
        "va",
        -9.121764121815835
      ],
      [
        "Be",
        -9.122133935246438
      ],
      [
        "Si",
        -9.122702972517054
      ],
      [
        "Lu",
        -9.123503581990983
      ],
      [
        "up",
        -9.124889646843773
      ],
      [
        "Q",
        -9.131494670995291
      ],
      [
        "Pablo",
        -9.132075325383695
      ],
      [
        "katutuan",
        -9.132171716251689
      ],
      [
        "nia",
        -9.13821872928616
      ],
      [
        "iting",
        -9.13860203727246
      ],
      [
        "Norte",
        -9.141895055748787
      ],
      [
        "tung",
        -9.143795283470197
      ],
      [
        "bulung",
        -9.14586363457788
      ],
      [
        "city",
        -9.149934841964479
      ],
      [
        "Anti",
        -9.150769786184973
      ],
      [
        "alakad",
        -9.15181265877583
      ],
      [
        "daya",
        -9.152207799099884
      ],
      [
        "keni",
        -9.155345621428712
      ],
      [
        "ón",
        -9.157925597408624
      ],
      [
        "Ja",
        -9.162264188313163
      ],
      [
        "mipa",
        -9.163197910785573
      ],
      [
        "kin",
        -9.163748956235482
      ],
      [
        "_",
        -9.164209275393528
      ],
      [
        "Li",
        -9.166078329789524
      ],
      [
        "artista",
        -9.166095120296937
      ],
      [
        "ragul",
        -9.16813904996431
      ],
      [
        "ce",
        -9.168344664547305
      ],
      [
        "ligtas",
        -9.168429858791743
      ],
      [
        "mabilu",
        -9.169515644756041
      ],
      [
        "Ning",
        -9.171568221980008
      ],
      [
        "'t",
        -9.172624375415669
      ],
      [
        "kaybat",
        -9.174364363192108
      ],
      [
        "laman",
        -9.17591542159079
      ],
      [
        "í",
        -9.177432937099475
      ],
      [
        "aniang",
        -9.17880613785951
      ],
      [
        "ha",
        -9.17932233977388
      ],
      [
        "lupa",
        -9.179532397237821
      ],
      [
        "ustu",
        -9.18117527968088
      ],
      [
        "ken",
        -9.181876748541058
      ],
      [
        "Dakal",
        -9.182088543414933
      ],
      [
        "IS",
        -9.18739851639228
      ],
      [
        "pang4",
        -9.1889534061219
      ],
      [
        "misan",
        -9.189322579045403
      ],
      [
        "ous",
        -9.191788707779587
      ],
      [
        "&",
        -9.192272326236631
      ],
      [
        "malapit",
        -9.194728990404405
      ],
      [
        "Indu",
        -9.199917438899673
      ],
      [
        "0",
        -9.202457031450479
      ],
      [
        "Ar",
        -9.203526162995145
      ],
      [
        "bo",
        -9.204232491814695
      ],
      [
        "nita",
        -9.204804198615538
      ],
      [
        "mate",
        -9.204864273409878
      ],
      [
        "asan",
        -9.211153874070597
      ],
      [
        "nala",
        -9.215361856070054
      ],
      [
        "inya",
        -9.216468592641828
      ],
      [
        "ilang",
        -9.218688047700068
      ],
      [
        "Le",
        -9.220051543157261
      ],
      [
        "pang-",
        -9.22462134506103
      ],
      [
        "son",
        -9.225833489903039
      ],
      [
        "talasúlat",
        -9.226515505420856
      ],
      [
        "National",
        -9.226749918966728
      ],
      [
        "ligaya",
        -9.229041652255649
      ],
      [
        "département",
        -9.229167135241774
      ],
      [
        "Espanya",
        -9.231855546645427
      ],
      [
        "za",
        -9.231859348525733
      ],
      [
        "31",
        -9.233268752519852
      ],
      [
        "et",
        -9.235924461108528
      ],
      [
        "you",
        -9.24111002186022
      ],
      [
        "ming",
        -9.241921344061804
      ],
      [
        "ry",
        -9.24252169048497
      ],
      [
        "Man",
        -9.243770769497106
      ],
      [
        "Tala",
        -9.246720962168046
      ],
      [
        "French",
        -9.24813792861865
      ],
      [
        "http",
        -9.250877624375997
      ],
      [
        "ninuman",
        -9.25165978313947
      ],
      [
        "bisa",
        -9.253088457852217
      ],
      [
        "Website",
        -9.264722983749566
      ],
      [
        "No",
        -9.266480173350322
      ],
      [
        "depat",
        -9.26719356991931
      ],
      [
        "kamatayan",
        -9.26774975734077
      ],
      [
        "Su",
        -9.268971056933003
      ],
      [
        "ume",
        -9.269450096005716
      ],
      [
        "Se",
        -9.270779752777818
      ],
      [
        "isip",
        -9.270800624898627
      ],
      [
        "makanian",
        -9.27096422459811
      ],
      [
        "pamuntuk",
        -9.27343758356677
      ],
      [
        "Bu",
        -9.274484817895349
      ],
      [
        "Israel",
        -9.27825446052326
      ],
      [
        "species",
        -9.27874541066037
      ],
      [
        "English",
        -9.281520664370367
      ],
      [
        "Ku",
        -9.283270921678383
      ],
      [
        "Lon",
        -9.28611269348896
      ],
      [
        "Di",
        -9.28675073163253
      ],
      [
        "po",
        -9.291924423908949
      ],
      [
        "men",
        -9.294808211069618
      ],
      [
        "Judio",
        -9.296876579350325
      ],
      [
        "Tu",
        -9.297817001094588
      ],
      [
        "dili",
        -9.30272085213648
      ],
      [
        "ol",
        -9.304086929753705
      ],
      [
        "tanggapan",
        -9.305334411880548
      ],
      [
        "mula",
        -9.31119553627727
      ],
      [
        "Th",
        -9.31386318022489
      ],
      [
        "sukat",
        -9.315036373193696
      ],
      [
        "33",
        -9.31622767196481
      ],
      [
        "alaga",
        -9.318413699605216
      ],
      [
        "ies",
        -9.319923254948286
      ],
      [
        "cell",
        -9.320761537784108
      ],
      [
        "ter",
        -9.32169954556161
      ],
      [
        "tapat",
        -9.322137332603322
      ],
      [
        "Ingles",
        -9.324069495634719
      ],
      [
        "*",
        -9.324880017198694
      ],
      [
        "diling",
        -9.32715917288908
      ],
      [
        "%",
        -9.327838597080351
      ],
      [
        "dad",
        -9.329345817166864
      ],
      [
        "bunga",
        -9.331140205560935
      ],
      [
        "ping",
        -9.331353018471255
      ],
      [
        "ambut",
        -9.332758788992827
      ],
      [
        "kasalpantayanan",
        -9.33378216549233
      ],
      [
        "sepu",
        -9.336355328364931
      ],
      [
        "ditak",
        -9.337044735919093
      ],
      [
        "Bo",
        -9.337385203896126
      ],
      [
        "bat",
        -9.338026695663684
      ],
      [
        "School",
        -9.338033326602874
      ],
      [
        "JEHOVA",
        -9.339761233209925
      ],
      [
        "nune",
        -9.342473186247378
      ],
      [
        "anam",
        -9.342732987460238
      ],
      [
        "os",
        -9.343382352235079
      ],
      [
        "Para",
        -9.343879662523987
      ],
      [
        "limang",
        -9.345316162792706
      ],
      [
        "lá",
        -9.346504650253433
      ],
      [
        "kaluguran",
        -9.346956309108267
      ],
      [
        "sulat",
        -9.34861047377767
      ],
      [
        "daptan",
        -9.349181438066083
      ],
      [
        "ekibat",
        -9.349806737854598
      ],
      [
        "meng",
        -9.35142824174962
      ],
      [
        "paralan",
        -9.352531681685425
      ],
      [
        "antimo",
        -9.354410879880984
      ],
      [
        "ja",
        -9.355799683831917
      ],
      [
        "j",
        -9.357844529342902
      ],
      [
        "dikil",
        -9.358100961509301
      ],
      [
        "Aku",
        -9.359525129886343
      ],
      [
        "radesh",
        -9.360975254813841
      ],
      [
        "Gal",
        -9.361109612632063
      ],
      [
        "binie",
        -9.362821452592634
      ],
      [
        "kekatamung",
        -9.36311478232387
      ],
      [
        "mí",
        -9.36332351035472
      ],
      [
        "Heb",
        -9.363997800021853
      ],
      [
        "El",
        -9.36466415190317
      ],
      [
        "was",
        -9.36648853479134
      ],
      [
        "cang",
        -9.367060895310019
      ],
      [
        "kekatamu",
        -9.368181817100883
      ],
      [
        "laguiu",
        -9.369060314754895
      ],
      [
        "con",
        -9.372015276577995
      ],
      [
        "mga",
        -9.375387398243092
      ],
      [
        "List",
        -9.375796170094862
      ],
      [
        "Ti",
        -9.375844737168153
      ],
      [
        "milyari",
        -9.376967461763696
      ],
      [
        "kabaldugan",
        -9.378117244540825
      ],
      [
        "Anyang",
        -9.379785471764762
      ],
      [
        "One",
        -9.382348826581108
      ],
      [
        "libutad",
        -9.382702848721696
      ],
      [
        "Unit",
        -9.383988700636658
      ],
      [
        "one",
        -9.388030485638346
      ],
      [
        "2006",
        -9.390139720052439
      ],
      [
        "wanan",
        -9.390315981028198
      ],
      [
        "X",
        -9.392475092938895
      ],
      [
        "ww",
        -9.395360461881985
      ],
      [
        "ir",
        -9.401304460320961
      ],
      [
        "Ali",
        -9.404806409356144
      ],
      [
        "partamentu",
        -9.406734675009275
      ],
      [
        "gawa",
        -9.407375297673408
      ],
      [
        "Commune",
        -9.410521051459398
      ],
      [
        "manatili",
        -9.41139023416791
      ],
      [
        "Kar",
        -9.412009239267164
      ],
      [
        "lagiu",
        -9.412276854109257
      ],
      [
        "maguing",
        -9.414707506412286
      ],
      [
        "masanting",
        -9.415611973290385
      ],
      [
        "ñg",
        -9.417003089823671
      ],
      [
        "itan",
        -9.420959986057616
      ],
      [
        "libru",
        -9.4213291642541
      ],
      [
        "larawan",
        -9.422439659432552
      ],
      [
        "kasakit",
        -9.423934152821666
      ],
      [
        "mar",
        -9.424071864732941
      ],
      [
        "â",
        -9.425646703494742
      ],
      [
        "ist",
        -9.428803318673513
      ],
      [
        "BN",
        -9.428902182242144
      ],
      [
        "bunduk",
        -9.430345185221476
      ],
      [
        "Oh",
        -9.435224120153164
      ],
      [
        "site",
        -9.43607684791514
      ],
      [
        "Amen",
        -9.436690326908856
      ],
      [
        "#",
        -9.437322740377942
      ],
      [
        "Keka",
        -9.437440684534021
      ],
      [
        "adua",
        -9.438821951434306
      ],
      [
        "Government",
        -9.439240843921166
      ],
      [
        "sangkan",
        -9.441815838775206
      ],
      [
        "qui",
        -9.442925710773359
      ],
      [
        "Tsina",
        -9.444063167394265
      ],
      [
        "Gu",
        -9.44431689939355
      ],
      [
        "pulung",
        -9.4448184052626
      ],
      [
        "san",
        -9.446095171872631
      ],
      [
        "Center",
        -9.447290535229767
      ],
      [
        "gagamitan",
        -9.451039109464059
      ],
      [
        "buku",
        -9.453617990137625
      ],
      [
        "pá",
        -9.453891171569543
      ],
      [
        "lon",
        -9.455666316419514
      ],
      [
        "animal",
        -9.458680319657066
      ],
      [
        "000",
        -9.460792344167821
      ],
      [
        "bril",
        -9.46086397789637
      ],
      [
        "tic",
        -9.460961449785843
      ],
      [
        "Villa",
        -9.462227778308115
      ],
      [
        "Asia",
        -9.463437571895145
      ],
      [
        "ibie",
        -9.464145441923492
      ],
      [
        "ton",
        -9.465618889857868
      ],
      [
        "Ngana",
        -9.46580397633382
      ],
      [
        "36",
        -9.469788788307184
      ],
      [
        "hu",
        -9.469981832427115
      ],
      [
        "angin",
        -9.470177995028749
      ],
      [
        "dimdam",
        -9.471284644130687
      ],
      [
        "2005",
        -9.471490068719575
      ],
      [
        "35",
        -9.472866499767846
      ],
      [
        "pulu",
        -9.473278710124152
      ],
      [
        "St",
        -9.473976269532592
      ],
      [
        "=",
        -9.474363977044568
      ],
      [
        "District",
        -9.474363983685087
      ],
      [
        "Em",
        -9.47475713683684
      ],
      [
        "bye",
        -9.476497792675243
      ],
      [
        "Ke",
        -9.477651253882495
      ],
      [
        "mie",
        -9.479197770408987
      ],
      [
        "Ika",
        -9.481051582563065
      ],
      [
        "East",
        -9.481106684659592
      ],
      [
        "gawan",
        -9.489329198179723
      ],
      [
        "st",
        -9.491734145779198
      ],
      [
        "pekamaragul",
        -9.492172766480031
      ],
      [
        "pang5",
        -9.493414178933861
      ],
      [
        "api",
        -9.493427097902334
      ],
      [
        "pota",
        -9.493433486551101
      ],
      [
        "40",
        -9.494864723108888
      ],
      [
        "ratang",
        -9.494988281365696
      ],
      [
        "\\",
        -9.49516193291215
      ],
      [
        "ut",
        -9.495305697209643
      ],
      [
        "dutung",
        -9.495410163295057
      ],
      [
        "uran",
        -9.495766354888197
      ],
      [
        "Maki",
        -9.495805841776898
      ],
      [
        "kekong",
        -9.496540703655366
      ],
      [
        "masikan",
        -9.496956061219912
      ],
      [
        "History",
        -9.498674439909108
      ],
      [
        "iyapin",
        -9.498789569681513
      ],
      [
        "West",
        -9.49888000319583
      ],
      [
        "Wa",
        -9.499872278946421
      ],
      [
        "arawak",
        -9.501268131503828
      ],
      [
        "are",
        -9.501774179320222
      ],
      [
        "manimuna",
        -9.503338087686359
      ],
      [
        "lubus",
        -9.504528077397513
      ],
      [
        "Ni",
        -9.504916601928524
      ],
      [
        "keta",
        -9.506673314655382
      ],
      [
        "pamangan",
        -9.50728174190396
      ],
      [
        "aus",
        -9.50968732614419
      ],
      [
        "Ha",
        -9.510366704314366
      ],
      [
        "menga",
        -9.510530275420042
      ],
      [
        "Don",
        -9.511353553505142
      ],
      [
        "babie",
        -9.511619453221822
      ],
      [
        "ayan",
        -9.511776098668912
      ],
      [
        "Republika",
        -9.512830344716109
      ],
      [
        "utang",
        -9.51412208703907
      ],
      [
        "kaladua",
        -9.514170267127405
      ],
      [
        "abalu",
        -9.51425091874573
      ],
      [
        "lad",
        -9.5144421835181
      ],
      [
        "Bar",
        -9.516026372275569
      ],
      [
        "mé",
        -9.516862554234258
      ],
      [
        "David",
        -9.51690060538451
      ],
      [
        "mumuna",
        -9.5181981356427
      ],
      [
        "mabie",
        -9.519138741494913
      ],
      [
        "Kaybat",
        -9.520007152612237
      ],
      [
        "maliari",
        -9.520424900525652
      ],
      [
        "nukarin",
        -9.522140754139397
      ],
      [
        "kal",
        -9.52303264186439
      ],
      [
        "Wikipedia",
        -9.52358304170749
      ],
      [
        "County",
        -9.523693952440142
      ],
      [
        "buntuk",
        -9.52390114071307
      ],
      [
        "Calv",
        -9.523939361223704
      ],
      [
        "bitis",
        -9.52441581790938
      ],
      [
        "pama",
        -9.525786413793082
      ],
      [
        "alimbawa",
        -9.527225480746
      ],
      [
        "ting",
        -9.527671427408942
      ],
      [
        "salu",
        -9.528703348650911
      ],
      [
        "kekatang",
        -9.531244694644503
      ],
      [
        "makanyan",
        -9.531760611043744
      ],
      [
        "South",
        -9.532494350123699
      ],
      [
        "He",
        -9.532803521142078
      ],
      [
        "34",
        -9.533438125214364
      ],
      [
        "ho",
        -9.534436207757158
      ],
      [
        "Pilipinas",
        -9.534452697770755
      ],
      [
        "Pe",
        -9.534837145877798
      ],
      [
        "kayari",
        -9.538858922487337
      ],
      [
        "NA",
        -9.539713382697627
      ],
      [
        "may",
        -9.540297622745273
      ],
      [
        "arap",
        -9.540444369587004
      ],
      [
        "To",
        -9.54238139194346
      ],
      [
        "2007",
        -9.542425401943433
      ],
      [
        "Car",
        -9.542821302261329
      ],
      [
        "tas",
        -9.545114404245613
      ],
      [
        "mangan",
        -9.545839058700807
      ],
      [
        "sadya",
        -9.546223903526423
      ],
      [
        "Alang",
        -9.546997818148853
      ],
      [
        "we",
        -9.547303798677579
      ],
      [
        "salang",
        -9.547798772996504
      ],
      [
        "pal",
        -9.54879704150751
      ],
      [
        "ngara",
        -9.549038674095558
      ],
      [
        "Balu",
        -9.550757157753111
      ],
      [
        "level",
        -9.552907765188623
      ],
      [
        "Jeru",
        -9.553112572739238
      ],
      [
        "Ro",
        -9.555235165611819
      ],
      [
        "ac",
        -9.556018924404865
      ],
      [
        "ph",
        -9.556631297273336
      ],
      [
        "kakit",
        -9.56413780315322
      ],
      [
        "salem",
        -9.564506608653925
      ],
      [
        "state",
        -9.564730335912444
      ],
      [
        "ers",
        -9.564812782797297
      ],
      [
        "díli",
        -9.564871164709084
      ],
      [
        "milabas",
        -9.564886060051002
      ],
      [
        "kayung",
        -9.566441569971879
      ],
      [
        "Mauling",
        -9.56690007770661
      ],
      [
        "iang",
        -9.567770447587138
      ],
      [
        "Pamuntu",
        -9.568161139205111
      ],
      [
        "malating",
        -9.568410720042927
      ],
      [
        "saup",
        -9.568579755016854
      ],
      [
        "kautusan",
        -9.572523059956698
      ],
      [
        "dagul",
        -9.574145708265029
      ],
      [
        "32",
        -9.574616507165036
      ],
      [
        "dayatmalat",
        -9.575736214956947
      ],
      [
        "ista",
        -9.57601934031438
      ],
      [
        "May",
        -9.578162541692489
      ],
      [
        "my",
        -9.578684087127137
      ],
      [
        "ganap",
        -9.57911581541713
      ],
      [
        "long",
        -9.580620428714937
      ],
      [
        "mine",
        -9.581443431174629
      ],
      [
        "mauling",
        -9.581996501718852
      ],
      [
        "dong",
        -9.582216693148514
      ],
      [
        "grupu",
        -9.582988778055116
      ],
      [
        "Ari",
        -9.585025068631175
      ],
      [
        "39",
        -9.586893873670686
      ],
      [
        "50",
        -9.587803283168517
      ],
      [
        "mit",
        -9.58800947664928
      ],
      [
        "World",
        -9.590647154073158
      ],
      [
        "kareta",
        -9.592325009902464
      ],
      [
        "department",
        -9.594508396704207
      ],
      [
        "37",
        -9.595756173366986
      ],
      [
        "pata",
        -9.595779707966358
      ],
      [
        "pit",
        -9.597613069950185
      ],
      [
        "Cruz",
        -9.602275593710502
      ],
      [
        "kapayapan",
        -9.602768275395043
      ],
      [
        "Z",
        -9.603247510624772
      ],
      [
        "departamentu",
        -9.607732009489137
      ],
      [
        "che",
        -9.608327757547617
      ],
      [
        "ty",
        -9.611041593618324
      ],
      [
        "Ga",
        -9.611117669676064
      ],
      [
        "dia",
        -9.611470277856478
      ],
      [
        "abilug",
        -9.61302456731481
      ],
      [
        "espiritu",
        -9.613658668120237
      ],
      [
        "lele",
        -9.614493267726523
      ],
      [
        "suglung",
        -9.614940305773011
      ],
      [
        "wal",
        -9.615569494324015
      ],
      [
        "pitung",
        -9.616262747441896
      ],
      [
        "land",
        -9.617122872569482
      ],
      [
        "State",
        -9.618806367444297
      ],
      [
        "Philippines",
        -9.620447056926736
      ],
      [
        "ados",
        -9.62052243668503
      ],
      [
        "yanib",
        -9.620757425205813
      ],
      [
        "kesa",
        -9.622360237281772
      ],
      [
        "Kabang",
        -9.622775343110051
      ],
      [
        "Bayu",
        -9.62462130239054
      ],
      [
        "Bang",
        -9.624662549577643
      ],
      [
        "memalen",
        -9.626200101162791
      ],
      [
        "2004",
        -9.626222084068369
      ],
      [
        "NG",
        -9.6294764756254
      ],
      [
        "system",
        -9.6299445675355
      ],
      [
        "rus",
        -9.630414748422151
      ],
      [
        "pasbul",
        -9.631477730185058
      ],
      [
        "én",
        -9.633149251194087
      ],
      [
        "tak",
        -9.635289677706002
      ],
      [
        "2000",
        -9.6372922792429
      ],
      [
        "tutuki",
        -9.637791080154244
      ],
      [
        "siping",
        -9.639555393158462
      ],
      [
        "Ninu",
        -9.640267367837772
      ],
      [
        "Du",
        -9.641590610225414
      ],
      [
        "Banal",
        -9.641784449778488
      ],
      [
        "38",
        -9.64489252677624
      ],
      [
        "labing",
        -9.645922642369047
      ],
      [
        "balita",
        -9.646079450065994
      ],
      [
        "Isidr",
        -9.650191376757538
      ],
      [
        "map",
        -9.652836308663233
      ],
      [
        "indu",
        -9.653515155638143
      ],
      [
        "per",
        -9.653949112249872
      ],
      [
        "Pu",
        -9.654571300110792
      ],
      [
        "ling",
        -9.656242987757842
      ],
      [
        "tata",
        -9.656597976095291
      ],
      [
        "mala",
        -9.656811712578232
      ],
      [
        "Ag",
        -9.658182493934952
      ],
      [
        "papil",
        -9.65853561138097
      ],
      [
        "III",
        -9.661137523037535
      ],
      [
        "ilug",
        -9.661990727242006
      ],
      [
        "gen",
        -9.662297537816427
      ],
      [
        "that",
        -9.662514600298012
      ],
      [
        "Septiembr",
        -9.662534294921016
      ],
      [
        "Mayo",
        -9.662578743168188
      ],
      [
        "sub",
        -9.664071488789682
      ],
      [
        "bandi",
        -9.666401562979711
      ],
      [
        "Science",
        -9.666683676380316
      ],
      [
        "tinggap",
        -9.666998316222415
      ],
      [
        "lag",
        -9.669943250167684
      ],
      [
        "Information",
        -9.670850347133712
      ],
      [
        "ikayu",
        -9.67157027942676
      ],
      [
        "tinape",
        -9.675055934048267
      ],
      [
        "bel",
        -9.677473225971177
      ],
      [
        "ña",
        -9.677673363258169
      ],
      [
        "Aldo",
        -9.679126797735854
      ],
      [
        "Pan",
        -9.679535085335427
      ],
      [
        "Bi",
        -9.680519795634407
      ],
      [
        "imalan",
        -9.681653791611843
      ],
      [
        "kekayung",
        -9.682111872686185
      ],
      [
        "John",
        -9.682987197233313
      ],
      [
        "dalit",
        -9.683004143325437
      ],
      [
        "miyayaliwa",
        -9.683497551840937
      ],
      [
        "ent",
        -9.68425623006555
      ],
      [
        "era",
        -9.68546562838598
      ],
      [
        "papunta",
        -9.68764409874128
      ],
      [
        "California",
        -9.687692814938824
      ],
      [
        "pisamban",
        -9.687846673178448
      ],
      [
        "page",
        -9.689076885519206
      ],
      [
        "pur",
        -9.6891947478477
      ],
      [
        "bal",
        -9.69068079587803
      ],
      [
        "Nu",
        -9.690890954735584
      ],
      [
        "ot",
        -9.692096117578325
      ],
      [
        "gewa",
        -9.692202941591596
      ],
      [
        "ary",
        -9.695593071152455
      ],
      [
        "Itang",
        -9.696526461280172
      ],
      [
        "balamu",
        -9.69887878759829
      ],
      [
        "Go",
        -9.700428414018175
      ],
      [
        "kalam",
        -9.700637877374652
      ],
      [
        "47",
        -9.700847952523095
      ],
      [
        "gue",
        -9.701173135731366
      ],
      [
        "magpa",
        -9.703242440614469
      ],
      [
        "Kayabe",
        -9.705111740280579
      ],
      [
        "lig",
        -9.705380849673716
      ],
      [
        "American",
        -9.705404961716301
      ],
      [
        "dela",
        -9.707012261384428
      ],
      [
        "siwala",
        -9.708670335271174
      ],
      [
        "pat",
        -9.708744216859582
      ],
      [
        "bili",
        -9.708811750227401
      ],
      [
        "not",
        -9.709159201181384
      ],
      [
        "North",
        -9.7110175551834
      ],
      [
        "tulid",
        -9.7152161865579
      ],
      [
        "à",
        -9.715456572096638
      ],
      [
        "sulu",
        -9.716630196465067
      ],
      [
        "res",
        -9.717939599430569
      ],
      [
        "dala",
        -9.71867432205523
      ],
      [
        "Kaibat",
        -9.719315829970204
      ],
      [
        "Neng",
        -9.720170174053678
      ],
      [
        "agyang",
        -9.72216298966919
      ],
      [
        "all",
        -9.722424933480731
      ],
      [
        "pelicula",
        -9.726364059018147
      ],
      [
        "pamu",
        -9.727832270161617
      ],
      [
        "Mayap",
        -9.728089606337061
      ],
      [
        "pengari",
        -9.731199129491996
      ],
      [
        "bit",
        -9.732069951258849
      ],
      [
        "tik",
        -9.73303342835056
      ],
      [
        "den",
        -9.733985355592466
      ],
      [
        "nayun",
        -9.735909583648983
      ],
      [
        "babaing",
        -9.73647715426776
      ],
      [
        "pen",
        -9.737931732503196
      ],
      [
        "lalung",
        -9.73933455118023
      ],
      [
        "mag-",
        -9.74143010814391
      ],
      [
        "Juli",
        -9.741712745297853
      ],
      [
        "lapit",
        -9.743647551344822
      ],
      [
        "egovi",
        -9.744779381931483
      ],
      [
        "tion",
        -9.745005988603612
      ],
      [
        "kadane",
        -9.745047671224645
      ],
      [
        "lapad",
        -9.747959764071933
      ],
      [
        "arapat",
        -9.749684811042595
      ],
      [
        "alak",
        -9.75053627483789
      ],
      [
        "abak",
        -9.751058515478482
      ],
      [
        "Malda",
        -9.751851917563386
      ],
      [
        "Ra",
        -9.752876880429032
      ],
      [
        "pro",
        -9.75299221689799
      ],
      [
        "makata",
        -9.753419774028014
      ],
      [
        "kata",
        -9.754247671592072
      ],
      [
        "kas",
        -9.759270613587617
      ],
      [
        "Ki",
        -9.76137361243481
      ],
      [
        "suli",
        -9.761935090836154
      ],
      [
        "Del",
        -9.762305620997292
      ],
      [
        "York",
        -9.762621707592615
      ],
      [
        "ur",
        -9.763606006672735
      ],
      [
        "bina",
        -9.765635488410847
      ],
      [
        "bag",
        -9.766555450872584
      ],
      [
        "pauli",
        -9.766831181329914
      ],
      [
        "LA",
        -9.76706851699496
      ],
      [
        "tad",
        -9.76721190488492
      ],
      [
        "chi",
        -9.767247559366709
      ],
      [
        "Francisco",
        -9.76726191556526
      ],
      [
        "ten",
        -9.768302185150173
      ],
      [
        "lalang",
        -9.770359059513385
      ],
      [
        "yayaus",
        -9.771049622075711
      ],
      [
        "pilatan",
        -9.771877805029877
      ],
      [
        "magagamit",
        -9.7733353403062
      ],
      [
        "Manila",
        -9.773937386406256
      ],
      [
        "Amanung",
        -9.774570089072514
      ],
      [
        "pangulung",
        -9.77487352361321
      ],
      [
        "States",
        -9.77611220446608
      ],
      [
        "Ania",
        -9.776792357152175
      ],
      [
        "43",
        -9.780386555737966
      ],
      [
        "kasulat",
        -9.781049716529981
      ],
      [
        "aslag",
        -9.781205945196945
      ],
      [
        "û",
        -9.781780425378923
      ],
      [
        "but",
        -9.782066869580788
      ],
      [
        "Bay",
        -9.782498164077577
      ],
      [
        "kayanakan",
        -9.782516471050572
      ],
      [
        "Menila",
        -9.786015628898094
      ],
      [
        "ndhra",
        -9.786077360967695
      ],
      [
        "sikanan",
        -9.78830932673252
      ],
      [
        "tal",
        -9.788336166348296
      ],
      [
        "cy",
        -9.790032246149732
      ],
      [
        "talaga",
        -9.792231019482633
      ],
      [
        "tanggap",
        -9.792683270807359
      ],
      [
        "Ati",
        -9.794093312002563
      ],
      [
        "utus",
        -9.79557993581184
      ],
      [
        "asbuk",
        -9.795586772717105
      ],
      [
        "talasulat",
        -9.795613700346475
      ],
      [
        "Mas",
        -9.797657478121373
      ],
      [
        "Karin",
        -9.798096273056826
      ],
      [
        "aralas",
        -9.802290570021274
      ],
      [
        "tátag",
        -9.804840001428481
      ],
      [
        "General",
        -9.80496653785233
      ],
      [
        "Day",
        -9.806264145304262
      ],
      [
        "pamilya",
        -9.809247505767456
      ],
      [
        "maniwala",
        -9.809779065953137
      ],
      [
        "vi",
        -9.80996575751094
      ],
      [
        "familia",
        -9.811300795867664
      ],
      [
        "má",
        -9.812020242244376
      ],
      [
        "mer",
        -9.81229292158423
      ],
      [
        "sal",
        -9.813479127236178
      ],
      [
        "Academy",
        -9.814272199026824
      ],
      [
        "Can",
        -9.814693211672436
      ],
      [
        "As",
        -9.817705845150158
      ],
      [
        "lung",
        -9.81778253206325
      ],
      [
        "gui",
        -9.819407458013098
      ],
      [
        "Junio",
        -9.82031578055728
      ],
      [
        "magdala",
        -9.820637815239914
      ],
      [
        "pali",
        -9.82086176975093
      ],
      [
        "jo",
        -9.82099127258263
      ],
      [
        "uk",
        -9.822405919026359
      ],
      [
        "mismu",
        -9.822590163470876
      ],
      [
        "Te",
        -9.824183480213309
      ],
      [
        "pampang",
        -9.824524734708202
      ],
      [
        "mitatag",
        -9.824983143729979
      ],
      [
        "Bb",
        -9.825218686916084
      ],
      [
        "dinan",
        -9.826429228458167
      ],
      [
        "News",
        -9.826808298617859
      ],
      [
        "ipus",
        -9.828876856904904
      ],
      [
        "gamitan",
        -9.831849476404194
      ],
      [
        "linub",
        -9.831883076223406
      ],
      [
        "butul",
        -9.833966374753999
      ],
      [
        "takut",
        -9.834359783503434
      ],
      [
        "linis",
        -9.835457271304247
      ],
      [
        "2010",
        -9.835651176268282
      ],
      [
        "mitmu",
        -9.838344668082494
      ],
      [
        "Rizal",
        -9.838664494127514
      ],
      [
        "Pag",
        -9.838797820556309
      ],
      [
        "Wiki",
        -9.839029542200235
      ],
      [
        "Gm",
        -9.840632009124445
      ],
      [
        "dis",
        -9.842742041956694
      ],
      [
        "aral",
        -9.844287152699415
      ],
      [
        "NING",
        -9.846495857665449
      ],
      [
        "bá",
        -9.847948427871598
      ],
      [
        "age",
        -9.848333426930498
      ],
      [
        "queca",
        -9.849069031961559
      ],
      [
        "isipan",
        -9.849607182093273
      ],
      [
        "bout",
        -9.850070005892993
      ],
      [
        "kanu",
        -9.85071226728921
      ],
      [
        "gagawan",
        -9.850909913787477
      ],
      [
        "tag",
        -9.851031112155187
      ],
      [
        "eganagana",
        -9.851506768440267
      ],
      [
        "tupad",
        -9.852816298943864
      ],
      [
        "ex",
        -9.854071999673458
      ],
      [
        "Tag",
        -9.855013654143747
      ],
      [
        "kaming",
        -9.855425175680018
      ],
      [
        "Dm",
        -9.855858310436751
      ],
      [
        "daka",
        -9.856148437742384
      ],
      [
        "Con",
        -9.856193446790556
      ],
      [
        "his",
        -9.856323522518075
      ],
      [
        "les",
        -9.857339711153177
      ],
      [
        "Inia",
        -9.858631241621973
      ],
      [
        "Yang",
        -9.859249427569683
      ],
      [
        "mon",
        -9.859517916720307
      ],
      [
        "Ilug",
        -9.860169868965718
      ],
      [
        "meko",
        -9.86107821707924
      ],
      [
        "your",
        -9.861667937043684
      ],
      [
        "est",
        -9.861842256331059
      ],
      [
        "gas",
        -9.86247649031618
      ],
      [
        "YA",
        -9.86310931830614
      ],
      [
        "Association",
        -9.863664820843187
      ],
      [
        "International",
        -9.863671736093988
      ],
      [
        "media",
        -9.86405346959165
      ],
      [
        "tut",
        -9.86619465322718
      ],
      [
        "alus",
        -9.866437174825798
      ],
      [
        "meka",
        -9.86794304743767
      ],
      [
        "katuliran",
        -9.868388043767752
      ],
      [
        "Tarlac",
        -9.86874186661924
      ],
      [
        "Zone",
        -9.86887469529985
      ],
      [
        "Marzo",
        -9.868950628561233
      ],
      [
        "Island",
        -9.869046147368017
      ],
      [
        "Angga",
        -9.86929832964071
      ],
      [
        "manakit",
        -9.87066819066666
      ],
      [
        "Ho",
        -9.87135569523537
      ],
      [
        "carin",
        -9.87176180096953
      ],
      [
        "Agost",
        -9.872187667119569
      ],
      [
        "ab",
        -9.872519617367452
      ],
      [
        "batas",
        -9.873133798234829
      ],
      [
        "official",
        -9.873818746935543
      ],
      [
        "Antonio",
        -9.873846149463978
      ],
      [
        "matuli",
        -9.874327178468821
      ],
      [
        "Cu",
        -9.874872353089266
      ],
      [
        "bas",
        -9.876446750147938
      ],
      [
        "put",
        -9.877633461547209
      ],
      [
        "balik",
        -9.877943347246397
      ],
      [
        "Ating",
        -9.878450651318996
      ],
      [
        "tor",
        -9.878538028114649
      ],
      [
        "manula",
        -9.878861221976493
      ],
      [
        "Malyari",
        -9.879132483067249
      ],
      [
        "Manibat",
        -9.882416927116386
      ],
      [
        "ji",
        -9.884224263812248
      ],
      [
        "ity",
        -9.884725655356856
      ],
      [
        "die",
        -9.885199871368485
      ],
      [
        "pakit",
        -9.887512576587449
      ],
      [
        "Lo",
        -9.88855546163221
      ],
      [
        "²",
        -9.889307195051034
      ],
      [
        "tali",
        -9.894154119013418
      ],
      [
        "dayu",
        -9.894494723604705
      ],
      [
        "Cala",
        -9.894823451853622
      ],
      [
        "197",
        -9.895301886441304
      ],
      [
        "Institute",
        -9.895323739056384
      ],
      [
        "bala",
        -9.900890978755644
      ],
      [
        "imut",
        -9.904702935337731
      ],
      [
        "Vicente",
        -9.905016647360355
      ],
      [
        "lí",
        -9.906713745037258
      ],
      [
        "populasi",
        -9.907313641823603
      ],
      [
        "sasa",
        -9.908108097444881
      ],
      [
        "Quez",
        -9.908871814415825
      ],
      [
        "Diciembr",
        -9.910305298762935
      ],
      [
        "AT",
        -9.910479418585432
      ],
      [
        "KA",
        -9.912222673761448
      ],
      [
        "ren",
        -9.912474035031888
      ],
      [
        "ber",
        -9.912718814621954
      ],
      [
        "carín",
        -9.9147605483629
      ],
      [
        "Aveyron",
        -9.915624460542915
      ],
      [
        "makapa",
        -9.916319522613385
      ],
      [
        "Ketang",
        -9.918669912181347
      ],
      [
        "kaba",
        -9.918741942183402
      ],
      [
        "Ne",
        -9.919350265745187
      ],
      [
        "tuki",
        -9.919818266182808
      ],
      [
        "sikan",
        -9.920700918617534
      ],
      [
        "lakuan",
        -9.92151343171123
      ],
      [
        "diwa",
        -9.924755404956564
      ],
      [
        "gul",
        -9.925297028105657
      ],
      [
        "masaya",
        -9.927594418422352
      ],
      [
        "able",
        -9.929032145156977
      ],
      [
        "45",
        -9.929811001705712
      ],
      [
        "vo",
        -9.930439727979746
      ],
      [
        "Panga",
        -9.93053820261208
      ],
      [
        "pangulungalbugan",
        -9.931921425889556
      ],
      [
        "Koro",
        -9.932753000936703
      ],
      [
        "ibpa",
        -9.93432595966322
      ],
      [
        "Mayor",
        -9.935768940871153
      ],
      [
        "laga",
        -9.935897908660605
      ],
      [
        "rapat",
        -9.936400532211774
      ],
      [
        "megu",
        -9.938757285439317
      ],
      [
        "ll",
        -9.938905089205003
      ],
      [
        "sakup",
        -9.94067341032366
      ],
      [
        "out",
        -9.940985754159776
      ],
      [
        "dati",
        -9.941701540912215
      ],
      [
        "Bal",
        -9.942427522652213
      ],
      [
        "daraptan",
        -9.942849699725803
      ],
      [
        "sampaga",
        -9.942871806789007
      ],
      [
        "ino",
        -9.943881167685099
      ],
      [
        "Marco",
        -9.944702263706723
      ],
      [
        "lú",
        -9.946269609496348
      ],
      [
        "Angele",
        -9.947021259288466
      ],
      [
        "Mal",
        -9.947080388407015
      ],
      [
        "mam",
        -9.947087824835108
      ],
      [
        "biasa",
        -9.94809800228846
      ],
      [
        "Europa",
        -9.94815036343952
      ],
      [
        "pamag-",
        -9.948671326158088
      ],
      [
        "line",
        -9.949111571154297
      ],
      [
        "paki",
        -9.949127641728433
      ],
      [
        "tra",
        -9.949224353188704
      ],
      [
        "anac",
        -9.950002178937643
      ],
      [
        "Sin",
        -9.950198779977057
      ],
      [
        "prefecture",
        -9.950247102095084
      ],
      [
        "magaral",
        -9.95077839728831
      ],
      [
        "cap",
        -9.951952985685017
      ],
      [
        "Pebrer",
        -9.953674572083507
      ],
      [
        "tanda",
        -9.95465263388349
      ],
      [
        "has",
        -9.956524032893068
      ],
      [
        "mini",
        -9.956540490813254
      ],
      [
        "ulaga",
        -9.95694623101743
      ],
      [
        "ez",
        -9.957558806341007
      ],
      [
        "labi",
        -9.957682693948543
      ],
      [
        "pesu",
        -9.95997341969004
      ],
      [
        "kayábé",
        -9.960709810140164
      ],
      [
        "Arts",
        -9.9609490323336
      ],
      [
        "Tom",
        -9.96191119414598
      ],
      [
        "sanga",
        -9.962389479391097
      ],
      [
        "Jo",
        -9.962475951786379
      ],
      [
        "lat",
        -9.962588829301726
      ],
      [
        "malda",
        -9.962754992726122
      ],
      [
        "nanuman",
        -9.963228734548736
      ],
      [
        "libu",
        -9.963834643381462
      ],
      [
        "US",
        -9.964526322440236
      ],
      [
        "Bala",
        -9.964785444530019
      ],
      [
        "Febrer",
        -9.964815097219983
      ],
      [
        "pinili",
        -9.965084699759913
      ],
      [
        "2012",
        -9.967042257013905
      ],
      [
        "mesabi",
        -9.967269102804721
      ],
      [
        "munta",
        -9.970245889410705
      ],
      [
        "sinulat",
        -9.970499542277242
      ],
      [
        "China",
        -9.971463745939914
      ],
      [
        "Keng",
        -9.97161355672921
      ],
      [
        "kambe",
        -9.97204911049126
      ],
      [
        "pari",
        -9.972303643033662
      ],
      [
        "Bas",
        -9.972330535496612
      ],
      [
        "ké",
        -9.974050723490341
      ],
      [
        "lis",
        -9.97524917743785
      ],
      [
        "Foundation",
        -9.976082271097228
      ],
      [
        "ver",
        -9.976563295131744
      ],
      [
        "ser",
        -9.977233157327255
      ],
      [
        "lum",
        -9.981492199466928
      ],
      [
        "Lalawigan",
        -9.981764107842107
      ],
      [
        "iglesia",
        -9.981764242729161
      ],
      [
        "48",
        -9.98226851241739
      ],
      [
        "pintor",
        -9.982459702420027
      ],
      [
        "Octubre",
        -9.98325573025402
      ],
      [
        "46",
        -9.98336669784305
      ],
      [
        "2008",
        -9.983555868878637
      ],
      [
        "tá",
        -9.984647283024964
      ],
      [
        "pakalulu",
        -9.984798235986524
      ],
      [
        "lili",
        -9.985435820907462
      ],
      [
        "mú",
        -9.985515645591565
      ],
      [
        "maniabi",
        -9.985539401976881
      ],
      [
        "por",
        -9.986005756455217
      ],
      [
        "Distritu",
        -9.987478381804479
      ],
      [
        "video",
        -9.987674593422867
      ],
      [
        "luguran",
        -9.987819412097053
      ],
      [
        "antimó",
        -9.988609416976939
      ],
      [
        "manuknanga",
        -9.989072888956915
      ],
      [
        "kilala",
        -9.99182199825498
      ],
      [
        "Noviembre",
        -9.993484581680473
      ],
      [
        "der",
        -9.996798569515637
      ],
      [
        "gagamit",
        -9.997128665995929
      ],
      [
        "Mig",
        -9.997612260872838
      ],
      [
        "sacerdote",
        -9.998729420910333
      ],
      [
        "pig",
        -9.998981254375304
      ],
      [
        "Diyos",
        -9.99902666293173
      ],
      [
        "municipal",
        -9.999136669744463
      ],
      [
        "Art",
        -9.999987623648048
      ],
      [
        "tutung",
        -10.00037306564553
      ],
      [
        "sabyan",
        -10.000922614759121
      ],
      [
        "oini",
        -10.00118938201227
      ],
      [
        "pakatukna",
        -10.00147465386577
      ],
      [
        "2011",
        -10.00198514885275
      ],
      [
        "Po",
        -10.00225051348239
      ],
      [
        "bar",
        -10.004605170447052
      ],
      [
        "Fernando",
        -10.00500295368522
      ],
      [
        "lelangan",
        -10.005182019457626
      ],
      [
        "inaus",
        -10.005494973864788
      ],
      [
        "bus",
        -10.006626297521752
      ],
      [
        "Estado",
        -10.007254174933323
      ],
      [
        "baluan",
        -10.007740875604668
      ],
      [
        "puri",
        -10.00859081653563
      ],
      [
        "Ibat",
        -10.009458666996887
      ],
      [
        "mibalik",
        -10.009874641511058
      ],
      [
        "karaniwan",
        -10.01067085751875
      ],
      [
        "î",
        -10.010766452125928
      ],
      [
        "sag",
        -10.012582229244689
      ],
      [
        "ilapin",
        -10.01268335444649
      ],
      [
        "makatua",
        -10.0129528721952
      ],
      [
        "galal",
        -10.013656375253802
      ],
      [
        "pero",
        -10.013961494251992
      ],
      [
        "pas",
        -10.016579126651653
      ],
      [
        "Makanian",
        -10.01674980494827
      ],
      [
        "Makanyan",
        -10.016911918883324
      ],
      [
        "pak",
        -10.01775831393059
      ],
      [
        "Pota",
        -10.018320508098212
      ],
      [
        "lawe",
        -10.018525807994894
      ],
      [
        "Pun",
        -10.018574511861612
      ],
      [
        "lungkut",
        -10.018911711337642
      ],
      [
        "pamagaral",
        -10.01911972908325
      ],
      [
        "ayup",
        -10.019575653607369
      ],
      [
        "C7",
        -10.019708549688985
      ],
      [
        "42",
        -10.020295982097348
      ],
      [
        "bandang",
        -10.021224141717038
      ],
      [
        "angel",
        -10.022563206977654
      ],
      [
        "kaligtasan",
        -10.02265137356868
      ],
      [
        "nasa",
        -10.025749031299814
      ],
      [
        "kanta",
        -10.02668851825635
      ],
      [
        "pera",
        -10.026775624400418
      ],
      [
        "lahi",
        -10.027736765557282
      ],
      [
        "Rhin",
        -10.027751355779383
      ],
      [
        "Education",
        -10.028419685215482
      ],
      [
        "kabiasnan",
        -10.028424446124943
      ],
      [
        "Simon",
        -10.028823314505352
      ],
      [
        "kuyad",
        -10.030267099011574
      ],
      [
        "Deta",
        -10.030530775033139
      ],
      [
        "lip",
        -10.030815164655047
      ],
      [
        "IV",
        -10.03116301696583
      ],
      [
        "menibat",
        -10.032398413121651
      ],
      [
        "pang3",
        -10.034588040180987
      ],
      [
        "kap",
        -10.034758579510315
      ],
      [
        "director",
        -10.035056127288257
      ],
      [
        "Mé",
        -10.03551355568552
      ],
      [
        "For",
        -10.035732439889316
      ],
      [
        "Má",
        -10.035771021552874
      ],
      [
        "tuturu",
        -10.036024252788863
      ],
      [
        "bin",
        -10.036227925091302
      ],
      [
        "bung",
        -10.036841937253481
      ],
      [
        "amilatan",
        -10.03762050676865
      ],
      [
        "eraklan",
        -10.0382083217863
      ],
      [
        "cas",
        -10.038270719776325
      ],
      [
        "tuknang",
        -10.04008354240717
      ],
      [
        "cio",
        -10.040142333954945
      ],
      [
        "Lebanon",
        -10.040433301688369
      ],
      [
        "ugnayan",
        -10.041302812782071
      ],
      [
        "Agyang",
        -10.04168742165028
      ],
      [
        "nuan",
        -10.042107773989535
      ],
      [
        "Maca",
        -10.042218625619647
      ],
      [
        "org",
        -10.042418708138992
      ],
      [
        "GUINU",
        -10.04282352989303
      ],
      [
        "ilwal",
        -10.04365274614558
      ],
      [
        "sá",
        -10.045017669077524
      ],
      [
        "miya",
        -10.045634570347854
      ],
      [
        "Frances",
        -10.048355471059201
      ],
      [
        "iniang",
        -10.048786822330602
      ],
      [
        "Republic",
        -10.049888933885263
      ],
      [
        "49",
        -10.050213098288033
      ],
      [
        "Mala",
        -10.052394746075361
      ],
      [
        "Central",
        -10.052590224574416
      ],
      [
        "2009",
        -10.05291415526658
      ],
      [
        "pámag",
        -10.053181297294579
      ],
      [
        "pay",
        -10.053519701898221
      ],
      [
        "mayay",
        -10.054906108879523
      ],
      [
        "ib",
        -10.055455101406427
      ],
      [
        "míbay",
        -10.056075004576146
      ],
      [
        "Thi",
        -10.056235848310276
      ],
      [
        "sabi",
        -10.057021404858418
      ],
      [
        "syun",
        -10.058358154188841
      ],
      [
        "Santiago",
        -10.058725273315765
      ],
      [
        "apostol",
        -10.058729018033967
      ],
      [
        "Sinabi",
        -10.058948897927888
      ],
      [
        "Unido",
        -10.059032140048373
      ],
      [
        "linual",
        -10.059170087060808
      ],
      [
        "panalangin",
        -10.060665788189546
      ],
      [
        "din",
        -10.063882471305353
      ],
      [
        "mabibye",
        -10.065209563829754
      ],
      [
        "our",
        -10.06607574459977
      ],
      [
        "way",
        -10.066721247476792
      ],
      [
        "akiramdam",
        -10.066789745579408
      ],
      [
        "41",
        -10.067178303154225
      ],
      [
        "des",
        -10.068083241928523
      ],
      [
        "Dr",
        -10.068776721249943
      ],
      [
        "time",
        -10.069820028290806
      ],
      [
        "mani",
        -10.070857365217039
      ],
      [
        "dikut",
        -10.071180787997278
      ],
      [
        "agyu",
        -10.071387206812455
      ],
      [
        "book",
        -10.071546110880444
      ],
      [
        "kule",
        -10.071962728131172
      ],
      [
        "yá",
        -10.073351590418246
      ],
      [
        "ía",
        -10.07477786588587
      ],
      [
        "minta",
        -10.075388169562085
      ],
      [
        "lua",
        -10.075475511607383
      ],
      [
        "autusan",
        -10.076381142698569
      ],
      [
        "tubu",
        -10.076548261002511
      ],
      [
        "Hu",
        -10.077301585742205
      ],
      [
        "Angel",
        -10.077367339226928
      ],
      [
        "lut",
        -10.077630915506393
      ],
      [
        "2001",
        -10.077999731305919
      ],
      [
        "cia",
        -10.079092415212624
      ],
      [
        "matula",
        -10.079672848039927
      ],
      [
        "Map",
        -10.079716670231598
      ],
      [
        "bibilug",
        -10.07986210657501
      ],
      [
        "sis",
        -10.080218231530806
      ],
      [
        "sion",
        -10.081405841463638
      ],
      [
        "tauli",
        -10.082373282047113
      ],
      [
        "bulalag",
        -10.082863109446373
      ],
      [
        "Chinese",
        -10.08365022480261
      ],
      [
        "marangle",
        -10.08365454248641
      ],
      [
        "buring",
        -10.087031463031643
      ],
      [
        "dila",
        -10.087403039669617
      ],
      [
        "44",
        -10.089679840239203
      ],
      [
        "other",
        -10.09019417516104
      ],
      [
        "Ph",
        -10.09039622282745
      ],
      [
        "muku",
        -10.090899383616865
      ],
      [
        "atlu",
        -10.09150551938827
      ],
      [
        "Buri",
        -10.092229826061779
      ],
      [
        "Ain",
        -10.093080976925384
      ],
      [
        "aguia",
        -10.093256268710388
      ],
      [
        "malati",
        -10.095208830391217
      ],
      [
        "gbug",
        -10.09558487779041
      ],
      [
        "natural",
        -10.09638811784727
      ],
      [
        "Ex",
        -10.096796110859374
      ],
      [
        "magsalita",
        -10.09712438558936
      ],
      [
        "wang",
        -10.09762263476976
      ],
      [
        "gut",
        -10.098993592740486
      ],
      [
        "linto",
        -10.099568571727577
      ],
      [
        "Balang",
        -10.099647154140994
      ],
      [
        "inter",
        -10.099797707848502
      ],
      [
        "úli",
        -10.102837318304879
      ],
      [
        "Lin",
        -10.103302109266645
      ],
      [
        "Or",
        -10.103649188269262
      ],
      [
        "ákit",
        -10.10397443196472
      ],
      [
        "Yatu",
        -10.105140276263128
      ],
      [
        "gawang",
        -10.105329294900766
      ],
      [
        "ica",
        -10.105330326424081
      ],
      [
        "gar",
        -10.107151929699828
      ],
      [
        "Hi",
        -10.10797259757128
      ],
      [
        "dá",
        -10.108645039825625
      ],
      [
        "balat",
        -10.108685944998825
      ],
      [
        "zhou",
        -10.108712128819525
      ],
      [
        "sisi",
        -10.109231169522282
      ],
      [
        "Carlo",
        -10.110174527078918
      ],
      [
        "port",
        -10.11100667052152
      ],
      [
        "80",
        -10.111119191393907
      ],
      [
        "kad",
        -10.111290860951975
      ],
      [
        "pakiramdam",
        -10.112247030508964
      ],
      [
        "My",
        -10.11266728874538
      ],
      [
        "her",
        -10.113221782149738
      ],
      [
        "66",
        -10.113575752099287
      ],
      [
        "kay",
        -10.114171452082001
      ],
      [
        "lako",
        -10.114703145517401
      ],
      [
        "Department",
        -10.115702183960686
      ],
      [
        "sadia",
        -10.11582325925344
      ],
      [
        "kapampangan",
        -10.116035443655754
      ],
      [
        "awad",
        -10.116192202630724
      ],
      [
        "tubud",
        -10.117218463891483
      ],
      [
        "lungu",
        -10.11786146350643
      ],
      [
        "Do",
        -10.117940423597744
      ],
      [
        "git",
        -10.118004226436296
      ],
      [
        "tupa",
        -10.119888503531827
      ],
      [
        "ati",
        -10.121715775943288
      ],
      [
        "kil",
        -10.122344900945086
      ],
      [
        "sinta",
        -10.124566221421865
      ],
      [
        "pamany",
        -10.125476680652264
      ],
      [
        "sac",
        -10.126393721653699
      ],
      [
        "ap",
        -10.128342336448513
      ],
      [
        "lunus",
        -10.128902233562115
      ],
      [
        "kaburian",
        -10.12892558743806
      ],
      [
        "dalumdum",
        -10.13015746809477
      ],
      [
        "55",
        -10.130720230955934
      ],
      [
        "PA",
        -10.130817939413816
      ],
      [
        "dinalan",
        -10.132494291592726
      ],
      [
        "imp",
        -10.132619537044533
      ],
      [
        "pane",
        -10.132936562640833
      ],
      [
        "pasalamat",
        -10.133821836141244
      ],
      [
        "tuknangan",
        -10.134742626385176
      ],
      [
        "information",
        -10.135439836132235
      ],
      [
        "Kastila",
        -10.13544750905941
      ],
      [
        "atulan",
        -10.135480605663528
      ],
      [
        "mirinan",
        -10.136230113510871
      ],
      [
        "sukul",
        -10.13660669285801
      ],
      [
        "Vi",
        -10.136652571485758
      ],
      [
        "naku",
        -10.137110826890932
      ],
      [
        "akung",
        -10.137394616812514
      ],
      [
        "cacung",
        -10.137721785536481
      ],
      [
        "War",
        -10.138558313914531
      ],
      [
        "Bur",
        -10.138733918156849
      ],
      [
        "ldan",
        -10.138872989093771
      ],
      [
        "BS",
        -10.13968329027092
      ],
      [
        "mangabaldugan",
        -10.142203089557789
      ],
      [
        "ining",
        -10.142230306960254
      ],
      [
        "carbon",
        -10.142236973041026
      ],
      [
        "BBC",
        -10.142423605814237
      ],
      [
        "panibalan",
        -10.14242418742785
      ],
      [
        "talaturu",
        -10.14305140223295
      ],
      [
        "KU",
        -10.144118081140013
      ],
      [
        "taya",
        -10.145332815037055
      ],
      [
        "punan",
        -10.145510583255096
      ],
      [
        "poeta",
        -10.145927088638448
      ],
      [
        "Pang",
        -10.146087133515131
      ],
      [
        "alkus",
        -10.146277985157232
      ],
      [
        "gang",
        -10.146610795159809
      ],
      [
        "mág",
        -10.148963771992408
      ],
      [
        "panintuna",
        -10.149266614948164
      ],
      [
        "drama",
        -10.150397576636358
      ],
      [
        "File",
        -10.151105142624814
      ],
      [
        "bigla",
        -10.153346318191197
      ],
      [
        "pamang",
        -10.153799492979577
      ],
      [
        "aga",
        -10.153872115241157
      ],
      [
        "Pero",
        -10.153969381125492
      ],
      [
        "art",
        -10.154041995785997
      ],
      [
        "nú",
        -10.154427959784456
      ],
      [
        "Pin",
        -10.155297788657734
      ],
      [
        "autonom",
        -10.15557731577556
      ],
      [
        "ises",
        -10.155613616907686
      ],
      [
        "sundalu",
        -10.155637110784497
      ],
      [
        "pamana",
        -10.156174663967143
      ],
      [
        "likuan",
        -10.156263662570481
      ],
      [
        "Japan",
        -10.156400691864457
      ],
      [
        "alas",
        -10.156497835291518
      ],
      [
        "kadwang",
        -10.156925134051292
      ],
      [
        "Web",
        -10.1570763281816
      ],
      [
        "pus",
        -10.157736577212955
      ],
      [
        "CA",
        -10.15840740650692
      ],
      [
        "ngapalyari",
        -10.158595053649865
      ],
      [
        "kutang",
        -10.160095969828449
      ],
      [
        "sen",
        -10.162364410287275
      ],
      [
        "sistema",
        -10.162384997155737
      ],
      [
        "Tourism",
        -10.162389723563635
      ],
      [
        "Miguel",
        -10.162395002770275
      ],
      [
        "Library",
        -10.16242531794948
      ],
      [
        "maulingalbugan",
        -10.162636480094111
      ],
      [
        "gal",
        -10.16269630911922
      ],
      [
        "tig",
        -10.162848550458978
      ],
      [
        "pibandi",
        -10.163049511420287
      ],
      [
        "anghel",
        -10.163448194017246
      ],
      [
        "papa",
        -10.163806138145024
      ],
      [
        "mama",
        -10.163843178580187
      ],
      [
        "canacu",
        -10.16416220556761
      ],
      [
        "mali",
        -10.164581802706799
      ],
      [
        "Site",
        -10.165502653117807
      ],
      [
        "Juda",
        -10.165566612785401
      ],
      [
        "ish",
        -10.167213464820296
      ],
      [
        "cion",
        -10.167249236837726
      ],
      [
        "damdam",
        -10.16736504042592
      ],
      [
        "Union",
        -10.16951485717324
      ],
      [
        "míba",
        -10.17123828389321
      ],
      [
        "kasi",
        -10.173413308916476
      ],
      [
        "war",
        -10.173490920680365
      ],
      [
        "tus",
        -10.173780567135386
      ],
      [
        "syon",
        -10.173853849688182
      ],
      [
        "On",
        -10.175037600936705
      ],
      [
        "ambag",
        -10.17602567286406
      ],
      [
        "High",
        -10.176130446820768
      ],
      [
        "Labuad",
        -10.176133083611628
      ],
      [
        "bantug",
        -10.176366713912234
      ],
      [
        "kaduang",
        -10.176908248561237
      ],
      [
        "Roque",
        -10.176913887906906
      ],
      [
        "sh",
        -10.177249921587446
      ],
      [
        "masalese",
        -10.177303536801418
      ],
      [
        "D7",
        -10.177553461085832
      ],
      [
        "tri",
        -10.177612613008378
      ],
      [
        "paburen",
        -10.177763796181587
      ],
      [
        "yampang",
        -10.178987725554993
      ],
      [
        "ura",
        -10.179203999893247
      ],
      [
        "saka",
        -10.179966392765555
      ],
      [
        "DA",
        -10.180077667757134
      ],
      [
        "parati",
        -10.182516643563815
      ],
      [
        "Men",
        -10.182743237248182
      ],
      [
        "taram",
        -10.183010108521959
      ],
      [
        "sentru",
        -10.183136618650645
      ],
      [
        "River",
        -10.183172602911789
      ],
      [
        "mangaragul",
        -10.183613462600123
      ],
      [
        "Dan",
        -10.184609370032966
      ],
      [
        "caya",
        -10.185679077096571
      ],
      [
        "tuntun",
        -10.18579055511331
      ],
      [
        "60",
        -10.187219166366907
      ],
      [
        "Aliwa",
        -10.188242340214453
      ],
      [
        "los",
        -10.19003827826986
      ],
      [
        "Arroyo",
        -10.190060649661268
      ],
      [
        "Capampangan",
        -10.190255528710544
      ],
      [
        "opisyal",
        -10.19072012513702
      ],
      [
        "lima",
        -10.192112638854876
      ],
      [
        "amánu",
        -10.192250207949225
      ],
      [
        "gulut",
        -10.19366787341978
      ],
      [
        "apulung",
        -10.194427612635328
      ],
      [
        "Manga",
        -10.194620554664802
      ],
      [
        "Datang",
        -10.194643577404863
      ],
      [
        "manintun",
        -10.19498937376708
      ],
      [
        "lic",
        -10.195116227980419
      ],
      [
        "lawan",
        -10.195613371371243
      ],
      [
        "dalaga",
        -10.196172005404705
      ],
      [
        "•",
        -10.197102675106967
      ],
      [
        "Filipino",
        -10.197102679862947
      ],
      [
        "William",
        -10.197102718105862
      ],
      [
        "Technolog",
        -10.197107226494204
      ],
      [
        "magsilbi",
        -10.197260112564829
      ],
      [
        "2002",
        -10.197611540526808
      ],
      [
        "layun",
        -10.197908135114734
      ],
      [
        "Latin",
        -10.198137657622773
      ],
      [
        "susu",
        -10.199667532070022
      ],
      [
        "ukum",
        -10.201730621210142
      ],
      [
        "lit",
        -10.202786909852314
      ],
      [
        "AN",
        -10.203360614725671
      ],
      [
        "ugse",
        -10.203899892425735
      ],
      [
        "Ri",
        -10.204169309471038
      ],
      [
        "parti",
        -10.2044048353512
      ],
      [
        "You",
        -10.206495593443368
      ],
      [
        "turu",
        -10.207442395486801
      ],
      [
        "qu",
        -10.2074799861731
      ],
      [
        "Los",
        -10.209154122261278
      ],
      [
        "awsan",
        -10.212474616902647
      ],
      [
        "ral",
        -10.212816394742063
      ],
      [
        "pul",
        -10.21324380490184
      ],
      [
        "lipat",
        -10.21325685787792
      ],
      [
        "carera",
        -10.214496759837058
      ],
      [
        "2003",
        -10.21565123259537
      ],
      [
        "panga-",
        -10.215655353678306
      ],
      [
        "salukuyan",
        -10.21672602256439
      ],
      [
        "kar",
        -10.216842023335037
      ],
      [
        "gubyernu",
        -10.218532050141885
      ],
      [
        "Renato",
        -10.218561081104902
      ],
      [
        "sta",
        -10.220436817430244
      ],
      [
        "ology",
        -10.221019960822812
      ],
      [
        "sum",
        -10.221515318193394
      ],
      [
        "Rosa",
        -10.222684471376997
      ],
      [
        "Bas-",
        -10.223002153423371
      ],
      [
        "hal",
        -10.22470482449921
      ],
      [
        "yon",
        -10.225028336706963
      ],
      [
        "hay",
        -10.225532208159251
      ],
      [
        "Ini",
        -10.225808160008492
      ],
      [
        "ley",
        -10.227090196640388
      ],
      [
        "German",
        -10.227825999751488
      ],
      [
        "busal",
        -10.229288443162446
      ],
      [
        "Park",
        -10.229730524262358
      ],
      [
        "mapa",
        -10.229893871468196
      ],
      [
        "Pangulung",
        -10.230049639448634
      ],
      [
        "binang",
        -10.23163505204694
      ],
      [
        "100",
        -10.232139521951865
      ],
      [
        "Ligaya",
        -10.235264072658506
      ],
      [
        "katayang",
        -10.236047561926913
      ],
      [
        "makatuki",
        -10.23636193814066
      ],
      [
        "aduan",
        -10.236380373421078
      ],
      [
        "timawa",
        -10.236721045233786
      ],
      [
        "tiu",
        -10.23780335654175
      ],
      [
        "grasya",
        -10.240578719630916
      ],
      [
        "pakibat",
        -10.24078246498545
      ],
      [
        "IN",
        -10.241581489061588
      ],
      [
        "ram",
        -10.242672747003798
      ],
      [
        "tanam",
        -10.242816157200238
      ],
      [
        "alilan",
        -10.24362218957444
      ],
      [
        "Har",
        -10.244642115181604
      ],
      [
        "Paul",
        -10.245292757904231
      ],
      [
        "ory",
        -10.245716810048773
      ],
      [
        "pete",
        -10.24582877212415
      ],
      [
        "ner",
        -10.246153082156315
      ],
      [
        "Chi",
        -10.246794983637862
      ],
      [
        "lus",
        -10.246894335271524
      ],
      [
        "bangun",
        -10.247060464916157
      ],
      [
        "Dava",
        -10.248411954655275
      ],
      [
        "Cal",
        -10.24914566920689
      ],
      [
        "televisi",
        -10.249172448397335
      ],
      [
        "salamat",
        -10.250220732777965
      ],
      [
        "fe",
        -10.250370107703185
      ],
      [
        "bis",
        -10.25069461170149
      ],
      [
        "pangaku",
        -10.250715068482423
      ],
      [
        "mak",
        -10.251007847082501
      ],
      [
        "ket",
        -10.25225781130558
      ],
      [
        "MU",
        -10.253108549518922
      ],
      [
        "Keba",
        -10.253835799772432
      ],
      [
        "kasalesayan",
        -10.254437187604331
      ],
      [
        "mayayak",
        -10.254453160059288
      ],
      [
        "bukas",
        -10.254922116326401
      ],
      [
        "limbag",
        -10.255233511398227
      ],
      [
        "Zamboang",
        -10.255300665721268
      ],
      [
        "arian",
        -10.256467239365719
      ],
      [
        "katutubu",
        -10.256513783571398
      ],
      [
        "oc",
        -10.258900864235088
      ],
      [
        "net",
        -10.259432444376735
      ],
      [
        "ori",
        -10.261723150082481
      ],
      [
        "lasa",
        -10.261978172178608
      ],
      [
        "Buku",
        -10.262179938881676
      ],
      [
        "talan",
        -10.265095358185269
      ],
      [
        "ball",
        -10.265704790278209
      ],
      [
        "gulis",
        -10.267492293272493
      ],
      [
        "katlu",
        -10.26826506011426
      ],
      [
        "Law",
        -10.268379890057862
      ],
      [
        "And",
        -10.268421974083083
      ],
      [
        "adwa",
        -10.269165579765918
      ],
      [
        "log",
        -10.269807112025365
      ],
      [
        "pilan",
        -10.270267171404027
      ],
      [
        "kapuri",
        -10.270522368144249
      ],
      [
        "ero",
        -10.270747523485706
      ],
      [
        "Luzon",
        -10.271400577988988
      ],
      [
        "manalangin",
        -10.271643566863467
      ],
      [
        "fi",
        -10.272007601305948
      ],
      [
        "baryu",
        -10.272033770808708
      ],
      [
        "Ngara",
        -10.272162040004279
      ],
      [
        "Ab",
        -10.273154276573534
      ],
      [
        "mebie",
        -10.273630503614093
      ],
      [
        "Nanung",
        -10.277417682595583
      ],
      [
        "Council",
        -10.27767216068381
      ],
      [
        "kapamahalan",
        -10.278288618781174
      ],
      [
        "sik",
        -10.279031678111537
      ],
      [
        "Guide",
        -10.279384874364101
      ],
      [
        "kimut",
        -10.27971393317896
      ],
      [
        "MA",
        -10.279782426049731
      ],
      [
        "2013",
        -10.280702881252267
      ],
      [
        "ip",
        -10.281147451208735
      ],
      [
        "ria",
        -10.281648128460779
      ],
      [
        "kayupaya",
        -10.282853522806342
      ],
      [
        "census",
        -10.283270595766428
      ],
      [
        "mila",
        -10.28357872062955
      ],
      [
        "gad",
        -10.285087650144266
      ],
      [
        "if",
        -10.28568788710976
      ],
      [
        "Societ",
        -10.28572129066294
      ],
      [
        "Alzad",
        -10.2857256356773
      ],
      [
        "pipagaralan",
        -10.285824210980515
      ],
      [
        "web",
        -10.286146375641742
      ],
      [
        "1999",
        -10.286147745694153
      ],
      [
        "Basse",
        -10.286427531338273
      ],
      [
        "libung",
        -10.286862604610512
      ],
      [
        "ima",
        -10.287521479806674
      ],
      [
        "múmúna",
        -10.288877139595435
      ],
      [
        "magobra",
        -10.289513999194721
      ],
      [
        "matuang",
        -10.290700952837218
      ],
      [
        "gintu",
        -10.290704513357538
      ],
      [
        "back",
        -10.290943346699962
      ],
      [
        "All",
        -10.291107613433367
      ],
      [
        "banda",
        -10.29169654761216
      ],
      [
        "meki",
        -10.292627790505474
      ],
      [
        "Public",
        -10.293330747839669
      ],
      [
        "kabilyan",
        -10.293635329171432
      ],
      [
        "tud",
        -10.294033894463732
      ],
      [
        "tuk",
        -10.29415556396405
      ],
      [
        "Apu",
        -10.294164648179326
      ],
      [
        "G7",
        -10.294392759860793
      ],
      [
        "Vietnam",
        -10.29552916888888
      ],
      [
        "nanung",
        -10.295733615556657
      ],
      [
        "bait",
        -10.295914903088693
      ],
      [
        "opera",
        -10.295976539189162
      ],
      [
        "salikut",
        -10.296830959152796
      ],
      [
        "Ben",
        -10.297807586498891
      ],
      [
        "rá",
        -10.297841483979699
      ],
      [
        "mán",
        -10.298379186179563
      ],
      [
        "lista",
        -10.29890998609104
      ],
      [
        "also",
        -10.299392022760006
      ],
      [
        "walung",
        -10.29983861656342
      ],
      [
        "panaral",
        -10.300005368882658
      ],
      [
        "cacu",
        -10.300239076744127
      ],
      [
        "talasuyu",
        -10.301424206708024
      ],
      [
        "mabibie",
        -10.301935743698333
      ],
      [
        "So",
        -10.303337233933993
      ],
      [
        "Mang",
        -10.303655824919623
      ],
      [
        "lulu",
        -10.303985787296924
      ],
      [
        "Pro",
        -10.304312283653779
      ],
      [
        "mis",
        -10.305462583639336
      ],
      [
        "ze",
        -10.306932323007079
      ],
      [
        "Ko",
        -10.307258242879676
      ],
      [
        "Cam",
        -10.308551881265629
      ],
      [
        "Tutu",
        -10.308750105560337
      ],
      [
        "pilit",
        -10.308761258545601
      ],
      [
        "patugut",
        -10.309100152318734
      ],
      [
        "Kapampángan",
        -10.309159566152033
      ],
      [
        "Dayat",
        -10.309832148062856
      ],
      [
        "ju",
        -10.309845044690999
      ],
      [
        "Nuan",
        -10.309872410255396
      ],
      [
        "wi",
        -10.309919655596257
      ],
      [
        "’ng",
        -10.31100366724668
      ],
      [
        "Roma",
        -10.311565041034434
      ],
      [
        "ster",
        -10.31163132479429
      ],
      [
        "pabustan",
        -10.3118416890361
      ],
      [
        "manungkulan",
        -10.311898044283552
      ],
      [
        "Han",
        -10.314783235417808
      ],
      [
        "Espania",
        -10.315385565297781
      ],
      [
        "British",
        -10.317096148279317
      ],
      [
        "Magsaysay",
        -10.317102232103908
      ],
      [
        "inawa",
        -10.317156854297453
      ],
      [
        "language",
        -10.31732597997493
      ],
      [
        "pareu",
        -10.317504410531583
      ],
      [
        "-Norman",
        -10.318173066956682
      ],
      [
        "cad",
        -10.318277235221233
      ],
      [
        "masala",
        -10.318799010164048
      ],
      [
        "Antimo",
        -10.318897555744826
      ],
      [
        "ff",
        -10.320436164220652
      ],
      [
        "xi",
        -10.320556039496214
      ],
      [
        "ikimedia",
        -10.32066294272131
      ],
      [
        "Sabla",
        -10.320672796301725
      ],
      [
        "asu",
        -10.3209800619546
      ],
      [
        "baba",
        -10.321133451024487
      ],
      [
        "cut",
        -10.321831173431008
      ],
      [
        "1998",
        -10.32551274641768
      ],
      [
        "election",
        -10.325678492745084
      ],
      [
        "ros",
        -10.32666216988296
      ],
      [
        "inutus",
        -10.327647528428859
      ],
      [
        "Cebu",
        -10.327855143012055
      ],
      [
        "kabilugan",
        -10.332590391639291
      ],
      [
        "195",
        -10.332647118428369
      ],
      [
        "Jehova",
        -10.333160585690187
      ],
      [
        "pelikula",
        -10.33316246838032
      ],
      [
        "obrang",
        -10.333766446682867
      ],
      [
        "tawli",
        -10.33391666244044
      ],
      [
        "Pablasa",
        -10.33424854187544
      ],
      [
        "maulagang",
        -10.334747592531588
      ],
      [
        "wat",
        -10.335773060526611
      ],
      [
        "matua",
        -10.336364129947487
      ],
      [
        "kasalang",
        -10.336424358686513
      ],
      [
        "malino",
        -10.3370856851712
      ],
      [
        "mayg",
        -10.338644336839824
      ],
      [
        "article",
        -10.340336100861911
      ],
      [
        "bitasa",
        -10.34092038051077
      ],
      [
        "ive",
        -10.34113918755614
      ],
      [
        "Aslagan",
        -10.341680030207126
      ],
      [
        "lagu",
        -10.342441588306258
      ],
      [
        "gaga",
        -10.342904986260905
      ],
      [
        "pamipa",
        -10.344747913386197
      ],
      [
        "carela",
        -10.345048579775336
      ],
      [
        "Deti",
        -10.346230079653221
      ],
      [
        "gum",
        -10.347548580809994
      ],
      [
        "say",
        -10.348225626112615
      ],
      [
        "Geografia",
        -10.349487387931074
      ],
      [
        "sung",
        -10.349490561092743
      ],
      [
        "Oriental",
        -10.349572660462233
      ],
      [
        "ingatan",
        -10.349730371238733
      ],
      [
        "county",
        -10.350241206005773
      ],
      [
        "marakal",
        -10.351169334529425
      ],
      [
        "canta",
        -10.352643388294055
      ],
      [
        "mbo",
        -10.352813730707178
      ],
      [
        "ín",
        -10.353093399182036
      ],
      [
        "Sabi",
        -10.354088684745426
      ],
      [
        "ite",
        -10.354947674830266
      ],
      [
        "mangalating",
        -10.35519452120323
      ],
      [
        "Kemat",
        -10.355367745533094
      ],
      [
        "Oini",
        -10.356424509314607
      ],
      [
        "Ber",
        -10.356434339348755
      ],
      [
        "Misan",
        -10.356799926283728
      ],
      [
        "ern",
        -10.357727955307737
      ],
      [
        "Mindanao",
        -10.357755622275493
      ],
      [
        "daralan",
        -10.357788728931219
      ],
      [
        "Niño",
        -10.357804655918708
      ],
      [
        "miayaliwa",
        -10.358039658347344
      ],
      [
        "1986",
        -10.358196444624934
      ],
      [
        "misa",
        -10.358641703982729
      ],
      [
        "Paris",
        -10.358674645863264
      ],
      [
        "ANG",
        -10.358861154662833
      ],
      [
        "Roman",
        -10.360138760114328
      ],
      [
        "akilala",
        -10.360223112270983
      ],
      [
        "zo",
        -10.360898756543152
      ],
      [
        "Ed",
        -10.361955391791259
      ],
      [
        "Pal",
        -10.362179542332438
      ],
      [
        "kaisipan",
        -10.363712383751444
      ],
      [
        "uc",
        -10.363905219277282
      ],
      [
        "rs",
        -10.364693475188968
      ],
      [
        "Tau",
        -10.364914553104267
      ],
      [
        "ME",
        -10.365114208820597
      ],
      [
        "than",
        -10.365435175137318
      ],
      [
        "have",
        -10.365566133244972
      ],
      [
        "mako",
        -10.365748395454819
      ],
      [
        "asabi",
        -10.365931855086544
      ],
      [
        "saupan",
        -10.366108860039809
      ],
      [
        "Star",
        -10.366203708812645
      ],
      [
        "binyag",
        -10.366417227184689
      ],
      [
        "tinubu",
        -10.366629251728206
      ],
      [
        "malilyari",
        -10.366643215314316
      ],
      [
        "balangkas",
        -10.368032845982484
      ],
      [
        "85",
        -10.368500214823396
      ],
      [
        "Great",
        -10.368967467714004
      ],
      [
        "ramdam",
        -10.368982790656638
      ],
      [
        "linap",
        -10.369911051322294
      ],
      [
        "Guin",
        -10.370185867667018
      ],
      [
        "yong",
        -10.37088939752653
      ],
      [
        "prefecture-",
        -10.371281316693963
      ],
      [
        "adu",
        -10.372102137051513
      ],
      [
        "ray",
        -10.374344741731786
      ],
      [
        "píkabalu",
        -10.374499466681254
      ],
      [
        "Common",
        -10.374531794586602
      ],
      [
        "bon",
        -10.374929524751977
      ],
      [
        "1980",
        -10.375174296672306
      ],
      [
        "amlat",
        -10.375216428314781
      ],
      [
        "táu",
        -10.375819430498606
      ],
      [
        "BA",
        -10.376526758745666
      ],
      [
        "Kayari",
        -10.378148290511895
      ],
      [
        "ember",
        -10.378200050231099
      ],
      [
        "pis",
        -10.378532765571782
      ],
      [
        "53",
        -10.379253582836036
      ],
      [
        "yaus",
        -10.380162366960917
      ],
      [
        "kilála",
        -10.380302355494385
      ],
      [
        "Nag",
        -10.380371838043796
      ],
      [
        "tauling",
        -10.380747218307718
      ],
      [
        "Mon",
        -10.380909546872664
      ],
      [
        "ras",
        -10.382016471940027
      ],
      [
        "kalulu",
        -10.382417074005197
      ],
      [
        "Aquino",
        -10.382968739022324
      ],
      [
        "munie",
        -10.38309148262249
      ],
      [
        "siglu",
        -10.383147553825275
      ],
      [
        "panamdam",
        -10.383248661046535
      ],
      [
        "Ju",
        -10.383384635165505
      ],
      [
        "timan",
        -10.386986500151213
      ],
      [
        "format",
        -10.387072483194789
      ],
      [
        "rugu",
        -10.387666029121032
      ],
      [
        "dagdag",
        -10.388157868068106
      ],
      [
        "list",
        -10.389696110889261
      ],
      [
        "kabalen",
        -10.391530831773128
      ],
      [
        "panyul",
        -10.391567255938444
      ],
      [
        "James",
        -10.391686988297051
      ],
      [
        "Australia",
        -10.391743945123807
      ],
      [
        "kinua",
        -10.391837285025494
      ],
      [
        "uryan",
        -10.391946614646942
      ],
      [
        "rug",
        -10.393000578115045
      ],
      [
        "Sam",
        -10.393325209720217
      ],
      [
        "pri",
        -10.393480207935601
      ],
      [
        "púlu",
        -10.393732198355735
      ],
      [
        "dewaka",
        -10.394209474680828
      ],
      [
        "See",
        -10.394456030025903
      ],
      [
        "Mac",
        -10.39465703976194
      ],
      [
        "Malat",
        -10.394728190357306
      ],
      [
        "Cor",
        -10.394913643480985
      ],
      [
        "tatakut",
        -10.39599949571701
      ],
      [
        "Amanu",
        -10.396260638459044
      ],
      [
        "katas",
        -10.396808822160988
      ],
      [
        "muli",
        -10.396996721848126
      ],
      [
        "paras",
        -10.397381453947217
      ],
      [
        "kanan",
        -10.398505155819354
      ],
      [
        "Alba",
        -10.39896687453769
      ],
      [
        "labanan",
        -10.39928375306473
      ],
      [
        "planeta",
        -10.39944135449081
      ],
      [
        "Network",
        -10.400138230025613
      ],
      [
        "Abraham",
        -10.400139969486196
      ],
      [
        "Galilea",
        -10.400141814545119
      ],
      [
        "capital",
        -10.400147467548765
      ],
      [
        "headquarter",
        -10.400154932845478
      ],
      [
        "government",
        -10.400164697910277
      ],
      [
        "Salamat",
        -10.400296232565248
      ],
      [
        "pepakit",
        -10.40076715540449
      ],
      [
        "nig",
        -10.400983651258041
      ],
      [
        "patutu",
        -10.401212204143885
      ],
      [
        "itas",
        -10.401923316939971
      ],
      [
        "President",
        -10.402859754426553
      ],
      [
        "June",
        -10.403249041444703
      ],
      [
        "pamanibala",
        -10.403572173732384
      ],
      [
        "Mika",
        -10.403791650036224
      ],
      [
        "pre",
        -10.404092035563789
      ],
      [
        "day",
        -10.404124475179382
      ],
      [
        "minum",
        -10.405031872239775
      ],
      [
        "Gui",
        -10.405695971862539
      ],
      [
        "tuturing",
        -10.40581766405549
      ],
      [
        "rong",
        -10.405993119605988
      ],
      [
        "don",
        -10.407348387683765
      ],
      [
        "Aleman",
        -10.407521414963284
      ],
      [
        "90",
        -10.407583158629983
      ],
      [
        "bul",
        -10.407744008656007
      ],
      [
        "tú",
        -10.407885428108699
      ],
      [
        "Mars",
        -10.408371785137494
      ],
      [
        "People",
        -10.408826956619976
      ],
      [
        "marok",
        -10.409932474468045
      ],
      [
        "kuanan",
        -10.41025519962793
      ],
      [
        "Castila",
        -10.410256919747042
      ],
      [
        "like",
        -10.410436880753448
      ],
      [
        "TA",
        -10.410522898212138
      ],
      [
        "uyat",
        -10.410666534057068
      ],
      [
        "kapanayan",
        -10.411403728162833
      ],
      [
        "bangka",
        -10.411544942379894
      ],
      [
        "Korea",
        -10.41194259047061
      ],
      [
        "penibatan",
        -10.412155866102665
      ],
      [
        "karas",
        -10.412359567772665
      ],
      [
        "Gi",
        -10.412430650230432
      ],
      [
        "mil",
        -10.413237421293214
      ],
      [
        "penand",
        -10.414039686068811
      ],
      [
        "Garcia",
        -10.414068256688616
      ],
      [
        "decadang",
        -10.414658873050954
      ],
      [
        "Ila",
        -10.414671073443746
      ],
      [
        "pamani",
        -10.415096829323865
      ],
      [
        "ical",
        -10.415418163419634
      ],
      [
        "this",
        -10.4154278733093
      ],
      [
        "mismung",
        -10.416637137993868
      ],
      [
        "pania",
        -10.417492996677463
      ],
      [
        "sinuyu",
        -10.417611108427586
      ],
      [
        "Rosario",
        -10.417628261902951
      ],
      [
        "baga",
        -10.417790370096126
      ],
      [
        "Book",
        -10.417806596081535
      ],
      [
        "bini",
        -10.418088783528422
      ],
      [
        "mapalyari",
        -10.418106298404275
      ],
      [
        "Kasusu",
        -10.418471583509184
      ],
      [
        "maputi",
        -10.418554353733075
      ],
      [
        "bulag",
        -10.419318561012133
      ],
      [
        "kutkutan",
        -10.419400177978485
      ],
      [
        "abu",
        -10.420121407377696
      ],
      [
        "manaya",
        -10.420847151081125
      ],
      [
        "santing",
        -10.420888806034615
      ],
      [
        "serie",
        -10.420891722018656
      ],
      [
        "Nueva",
        -10.421014175231825
      ],
      [
        "belu",
        -10.421140583546247
      ],
      [
        "péka",
        -10.421622591262327
      ],
      [
        "sakdal",
        -10.42263744644082
      ],
      [
        "ville",
        -10.422791852549583
      ],
      [
        "munaman",
        -10.423362147238919
      ],
      [
        "bulus",
        -10.423742326812103
      ],
      [
        "tibu",
        -10.424183942736587
      ],
      [
        "val",
        -10.42465770733659
      ],
      [
        "likas",
        -10.42481645536303
      ],
      [
        "yun",
        -10.42500638860798
      ],
      [
        "pekapu",
        -10.425017475569778
      ],
      [
        "people",
        -10.426448937097758
      ],
      [
        "Kailangan",
        -10.426469846664496
      ],
      [
        "kultura",
        -10.426472931894711
      ],
      [
        "Robert",
        -10.42648734374377
      ],
      [
        "Post",
        -10.426782387671741
      ],
      [
        "alan",
        -10.427250359701056
      ],
      [
        "UN",
        -10.427562862090117
      ],
      [
        "red",
        -10.42796941272571
      ],
      [
        "Press",
        -10.428230588320831
      ],
      [
        "Africa",
        -10.428383857345834
      ],
      [
        "tagumpe",
        -10.429208178446011
      ],
      [
        "tter",
        -10.429512234657103
      ],
      [
        "dane",
        -10.429557093245311
      ],
      [
        "még",
        -10.43130364680879
      ],
      [
        "aliua",
        -10.431524193924222
      ],
      [
        "sil",
        -10.434812956636213
      ],
      [
        "gene",
        -10.435189788463411
      ],
      [
        "bong",
        -10.435369819756605
      ],
      [
        "kondadu",
        -10.435610246867583
      ],
      [
        "saken",
        -10.435796022348438
      ],
      [
        "sap",
        -10.435867323350875
      ],
      [
        "antabe",
        -10.436426732935775
      ],
      [
        "House",
        -10.437371429770877
      ],
      [
        "local",
        -10.438018201169537
      ],
      [
        "shi",
        -10.438487986363764
      ],
      [
        "suc",
        -10.438656907400357
      ],
      [
        "Pepa",
        -10.438856973046256
      ],
      [
        "lingap",
        -10.439652788331806
      ],
      [
        "gá",
        -10.44028595985733
      ],
      [
        "bay",
        -10.440454680407177
      ],
      [
        "Santos",
        -10.440571971627168
      ],
      [
        "pamisan",
        -10.440879403967852
      ],
      [
        "marayu",
        -10.440888574464006
      ],
      [
        "Reyna",
        -10.441407591981788
      ],
      [
        "buk",
        -10.441482089202164
      ],
      [
        "March",
        -10.441975372562247
      ],
      [
        "Kapata",
        -10.444079026318978
      ],
      [
        "aquit",
        -10.444169706689244
      ],
      [
        "Pacific",
        -10.444385253407514
      ],
      [
        "Business",
        -10.444385654793873
      ],
      [
        "album",
        -10.444438976607422
      ],
      [
        "sig",
        -10.444776784205278
      ],
      [
        "bú",
        -10.444914684781438
      ],
      [
        "yábé",
        -10.445128032204295
      ],
      [
        "Nukarin",
        -10.445136017721874
      ],
      [
        "kuldas",
        -10.4456354556171
      ],
      [
        "Tomas",
        -10.446078144757541
      ],
      [
        "Bataan",
        -10.446283357498427
      ],
      [
        "histor",
        -10.446445563438607
      ],
      [
        "paka",
        -10.446987433859654
      ],
      [
        "dara",
        -10.448259284372345
      ],
      [
        "nun",
        -10.448487431476813
      ],
      [
        "ler",
        -10.448590317796022
      ],
      [
        "ká",
        -10.449960521143057
      ],
      [
        "ka-",
        -10.450391829414405
      ],
      [
        "reta",
        -10.451234173404252
      ],
      [
        "89",
        -10.451439632271487
      ],
      [
        "Mor",
        -10.451972515606496
      ],
      [
        "ania",
        -10.452102032762166
      ],
      [
        "Ge",
        -10.452682515848057
      ],
      [
        "→",
        -10.453476448938735
      ],
      [
        "Museum",
        -10.453476857681693
      ],
      [
        "Manuel",
        -10.453615818547705
      ],
      [
        "karampatan",
        -10.453627557274704
      ],
      [
        "1990",
        -10.453964773574214
      ],
      [
        "1995",
        -10.454115967006885
      ],
      [
        "Holy",
        -10.454768164115919
      ],
      [
        "Sal",
        -10.455640723979707
      ],
      [
        "mara",
        -10.456139570134045
      ],
      [
        "deta",
        -10.456143530688735
      ],
      [
        "panulu",
        -10.456192187043321
      ],
      [
        "ness",
        -10.45659006454912
      ],
      [
        "sali",
        -10.456745228918134
      ],
      [
        "Makananu",
        -10.456861969322537
      ],
      [
        "panayan",
        -10.457164498211206
      ],
      [
        "É",
        -10.459400460854699
      ],
      [
        "tar",
        -10.460955112624228
      ],
      [
        "enus",
        -10.461205749148268
      ],
      [
        "Pari",
        -10.462031726082861
      ],
      [
        "sab",
        -10.46222487797715
      ],
      [
        "MI",
        -10.462409790237645
      ],
      [
        "school",
        -10.462659297538552
      ],
      [
        "pablasa",
        -10.462730476803173
      ],
      [
        "kakaluguran",
        -10.462940758804397
      ],
      [
        "tong",
        -10.463969480219998
      ],
      [
        "cayá",
        -10.46489625699297
      ],
      [
        "cá",
        -10.465631349545074
      ],
      [
        "malutu",
        -10.466033287579101
      ],
      [
        "nalangin",
        -10.467183212429983
      ],
      [
        "less",
        -10.467227723870543
      ],
      [
        "mangga",
        -10.467775301094417
      ],
      [
        "milako",
        -10.469743040343275
      ],
      [
        "bes",
        -10.47057776588412
      ],
      [
        "tana",
        -10.470966426556341
      ],
      [
        "Alimbawa",
        -10.471910053932106
      ],
      [
        "kamaganak",
        -10.47217196610502
      ],
      [
        "Best",
        -10.473283218989756
      ],
      [
        "George",
        -10.473366267958436
      ],
      [
        "ikami",
        -10.4734113813366
      ],
      [
        "A7",
        -10.473913610916952
      ],
      [
        "matudtu",
        -10.474049756024787
      ],
      [
        "dor",
        -10.474170568015248
      ],
      [
        "It",
        -10.474248808124969
      ],
      [
        "Her",
        -10.47440417450138
      ],
      [
        "Ita",
        -10.475033201129879
      ],
      [
        "gagawa",
        -10.475163681061455
      ],
      [
        "Kang",
        -10.477164629098286
      ],
      [
        "pil",
        -10.47767414719615
      ],
      [
        "RA",
        -10.478121785204245
      ],
      [
        "sia",
        -10.478471526083808
      ],
      [
        "van",
        -10.478483789864224
      ],
      [
        "keca",
        -10.479742791260367
      ],
      [
        "galang",
        -10.480487594038856
      ],
      [
        "lawen",
        -10.480859024301015
      ],
      [
        "Gobernador",
        -10.481238910295476
      ],
      [
        "Birhen",
        -10.481263991709032
      ],
      [
        "Golden",
        -10.481430897173029
      ],
      [
        "Balita",
        -10.481708408852485
      ],
      [
        "edit",
        -10.481812937500333
      ],
      [
        "lik",
        -10.481864420719011
      ],
      [
        "some",
        -10.482657122337415
      ],
      [
        "enti",
        -10.48273311535554
      ],
      [
        "Per",
        -10.482752731055983
      ],
      [
        "pang2",
        -10.48318929724576
      ],
      [
        "acea",
        -10.483467356718625
      ],
      [
        "Papa",
        -10.483507219234793
      ],
      [
        "ikua",
        -10.483850113559182
      ],
      [
        "bug",
        -10.484958826093823
      ],
      [
        "wakas",
        -10.485588297179937
      ],
      [
        "aguman",
        -10.486429487369524
      ],
      [
        "ablas",
        -10.486478737814629
      ],
      [
        "misulat",
        -10.486878480529665
      ],
      [
        "nor",
        -10.487222870837313
      ],
      [
        "angganan",
        -10.488068805736892
      ],
      [
        "tatang",
        -10.488582489409193
      ],
      [
        "ál",
        -10.490393977035541
      ],
      [
        "Charles",
        -10.490712992075082
      ],
      [
        "51",
        -10.491037539824584
      ],
      [
        "lunto",
        -10.491078883921663
      ],
      [
        "rí",
        -10.491109275122597
      ],
      [
        "paganu",
        -10.49139036812801
      ],
      [
        "panamdaman",
        -10.491564593654255
      ],
      [
        "malagung",
        -10.491578102470188
      ],
      [
        "law",
        -10.491754981094056
      ],
      [
        "Que",
        -10.491985317058656
      ],
      [
        "sasabyan",
        -10.492240398911646
      ],
      [
        "1Pe",
        -10.49247010912972
      ],
      [
        "part",
        -10.49294818237661
      ],
      [
        "ted",
        -10.494015073949495
      ],
      [
        "tac",
        -10.494038382478513
      ],
      [
        "Kristo",
        -10.494171819978781
      ],
      [
        "Á",
        -10.496024973096109
      ],
      [
        "Ver",
        -10.49645871075398
      ],
      [
        "Saint",
        -10.496773326659579
      ],
      [
        "54",
        -10.497147721648703
      ],
      [
        "let",
        -10.499277623865614
      ],
      [
        "commun",
        -10.499642322884888
      ],
      [
        "karapatan",
        -10.499712186146498
      ],
      [
        "+",
        -10.500213586305085
      ],
      [
        "Jesucristo",
        -10.500213587231318
      ],
      [
        "sinagoga",
        -10.500217336471936
      ],
      [
        "LU",
        -10.500395630485109
      ],
      [
        "simpan",
        -10.500633650845657
      ],
      [
        "see",
        -10.500737881317317
      ],
      [
        "menakit",
        -10.50107976236849
      ],
      [
        "salapi",
        -10.50165721692457
      ],
      [
        "layan",
        -10.50276404982617
      ],
      [
        "guin",
        -10.502849284659064
      ],
      [
        "blast",
        -10.503483093758318
      ],
      [
        "ese",
        -10.504495295698987
      ],
      [
        "sak",
        -10.506423439903195
      ],
      [
        "care",
        -10.507286812040565
      ],
      [
        "eneral",
        -10.50745322241061
      ],
      [
        "personal",
        -10.507516793230305
      ],
      [
        "sín",
        -10.507568221743256
      ],
      [
        "mamu",
        -10.508507888658917
      ],
      [
        "par",
        -10.508673189947476
      ],
      [
        "65",
        -10.508981892373267
      ],
      [
        "Sp",
        -10.509001240308315
      ],
      [
        "ipan",
        -10.509236631727878
      ],
      [
        "niversidad",
        -10.509523641645544
      ],
      [
        "who",
        -10.509911518662268
      ],
      [
        "Agustin",
        -10.5099447508996
      ],
      [
        "kasal",
        -10.51129381720822
      ],
      [
        "sasabi",
        -10.512449108104843
      ],
      [
        "cha",
        -10.512560225773065
      ],
      [
        "lakwan",
        -10.513471006252871
      ],
      [
        "Che",
        -10.514286351937026
      ],
      [
        "’y",
        -10.515303513087598
      ],
      [
        "pangatau",
        -10.515816797639598
      ],
      [
        "gil",
        -10.516049495620143
      ],
      [
        "gun",
        -10.516116920861004
      ],
      [
        "pitu",
        -10.516842562276937
      ],
      [
        "naka",
        -10.517149968485555
      ],
      [
        "lug",
        -10.517477008015284
      ],
      [
        "kit",
        -10.517644746009072
      ],
      [
        "Bin",
        -10.51784645093268
      ],
      [
        "zu",
        -10.51864378757696
      ],
      [
        "Kin",
        -10.518668210426538
      ],
      [
        "iran",
        -10.519039341478859
      ],
      [
        "px",
        -10.519860660210341
      ],
      [
        "Director",
        -10.5203143248551
      ],
      [
        "Eb",
        -10.52038116845288
      ],
      [
        "more",
        -10.520600966013818
      ],
      [
        "Kabud",
        -10.520865843315738
      ],
      [
        "saya",
        -10.521376386761773
      ],
      [
        "Negro",
        -10.521431177408614
      ],
      [
        "sasakup",
        -10.521556140829773
      ],
      [
        "Sch",
        -10.522323080886304
      ],
      [
        "tur",
        -10.522690193201527
      ],
      [
        "Dec",
        -10.523241745831797
      ],
      [
        "Sir",
        -10.523797281623711
      ],
      [
        "binil",
        -10.523859732750894
      ],
      [
        "Leon",
        -10.524240516801711
      ],
      [
        "TV",
        -10.524363102298732
      ],
      [
        "mabilis",
        -10.52516061438821
      ],
      [
        "Bakit",
        -10.525176510056152
      ],
      [
        "Bie",
        -10.525344488487066
      ],
      [
        "cong",
        -10.52549794177607
      ],
      [
        "sus",
        -10.527180337471014
      ],
      [
        "babasan",
        -10.52719198264599
      ],
      [
        "Samar",
        -10.527296203931426
      ],
      [
        "hich",
        -10.52764637135954
      ],
      [
        "58",
        -10.527774470789435
      ],
      [
        "ham",
        -10.528008724726169
      ],
      [
        "Hapon",
        -10.528798885240647
      ],
      [
        "mikaka",
        -10.529101715587878
      ],
      [
        "Aptas",
        -10.529346215616181
      ],
      [
        "dáké",
        -10.529413054232943
      ],
      [
        "Online",
        -10.529752422195802
      ],
      [
        "milyun",
        -10.530101810172237
      ],
      [
        "tí",
        -10.530739091126316
      ],
      [
        "Qui",
        -10.531047137683826
      ],
      [
        "bebe",
        -10.531469693411406
      ],
      [
        "over",
        -10.532247314115603
      ],
      [
        "ier",
        -10.532818048867384
      ],
      [
        "Bou",
        -10.533548245277242
      ],
      [
        "ulu",
        -10.53386617069947
      ],
      [
        "cm",
        -10.533893270380737
      ],
      [
        "Bake",
        -10.534011333086454
      ],
      [
        "bakal",
        -10.534073752526368
      ],
      [
        "múrin",
        -10.534782268888474
      ],
      [
        "will",
        -10.535279544169443
      ],
      [
        "bak",
        -10.535557539157672
      ],
      [
        "stro",
        -10.535709141447946
      ],
      [
        "ugali",
        -10.535726666001631
      ],
      [
        "ikang",
        -10.536047258452246
      ],
      [
        "páman",
        -10.53644009918619
      ],
      [
        "Mipa",
        -10.536649525858792
      ],
      [
        "inuman",
        -10.53766736773131
      ],
      [
        "agalug",
        -10.537935236618
      ],
      [
        "dios",
        -10.538225244475164
      ],
      [
        "Region",
        -10.538307858562986
      ],
      [
        "Mexico",
        -10.539242786810192
      ],
      [
        "har",
        -10.54007944484342
      ],
      [
        "programa",
        -10.540093065119283
      ],
      [
        "kebaluan",
        -10.540585386815273
      ],
      [
        "Mary",
        -10.541722830071436
      ],
      [
        "keganagana",
        -10.54237879279808
      ],
      [
        "tini",
        -10.543258056697388
      ],
      [
        "Gregorian",
        -10.544337683093786
      ],
      [
        "tandanan",
        -10.544387885668232
      ],
      [
        "-edit",
        -10.545322054925599
      ],
      [
        "RE",
        -10.545528178900135
      ],
      [
        "tum",
        -10.546412918601517
      ],
      [
        "-H",
        -10.546438495584777
      ],
      [
        "kayi",
        -10.5473927713157
      ],
      [
        "gobernador",
        -10.549238894423059
      ],
      [
        "Occidental",
        -10.549242620452446
      ],
      [
        "Gloria",
        -10.549249084063245
      ],
      [
        "Karagdagan",
        -10.549264029316518
      ],
      [
        "usan",
        -10.549288769032342
      ],
      [
        "Louis",
        -10.54937266193793
      ],
      [
        "Note",
        -10.549567644287134
      ],
      [
        "utan",
        -10.54964940202405
      ],
      [
        "Music",
        -10.549649958316309
      ],
      [
        "pamagpa",
        -10.550348415072646
      ],
      [
        "botu",
        -10.550569809783706
      ],
      [
        "inum",
        -10.550912592829278
      ],
      [
        "matibe",
        -10.550926177558555
      ],
      [
        "baya",
        -10.55112446518799
      ],
      [
        "aklat",
        -10.551234275754144
      ],
      [
        "campu",
        -10.55129817663612
      ],
      [
        "70",
        -10.5514852667675
      ],
      [
        "kakanan",
        -10.552182448241975
      ],
      [
        "Bac",
        -10.55240293047746
      ],
      [
        "biga",
        -10.552453666362869
      ],
      [
        "Cot",
        -10.55398163997955
      ],
      [
        "use",
        -10.55475010934767
      ],
      [
        "sugat",
        -10.55485894887185
      ],
      [
        "ine",
        -10.555391592477898
      ],
      [
        "clasi",
        -10.555828518697224
      ],
      [
        "sukad",
        -10.556132794034777
      ],
      [
        "pusung",
        -10.556650961585149
      ],
      [
        "Shi",
        -10.556797713626855
      ],
      [
        "macá",
        -10.558112300327455
      ],
      [
        "Lond",
        -10.558210702952561
      ],
      [
        "pagal",
        -10.558532263774314
      ],
      [
        "rate",
        -10.55861764090401
      ],
      [
        "First",
        -10.559343757845559
      ],
      [
        "paninap",
        -10.559804433638226
      ],
      [
        "Italy",
        -10.5598158997738
      ],
      [
        "pale",
        -10.559864303075981
      ],
      [
        "agia",
        -10.560180648478717
      ],
      [
        "palsintan",
        -10.560674841409647
      ],
      [
        "Anac",
        -10.562169212768453
      ],
      [
        "Pati",
        -10.563399661451111
      ],
      [
        "rine",
        -10.564700410223061
      ],
      [
        "56",
        -10.56547437566497
      ],
      [
        "Inglis",
        -10.565686411017126
      ],
      [
        "susulat",
        -10.56684412040773
      ],
      [
        "tam",
        -10.568014891024063
      ],
      [
        "Andre",
        -10.568296502138159
      ],
      [
        "watas",
        -10.568755232664458
      ],
      [
        "Office",
        -10.569035855967932
      ],
      [
        "cum",
        -10.569249598466847
      ],
      [
        "misna",
        -10.569455748459639
      ],
      [
        "tudtu",
        -10.569528448428514
      ],
      [
        "Prefecture",
        -10.569547713158409
      ],
      [
        "Fariseo",
        -10.569548301022103
      ],
      [
        "JPG",
        -10.56955344929997
      ],
      [
        "baldug",
        -10.569743601725506
      ],
      [
        "Lalu",
        -10.569821145931506
      ],
      [
        "75",
        -10.570018842490498
      ],
      [
        "1960",
        -10.570177183645987
      ],
      [
        "guil",
        -10.57030565681632
      ],
      [
        "pamanuru",
        -10.570895379958657
      ],
      [
        "poesia",
        -10.571033329237475
      ],
      [
        "agus",
        -10.571971313958274
      ],
      [
        "dai",
        -10.572821205971142
      ],
      [
        "DE",
        -10.575360083629999
      ],
      [
        "pac",
        -10.57640614032437
      ],
      [
        "record",
        -10.576912576718222
      ],
      [
        "illa",
        -10.577001658396384
      ],
      [
        "pamaki",
        -10.578419919095207
      ],
      [
        "agawa",
        -10.579252437292716
      ],
      [
        "Lib",
        -10.579534190117482
      ],
      [
        "August",
        -10.579868341830798
      ],
      [
        "manibala",
        -10.579973267555054
      ],
      [
        "Life",
        -10.58000402808865
      ],
      [
        "95",
        -10.580045865315437
      ],
      [
        "dininan",
        -10.580514725442779
      ],
      [
        "uang",
        -10.581027666561868
      ],
      [
        "pulu’t",
        -10.581168701235459
      ],
      [
        "eniwala",
        -10.581400480227819
      ],
      [
        "danup",
        -10.581663757812581
      ],
      [
        "altar",
        -10.581998431438816
      ],
      [
        "pánga",
        -10.582006938032578
      ],
      [
        "Gar",
        -10.58271656390825
      ],
      [
        "Syn",
        -10.583911066830467
      ],
      [
        "payung",
        -10.585046490501515
      ],
      [
        "04",
        -10.585371247158353
      ],
      [
        "Fe",
        -10.585568325276377
      ],
      [
        "Tal",
        -10.585684998986213
      ],
      [
        "Ay",
        -10.585863747258184
      ],
      [
        "sic",
        -10.585999739887022
      ],
      [
        "non",
        -10.586217879706805
      ],
      [
        "ante",
        -10.58781597737375
      ],
      [
        "Bilang",
        -10.589216450786772
      ],
      [
        "Kea",
        -10.589500806309996
      ],
      [
        "yapin",
        -10.58955512045042
      ],
      [
        "Luis",
        -10.590228352203326
      ],
      [
        "tinuki",
        -10.590267714828952
      ],
      [
        "Centro",
        -10.590276236293166
      ],
      [
        "Hindi",
        -10.59027937693567
      ],
      [
        "dagat",
        -10.590295823914925
      ],
      [
        "Aguinald",
        -10.590448036910786
      ],
      [
        "Administration",
        -10.590673967435077
      ],
      [
        "agkalub",
        -10.590888839646981
      ],
      [
        "pamam",
        -10.591242589787658
      ],
      [
        "Filipinu",
        -10.592075394509884
      ],
      [
        "Ikit",
        -10.592350164221957
      ],
      [
        "dusa",
        -10.592796539911387
      ],
      [
        "mabayat",
        -10.594545886128007
      ],
      [
        "home",
        -10.594585350068137
      ],
      [
        "kawal",
        -10.595286304645974
      ],
      [
        "maki-",
        -10.596116036781416
      ],
      [
        "Hen",
        -10.59619082808961
      ],
      [
        "52",
        -10.596437793118788
      ],
      [
        "Las",
        -10.59898812272958
      ],
      [
        "Inc",
        -10.598998798062528
      ],
      [
        "sadiang",
        -10.599617710892858
      ],
      [
        "Fer",
        -10.600050174038103
      ],
      [
        "Commerc",
        -10.600779551954918
      ],
      [
        "iz",
        -10.600783320453164
      ],
      [
        "Spanish",
        -10.60080065238557
      ],
      [
        "high",
        -10.600872886746016
      ],
      [
        "Albugan",
        -10.600890972347255
      ],
      [
        "kilometr",
        -10.60089279541944
      ],
      [
        "Isabel",
        -10.6009035251747
      ],
      [
        "eku",
        -10.600908459556933
      ],
      [
        "jan",
        -10.60122458149332
      ],
      [
        "kabilian",
        -10.601410291581155
      ],
      [
        "kalalangan",
        -10.6016706336329
      ],
      [
        "198",
        -10.601801813567747
      ],
      [
        "malat",
        -10.603161755877485
      ],
      [
        "01",
        -10.603678108733178
      ],
      [
        "Media",
        -10.604401207270774
      ],
      [
        "napun",
        -10.604404898992877
      ],
      [
        "Indian",
        -10.604604058602566
      ],
      [
        "work",
        -10.604613161949164
      ],
      [
        "its",
        -10.604847802818213
      ],
      [
        "MAN",
        -10.605263846525363
      ],
      [
        "bayan",
        -10.605273991161855
      ],
      [
        "Air",
        -10.60592130323202
      ],
      [
        "iko",
        -10.60664592534949
      ],
      [
        "sikat",
        -10.606712734317998
      ],
      [
        "Megi",
        -10.60674588451225
      ],
      [
        "Ob",
        -10.607001553889486
      ],
      [
        "Hall",
        -10.607729675152232
      ],
      [
        "bagya",
        -10.608049929640732
      ],
      [
        "nagar",
        -10.608768635647738
      ],
      [
        "pagmaragul",
        -10.609335720825602
      ],
      [
        "umpisa",
        -10.609709125056035
      ],
      [
        "akua",
        -10.609741899200166
      ],
      [
        "alalan",
        -10.6102008501405
      ],
      [
        "uman",
        -10.610487744708678
      ],
      [
        "lulub",
        -10.61129122122852
      ],
      [
        "karapat",
        -10.61141964489849
      ],
      [
        "pilubluban",
        -10.611438346892474
      ],
      [
        "panimanman",
        -10.611439976643112
      ],
      [
        "computer",
        -10.611440241560246
      ],
      [
        "Computer",
        -10.611490170430503
      ],
      [
        "buu",
        -10.61240665583524
      ],
      [
        "rakal",
        -10.612727525928786
      ],
      [
        "gay",
        -10.613422217661526
      ],
      [
        "Ru",
        -10.61379345598321
      ],
      [
        "paniwalan",
        -10.613837579850319
      ],
      [
        "takutan",
        -10.613908744068194
      ],
      [
        "igan",
        -10.614153649610738
      ],
      [
        "ukiat",
        -10.61421461735226
      ],
      [
        "Puri",
        -10.614289008856128
      ],
      [
        "ago",
        -10.614334606994458
      ],
      [
        "artist",
        -10.614636297049621
      ],
      [
        "Sar",
        -10.614898277006157
      ],
      [
        "basi",
        -10.61537114274328
      ],
      [
        "isa",
        -10.61544779780251
      ],
      [
        "sangkap",
        -10.616434147349448
      ],
      [
        "itu",
        -10.617024212419759
      ],
      [
        "lihim",
        -10.617991333318066
      ],
      [
        "kulang",
        -10.618402308803965
      ],
      [
        "Kong",
        -10.619319191993258
      ],
      [
        "reni",
        -10.620615850672825
      ],
      [
        "bista",
        -10.62178024919453
      ],
      [
        "abad",
        -10.621914035850368
      ],
      [
        "ches",
        -10.62200330448983
      ],
      [
        "capitoli",
        -10.622191292748159
      ],
      [
        "mayupaya",
        -10.62263669657142
      ],
      [
        "eta",
        -10.622707553489946
      ],
      [
        "ene",
        -10.622899952749886
      ],
      [
        "maulaga",
        -10.622980038509606
      ],
      [
        "pangkabilugan",
        -10.623295041947282
      ],
      [
        "pilitan",
        -10.623685945933053
      ],
      [
        "inamit",
        -10.623809887619254
      ],
      [
        "69",
        -10.623910104218641
      ],
      [
        "’s",
        -10.62477937803417
      ],
      [
        "agnan",
        -10.625013556540484
      ],
      [
        "pipi",
        -10.625578748655434
      ],
      [
        "Com",
        -10.625859476600526
      ],
      [
        "ipa",
        -10.625972905935397
      ],
      [
        "Tang",
        -10.626285061762825
      ],
      [
        "strada",
        -10.62720521697085
      ],
      [
        "bra",
        -10.627487933578038
      ],
      [
        "Bulan",
        -10.627714660030879
      ],
      [
        "paksa",
        -10.628210862069963
      ],
      [
        "dal",
        -10.628384212096806
      ],
      [
        "meto",
        -10.6284244563399
      ],
      [
        "Dalit",
        -10.628714070389641
      ],
      [
        "musica",
        -10.628736661292569
      ],
      [
        "Tune",
        -10.629236642864171
      ],
      [
        "mandal",
        -10.63075047187291
      ],
      [
        "paten",
        -10.63135029490483
      ],
      [
        "Tri",
        -10.63169619008815
      ],
      [
        "lé",
        -10.63300292352865
      ],
      [
        "Rafael",
        -10.633060525783893
      ],
      [
        "standard",
        -10.633070111589294
      ],
      [
        "Mí",
        -10.633320239406562
      ],
      [
        "maranun",
        -10.633372329109687
      ],
      [
        "magumpisa",
        -10.63381970722385
      ],
      [
        "taba",
        -10.63411008270818
      ],
      [
        "mibaba",
        -10.634641021562246
      ],
      [
        "TI",
        -10.634924278412806
      ],
      [
        "Pabust",
        -10.635191096380202
      ],
      [
        "siguru",
        -10.635286312202417
      ],
      [
        "song",
        -10.635524976691267
      ],
      [
        "Min",
        -10.636572633230303
      ],
      [
        "makasul",
        -10.636780232186268
      ],
      [
        "Cat",
        -10.638066789103036
      ],
      [
        "palage",
        -10.638293044663804
      ],
      [
        "music",
        -10.638623154742827
      ],
      [
        "kon",
        -10.638937061717247
      ],
      [
        "Toda",
        -10.639380044159811
      ],
      [
        "point",
        -10.63945458868227
      ],
      [
        "ural",
        -10.639665001731803
      ],
      [
        "ulat",
        -10.640995700664632
      ],
      [
        "form",
        -10.641820198050983
      ],
      [
        "doba",
        -10.642194228006522
      ],
      [
        "Project",
        -10.643996691860295
      ],
      [
        "January",
        -10.64404977655307
      ],
      [
        "KORO",
        -10.644049874216448
      ],
      [
        "Dizon",
        -10.644129860636173
      ],
      [
        "kasangkapan",
        -10.644138543950817
      ],
      [
        "payapa",
        -10.644226998236249
      ],
      [
        "Pilat",
        -10.644251328792988
      ],
      [
        "64",
        -10.645028166810842
      ],
      [
        "ile",
        -10.645251984397886
      ],
      [
        "pamisip",
        -10.645869808180759
      ],
      [
        "ā",
        -10.647009870738653
      ],
      [
        "film",
        -10.647044231790595
      ],
      [
        "und",
        -10.648404171532015
      ],
      [
        "tipun",
        -10.649669984519086
      ],
      [
        "ukluk",
        -10.650142812803487
      ],
      [
        "canita",
        -10.650674895412308
      ],
      [
        "Bisa",
        -10.650895832367976
      ],
      [
        "tutuk",
        -10.651613761988113
      ],
      [
        "uanan",
        -10.65198136214892
      ],
      [
        "ism",
        -10.65207354866688
      ],
      [
        "tul",
        -10.652285295869333
      ],
      [
        "ná",
        -10.653103479534025
      ],
      [
        "tikdo",
        -10.654066888266648
      ],
      [
        "end",
        -10.654680563624453
      ],
      [
        "ta’",
        -10.655125993149543
      ],
      [
        "Development",
        -10.655160646357256
      ],
      [
        "miniabi",
        -10.655184443733443
      ],
      [
        "Upper",
        -10.655219994506606
      ],
      [
        "Cór",
        -10.65544098305374
      ],
      [
        "til",
        -10.655537130689012
      ],
      [
        "pasi",
        -10.656131538849646
      ],
      [
        "Canton",
        -10.656628805416442
      ],
      [
        "peka-",
        -10.656706854982193
      ],
      [
        "mababa",
        -10.65675587336671
      ],
      [
        "legu",
        -10.657561689305778
      ],
      [
        "ris",
        -10.65789611225455
      ],
      [
        "ador",
        -10.658206625955227
      ],
      [
        "utak",
        -10.658689209782455
      ],
      [
        "peki",
        -10.65924152175344
      ],
      [
        "Base",
        -10.659867596064412
      ],
      [
        "pamagbayu",
        -10.66028540846089
      ],
      [
        "plant",
        -10.660325296741739
      ],
      [
        "kalaban",
        -10.660955320235999
      ],
      [
        "Home",
        -10.661563376741924
      ],
      [
        "alipan",
        -10.662219252661213
      ],
      [
        "áyan",
        -10.663030264772274
      ],
      [
        "Za",
        -10.663472894733601
      ],
      [
        "mel",
        -10.663946300343804
      ],
      [
        "buklat",
        -10.66402074971964
      ],
      [
        "00",
        -10.664816164524733
      ],
      [
        "Cab",
        -10.665529298965176
      ],
      [
        "Sina",
        -10.666222128074487
      ],
      [
        "Bunduk",
        -10.66639706166087
      ],
      [
        "tropic",
        -10.66639808306597
      ],
      [
        "Pangasinan",
        -10.666398506555693
      ],
      [
        "genetic",
        -10.666466238274712
      ],
      [
        "megumpisa",
        -10.666545419786
      ],
      [
        "Mont",
        -10.66715077816153
      ],
      [
        "Jesu-",
        -10.667170490386995
      ],
      [
        "Nang",
        -10.667944538247186
      ],
      [
        "ico",
        -10.668270765838503
      ],
      [
        "kapagnasan",
        -10.668684859970694
      ],
      [
        "pulu't",
        -10.668703775072974
      ],
      [
        "Engineering",
        -10.668737691144603
      ],
      [
        "uring",
        -10.668739974776056
      ],
      [
        "host",
        -10.66899247686817
      ],
      [
        "Camp",
        -10.66902457779665
      ],
      [
        "Sta",
        -10.66921303874026
      ],
      [
        "Lipat",
        -10.669308442992335
      ],
      [
        "78",
        -10.669395265102459
      ],
      [
        "Banua",
        -10.669441098992795
      ],
      [
        "kula",
        -10.669571260205874
      ],
      [
        "bié",
        -10.66981396630515
      ],
      [
        "lupung",
        -10.670504825518293
      ],
      [
        "ula",
        -10.67056525434348
      ],
      [
        "guinu",
        -10.670793085293756
      ],
      [
        "a’na",
        -10.670810661198196
      ],
      [
        "panakit",
        -10.671009761761564
      ],
      [
        "Monte",
        -10.672012916598682
      ],
      [
        "order",
        -10.672038187562165
      ],
      [
        "Time",
        -10.672198830763715
      ],
      [
        "rio",
        -10.674577574166786
      ],
      [
        "SA",
        -10.674748736520261
      ],
      [
        "BC",
        -10.675082134585566
      ],
      [
        "into",
        -10.675101632841246
      ],
      [
        "atbus",
        -10.676143878644872
      ],
      [
        "Wi",
        -10.676241421480446
      ],
      [
        "Nor",
        -10.676423212187519
      ],
      [
        "kayapan",
        -10.676617475981367
      ],
      [
        "masa",
        -10.676720195490441
      ],
      [
        "guintu",
        -10.677711185461739
      ],
      [
        "JPEG",
        -10.677760325472494
      ],
      [
        "Iloco",
        -10.677779621206856
      ],
      [
        "ù",
        -10.677958473567775
      ],
      [
        "Manch",
        -10.67796399795065
      ],
      [
        "B7",
        -10.678061284977314
      ],
      [
        "Amlat",
        -10.678076533958606
      ],
      [
        "Japon",
        -10.678215359559598
      ],
      [
        "aske",
        -10.678381425614207
      ],
      [
        "1970",
        -10.679425600068742
      ],
      [
        "Tit",
        -10.679614342546532
      ],
      [
        "queti",
        -10.679805697848284
      ],
      [
        "lablab",
        -10.680244110117627
      ],
      [
        "ron",
        -10.680416902440298
      ],
      [
        "mapilang",
        -10.682409921484773
      ],
      [
        "05",
        -10.682848662291335
      ],
      [
        "eyte",
        -10.683034824542357
      ],
      [
        "lino",
        -10.683587431306211
      ],
      [
        "Gregori",
        -10.68386860101739
      ],
      [
        "igit",
        -10.685241325670155
      ],
      [
        "babi",
        -10.68576959441786
      ],
      [
        "59",
        -10.686537618269199
      ],
      [
        "col",
        -10.687233479222463
      ],
      [
        "Luba",
        -10.68768169188118
      ],
      [
        "usuk",
        -10.687699042838686
      ],
      [
        "Ikayu",
        -10.687793957418044
      ],
      [
        "Pulu",
        -10.688923537760884
      ],
      [
        "ñgana",
        -10.689107888025415
      ],
      [
        "Bachelor",
        -10.68925450748623
      ],
      [
        "district",
        -10.68925457585489
      ],
      [
        "Burgos",
        -10.689255069900014
      ],
      [
        "escuela",
        -10.689257241072845
      ],
      [
        "propeta",
        -10.689277836757274
      ],
      [
        "Templo",
        -10.689304731193666
      ],
      [
        "producer",
        -10.689440818030231
      ],
      [
        "Calendari",
        -10.689602131673443
      ],
      [
        "Huel",
        -10.689650386709769
      ],
      [
        "Historic",
        -10.689975919211768
      ],
      [
        "Sisuan",
        -10.690066291921038
      ],
      [
        "daun",
        -10.690195654447248
      ],
      [
        "Intern",
        -10.690646721174259
      ],
      [
        "ibili",
        -10.690996585479013
      ],
      [
        "akup",
        -10.691209877982349
      ],
      [
        "maluka",
        -10.69133447501508
      ],
      [
        "Cho",
        -10.691446484787647
      ],
      [
        "pilak",
        -10.691541676356538
      ],
      [
        "cay",
        -10.69232198553418
      ],
      [
        "mica",
        -10.692419663620456
      ],
      [
        "pamama",
        -10.692552905693406
      ],
      [
        "ado",
        -10.692905676046971
      ],
      [
        "buc",
        -10.693022897517903
      ],
      [
        "intang",
        -10.693050484980393
      ],
      [
        "Agostu",
        -10.693051358292848
      ],
      [
        "Keti",
        -10.693078751854303
      ],
      [
        "idae",
        -10.693370151042298
      ],
      [
        "saguli",
        -10.693571985672126
      ],
      [
        "Garci",
        -10.694172440122244
      ],
      [
        "Mung",
        -10.694180338561418
      ],
      [
        "Rita",
        -10.694292280173446
      ],
      [
        "07",
        -10.694619139721247
      ],
      [
        "Area",
        -10.694982062185646
      ],
      [
        "CE",
        -10.695378344903762
      ],
      [
        "ì",
        -10.696104064814188
      ],
      [
        "bil",
        -10.697855330944211
      ],
      [
        "zi",
        -10.698208438357181
      ],
      [
        "laram",
        -10.69824971659321
      ],
      [
        "Un",
        -10.698307932415002
      ],
      [
        "Russia",
        -10.698710920415031
      ],
      [
        "pon",
        -10.699225774001032
      ],
      [
        "BE",
        -10.699312457104327
      ],
      [
        "tatag",
        -10.699479843840454
      ],
      [
        "Pen",
        -10.699720896011083
      ],
      [
        "lambat",
        -10.700643402782767
      ],
      [
        "Fu",
        -10.700850475471727
      ],
      [
        "Benjami",
        -10.700891029458404
      ],
      [
        "dalise",
        -10.700986093248893
      ],
      [
        "lot",
        -10.70098776003314
      ],
      [
        "mangatua",
        -10.701104287419785
      ],
      [
        "katimawan",
        -10.701117548721832
      ],
      [
        "Maliari",
        -10.70123252398595
      ],
      [
        "teorya",
        -10.70127210244209
      ],
      [
        "migsilbi",
        -10.7015481340284
      ],
      [
        "1992",
        -10.701736450238876
      ],
      [
        "ño",
        -10.702489502889806
      ],
      [
        "mekad",
        -10.703848195179205
      ],
      [
        "Ve",
        -10.704294027072521
      ],
      [
        "Mumuna",
        -10.704394293622393
      ],
      [
        "Red",
        -10.704849826118458
      ],
      [
        "Baba",
        -10.705513391051294
      ],
      [
        "sumpa",
        -10.705914744769094
      ],
      [
        "amp",
        -10.706017070891374
      ],
      [
        "file",
        -10.706965696028409
      ],
      [
        "bilis",
        -10.706985063343879
      ],
      [
        "data",
        -10.70865669015444
      ],
      [
        "Pig",
        -10.7101904621711
      ],
      [
        "Bina",
        -10.710300221977416
      ],
      [
        "Dom",
        -10.71073891195119
      ],
      [
        "organ",
        -10.710849918015343
      ],
      [
        "ár",
        -10.71085796933473
      ],
      [
        "App",
        -10.712364459623952
      ],
      [
        "science",
        -10.712647129993009
      ],
      [
        "marangal",
        -10.712691219153024
      ],
      [
        "field",
        -10.712756843884666
      ],
      [
        "Gra",
        -10.712948233537855
      ],
      [
        "Kapagmasus",
        -10.712972894457803
      ],
      [
        "Presidenti",
        -10.71426486091367
      ],
      [
        "lar",
        -10.714383929072305
      ],
      [
        "daramdaman",
        -10.714471971473262
      ],
      [
        "bé",
        -10.714824584617569
      ],
      [
        "siudad",
        -10.714937282679902
      ],
      [
        "terminu",
        -10.715833860712891
      ],
      [
        "Victoria",
        -10.716194204266166
      ],
      [
        "dekada",
        -10.716359544815006
      ],
      [
        "úl",
        -10.7173708880774
      ],
      [
        "Mana",
        -10.717426889529428
      ],
      [
        "Plant",
        -10.717521989213688
      ],
      [
        "tsa",
        -10.719914797426117
      ],
      [
        "ocan",
        -10.719973396561038
      ],
      [
        "Paki",
        -10.721010524111062
      ],
      [
        "maka-",
        -10.721270224978266
      ],
      [
        "kalibudtan",
        -10.721940676280374
      ],
      [
        "pagnasan",
        -10.7221734967261
      ],
      [
        "abato",
        -10.722435299155936
      ],
      [
        "kundi",
        -10.722511361833432
      ],
      [
        "03",
        -10.72280404956998
      ],
      [
        "Par",
        -10.72316507805834
      ],
      [
        "prosesu",
        -10.724552570720043
      ],
      [
        "primera",
        -10.724556335782406
      ],
      [
        "teatro",
        -10.724603170807896
      ],
      [
        "Clark",
        -10.72539416393489
      ],
      [
        "migsalita",
        -10.725627142449792
      ],
      [
        "kanyan",
        -10.72568074382593
      ],
      [
        "Real",
        -10.725703720788976
      ],
      [
        "Ch",
        -10.725882692443037
      ],
      [
        "pekamaulaga",
        -10.726130825258279
      ],
      [
        "miraras",
        -10.726187450618596
      ],
      [
        "miyaliwa",
        -10.726474318622508
      ],
      [
        "karen",
        -10.727011698391358
      ],
      [
        "get",
        -10.727495663262657
      ],
      [
        "siun",
        -10.728156683268452
      ],
      [
        "kí",
        -10.728654393344971
      ],
      [
        "communit",
        -10.728754126094534
      ],
      [
        "je",
        -10.729188133505865
      ],
      [
        "tiru",
        -10.729590924507523
      ],
      [
        "radio",
        -10.729647173367802
      ],
      [
        "Ji",
        -10.729938461116227
      ],
      [
        "ize",
        -10.73001305127546
      ],
      [
        "mamintu",
        -10.73013342467569
      ],
      [
        "pú",
        -10.730635145179562
      ],
      [
        "Gen",
        -10.73182922209297
      ],
      [
        "tim",
        -10.732225916849206
      ],
      [
        "ec",
        -10.732276741497405
      ],
      [
        "Yan",
        -10.732282769360456
      ],
      [
        "maluat",
        -10.732418952847754
      ],
      [
        "igao",
        -10.732822811824294
      ],
      [
        "Qu",
        -10.733017743124517
      ],
      [
        "88",
        -10.733046478372483
      ],
      [
        "Mali",
        -10.735151987797162
      ],
      [
        "bor",
        -10.735405340331182
      ],
      [
        "mayumu",
        -10.736015398027149
      ],
      [
        "quetang",
        -10.73607420518924
      ],
      [
        "side",
        -10.736111078423985
      ],
      [
        "most",
        -10.736581010989777
      ],
      [
        "ü",
        -10.736599966478906
      ],
      [
        "mánimúna",
        -10.736600115821364
      ],
      [
        "Company",
        -10.736619815696006
      ],
      [
        "Community",
        -10.736624980397679
      ],
      [
        "Britania",
        -10.736653744113532
      ],
      [
        "Bohol",
        -10.736686291557518
      ],
      [
        "kawatasan",
        -10.736890362360585
      ],
      [
        "parusan",
        -10.737102184575075
      ],
      [
        "1994",
        -10.73725727252064
      ],
      [
        "1996",
        -10.737407422395714
      ],
      [
        "pani",
        -10.737567387069474
      ],
      [
        "pakilala",
        -10.73782026234977
      ],
      [
        "mibili",
        -10.738375555318951
      ],
      [
        "ence",
        -10.738472816493356
      ],
      [
        "mitagan",
        -10.738545637331956
      ],
      [
        "UK",
        -10.739396704111602
      ],
      [
        "duct",
        -10.74017736335859
      ],
      [
        "banalan",
        -10.740202238395362
      ],
      [
        "Tin",
        -10.740238133145203
      ],
      [
        "Tata",
        -10.740494024141132
      ],
      [
        "ium",
        -10.741075260559857
      ],
      [
        "Medica",
        -10.741248828155054
      ],
      [
        "ven",
        -10.741603152948276
      ],
      [
        "berg",
        -10.742465133198017
      ],
      [
        "pagka",
        -10.742545033037851
      ],
      [
        "ág",
        -10.742720318449699
      ],
      [
        "Bagong",
        -10.743045944500759
      ],
      [
        "bua",
        -10.743142254327154
      ],
      [
        "kiabe",
        -10.743718853555333
      ],
      [
        "Nune",
        -10.744067526028283
      ],
      [
        "rap",
        -10.744322307963238
      ],
      [
        "ated",
        -10.744470093404525
      ],
      [
        "hon",
        -10.744910862297768
      ],
      [
        "mig-",
        -10.745513811630417
      ],
      [
        "liban",
        -10.746939231054053
      ],
      [
        "agkat",
        -10.747118546777877
      ],
      [
        "hy",
        -10.747253569724442
      ],
      [
        "isuan",
        -10.747403172007523
      ],
      [
        "biye",
        -10.748023633151167
      ],
      [
        "fer",
        -10.748219962687736
      ],
      [
        "ified",
        -10.748632000555599
      ],
      [
        "tunggal",
        -10.748722826226324
      ],
      [
        "Concepci",
        -10.748795189037086
      ],
      [
        "Corporation",
        -10.748795189633725
      ],
      [
        "demonio",
        -10.74879541393574
      ],
      [
        "nominaci",
        -10.748809342940834
      ],
      [
        "Pineda",
        -10.748892059329112
      ],
      [
        "Cavit",
        -10.748964693711628
      ],
      [
        "pastul",
        -10.749242972960161
      ],
      [
        "Maestro",
        -10.749483449790379
      ],
      [
        "awan",
        -10.749830172471743
      ],
      [
        "yátu",
        -10.74994115473661
      ],
      [
        "aintindi",
        -10.749999324275112
      ],
      [
        "Bulacan",
        -10.750295533737463
      ],
      [
        "Pasku",
        -10.750319373840592
      ],
      [
        "pasiag",
        -10.751080994017606
      ],
      [
        "aldo-aldo",
        -10.751176357774668
      ],
      [
        "mitipun",
        -10.751311314742296
      ],
      [
        "fo",
        -10.751792340609658
      ],
      [
        "AD",
        -10.752919518913936
      ],
      [
        "Poeta",
        -10.752999659661445
      ],
      [
        "Sha",
        -10.753029797382272
      ],
      [
        "Amerika",
        -10.753546955168389
      ],
      [
        "ub",
        -10.75380987438605
      ],
      [
        "maina",
        -10.753921496162215
      ],
      [
        "wak",
        -10.754492785621098
      ],
      [
        "kara",
        -10.754879140062215
      ],
      [
        "single",
        -10.755021543762687
      ],
      [
        "agua",
        -10.755177267291462
      ],
      [
        "lim",
        -10.75556487508261
      ],
      [
        "tun",
        -10.756456712838071
      ],
      [
        "57",
        -10.757110431248535
      ],
      [
        "Bel",
        -10.758067809532694
      ],
      [
        "post",
        -10.758248712949111
      ],
      [
        "gulu",
        -10.759177405628058
      ],
      [
        "kol",
        -10.76005340682627
      ],
      [
        "class",
        -10.760137710230566
      ],
      [
        "sakitan",
        -10.760187410208843
      ],
      [
        "yawan",
        -10.760310352226572
      ],
      [
        "Bureau",
        -10.761138437475225
      ],
      [
        "View",
        -10.761144909856002
      ],
      [
        "makapagmulala",
        -10.761177870096157
      ],
      [
        "national",
        -10.761211020338534
      ],
      [
        "Cara",
        -10.76139974278816
      ],
      [
        "samban",
        -10.761635442256216
      ],
      [
        "1997",
        -10.761901308260786
      ],
      [
        "base",
        -10.762155778960388
      ],
      [
        "susuyu",
        -10.762773739316748
      ],
      [
        "makaba",
        -10.76365832141739
      ],
      [
        "malagu",
        -10.763659352056937
      ],
      [
        "Lang",
        -10.763690129330664
      ],
      [
        "zon",
        -10.764180295279917
      ],
      [
        "atilu",
        -10.764228399444917
      ],
      [
        "mita",
        -10.764541874851188
      ],
      [
        "Den",
        -10.7647248682219
      ],
      [
        "kasalukuyan",
        -10.765297704231331
      ],
      [
        "Tan",
        -10.765442120024979
      ],
      [
        "pamangawa",
        -10.765939491959344
      ],
      [
        "ré",
        -10.766051428724257
      ],
      [
        "apu",
        -10.766163050405336
      ],
      [
        "paragul",
        -10.766179527724553
      ],
      [
        "dulang",
        -10.766257608157723
      ],
      [
        "cho",
        -10.766317697851935
      ],
      [
        "kaili",
        -10.766341848171697
      ],
      [
        "thur",
        -10.766822110388937
      ],
      [
        "gli",
        -10.766901396867055
      ],
      [
        "cor",
        -10.767958957841753
      ],
      [
        "set",
        -10.76837038594531
      ],
      [
        "bur",
        -10.768874558274039
      ],
      [
        "minuli",
        -10.76962986809404
      ],
      [
        "salbag",
        -10.769713132164814
      ],
      [
        "cayang",
        -10.769860588209827
      ],
      [
        "sibul",
        -10.770721385724126
      ],
      [
        "Mira",
        -10.77083773634538
      ],
      [
        "Luna",
        -10.771091017071
      ],
      [
        "Sulu",
        -10.771211481775477
      ],
      [
        "ganaka",
        -10.771225442578427
      ],
      [
        "maqui",
        -10.77228242499314
      ],
      [
        "ure",
        -10.772579351530334
      ],
      [
        "inia",
        -10.772740468217762
      ],
      [
        "Pani",
        -10.772912617449936
      ],
      [
        "Free",
        -10.77379374037025
      ],
      [
        "comuni",
        -10.773825885791155
      ],
      [
        "Felipe",
        -10.773877358354142
      ],
      [
        "July",
        -10.773995253470947
      ],
      [
        "lalto",
        -10.774252349065046
      ],
      [
        "Year",
        -10.774327804053172
      ],
      [
        "Yu",
        -10.774406472554471
      ],
      [
        "dig",
        -10.774586332431333
      ],
      [
        "ya’",
        -10.774734033515283
      ],
      [
        "tree",
        -10.77481674781031
      ],
      [
        "ompositor",
        -10.774833652596628
      ],
      [
        "tao",
        -10.775710979526597
      ],
      [
        "labis",
        -10.775900761611938
      ],
      [
        "big",
        -10.776089209469
      ],
      [
        "darala",
        -10.776823503980916
      ],
      [
        "piku",
        -10.777115512234511
      ],
      [
        "laru",
        -10.777185452614116
      ],
      [
        "sul",
        -10.778099412241898
      ],
      [
        "Tatang",
        -10.778940341354438
      ],
      [
        "ápat",
        -10.77902103477048
      ],
      [
        "dangalan",
        -10.779868029694779
      ],
      [
        "Long",
        -10.779884420269719
      ],
      [
        "bayit",
        -10.780289756393739
      ],
      [
        "waga",
        -10.78034150383608
      ],
      [
        "Grand",
        -10.780494074177883
      ],
      [
        "67",
        -10.780599346230527
      ],
      [
        "laut",
        -10.781099696818718
      ],
      [
        "melala",
        -10.781579892241789
      ],
      [
        "lilan",
        -10.782133565334487
      ],
      [
        "right",
        -10.7826574636893
      ],
      [
        "kadua",
        -10.78353630657772
      ],
      [
        "pangka",
        -10.783744465051047
      ],
      [
        "pikabal",
        -10.784178505875676
      ],
      [
        "79",
        -10.784916231793778
      ],
      [
        "ger",
        -10.785532116570405
      ],
      [
        "anuknangan",
        -10.785762120256813
      ],
      [
        "world",
        -10.786299107309514
      ],
      [
        "Festival",
        -10.786299117871543
      ],
      [
        "Travel",
        -10.786312895713898
      ],
      [
        "Chamber",
        -10.786326065961026
      ],
      [
        "tambing",
        -10.786333689598663
      ],
      [
        "Hotel",
        -10.786433455345072
      ],
      [
        "pekamata",
        -10.786573920398217
      ],
      [
        "artikulu",
        -10.786667111705988
      ],
      [
        "baka",
        -10.787158356079527
      ],
      [
        "Majorca",
        -10.787273375332699
      ],
      [
        "Bacul",
        -10.7881502738582
      ],
      [
        "Christ",
        -10.788845424048652
      ],
      [
        "many",
        -10.78892336992214
      ],
      [
        "town",
        -10.788946685920777
      ],
      [
        "mili",
        -10.789462738956228
      ],
      [
        "bud",
        -10.789643302103013
      ],
      [
        "Ima",
        -10.789650834097817
      ],
      [
        "stor",
        -10.789779346155282
      ],
      [
        "Clar",
        -10.79032711693128
      ],
      [
        "katamu",
        -10.79092529539574
      ],
      [
        "Pikabal",
        -10.791424366100554
      ],
      [
        "Bus",
        -10.791561985804368
      ],
      [
        "Pina",
        -10.79162866768355
      ],
      [
        "kaligaya",
        -10.792455811346265
      ],
      [
        "cul",
        -10.793374620652811
      ],
      [
        "Fr",
        -10.793531116282406
      ],
      [
        "ries",
        -10.794083822875958
      ],
      [
        "ligalig",
        -10.794377280942618
      ],
      [
        "ulan",
        -10.794476785841711
      ],
      [
        "year",
        -10.794489135093496
      ],
      [
        "pamintu",
        -10.794511396819514
      ],
      [
        "gatas",
        -10.795272451775896
      ],
      [
        "Este",
        -10.795743600493427
      ],
      [
        "katni",
        -10.79617116660363
      ],
      [
        "urban",
        -10.796693738555213
      ],
      [
        "lalapit",
        -10.797155860958883
      ],
      [
        "aran",
        -10.797317624051747
      ],
      [
        "gatpanapun",
        -10.799119697104612
      ],
      [
        "ashington",
        -10.79912104251008
      ],
      [
        "maglakbe",
        -10.799124543567812
      ],
      [
        "Medicin",
        -10.799153996653134
      ],
      [
        "Lake",
        -10.799210776098716
      ],
      [
        "UE",
        -10.79955050262329
      ],
      [
        "batwin",
        -10.799587381223079
      ],
      [
        "industria",
        -10.799697211375545
      ],
      [
        "articulu",
        -10.799857263713754
      ],
      [
        "Mabini",
        -10.799913567234722
      ],
      [
        "Joseph",
        -10.800145798057613
      ],
      [
        "ayni",
        -10.800461929032053
      ],
      [
        "ix",
        -10.800491665014082
      ],
      [
        "Open",
        -10.80137153725903
      ],
      [
        "áng",
        -10.801936473384757
      ],
      [
        "Er",
        -10.80208661430142
      ],
      [
        "babayi",
        -10.804333026368809
      ],
      [
        "place",
        -10.804626402900064
      ],
      [
        "ever",
        -10.805563359603088
      ],
      [
        "cayu",
        -10.805589135676854
      ],
      [
        "Pol",
        -10.806149230805062
      ],
      [
        "thing",
        -10.806945935848056
      ],
      [
        "hol",
        -10.806952257985511
      ],
      [
        "68",
        -10.80731965919737
      ],
      [
        "ilako",
        -10.807560280123347
      ],
      [
        "Apri",
        -10.809025725809922
      ],
      [
        "lap",
        -10.81116027675974
      ],
      [
        "báyu",
        -10.811851920627001
      ],
      [
        "ful",
        -10.812006664735655
      ],
      [
        "proyektu",
        -10.81210661501565
      ],
      [
        "Indonesia",
        -10.812106773411776
      ],
      [
        "Cambodia",
        -10.812107160505768
      ],
      [
        "England",
        -10.812160770525379
      ],
      [
        "federal",
        -10.81241209621982
      ],
      [
        "marinat",
        -10.81249333243267
      ],
      [
        "siyam",
        -10.812569017958124
      ],
      [
        "peliculang",
        -10.812979564757214
      ],
      [
        "Sil",
        -10.813082622357495
      ],
      [
        "house",
        -10.813428564718745
      ],
      [
        "Ken",
        -10.8136286871652
      ],
      [
        "Mil",
        -10.813649147975013
      ],
      [
        "tuksu",
        -10.814185373715356
      ],
      [
        "bio",
        -10.81438285081525
      ],
      [
        "guewa",
        -10.81439547570098
      ],
      [
        "uldas",
        -10.81469617020269
      ],
      [
        "Jude",
        -10.815066228247808
      ],
      [
        "Cagayan",
        -10.815140352360313
      ],
      [
        "asuk",
        -10.815279181225222
      ],
      [
        "dakayu",
        -10.815906691387795
      ],
      [
        "luma",
        -10.816791519905715
      ],
      [
        "simbut",
        -10.817724463747606
      ],
      [
        "key",
        -10.819203180650016
      ],
      [
        "We",
        -10.820141665895523
      ],
      [
        "lian",
        -10.820695784903739
      ],
      [
        "Val",
        -10.82073972695905
      ],
      [
        "SU",
        -10.821310254371998
      ],
      [
        "ual",
        -10.821389183107154
      ],
      [
        "daralanan",
        -10.821671088206005
      ],
      [
        "Torre",
        -10.822319038598376
      ],
      [
        "Sun",
        -10.822509539434098
      ],
      [
        "abac",
        -10.822775276291315
      ],
      [
        "Oro",
        -10.823515258947525
      ],
      [
        "199",
        -10.823738450972929
      ],
      [
        "region",
        -10.824045579222364
      ],
      [
        "samut",
        -10.824169657438958
      ],
      [
        "taga",
        -10.824272085623587
      ],
      [
        "Nin",
        -10.824296612391267
      ],
      [
        "Ana",
        -10.824773901057757
      ],
      [
        "Disiembri",
        -10.825264507648217
      ],
      [
        "council",
        -10.825264508167663
      ],
      [
        "Service",
        -10.825275505561095
      ],
      [
        "Richard",
        -10.825276805097625
      ],
      [
        "Domingo",
        -10.825334142557269
      ],
      [
        "development",
        -10.82534203970748
      ],
      [
        "paran",
        -10.825351070702116
      ],
      [
        "lage",
        -10.825464097927822
      ],
      [
        "katapatan",
        -10.82564174947425
      ],
      [
        "1987",
        -10.826023507540523
      ],
      [
        "illo",
        -10.826097983560892
      ],
      [
        "Nation",
        -10.826137173945845
      ],
      [
        "1983",
        -10.826448786826159
      ],
      [
        "Cha",
        -10.826901762984107
      ],
      [
        "Sen",
        -10.827034684926662
      ],
      [
        "ble",
        -10.827628291905441
      ],
      [
        "tatanam",
        -10.827923024039809
      ],
      [
        "Sala",
        -10.828129352017424
      ],
      [
        "ilar",
        -10.82900336245607
      ],
      [
        "tatak",
        -10.82944875306197
      ],
      [
        "image",
        -10.829852313179611
      ],
      [
        "2016",
        -10.830007102390574
      ],
      [
        "irut",
        -10.830369159490733
      ],
      [
        "mikasala",
        -10.830447137581656
      ],
      [
        "SAN",
        -10.830797766693333
      ],
      [
        "Bato",
        -10.830995781512005
      ],
      [
        "76",
        -10.831101523341493
      ],
      [
        "dulu",
        -10.831825400987594
      ],
      [
        "plan",
        -10.831845673421663
      ],
      [
        "tis",
        -10.832070870645554
      ],
      [
        "Mani",
        -10.833118674072793
      ],
      [
        "ete",
        -10.833208212487172
      ],
      [
        "tín",
        -10.833328568827351
      ],
      [
        "klasi",
        -10.833720167891588
      ],
      [
        "Ot",
        -10.833935213654676
      ],
      [
        "Love",
        -10.834464673078362
      ],
      [
        "ben",
        -10.835104207460352
      ],
      [
        "sundu",
        -10.83512430189026
      ],
      [
        "bante",
        -10.835171436591708
      ],
      [
        "tage",
        -10.835351065611436
      ],
      [
        "under",
        -10.835495930091597
      ],
      [
        "pate",
        -10.836141892489128
      ],
      [
        "test",
        -10.836353885419356
      ],
      [
        "tive",
        -10.83652297252468
      ],
      [
        "ayus",
        -10.836736686510584
      ],
      [
        "mekilala",
        -10.836820140154604
      ],
      [
        "Martin",
        -10.837163634127382
      ],
      [
        "stra",
        -10.837752651562681
      ],
      [
        "malambat",
        -10.83801918672518
      ],
      [
        "wá",
        -10.838058470742158
      ],
      [
        "08",
        -10.838533613952631
      ],
      [
        "kasundu",
        -10.838536621260591
      ],
      [
        "ã",
        -10.83859784087209
      ],
      [
        "ves",
        -10.838665420140686
      ],
      [
        "karagdagan",
        -10.838703100744398
      ],
      [
        "Bag",
        -10.83874699575433
      ],
      [
        "tinanggap",
        -10.838950620148495
      ],
      [
        "álung",
        -10.839082356936881
      ],
      [
        "makapag",
        -10.839211700382112
      ],
      [
        "Tamil",
        -10.839227908418332
      ],
      [
        "organismu",
        -10.839377880877933
      ],
      [
        "antí",
        -10.839593424198707
      ],
      [
        "Portal",
        -10.839726854884155
      ],
      [
        "suma",
        -10.840006551568237
      ],
      [
        "Photo",
        -10.84019558848797
      ],
      [
        "talakanta",
        -10.840208439461339
      ],
      [
        "know",
        -10.840230309217054
      ],
      [
        "UP",
        -10.840414778390336
      ],
      [
        "cabud",
        -10.84138314670145
      ],
      [
        "pili",
        -10.841931694014402
      ],
      [
        "rit",
        -10.842539683962634
      ],
      [
        "pasku",
        -10.84287211320137
      ],
      [
        "cata",
        -10.84311160769446
      ],
      [
        "Malagu",
        -10.843173484753587
      ],
      [
        "Municipal",
        -10.843217451990512
      ],
      [
        "read",
        -10.84337537245925
      ],
      [
        "bati",
        -10.84376009144252
      ],
      [
        "2019",
        -10.843869564689093
      ],
      [
        "cab",
        -10.844904418742942
      ],
      [
        "96",
        -10.845637030399278
      ],
      [
        "Miss",
        -10.845799393834586
      ],
      [
        "novela",
        -10.84625102650147
      ],
      [
        "salamin",
        -10.846411098590298
      ],
      [
        "Film",
        -10.847335371349418
      ],
      [
        "Cabang",
        -10.847539307264253
      ],
      [
        "atul",
        -10.847774339636501
      ],
      [
        "Mc",
        -10.847974497948119
      ],
      [
        "bí",
        -10.848169969980379
      ],
      [
        "yeng",
        -10.849005172153685
      ],
      [
        "galo",
        -10.849573946693518
      ],
      [
        "subli",
        -10.84964090699877
      ],
      [
        "oil",
        -10.850817112232567
      ],
      [
        "apayapan",
        -10.850905289791527
      ],
      [
        "lor",
        -10.851033154196973
      ],
      [
        "06",
        -10.851282160273815
      ],
      [
        "Cag",
        -10.85180694888845
      ],
      [
        "pamyalita",
        -10.852111504056161
      ],
      [
        "project",
        -10.852119433484573
      ],
      [
        "Commission",
        -10.85212971433458
      ],
      [
        "kamtan",
        -10.852166375053447
      ],
      [
        "talasalpantaya",
        -10.852166748192133
      ],
      [
        "Nicolas",
        -10.85222169255453
      ],
      [
        "suporta",
        -10.85240790175478
      ],
      [
        "old",
        -10.852495944749702
      ],
      [
        "áusan",
        -10.852652426765864
      ],
      [
        "virus",
        -10.852859355916735
      ],
      [
        "1993",
        -10.853080519347419
      ],
      [
        "padurut",
        -10.85322326350731
      ],
      [
        "marimla",
        -10.853428785483299
      ],
      [
        "pakibatan",
        -10.853468188247362
      ],
      [
        "1972",
        -10.854108783062264
      ],
      [
        "AL",
        -10.854776077041816
      ],
      [
        "fl",
        -10.856251060296158
      ],
      [
        "ship",
        -10.856428916384335
      ],
      [
        "Calo",
        -10.85736818100734
      ],
      [
        "isla",
        -10.857374383262965
      ],
      [
        "tinda",
        -10.857665641157245
      ],
      [
        "talik",
        -10.85792002969989
      ],
      [
        "pekibat",
        -10.858092545070308
      ],
      [
        "Tara",
        -10.858473436103438
      ],
      [
        "AR",
        -10.858929157941285
      ],
      [
        "atalastas",
        -10.859308833203269
      ],
      [
        "bot",
        -10.859492108504295
      ],
      [
        "makataga",
        -10.860179344015947
      ],
      [
        "malu",
        -10.860307446315495
      ],
      [
        "gisan",
        -10.860436881748253
      ],
      [
        "Mari",
        -10.860640698161326
      ],
      [
        "Henr",
        -10.862066618468766
      ],
      [
        "agan",
        -10.86243126520296
      ],
      [
        "Bali",
        -10.863287367278922
      ],
      [
        "TO",
        -10.863465969874325
      ],
      [
        "batab",
        -10.864330969575104
      ],
      [
        "lasip",
        -10.86441482825952
      ],
      [
        "Dap",
        -10.86490001947155
      ],
      [
        "sug",
        -10.865691051245406
      ],
      [
        "Iloilo",
        -10.865810207270432
      ],
      [
        "Brazil",
        -10.865811761972878
      ],
      [
        "Mountain",
        -10.86582179869768
      ],
      [
        "Pauli",
        -10.865997234702144
      ],
      [
        "langan",
        -10.866050297855653
      ],
      [
        "Land",
        -10.866191879443996
      ],
      [
        "pengaku",
        -10.866858138455708
      ],
      [
        "parusa",
        -10.8670695397787
      ],
      [
        "agkas",
        -10.867346416548912
      ],
      [
        "Lana",
        -10.868478690296172
      ],
      [
        "angele",
        -10.869141909870184
      ],
      [
        "keting",
        -10.86916201992691
      ],
      [
        "militar",
        -10.8695512239225
      ],
      [
        "áral",
        -10.869999401100888
      ],
      [
        "200",
        -10.870045983340967
      ],
      [
        "siam",
        -10.870057948592718
      ],
      [
        "Datu",
        -10.870253322496813
      ],
      [
        "itsura",
        -10.870278974714731
      ],
      [
        "tawan",
        -10.870434460767143
      ],
      [
        "palto",
        -10.870772470210614
      ],
      [
        "letra",
        -10.871116292712033
      ],
      [
[...]
