{
  "version": "1.0",
  "truncation": null,
  "padding": null,
  "added_tokens": [
    {
      "id": 0,
      "content": "<pad>",
      "single_word": false,
      "lstrip": false,
      "rstrip": false,
      "normalized": false,
      "special": true
    },
    {
      "id": 1,
      "content": "<unk>",
      "single_word": false,
      "lstrip": false,
      "rstrip": false,
      "normalized": false,
      "special": true
    },
    {
      "id": 2,
      "content": "<s>",
      "single_word": false,
      "lstrip": false,
      "rstrip": false,
      "normalized": false,
      "special": true
    },
    {
      "id": 3,
      "content": "</s>",
      "single_word": false,
      "lstrip": false,
      "rstrip": false,
      "normalized": false,
      "special": true
    }
  ],
  "normalizer": null,
  "pre_tokenizer": null,
  "post_processor": null,
  "decoder": null,
  "model": {
    "type": "Unigram",
    "unk_id": 1,
    "vocab": [
      [
        "<pad>",
        0.0
      ],
      [
        "<unk>",
        0.0
      ],
      [
        "<s>",
        0.0
      ],
      [
        "</s>",
        0.0
      ],
      [
        " ",
        -1.0537203360301994
      ],
      [
        ",",
        -3.787477591647436
      ],
      [
        "a",
        -3.9338975205123727
      ],
      [
        ".",
        -3.9732176281154867
      ],
      [
        "\n",
        -4.130268647825101
      ],
      [
        "ng",
        -4.37375824905639
      ],
      [
        "ing",
        -4.378376088880405
      ],
      [
        "king",
        -4.4107574447102476
      ],
      [
        "ning",
        -4.616939381182981
      ],
      [
        "s",
        -4.805498250374205
      ],
      [
        "na",
        -4.838262003812064
      ],
      [
        "at",
        -4.848436887908585
      ],
      [
        "ya",
        -4.997118930552457
      ],
      [
        "an",
        -5.154339078142275
      ],
      [
        "e",
        -5.200465287748234
      ],
      [
        "o",
        -5.267631987125364
      ],
      [
        "i",
        -5.3174161759085035
      ],
      [
        "(",
        -5.329239471265073
      ],
      [
        "la",
        -5.329328330466
      ],
      [
        ")",
        -5.332618204076233
      ],
      [
        "yang",
        -5.370235418926999
      ],
      [
        ":",
        -5.477178027173437
      ],
      [
        "-",
        -5.553423638108409
      ],
      [
        "da",
        -5.556479308737893
      ],
      [
        "g",
        -5.660267097312161
      ],
      [
        "ku",
        -5.692420216922029
      ],
      [
        "Ing",
        -5.714814388925118
      ],
      [
        "ka",
        -5.724451923148068
      ],
      [
        "d",
        -5.775370747678567
      ],
      [
        "mu",
        -5.797103015943886
      ],
      [
        "y",
        -5.925798818155082
      ],
      [
        "ma",
        -5.939374627602366
      ],
      [
        "pa",
        -5.944957011426226
      ],
      [
        "m",
        -5.948096439648705
      ],
      [
        "ding",
        -6.004679507410923
      ],
      [
        "metung",
        -6.014316895013652
      ],
      [
        "nang",
        -6.021877289194251
      ],
      [
        "n",
        -6.055355288449983
      ],
      [
        "u",
        -6.078787594515692
      ],
      [
        "t",
        -6.09035479315423
      ],
      [
        "mi",
        -6.1335531191128805
      ],
      [
        ";",
        -6.135180983741984
      ],
      [
        "I",
        -6.169392209040316
      ],
      [
        "k",
        -6.177497608717619
      ],
      [
        "A",
        -6.201872736870467
      ],
      [
        "ne",
        -6.222170280840796
      ],
      [
        "in",
        -6.355169099047561
      ],
      [
        "me",
        -6.390724360694286
      ],
      [
        "of",
        -6.399773005931829
      ],
      [
        "keng",
        -6.402582134360529
      ],
      [
        "At",
        -6.429268707619414
      ],
      [
        "kareng",
        -6.496909266291842
      ],
      [
        "al",
        -6.515382962059091
      ],
      [
        "man",
        -6.520463354990159
      ],
      [
        "ra",
        -6.537951568737313
      ],
      [
        "nung",
        -6.53992265835039
      ],
      [
        "de",
        -6.568223631808017
      ],
      [
        "\"",
        -6.576452367019577
      ],
      [
        "lang",
        -6.608708620243133
      ],
      [
        "c",
        -6.608882661223342
      ],
      [
        "E",
        -6.619464339419906
      ],
      [
        "ca",
        -6.629546431195077
      ],
      [
        "P",
        -6.633354921704445
      ],
      [
        "reng",
        -6.642611904428957
      ],
      [
        "p",
        -6.6499925100136466
      ],
      [
        "karing",
        -6.670970125910502
      ],
      [
        "on",
        -6.715327133658944
      ],
      [
        "ta",
        -6.732285518853002
      ],
      [
        "yu",
        -6.76655341371627
      ],
      [
        "atin",
        -6.790601063247914
      ],
      [
        "the",
        -6.799241363453241
      ],
      [
        "ampong",
        -6.813195427271616
      ],
      [
        "1",
        -6.847307537354359
      ],
      [
        "re",
        -6.8563765032858655
      ],
      [
        "C",
        -6.876290290060902
      ],
      [
        "Pa",
        -6.902929282224267
      ],
      [
        "S",
        -6.903000292733408
      ],
      [
        "ring",
        -6.906938420034601
      ],
      [
        "?",
        -6.910435154153582
      ],
      [
        "deng",
        -6.932246022602424
      ],
      [
        "sa",
        -6.959062790024303
      ],
      [
        "l",
        -6.9859203283887386
      ],
      [
        "O",
        -7.015166652210693
      ],
      [
        "ke",
        -7.040773786790474
      ],
      [
        "/",
        -7.0659530597550315
      ],
      [
        "pang",
        -7.078869131371759
      ],
      [
        "Ka",
        -7.084184905529574
      ],
      [
        "maka",
        -7.0900602970815125
      ],
      [
        "!",
        -7.092832384229071
      ],
      [
        "ba",
        -7.09541031264704
      ],
      [
        "iti",
        -7.1195566318116335
      ],
      [
        "Dios",
        -7.124866123152529
      ],
      [
        "to",
        -7.12801480206835
      ],
      [
        "San",
        -7.151089344251906
      ],
      [
        "and",
        -7.151883245741077
      ],
      [
        "pi",
        -7.158029422847603
      ],
      [
        "cu",
        -7.160864215989001
      ],
      [
        "kung",
        -7.180365451067882
      ],
      [
        "balen",
        -7.181825851134608
      ],
      [
        "2",
        -7.183895028358338
      ],
      [
        "no",
        -7.187910277815947
      ],
      [
        "K",
        -7.219230492949213
      ],
      [
        "b",
        -7.220766226326807
      ],
      [
        "Suglu",
        -7.2309019801628756
      ],
      [
        "nu",
        -7.238186965261007
      ],
      [
        "|",
        -7.243130948735468
      ],
      [
        "M",
        -7.245241507511369
      ],
      [
        "G",
        -7.248798097399424
      ],
      [
        "King",
        -7.257159709818429
      ],
      [
        "h",
        -7.261585674661047
      ],
      [
        "Ma",
        -7.2626178097745795
      ],
      [
        "tau",
        -7.26413391389795
      ],
      [
        "kang",
        -7.286873600150949
      ],
      [
        "r",
        -7.287696328378175
      ],
      [
        "3",
        -7.289919814440241
      ],
      [
        "di",
        -7.290544737632486
      ],
      [
        "D",
        -7.2936179345448355
      ],
      [
        "para",
        -7.300171876024231
      ],
      [
        "le",
        -7.3041681537059775
      ],
      [
        "mag",
        -7.313103140739913
      ],
      [
        "es",
        -7.318595291673407
      ],
      [
        "is",
        -7.324114433471773
      ],
      [
        "pin",
        -7.324191863211361
      ],
      [
        "neng",
        -7.332315223574533
      ],
      [
        "kayang",
        -7.333273223307962
      ],
      [
        "“",
        -7.3437144617154955
      ],
      [
        "F",
        -7.359370161478313
      ],
      [
        "it",
        -7.360464454083825
      ],
      [
        "”",
        -7.368129928971177
      ],
      [
        "ti",
        -7.3773335529768
      ],
      [
        "B",
        -7.3815411685522
      ],
      [
        "li",
        -7.40724353432947
      ],
      [
        "w",
        -7.431096505211651
      ],
      [
        "ban",
        -7.43188437518702
      ],
      [
        "mung",
        -7.443468271645297
      ],
      [
        "lalawigan",
        -7.44474875714358
      ],
      [
        "si",
        -7.472765277811611
      ],
      [
        "18",
        -7.473727610089874
      ],
      [
        "4",
        -7.484759476816397
      ],
      [
        "com",
        -7.493953924486293
      ],
      [
        "en",
        -7.4970270435738975
      ],
      [
        "uling",
        -7.500915083018134
      ],
      [
        "L",
        -7.501378641182369
      ],
      [
        "naman",
        -7.502260836945182
      ],
      [
        "7",
        -7.511347078430517
      ],
      [
        "or",
        -7.515113072358317
      ],
      [
        "Deng",
        -7.515844881306884
      ],
      [
        "alang",
        -7.533356102926452
      ],
      [
        "ibat",
        -7.535037618863289
      ],
      [
        "anti",
        -7.548562646303117
      ],
      [
        "19",
        -7.551832437425267
      ],
      [
        "te",
        -7.552149109107424
      ],
      [
        "aldo",
        -7.554223748296823
      ],
      [
        "mo",
        -7.563956431362232
      ],
      [
        "T",
        -7.565564246073303
      ],
      [
        "ko",
        -7.572845743097072
      ],
      [
        "ed",
        -7.585553381115433
      ],
      [
        "6",
        -7.592356880133144
      ],
      [
        "ment",
        -7.596211099621103
      ],
      [
        "er",
        -7.597501339919686
      ],
      [
        "ampó",
        -7.59945956918809
      ],
      [
        "pe",
        -7.600024818850227
      ],
      [
        "bie",
        -7.601168677085322
      ],
      [
        "Ding",
        -7.608511033102126
      ],
      [
        "us",
        -7.6116687573894
      ],
      [
        "pu",
        -7.620471355111644
      ],
      [
        "Filipinas",
        -7.634272651268153
      ],
      [
        "’",
        -7.6369881854727035
      ],
      [
        "9",
        -7.638673064076637
      ],
      [
        "–",
        -7.640973461424026
      ],
      [
        "5",
        -7.643644698311682
      ],
      [
        "tu",
        -7.64593525335446
      ],
      [
        "La",
        -7.650788219759561
      ],
      [
        "anak",
        -7.65500572015429
      ],
      [
        "ro",
        -7.6616388809015845
      ],
      [
        "Mi",
        -7.668909619774255
      ],
      [
        "dang",
        -7.669553859201929
      ],
      [
        "8",
        -7.670546711662294
      ],
      [
        "as",
        -7.67173620888331
      ],
      [
        "sinabi",
        -7.676706169138323
      ],
      [
        "pan",
        -7.67681936953654
      ],
      [
        "tang",
        -7.68367497194337
      ],
      [
        "Jesus",
        -7.686137672866701
      ],
      [
        "ni",
        -7.68653177160648
      ],
      [
        "do",
        -7.688412721386233
      ],
      [
        "kanaku",
        -7.688592047584444
      ],
      [
        "Nung",
        -7.6925642903169225
      ],
      [
        "f",
        -7.6945789463023075
      ],
      [
        "su",
        -7.701606210591855
      ],
      [
        "lu",
        -7.709724815721611
      ],
      [
        "Palwal",
        -7.71040454770004
      ],
      [
        "se",
        -7.716246500177275
      ],
      [
        "maki",
        -7.722470512589057
      ],
      [
        "bang",
        -7.722638819443512
      ],
      [
        "ri",
        -7.72537998183206
      ],
      [
        "banua",
        -7.73221765887261
      ],
      [
        "inyang",
        -7.735471514927694
      ],
      [
        "U",
        -7.741247034286046
      ],
      [
        "uli",
        -7.750445165173778
      ],
      [
        "rin",
        -7.750529698173241
      ],
      [
        "que",
        -7.7517852773931
      ],
      [
        "un",
        -7.7523130490252266
      ],
      [
        "Barangay",
        -7.755130021607505
      ],
      [
        "yan",
        -7.75593420498458
      ],
      [
        "co",
        -7.75726255968087
      ],
      [
        "mang",
        -7.763979515496912
      ],
      [
        "bi",
        -7.768839523343622
      ],
      [
        "lo",
        -7.7720506633893915
      ],
      [
        "ngan",
        -7.77391460167847
      ],
      [
        "Ca",
        -7.780737747155225
      ],
      [
        "anggang",
        -7.789091212581845
      ],
      [
        "métu",
        -7.7920829519133985
      ],
      [
        "balu",
        -7.803993834249003
      ],
      [
        "Mar",
        -7.805233031269044
      ],
      [
        "tamu",
        -7.806772986080889
      ],
      [
        "Me",
        -7.814375978208231
      ],
      [
        "The",
        -7.817174589468614
      ],
      [
        "populasyun",
        -7.826942486839201
      ],
      [
        "Agpang",
        -7.833473303875042
      ],
      [
        "be",
        -7.8398654902340015
      ],
      [
        "itang",
        -7.8525355577030655
      ],
      [
        "ance",
        -7.857948166229332
      ],
      [
        "R",
        -7.860661031464193
      ],
      [
        "Philippine",
        -7.865115959498122
      ],
      [
        "ampo",
        -7.880576259920355
      ],
      [
        "karela",
        -7.881250630318329
      ],
      [
        "Uling",
        -7.897868511287467
      ],
      [
        "Pob",
        -7.898604785211572
      ],
      [
        "kanita",
        -7.903902359610992
      ],
      [
        "dakal",
        -7.909654353513285
      ],
      [
        "ngeni",
        -7.914309644642005
      ],
      [
        "du",
        -7.91848254724766
      ],
      [
        "nibatan",
        -7.9208341171614975
      ],
      [
        "keka",
        -7.923947226098616
      ],
      [
        "panga",
        -7.931446758439654
      ],
      [
        "10",
        -7.940645416669593
      ],
      [
        "katau",
        -7.944501429584224
      ],
      [
        "Mat",
        -7.948739773184191
      ],
      [
        "pot",
        -7.973737818458885
      ],
      [
        "ala",
        -7.974727348539795
      ],
      [
        "mas",
        -7.981498295614817
      ],
      [
        "q",
        -7.981931593409815
      ],
      [
        "System",
        -7.985121051070804
      ],
      [
        "ensus",
        -7.986383665367499
      ],
      [
        "kekang",
        -7.994584426952053
      ],
      [
        "karin",
        -7.996970792789662
      ],
      [
        "Ginu",
        -7.997845983300277
      ],
      [
        "Manage",
        -7.9993872746717045
      ],
      [
        "Phil",
        -8.006724995855475
      ],
      [
        "N",
        -8.009062661366674
      ],
      [
        "lakanbalen",
        -8.00980694749095
      ],
      [
        "lugud",
        -8.01118624341721
      ],
      [
        "kea",
        -8.013800974212689
      ],
      [
        "H",
        -8.015088702736737
      ],
      [
        "Y",
        -8.018627558847115
      ],
      [
        "pami",
        -8.018643078940825
      ],
      [
        "Da",
        -8.01999101636827
      ],
      [
        "ch",
        -8.024313209028183
      ],
      [
        "'",
        -8.029329743853271
      ],
      [
        "Local",
        -8.02976060675369
      ],
      [
        "wan",
        -8.030830792739014
      ],
      [
        "th",
        -8.033241316118438
      ],
      [
        "Govern",
        -8.034425215998166
      ],
      [
        "Ba",
        -8.034428883812499
      ],
      [
        "panaun",
        -8.036862876791627
      ],
      [
        "yatu",
        -8.045369905884483
      ],
      [
        "15",
        -8.046233571832524
      ],
      [
        "emale",
        -8.048897601678199
      ],
      [
        "wa",
        -8.049126549013465
      ],
      [
        "pamag",
        -8.049655332601905
      ],
      [
        "manibat",
        -8.050422652475898
      ],
      [
        "kayabe",
        -8.052087325584335
      ],
      [
        "Code",
        -8.053571095646374
      ],
      [
        "Standard",
        -8.053929241075025
      ],
      [
        "erformance",
        -8.05710200285433
      ],
      [
        "barangay",
        -8.057129211517102
      ],
      [
        "kekayu",
        -8.058330210093198
      ],
      [
        "Geographic",
        -8.06347204879329
      ],
      [
        "kayu",
        -8.0646833872415
      ],
      [
        "amanu",
        -8.067295028339895
      ],
      [
        "pamimal",
        -8.067762065578096
      ],
      [
        "W",
        -8.068426925382727
      ],
      [
        "Atlas",
        -8.070093902637028
      ],
      [
        "…",
        -8.072300349308527
      ],
      [
        "Demograpi",
        -8.082020959963863
      ],
      [
        "20",
        -8.082738031571807
      ],
      [
        "17",
        -8.08409802608774
      ],
      [
        "14",
        -8.091385380117945
      ],
      [
        "16",
        -8.094551974508512
      ],
      [
        "dake",
        -8.094720385154593
      ],
      [
        "karelang",
        -8.10030010120333
      ],
      [
        "ita",
        -8.102908943775045
      ],
      [
        "tala",
        -8.104271486774742
      ],
      [
        "atiu",
        -8.105623826842631
      ],
      [
        "bu",
        -8.106752890302586
      ],
      [
        "aliwa",
        -8.109463163382522
      ],
      [
        "z",
        -8.11094515405986
      ],
      [
        "á",
        -8.11269622638707
      ],
      [
        "kaya",
        -8.117491285116216
      ],
      [
        "Sa",
        -8.122709050468858
      ],
      [
        "Luk",
        -8.12362214410298
      ],
      [
        "’t",
        -8.129512399330196
      ],
      [
        "keang",
        -8.13261741114791
      ],
      [
        "nan",
        -8.141518643078198
      ],
      [
        "12",
        -8.14510727326753
      ],
      [
        "il",
        -8.15096854508867
      ],
      [
        "13",
        -8.15501135692647
      ],
      [
        "ran",
        -8.15602394911886
      ],
      [
        "lan",
        -8.158812089607109
      ],
      [
        "tan",
        -8.165323646860932
      ],
      [
        "klasing",
        -8.167387913135759
      ],
      [
        "Act",
        -8.175605145256998
      ],
      [
        "aliwang",
        -8.175662686917802
      ],
      [
        "11",
        -8.178602741189856
      ],
      [
        "anyang",
        -8.184759232856418
      ],
      [
        "dapat",
        -8.191607934022311
      ],
      [
        "pun",
        -8.195710377128112
      ],
      [
        "Na",
        -8.201709747667572
      ],
      [
        "Lakanbalen",
        -8.203014572092904
      ],
      [
        "sarili",
        -8.206048095934694
      ],
      [
        "for",
        -8.211667448574254
      ],
      [
        "angga",
        -8.211974743189863
      ],
      [
        "gan",
        -8.222761867667586
      ],
      [
        "Co",
        -8.224479402775792
      ],
      [
        "ki",
        -8.22552458641599
      ],
      [
        "pag",
        -8.226103880057263
      ],
      [
        "lub",
        -8.22901297804576
      ],
      [
        "ketang",
        -8.23399345737531
      ],
      [
        "bilang",
        -8.235601171367525
      ],
      [
        "Ya",
        -8.237448112740061
      ],
      [
        "mayap",
        -8.248424461456429
      ],
      [
        "ru",
        -8.252495823089028
      ],
      [
        "pusu",
        -8.263970851608487
      ],
      [
        "balang",
        -8.265881739090883
      ],
      [
        "ini",
        -8.268611352208906
      ],
      [
        "ly",
        -8.273374362692
      ],
      [
        "Dapo",
        -8.274972860987038
      ],
      [
        "sablang",
        -8.275608516135076
      ],
      [
        "v",
        -8.27608885691939
      ],
      [
        "nanu",
        -8.280518063406706
      ],
      [
        "ampon",
        -8.286181283193994
      ],
      [
        "labuad",
        -8.287316718292633
      ],
      [
        "niti",
        -8.29103295099522
      ],
      [
        "Si",
        -8.295570430046883
      ],
      [
        "akit",
        -8.29563618624554
      ],
      [
        "'s",
        -8.297539213432513
      ],
      [
        "el",
        -8.298510432986312
      ],
      [
        "Re",
        -8.304253493160855
      ],
      [
        "ul",
        -8.307413138178397
      ],
      [
        "karé",
        -8.315184569615681
      ],
      [
        "Guinu",
        -8.31526127275013
      ],
      [
        "ian",
        -8.318892423474594
      ],
      [
        "ila",
        -8.322406264371413
      ],
      [
        "ali",
        -8.324556606314896
      ],
      [
        "paman",
        -8.326616041785083
      ],
      [
        "ung",
        -8.339030766659441
      ],
      [
        "manga",
        -8.339262571032844
      ],
      [
        "J",
        -8.347371928833176
      ],
      [
        "Ta",
        -8.34894345559269
      ],
      [
        "mig",
        -8.35480740308168
      ],
      [
        "dalan",
        -8.357222294729588
      ],
      [
        "buri",
        -8.368228341337858
      ],
      [
        "mal",
        -8.368405709989961
      ],
      [
        "deti",
        -8.370759901027249
      ],
      [
        "taung",
        -8.375183223745967
      ],
      [
        "ye",
        -8.380474045481693
      ],
      [
        "by",
        -8.380526166978733
      ],
      [
        "Mu",
        -8.380768247971666
      ],
      [
        "Kapampangan",
        -8.38161756501227
      ],
      [
        "rang",
        -8.38275831257844
      ],
      [
        "po",
        -8.385928404472724
      ],
      [
        "bo",
        -8.386185631859687
      ],
      [
        "lin",
        -8.386900696730727
      ],
      [
        "bale",
        -8.38791068109015
      ],
      [
        "Joh",
        -8.391897790663498
      ],
      [
        "Al",
        -8.400344147226509
      ],
      [
        "án",
        -8.402716160183436
      ],
      [
        "‘",
        -8.411678834377668
      ],
      [
        "ngana",
        -8.412553875498055
      ],
      [
        "Bu",
        -8.420357134424318
      ],
      [
        "India",
        -8.420621163176897
      ],
      [
        "Atin",
        -8.420884782814515
      ],
      [
        "ú",
        -8.4378001613091
      ],
      [
        "ce",
        -8.43848779857603
      ],
      [
        "De",
        -8.439930500033654
      ],
      [
        "21",
        -8.440947098287786
      ],
      [
        "Poblaci",
        -8.44198298459481
      ],
      [
        "maragul",
        -8.446965181372025
      ],
      [
        "um",
        -8.447804500729442
      ],
      [
        "Mag",
        -8.451438415301372
      ],
      [
        "del",
        -8.455759385399247
      ],
      [
        "kakung",
        -8.459309886759229
      ],
      [
        "id",
        -8.459661995794558
      ],
      [
        "Santa",
        -8.468466724303296
      ],
      [
        "bague",
        -8.476543005676646
      ],
      [
        "malyari",
        -8.478765824726308
      ],
      [
        "kan",
        -8.48328589667679
      ],
      [
        "Pi",
        -8.485188939820999
      ],
      [
        "lalam",
        -8.486098230129073
      ],
      [
        "22",
        -8.48924964306964
      ],
      [
        "23",
        -8.49059890314857
      ],
      [
        "murin",
        -8.49314809953407
      ],
      [
        "x",
        -8.494843587970099
      ],
      [
        "Li",
        -8.49540371342962
      ],
      [
        "24",
        -8.497849084703084
      ],
      [
        "can",
        -8.498278369346934
      ],
      [
        "Lu",
        -8.500373535273198
      ],
      [
        "hi",
        -8.504302381009172
      ],
      [
        "Tu",
        -8.506040804797177
      ],
      [
        "website",
        -8.506606656640482
      ],
      [
        "lagyu",
        -8.506726165388176
      ],
      [
        "min",
        -8.507267465817854
      ],
      [
        "han",
        -8.507902322837985
      ],
      [
        "Le",
        -8.510251534853436
      ],
      [
        "commune",
        -8.510366781066793
      ],
      [
        "mata",
        -8.51106799006807
      ],
      [
        "ve",
        -8.512811375068896
      ],
      [
        "tutu",
        -8.512963413055765
      ],
      [
        "ter",
        -8.518097486725804
      ],
      [
        "tungkul",
        -8.518586710765325
      ],
      [
        "bayu",
        -8.519710997081585
      ],
      [
        "In",
        -8.521663388428053
      ],
      [
        "va",
        -8.52360183787506
      ],
      [
        "Ban",
        -8.524453191657841
      ],
      [
        "ation",
        -8.525666770344362
      ],
      [
        "dé",
        -8.526477101586945
      ],
      [
        "cal",
        -8.52747857425642
      ],
      [
        "gamat",
        -8.529946087911611
      ],
      [
        "kapamilatan",
        -8.530799904538565
      ],
      [
        "kaniti",
        -8.534233071112741
      ],
      [
        "Offici",
        -8.535635382771451
      ],
      [
        "25",
        -8.537941380414821
      ],
      [
        "é",
        -8.538022234642037
      ],
      [
        "ha",
        -8.53814625575433
      ],
      [
        "V",
        -8.540642865115796
      ],
      [
        "yo",
        -8.542334668741406
      ],
      [
        "kekami",
        -8.54238639163461
      ],
      [
        "Iti",
        -8.546212599327731
      ],
      [
        " ",
        -8.549829155870734
      ],
      [
        "Di",
        -8.554757403718547
      ],
      [
        "ar",
        -8.560089419254794
      ],
      [
        "ó",
        -8.565826838632459
      ],
      [
        "lalaki",
        -8.567433685321543
      ],
      [
        "uan",
        -8.568734223776735
      ],
      [
        "Dalerayan",
        -8.56951483646759
      ],
      [
        "apat",
        -8.570163909768937
      ],
      [
        "yung",
        -8.57268151536162
      ],
      [
        "et",
        -8.576022514939744
      ],
      [
        "Cristo",
        -8.576232077544363
      ],
      [
        "kami",
        -8.580489835855678
      ],
      [
        "sasabian",
        -8.585142227094167
      ],
      [
        "keti",
        -8.593567865223728
      ],
      [
        "bage",
        -8.595363359592522
      ],
      [
        "Metung",
        -8.598129265783873
      ],
      [
        "san",
        -8.598880613435082
      ],
      [
        "sin",
        -8.5993464067027
      ],
      [
        "pepa",
        -8.609613928681897
      ],
      [
        "ating",
        -8.616650962972908
      ],
      [
        "lual",
        -8.617322282651571
      ],
      [
        "car",
        -8.617669708952464
      ],
      [
        "Mo",
        -8.620065784272743
      ],
      [
        "peka",
        -8.625767645784865
      ],
      [
        "ikit",
        -8.626067916365828
      ],
      [
        "lugal",
        -8.631777432609944
      ],
      [
        "vi",
        -8.64666302789522
      ],
      [
        "France",
        -8.647640976104977
      ],
      [
        "mika",
        -8.647889756919778
      ],
      [
        "kapata",
        -8.651214630251571
      ],
      [
        "sang",
        -8.65217713007316
      ],
      [
        "he",
        -8.652306314683536
      ],
      [
        "Inya",
        -8.653067179864212
      ],
      [
        "pam",
        -8.658448698506511
      ],
      [
        "tin",
        -8.659047351403043
      ],
      [
        "obra",
        -8.659735108507753
      ],
      [
        "—",
        -8.66834343416399
      ],
      [
        "palual",
        -8.670527672166216
      ],
      [
        "tung",
        -8.677531009882188
      ],
      [
        "26",
        -8.677917839214878
      ],
      [
        "ING",
        -8.678030089216342
      ],
      [
        "idad",
        -8.679013024779781
      ],
      [
        "men",
        -8.6796986587356
      ],
      [
        "ic",
        -8.680096129739379
      ],
      [
        "res",
        -8.681316058043826
      ],
      [
        "ol",
        -8.682855319086304
      ],
      [
        "ika",
        -8.68385721266119
      ],
      [
        "cung",
        -8.686014612767677
      ],
      [
        "st",
        -8.689977424239675
      ],
      [
        "lakad",
        -8.691793833331596
      ],
      [
        "Bo",
        -8.695538584148865
      ],
      [
        "aduang",
        -8.69667692680444
      ],
      [
        "ari",
        -8.698758630202033
      ],
      [
        "tamung",
        -8.701259878874433
      ],
      [
        "ud",
        -8.704103139245202
      ],
      [
        "ac",
        -8.70924434178973
      ],
      [
        "An",
        -8.710527383212554
      ],
      [
        "27",
        -8.713531594308398
      ],
      [
        "tula",
        -8.714508021724733
      ],
      [
        "mipa",
        -8.717641963842906
      ],
      [
        "up",
        -8.721131625102768
      ],
      [
        "lá",
        -8.72290445234971
      ],
      [
        "Su",
        -8.726489142128042
      ],
      [
        "per",
        -8.728222523479419
      ],
      [
        "Bi",
        -8.734727067223595
      ],
      [
        "Sur",
        -8.739471305933584
      ],
      [
        "lalu",
        -8.742199413286599
      ],
      [
        "qui",
        -8.754878981429831
      ],
      [
        "City",
        -8.75903924435363
      ],
      [
        "kabang",
        -8.760308454962768
      ],
      [
        "tanaman",
        -8.762375666790788
      ],
      [
        "atlung",
        -8.76374742469392
      ],
      [
        "ut",
        -8.76787444845905
      ],
      [
        "Ro",
        -8.767891367381711
      ],
      [
        "Ja",
        -8.767902706722731
      ],
      [
        "Ibpa",
        -8.77160081232092
      ],
      [
        "sana",
        -8.773001269222515
      ],
      [
        "Ar",
        -8.778032576206952
      ],
      [
        "30",
        -8.779747971646959
      ],
      [
        "babo",
        -8.780376114370842
      ],
      [
        "Ngeni",
        -8.781341200721432
      ],
      [
        "Ala",
        -8.782390605646999
      ],
      [
        "atyu",
        -8.783510513805071
      ],
      [
        "antimong",
        -8.783714942745709
      ],
      [
        "ir",
        -8.785543464916435
      ],
      [
        "estadu",
        -8.78956301698506
      ],
      [
        "mar",
        -8.791659614544582
      ],
      [
        "maging",
        -8.79686314982986
      ],
      [
        "New",
        -8.79923367802406
      ],
      [
        "uri",
        -8.802174310215232
      ],
      [
        "pung",
        -8.802742761689874
      ],
      [
        "namang",
        -8.804307694196602
      ],
      [
        "Lawen",
        -8.804667934596331
      ],
      [
        "bat",
        -8.807412866273129
      ],
      [
        "bansa",
        -8.807509057153313
      ],
      [
        "ph",
        -8.807793079713848
      ],
      [
        "28",
        -8.809306406534224
      ],
      [
        "tic",
        -8.81397486984166
      ],
      [
        "distritu",
        -8.814600511089782
      ],
      [
        "Image",
        -8.814693584399553
      ],
      [
        "kal",
        -8.816101116451826
      ],
      [
        "University",
        -8.819862224736431
      ],
      [
        "sala",
        -8.820936078690352
      ],
      [
        "katawan",
        -8.824564902728461
      ],
      [
        "â",
        -8.832229147909993
      ],
      [
        "pala",
        -8.833695392102754
      ],
      [
        "ver",
        -8.838675125269717
      ],
      [
        "kaku",
        -8.841553117649749
      ],
      [
        "gabun",
        -8.841868672746774
      ],
      [
        "bayung",
        -8.842437921706566
      ],
      [
        "aslagan",
        -8.842771041473426
      ],
      [
        "keraklan",
        -8.844510711498552
      ],
      [
        "son",
        -8.846942972353737
      ],
      [
        "os",
        -8.848058736852787
      ],
      [
        "detang",
        -8.84820839649942
      ],
      [
        "Nanu",
        -8.84947555123512
      ],
      [
        "Juan",
        -8.851528817551674
      ],
      [
        "tion",
        -8.856011158490048
      ],
      [
        "pal",
        -8.858011783146791
      ],
      [
        "abe",
        -8.862461890454046
      ],
      [
        "Z",
        -8.864563100487405
      ],
      [
        "babai",
        -8.86508434425342
      ],
      [
        "Am",
        -8.865334541935965
      ],
      [
        "wari",
        -8.8688223926672
      ],
      [
        "Maria",
        -8.871373547367057
      ],
      [
        "lung",
        -8.871872698014531
      ],
      [
        "réng",
        -8.875759593868608
      ],
      [
        "má",
        -8.875794486598107
      ],
      [
        "Jose",
        -8.876342468329863
      ],
      [
        "mumunang",
        -8.876862060233208
      ],
      [
        "bá",
        -8.887352412684187
      ],
      [
        "Ga",
        -8.888130950901479
      ],
      [
        "iya",
        -8.889715689569098
      ],
      [
        "kong",
        -8.891207134712818
      ],
      [
        "Se",
        -8.891744672607398
      ],
      [
        "nia",
        -8.892317930819894
      ],
      [
        "[",
        -8.893867234221048
      ],
      [
        "uk",
        -8.895025121680625
      ],
      [
        "kasalanan",
        -8.895272583071272
      ],
      [
        "danum",
        -8.8964104523577
      ],
      [
        "con",
        -8.897711439310436
      ],
      [
        "Anak",
        -8.90002631708784
      ],
      [
        "lis",
        -8.900894134350363
      ],
      [
        "asawa",
        -8.901481899560352
      ],
      [
        "ll",
        -8.903441151948355
      ],
      [
        "kin",
        -8.904126964932377
      ],
      [
        "albugan",
        -8.905922209280202
      ],
      [
        "kilub",
        -8.906104135830299
      ],
      [
        "Be",
        -8.90677435515365
      ],
      [
        "hu",
        -8.915923709633908
      ],
      [
        "banwa",
        -8.91848225093539
      ],
      [
        "29",
        -8.91971495929406
      ],
      [
        "sakit",
        -8.91991217759504
      ],
      [
        "agad",
        -8.921120109265367
      ],
      [
        "ninu",
        -8.92127865340789
      ],
      [
        "Espiritu",
        -8.921750690606013
      ],
      [
        "mete",
        -8.92215722064466
      ],
      [
        "ion",
        -8.924385055012594
      ],
      [
        "palwal",
        -8.927363838234356
      ],
      [
        "Po",
        -8.927611545262145
      ],
      [
        "datang",
        -8.929742217434882
      ],
      [
        "tungku",
        -8.93066429310091
      ],
      [
        "pasibayu",
        -8.931045518846016
      ],
      [
        "nong",
        -8.931668054755312
      ],
      [
        "bengi",
        -8.93231527190365
      ],
      [
        "ur",
        -8.932368861188234
      ],
      [
        "tas",
        -8.933615686666185
      ],
      [
        "Th",
        -8.934388255063414
      ],
      [
        "we",
        -8.935408771805257
      ],
      [
        "ja",
        -8.936212733319532
      ],
      [
        "bangsa",
        -8.941348266749078
      ],
      [
        "kapilan",
        -8.942300244286576
      ],
      [
        "kailangan",
        -8.946616680408784
      ],
      [
        "mibait",
        -8.947470690964714
      ],
      [
        "mong",
        -8.948273347281127
      ],
      [
        "ho",
        -8.948741387930847
      ],
      [
        "Maka",
        -8.950136030832006
      ],
      [
        "amanung",
        -8.951493794634818
      ],
      [
        "anting",
        -8.952922296339006
      ],
      [
        "meg",
        -8.954500377381336
      ],
      [
        "Kanita",
        -8.95536427684744
      ],
      [
        "batu",
        -8.95924252994741
      ],
      [
        "isip",
        -8.959684236940685
      ],
      [
        "za",
        -8.959906012331164
      ],
      [
        "College",
        -8.968045766343007
      ],
      [
        "aku",
        -8.970004309973621
      ],
      [
        "banal",
        -8.971082545211113
      ],
      [
        "j",
        -8.971366989759812
      ],
      [
        "Balen",
        -8.984068451034153
      ],
      [
        "laban",
        -8.984087746942667
      ],
      [
        "Anti",
        -8.984775197623467
      ],
      [
        "mer",
        -8.988046745374167
      ],
      [
        "reti",
        -8.98851774131179
      ],
      [
        "pati",
        -8.99056216296
      ],
      [
        "To",
        -8.991367367628772
      ],
      [
        "sabian",
        -8.991713661142377
      ],
      [
        "tune",
        -8.99198043935904
      ],
      [
        "ling",
        -8.9924378298544
      ],
      [
        "Ni",
        -8.997065317837905
      ],
      [
        "ry",
        -8.997559629963842
      ],
      [
        "matas",
        -9.00089953581386
      ],
      [
        "gue",
        -9.005211339482958
      ],
      [
        "ent",
        -9.006067540556554
      ],
      [
        "miras",
        -9.007098518141628
      ],
      [
        "ex",
        -9.00723967990384
      ],
      [
        "mala",
        -9.009621434080545
      ],
      [
        "lum",
        -9.01088783703992
      ],
      [
        "Americanu",
        -9.011017008299362
      ],
      [
        "les",
        -9.01222672712254
      ],
      [
        "quing",
        -9.012465030736298
      ],
      [
        "megi",
        -9.01614589445709
      ],
      [
        "Man",
        -9.024035165522506
      ],
      [
        "asan",
        -9.026173007725156
      ],
      [
        "upaya",
        -9.026585092768581
      ],
      [
        "mapilan",
        -9.030957066892466
      ],
      [
        "Ti",
        -9.031128628181232
      ],
      [
        "pro",
        -9.031234215696502
      ],
      [
        "í",
        -9.031236488386753
      ],
      [
        "makananu",
        -9.032119970785176
      ],
      [
        "lukluk",
        -9.036747717684321
      ],
      [
        "lag",
        -9.037113233982922
      ],
      [
        "bal",
        -9.037517399292586
      ],
      [
        "Car",
        -9.038566394457355
      ],
      [
        "Q",
        -9.04114006622352
      ],
      [
        "from",
        -9.043909994196245
      ],
      [
        "sabla",
        -9.044161881708298
      ],
      [
        "No",
        -9.045277600657371
      ],
      [
        "oc",
        -9.046915427066509
      ],
      [
        "ciudad",
        -9.048241907400524
      ],
      [
        "maca",
        -9.04930440333077
      ],
      [
        "lupa",
        -9.049542691426481
      ],
      [
        "Santo",
        -9.051111772753845
      ],
      [
        "pit",
        -9.052320403061417
      ],
      [
        "mí",
        -9.052742827405133
      ],
      [
        "Can",
        -9.053225092256369
      ],
      [
        "IS",
        -9.054476332228617
      ],
      [
        "mabilu",
        -9.05546804953502
      ],
      [
        "II",
        -9.055645045116496
      ],
      [
        "adwang",
        -9.057962337005282
      ],
      [
        "mula",
        -9.060212561009443
      ],
      [
        "minuna",
        -9.060762888024463
      ],
      [
        "ausan",
        -9.063252776415425
      ],
      [
        "Inyang",
        -9.066727985639744
      ],
      [
        "pat",
        -9.066940958123343
      ],
      [
        "mauli",
        -9.067767782117883
      ],
      [
        "pulu",
        -9.071268184390075
      ],
      [
        "gamit",
        -9.071474679952402
      ],
      [
        "né",
        -9.075116754706489
      ],
      [
        "Pan",
        -9.075473248337321
      ],
      [
        "ting",
        -9.075825914595905
      ],
      [
        "bulan",
        -9.076955320413067
      ],
      [
        "agpang",
        -9.077225950720024
      ],
      [
        "tra",
        -9.07808453981677
      ],
      [
        "Pedro",
        -9.080786632866252
      ],
      [
        "bag",
        -9.085851820491229
      ],
      [
        "Gu",
        -9.086272873273245
      ],
      [
        "bas",
        -9.088404914905839
      ],
      [
        "inatang",
        -9.088466094366497
      ],
      [
        "ous",
        -9.088593172791702
      ],
      [
        "X",
        -9.091621319673115
      ],
      [
        "Rev",
        -9.091707054290982
      ],
      [
        "salita",
        -9.096826154834977
      ],
      [
        "with",
        -9.099282599230868
      ],
      [
        "karinan",
        -9.10140779685823
      ],
      [
        "Pampanga",
        -9.10316540799063
      ],
      [
        "mate",
        -9.103946159046954
      ],
      [
        "pangulu",
        -9.104712407225486
      ],
      [
        "Lo",
        -9.108713184053265
      ],
      [
        "ist",
        -9.109125269515223
      ],
      [
        "à",
        -9.109645963053467
      ],
      [
        "]",
        -9.112210151009673
      ],
      [
        "Award",
        -9.119513431113244
      ],
      [
        "Ha",
        -9.120631855504499
      ],
      [
        "bye",
        -9.12090937011397
      ],
      [
        "tal",
        -9.121606653695444
      ],
      [
        "Tala",
        -9.12331056135693
      ],
      [
        "ary",
        -9.123402714553249
      ],
      [
        "0",
        -9.12639915083361
      ],
      [
        "oras",
        -9.128121106501759
      ],
      [
        "keni",
        -9.134594493223918
      ],
      [
        "iting",
        -9.13693614819896
      ],
      [
        "balayan",
        -9.138233897011236
      ],
      [
        "Ki",
        -9.140534664328886
      ],
      [
        "jpg",
        -9.144663323962936
      ],
      [
        "Ener",
        -9.14661353820836
      ],
      [
        "America",
        -9.147787595147017
      ],
      [
        "Uli",
        -9.14919519778392
      ],
      [
        "mit",
        -9.151818020349772
      ],
      [
        "ken",
        -9.15188521287158
      ],
      [
        "Ra",
        -9.154334461155626
      ],
      [
        "arapan",
        -9.154841958989245
      ],
      [
        "mé",
        -9.154877731475946
      ],
      [
        "gal",
        -9.155116237048428
      ],
      [
        "tri",
        -9.155359542623142
      ],
      [
        "ón",
        -9.156862934530352
      ],
      [
        "laman",
        -9.157740590969176
      ],
      [
        "kalupa",
        -9.158611498245799
      ],
      [
        "wi",
        -9.158821071062555
      ],
      [
        "bulung",
        -9.159078304822732
      ],
      [
        "lon",
        -9.159240651416141
      ],
      [
        "lig",
        -9.159636489317283
      ],
      [
        "kabud",
        -9.160260694360211
      ],
      [
        "tor",
        -9.161550043507056
      ],
      [
        "Wa",
        -9.16260844201846
      ],
      [
        "kareti",
        -9.162969924699766
      ],
      [
        "pang-",
        -9.165053330041907
      ],
      [
        "Bar",
        -9.172420714395619
      ],
      [
        "ligtas",
        -9.17542795760718
      ],
      [
        "Pablo",
        -9.178197633087315
      ],
      [
        "ot",
        -9.178292894089417
      ],
      [
        "katutuan",
        -9.178572068108538
      ],
      [
        "pama",
        -9.182055729583253
      ],
      [
        "sta",
        -9.186667101794878
      ],
      [
        "Norte",
        -9.188207896584714
      ],
      [
        "St",
        -9.188963816479976
      ],
      [
        "31",
        -9.189349714868719
      ],
      [
        "ragul",
        -9.190572355509214
      ],
      [
        "keya",
        -9.19057520533186
      ],
      [
        "city",
        -9.192205570262907
      ],
      [
        "Ku",
        -9.192988225887238
      ],
      [
        "pas",
        -9.194320129736141
      ],
      [
        "ista",
        -9.19665504641631
      ],
      [
        "ming",
        -9.196953734189695
      ],
      [
        "che",
        -9.199090741483055
      ],
      [
        "ilang",
        -9.204443252002566
      ],
      [
        "ty",
        -9.205825062010602
      ],
      [
        "land",
        -9.206567042967151
      ],
      [
        "pak",
        -9.207722339993733
      ],
      [
        "pur",
        -9.209806334329528
      ],
      [
        "_",
        -9.210374981720305
      ],
      [
        "pá",
        -9.211606953494659
      ],
      [
        "artista",
        -9.21260825607006
      ],
      [
        "ber",
        -9.214694730211367
      ],
      [
        "aniang",
        -9.214827656716778
      ],
      [
        "ñg",
        -9.217247292937369
      ],
      [
        "Te",
        -9.219984403359142
      ],
      [
        "kaybat",
        -9.220578870755716
      ],
      [
        "may",
        -9.22072468236972
      ],
      [
        "gen",
        -9.22420912942955
      ],
      [
        "bisa",
        -9.225186353017452
      ],
      [
        "ninuman",
        -9.22682490204044
      ],
      [
        "iang",
        -9.227342160202232
      ],
      [
        "Dakal",
        -9.228647899463624
      ],
      [
        "misan",
        -9.231247432831776
      ],
      [
        "dili",
        -9.231300830188765
      ],
      [
        "kata",
        -9.231762193981343
      ],
      [
        "dis",
        -9.232599527943208
      ],
      [
        "'t",
        -9.232705927922872
      ],
      [
        "daya",
        -9.23336909714375
      ],
      [
        "pang4",
        -9.236650588420748
      ],
      [
        "Ning",
        -9.236859801070068
      ],
      [
        "&",
        -9.238438032563408
      ],
      [
        "inya",
        -9.23999788251221
      ],
      [
        "Ag",
        -9.240239154908114
      ],
      [
        "alaga",
        -9.240674824016104
      ],
      [
        "fe",
        -9.241576762601428
      ],
      [
        "bit",
        -9.242575547169544
      ],
      [
        "malapit",
        -9.242850954059774
      ],
      [
        "bel",
        -9.24552778962555
      ],
      [
        "Indu",
        -9.246185481559198
      ],
      [
        "bunduk",
        -9.246191062751542
      ],
      [
        "Israel",
        -9.2462303427799
      ],
      [
        "ster",
        -9.247591263750024
      ],
      [
        "limang",
        -9.248000161816385
      ],
      [
        "sion",
        -9.251837281206083
      ],
      [
        "was",
        -9.253415811154388
      ],
      [
        "ustu",
        -9.253633782152344
      ],
      [
        "Cor",
        -9.256876252252546
      ],
      [
        "der",
        -9.258206478024164
      ],
      [
        "ume",
        -9.259719449895297
      ],
      [
        "ers",
        -9.262098544319695
      ],
      [
        "ligaya",
        -9.264499446095883
      ],
      [
        "sis",
        -9.264872253070322
      ],
      [
        "mon",
        -9.265170484126983
      ],
      [
        "ayan",
        -9.267205639389154
      ],
      [
        "bus",
        -9.26964021215803
      ],
      [
        "El",
        -9.272443418107496
      ],
      [
        "talasúlat",
        -9.272692440697217
      ],
      [
        "tá",
        -9.272881182267625
      ],
      [
        "National",
        -9.272973363524668
      ],
      [
        "rus",
        -9.273290497265691
      ],
      [
        "est",
        -9.27442254228784
      ],
      [
        "Pe",
        -9.274825329287417
      ],
      [
        "département",
        -9.27533284164745
      ],
      [
        "sepu",
        -9.276746546846788
      ],
      [
        "gui",
        -9.277411954384764
      ],
      [
        "Espanya",
        -9.278021524683
      ],
      [
        "So",
        -9.278059429742411
      ],
      [
        "itan",
        -9.278418324396707
      ],
      [
        "indu",
        -9.281313112538523
      ],
      [
        "Para",
        -9.282321580194797
      ],
      [
        "Go",
        -9.284017158987313
      ],
      [
        "nita",
        -9.284164815108774
      ],
      [
        "you",
        -9.284205392572972
      ],
      [
        "laguiu",
        -9.284296586061327
      ],
      [
        "He",
        -9.285041687930946
      ],
      [
        "Du",
        -9.285815242162904
      ],
      [
        "ser",
        -9.286542698304515
      ],
      [
        "Cu",
        -9.287913810476685
      ],
      [
        "kas",
        -9.289754888398408
      ],
      [
        "my",
        -9.292937483031903
      ],
      [
        "lit",
        -9.293926826597957
      ],
      [
        "dad",
        -9.294271108154142
      ],
      [
        "French",
        -9.294303832380084
      ],
      [
        "School",
        -9.294303940428868
      ],
      [
        "PA",
        -9.295704470625893
      ],
      [
        "Ho",
        -9.295725991480865
      ],
      [
        "http",
        -9.297043366231748
      ],
      [
        "ton",
        -9.299031468026005
      ],
      [
        "nala",
        -9.300364447624133
      ],
      [
        "ping",
        -9.303090897024948
      ],
      [
        "Hi",
        -9.30314912481035
      ],
      [
        "arap",
        -9.303916680451675
      ],
      [
        "ab",
        -9.307355919075107
      ],
      [
        "baba",
        -9.30749743480016
      ],
      [
        "ekibat",
        -9.309027554549683
      ],
      [
        "Heb",
        -9.309416628656923
      ],
      [
        "Website",
        -9.310887722662038
      ],
      [
        "mie",
        -9.313402832260149
      ],
      [
        "kamatayan",
        -9.313672925400382
      ],
      [
        "NA",
        -9.313707414959461
      ],
      [
        "Con",
        -9.314250164917949
      ],
      [
        "ditak",
        -9.314311818809994
      ],
      [
        "sik",
        -9.31440033846091
      ],
      [
        "ganap",
        -9.315432712638671
      ],
      [
        "makanian",
        -9.317004719200952
      ],
      [
        "pamuntuk",
        -9.319235792056752
      ],
      [
        "bunga",
        -9.32017179778577
      ],
      [
        "but",
        -9.321857113002752
      ],
      [
        "tata",
        -9.321947579256701
      ],
      [
        "bin",
        -9.32256395554445
      ],
      [
        "species",
        -9.324951892666238
      ],
      [
        "tik",
        -9.32505813066549
      ],
      [
        "English",
        -9.327686398046158
      ],
      [
        "depat",
        -9.32815536730717
      ],
      [
        "sulu",
        -9.329816046966197
      ],
      [
        "ambut",
        -9.330086411517339
      ],
      [
        "vo",
        -9.330306974224563
      ],
      [
        "Lon",
        -9.330672248637192
      ],
      [
        "gawa",
        -9.331964223397113
      ],
      [
        "cell",
        -9.332374925570623
      ],
      [
        "ria",
        -9.333020271931634
      ],
      [
        "pulung",
        -9.333330183894873
      ],
      [
        "ten",
        -9.333453040409472
      ],
      [
        "anam",
        -9.333538178424824
      ],
      [
        "tanggapan",
        -9.333864000109392
      ],
      [
        "sulat",
        -9.336495279677656
      ],
      [
        "uran",
        -9.33705746941693
      ],
      [
        "alakad",
        -9.338867402649552
      ],
      [
        "ras",
        -9.339193199795615
      ],
      [
        "Ne",
        -9.34045400225023
      ],
      [
        "gas",
        -9.340793242406253
      ],
      [
        "ña",
        -9.34093894512801
      ],
      [
        "33",
        -9.34134028870713
      ],
      [
        "Judio",
        -9.342826914325684
      ],
      [
        "Kar",
        -9.34376301299417
      ],
      [
        "ap",
        -9.345159796529346
      ],
      [
        "tag",
        -9.345446562854391
      ],
      [
        "Pu",
        -9.34930924855373
      ],
      [
        "put",
        -9.349446933869126
      ],
      [
        "tapat",
        -9.35040321838397
      ],
      [
        "sasa",
        -9.354256443080573
      ],
      [
        "long",
        -9.360082413414458
      ],
      [
        "Gal",
        -9.360845469061443
      ],
      [
        "salu",
        -9.36107434283576
      ],
      [
        "sukat",
        -9.361214232969196
      ],
      [
        "Ali",
        -9.361225467091746
      ],
      [
        "KA",
        -9.364771463414984
      ],
      [
        "kabaldugan",
        -9.366738008581784
      ],
      [
        "cia",
        -9.367884264384415
      ],
      [
        "Ke",
        -9.369430923563414
      ],
      [
        "*",
        -9.371045723525473
      ],
      [
        "syun",
        -9.371713190135477
      ],
      [
        "Ingles",
        -9.373210608832611
      ],
      [
        "%",
        -9.37400430340713
      ],
      [
        "bug",
        -9.374150979083375
      ],
      [
        "diling",
        -9.375108883231743
      ],
      [
        "pata",
        -9.375139698475891
      ],
      [
        "angin",
        -9.376357138646835
      ],
      [
        "chi",
        -9.376576276156893
      ],
      [
        "sh",
        -9.377239946712432
      ],
      [
        "lat",
        -9.379578826439472
      ],
      [
        "kasalpantayanan",
        -9.379947852980301
      ],
      [
        "Villa",
        -9.380653107553323
      ],
      [
        "adua",
        -9.384355540747706
      ],
      [
        "cang",
        -9.384684647983555
      ],
      [
        "JEHOVA",
        -9.385926939536681
      ],
      [
        "mali",
        -9.386745628332745
      ],
      [
        "paralan",
        -9.387742486489046
      ],
      [
        "sangkan",
        -9.389061158807547
      ],
      [
        "nune",
        -9.391719717089105
      ],
      [
        "kaluguran",
        -9.39183373637971
      ],
      [
        "qu",
        -9.392727365572153
      ],
      [
        "cas",
        -9.393634641613298
      ],
      [
        "antimo",
        -9.393647670219721
      ],
      [
        "Vi",
        -9.394856925215798
      ],
      [
        "daptan",
        -9.395688107466626
      ],
      [
        "Keka",
        -9.397016537870975
      ],
      [
        "dala",
        -9.398193091394944
      ],
      [
        "50",
        -9.398514384972374
      ],
      [
        "one",
        -9.400098414770476
      ],
      [
        "tak",
        -9.401735533908257
      ],
      [
        "Maki",
        -9.403614682135032
      ],
      [
        "dikil",
        -9.404725292483242
      ],
      [
        "radesh",
        -9.407143571688934
      ],
      [
        "ká",
        -9.407150190764263
      ],
      [
        "binie",
        -9.4083574752547
      ],
      [
        "kekatamung",
        -9.40842174913297
      ],
      [
        "Mas",
        -9.408803169757519
      ],
      [
        "sal",
        -9.410284114628727
      ],
      [
        "ies",
        -9.411214775437536
      ],
      [
        "kekatamu",
        -9.414904403920879
      ],
      [
        "bili",
        -9.421759778553302
      ],
      [
        "sak",
        -9.421765704312179
      ],
      [
        "milyari",
        -9.42266280027926
      ],
      [
        "Or",
        -9.423935995105804
      ],
      [
        "List",
        -9.424620937920825
      ],
      [
        "mga",
        -9.426613580101009
      ],
      [
        "Unit",
        -9.426814037832303
      ],
      [
        "libutad",
        -9.428861946316463
      ],
      [
        "state",
        -9.428987345652548
      ],
      [
        "Anyang",
        -9.42902479978656
      ],
      [
        "buku",
        -9.429917738285987
      ],
      [
        "meng",
        -9.43193657935593
      ],
      [
        "wal",
        -9.433188327014836
      ],
      [
        "As",
        -9.434558199425279
      ],
      [
        "wanan",
        -9.43510751906831
      ],
      [
        "2006",
        -9.435351951707647
      ],
      [
        "imp",
        -9.442142376187967
      ],
      [
        "mama",
        -9.442210553840525
      ],
      [
        "ww",
        -9.443598969593308
      ],
      [
        "Jo",
        -9.444748508432177
      ],
      [
        "Aku",
        -9.444843979520478
      ],
      [
        "kap",
        -9.445488247852785
      ],
      [
        "gul",
        -9.450467595157107
      ],
      [
        "cy",
        -9.451706157251017
      ],
      [
        "sabi",
        -9.452066480668684
      ],
      [
        "milabas",
        -9.452347062076864
      ],
      [
        "partamentu",
        -9.452747556825944
      ],
      [
        "ted",
        -9.45300607375504
      ],
      [
        "000",
        -9.453814376114664
      ],
      [
        "all",
        -9.454360886864233
      ],
      [
        "aus",
        -9.455111119301879
      ],
      [
        "salang",
        -9.45630251980807
      ],
      [
        "Min",
        -9.457037713269155
      ],
      [
        "Commune",
        -9.457288853338977
      ],
      [
        "manatili",
        -9.457416297461835
      ],
      [
        "lagiu",
        -9.458361730489077
      ],
      [
        "lut",
        -9.459827720675207
      ],
      [
        "maguing",
        -9.461045794503264
      ],
      [
        "ez",
        -9.462957263406674
      ],
      [
        "Mala",
        -9.463315515645114
      ],
      [
        "lad",
        -9.463767554441176
      ],
      [
        "masanting",
        -9.464430635666588
      ],
      [
        "den",
        -9.466309184329344
      ],
      [
        "site",
        -9.467180287971646
      ],
      [
        "larawan",
        -9.467401129628104
      ],
      [
        "libru",
        -9.468837618952623
      ],
      [
        "magpa",
        -9.471040575739696
      ],
      [
        "fi",
        -9.471224030946367
      ],
      [
        "BN",
        -9.476299689813393
      ],
      [
        "ibie",
        -9.476566385449388
      ],
      [
        "Em",
        -9.476578390130165
      ],
      [
        "ratang",
        -9.478547533565102
      ],
      [
        "sub",
        -9.479891771274051
      ],
      [
        "tuki",
        -9.481266734880197
      ],
      [
        "masikan",
        -9.482554394157997
      ],
      [
        "menga",
        -9.483235972153638
      ],
      [
        "#",
        -9.483488446704719
      ],
      [
        "line",
        -9.48422540271699
      ],
      [
        "pig",
        -9.484751954391257
      ],
      [
        "Government",
        -9.485639717945336
      ],
      [
        "Amen",
        -9.4859593230264
      ],
      [
        "lalang",
        -9.486277054882526
      ],
      [
        "Tsina",
        -9.490183698062625
      ],
      [
        "wang",
        -9.490513894986815
      ],
      [
        "Asia",
        -9.490977240162787
      ],
      [
        "35",
        -9.491161072157158
      ],
      [
        "Oh",
        -9.491276671420248
      ],
      [
        "lip",
        -9.491430215908558
      ],
      [
        "LA",
        -9.49249512743863
      ],
      [
        "Center",
        -9.493458943908749
      ],
      [
        "sag",
        -9.494082468964026
      ],
      [
        "jo",
        -9.497185894967796
      ],
      [
        "gagamitan",
        -9.497189003259237
      ],
      [
        "ner",
        -9.497280905758057
      ],
      [
        "36",
        -9.49976534544083
      ],
      [
        "Pag",
        -9.500067115945338
      ],
      [
        "bril",
        -9.500133343557494
      ],
      [
        "kil",
        -9.505057753215521
      ],
      [
        "animal",
        -9.506242661665645
      ],
      [
        "gawan",
        -9.506484630680044
      ],
      [
        "ib",
        -9.509588113392036
      ],
      [
        "ji",
        -9.510282867228025
      ],
      [
        "Mé",
        -9.511111414725162
      ],
      [
        "East",
        -9.513776885476574
      ],
      [
        "ff",
        -9.51512990661332
      ],
      [
        "Ika",
        -9.516620744537008
      ],
      [
        "2005",
        -9.517397564278559
      ],
      [
        "dimdam",
        -9.517512276108071
      ],
      [
        "gar",
        -9.51769961768371
      ],
      [
        "=",
        -9.520529683371347
      ],
      [
        "District",
        -9.520529711814826
      ],
      [
        "Ngana",
        -9.520714982953525
      ],
      [
        "her",
        -9.522721227911076
      ],
      [
        "lele",
        -9.523826355507351
      ],
      [
        "pen",
        -9.525932863083055
      ],
      [
        "Ati",
        -9.526111222666277
      ],
      [
        "bul",
        -9.527723556152761
      ],
      [
        "West",
        -9.528046166143163
      ],
      [
        "sig",
        -9.528249090595697
      ],
      [
        "ive",
        -9.528335507685997
      ],
      [
        "South",
        -9.528423004996059
      ],
      [
        "ké",
        -9.529586540268667
      ],
      [
        "kayari",
        -9.529829414085492
      ],
      [
        "Don",
        -9.530178616645628
      ],
      [
        "kaba",
        -9.532581037668194
      ],
      [
        "sadya",
        -9.533809309500615
      ],
      [
        "are",
        -9.535935990841889
      ],
      [
        "dia",
        -9.536200609325618
      ],
      [
        "ub",
        -9.538002062325575
      ],
      [
        "Nu",
        -9.538228532586047
      ],
      [
        "pekamaragul",
        -9.538404251146162
      ],
      [
        "kasakit",
        -9.538439467915389
      ],
      [
        "paki",
        -9.53902668701064
      ],
      [
        "api",
        -9.539120775056052
      ],
      [
        "pang5",
        -9.539885720383765
      ],
      [
        "\\",
        -9.541327639238927
      ],
      [
        "dutung",
        -9.542233150089316
      ],
      [
        "kekong",
        -9.543118866049863
      ],
      [
        "abalu",
        -9.544023224726718
      ],
      [
        "ren",
        -9.54426983750151
      ],
      [
        "History",
        -9.544836573664007
      ],
      [
        "iyapin",
        -9.545344229940428
      ],
      [
        "Alang",
        -9.545397323700442
      ],
      [
        "makata",
        -9.545790985270882
      ],
      [
        "kilala",
        -9.54641363594307
      ],
      [
        "38",
        -9.54665493020925
      ],
      [
        "arawak",
        -9.547584051821055
      ],
      [
        "lus",
        -9.550060724607036
      ],
      [
        "One",
        -9.550231209230596
      ],
      [
        "manimuna",
        -9.550475656443826
      ],
      [
        "cio",
        -9.551141516968471
      ],
      [
        "pamangan",
        -9.552004221526072
      ],
      [
        "lubus",
        -9.55256949244782
      ],
      [
        "40",
        -9.55420235246569
      ],
      [
        "dung",
        -9.556036793283141
      ],
      [
        "Hu",
        -9.55607538906876
      ],
      [
        "Lin",
        -9.556110166110923
      ],
      [
        "mumuna",
        -9.558242116047081
      ],
      [
        "mauling",
        -9.558793534983533
      ],
      [
        "Republika",
        -9.558996839219823
      ],
      [
        "babie",
        -9.559882136296624
      ],
      [
        "pitung",
        -9.56143400892931
      ],
      [
        "kaladua",
        -9.561821900833012
      ],
      [
        "David",
        -9.562574737773888
      ],
      [
        "Sam",
        -9.564484222958818
      ],
      [
        "Kaybat",
        -9.5662214727054
      ],
      [
        "maliari",
        -9.56734473894182
      ],
      [
        "tú",
        -9.56745380413518
      ],
      [
        "díli",
        -9.567587380539148
      ],
      [
        "nukarin",
        -9.568898219202717
      ],
      [
        "kasulat",
        -9.569609355210861
      ],
      [
        "Wikipedia",
        -9.569748848367496
      ],
      [
        "County",
        -9.569748889180143
      ],
      [
        "mine",
        -9.569923909954511
      ],
      [
        "balik",
        -9.569998554430972
      ],
      [
        "buntuk",
        -9.570252892186078
      ],
      [
        "our",
        -9.57030101497253
      ],
      [
        "Calv",
        -9.570614730632705
      ],
      [
        "mangan",
        -9.5707597088027
      ],
      [
        "mabie",
        -9.570871408668172
      ],
      [
        "par",
        -9.571130460198356
      ],
      [
        "bitis",
        -9.57132332376661
      ],
      [
        "AN",
        -9.572820317507468
      ],
      [
        "bung",
        -9.573342158680909
      ],
      [
        "alimbawa",
        -9.573376461148483
      ],
      [
        "map",
        -9.574152763583886
      ],
      [
        "age",
        -9.574427788522687
      ],
      [
        "yá",
        -9.575072889860436
      ],
      [
        "kekatang",
        -9.57585716352818
      ],
      [
        "siwala",
        -9.577494118491959
      ],
      [
        "makanyan",
        -9.57824245606902
      ],
      [
        "keta",
        -9.57834309847471
      ],
      [
        "Pang",
        -9.579535376402056
      ],
      [
        "én",
        -9.579649220135236
      ],
      [
        "34",
        -9.580129123699045
      ],
      [
        "Pilipinas",
        -9.580618445414096
      ],
      [
        "pali",
        -9.581622039103848
      ],
      [
        "lic",
        -9.581776419469671
      ],
      [
        "Del",
        -9.582414555706851
      ],
      [
        "ngara",
        -9.58415034520755
      ],
      [
        "bala",
        -9.585198511904755
      ],
      [
        "39",
        -9.586032827661128
      ],
      [
        "2007",
        -9.588231862067293
      ],
      [
        "utang",
        -9.588373185273007
      ],
      [
        "kayung",
        -9.589663985167011
      ],
      [
        "Bang",
        -9.591791110042971
      ],
      [
        "dong",
        -9.592228280652353
      ],
      [
        "queca",
        -9.5926597903046
      ],
      [
        "bandi",
        -9.593360327827506
      ],
      [
        "lili",
        -9.594035451528088
      ],
      [
        "din",
        -9.596854014364347
      ],
      [
        "TA",
        -9.597724427242888
      ],
      [
        "level",
        -9.5993182774299
      ],
      [
        "Ninu",
        -9.599512617966106
      ],
      [
        "Jeru",
        -9.599590083029291
      ],
      [
        "bli",
        -9.601040526310616
      ],
      [
        "pota",
        -9.601726361764875
      ],
      [
        "BA",
        -9.603121382291388
      ],
      [
        "labing",
        -9.605601729649841
      ],
      [
        "lú",
        -9.607424413888747
      ],
      [
        "papa",
        -9.60770996739327
      ],
      [
        "32",
        -9.607749147280302
      ],
      [
        "Balu",
        -9.608663941327887
      ],
      [
        "Ch",
        -9.610111587034805
      ],
      [
        "tad",
        -9.610230434986292
      ],
      [
        "salem",
        -9.610892509176804
      ],
      [
        "sikan",
        -9.611543722171543
      ],
      [
        "malating",
        -9.612846242772978
      ],
      [
        "Pamuntu",
        -9.613964398008644
      ],
      [
        "suglung",
        -9.614179724631843
      ],
      [
        "ilug",
        -9.614402256862185
      ],
      [
        "Mauling",
        -9.615065340447634
      ],
      [
        "alan",
        -9.615189563691363
      ],
      [
        "kakit",
        -9.616127046919463
      ],
      [
        "saup",
        -9.61841226601387
      ],
      [
        "amp",
        -9.618563860631333
      ],
      [
        "kautusan",
        -9.618998828225646
      ],
      [
        "dayatmalat",
        -9.621943117213629
      ],
      [
        "dagul",
        -9.622443187459988
      ],
      [
        "Ko",
        -9.623244525764463
      ],
      [
        "YA",
        -9.623694992854617
      ],
      [
        "Ex",
        -9.627096759109357
      ],
      [
        "grupu",
        -9.629194415588973
      ],
      [
        "ados",
        -9.630830396148939
      ],
      [
        "dalit",
        -9.631227887845839
      ],
      [
        "dinan",
        -9.631520709309667
      ],
      [
        "pamu",
        -9.632447494899687
      ],
      [
        "day",
        -9.632640854057264
      ],
      [
        "system",
        -9.632967427599983
      ],
      [
        "Ari",
        -9.633627118306627
      ],
      [
        "carin",
        -9.636763841443338
      ],
      [
        "World",
        -9.636812865695628
      ],
      [
        "espiritu",
        -9.636893075340303
      ],
      [
        "mani",
        -9.638239998432258
      ],
      [
        "pamani",
        -9.640098814836481
      ],
      [
        "ine",
        -9.640462968464128
      ],
      [
        "kareta",
        -9.640508462992766
      ],
      [
        "department",
        -9.640674195207787
      ],
      [
        "North",
        -9.64077222744898
      ],
      [
        "tur",
        -9.641098436825327
      ],
      [
        "pul",
        -9.642037743708235
      ],
      [
        "tulid",
        -9.64220793733586
      ],
      [
        "tive",
        -9.644362159003162
      ],
      [
        "Do",
        -9.644961615898879
      ],
      [
        "syon",
        -9.646274192094818
      ],
      [
        "ál",
        -9.647304591285927
      ],
      [
        "Cruz",
        -9.64844234819822
      ],
      [
        "kapayapan",
        -9.649086651073063
      ],
      [
        "ral",
        -9.649516548502351
      ],
      [
        "cion",
        -9.650101759482068
      ],
      [
        "37",
        -9.65016860602421
      ],
      [
        "balita",
        -9.65165992045043
      ],
      [
        "bar",
        -9.653785441826315
      ],
      [
        "departamentu",
        -9.654084600781504
      ],
      [
        "May",
        -9.65592614285676
      ],
      [
        "meka",
        -9.65664569998745
      ],
      [
        "American",
        -9.657722413865045
      ],
      [
        "Bayu",
        -9.660303744469388
      ],
      [
        "pamany",
        -9.660980899358623
      ],
      [
        "lik",
        -9.662990913232337
      ],
      [
        "sá",
        -9.663504331096416
      ],
      [
        "sisi",
        -9.664038100952485
      ],
      [
        "kar",
        -9.664242928703608
      ],
      [
        "John",
        -9.664647924755695
      ],
      [
        "los",
        -9.664665065800332
      ],
      [
        "State",
        -9.664738262628452
      ],
      [
        "kesa",
        -9.665342447176817
      ],
      [
        "dela",
        -9.665654228951066
      ],
      [
        "ula",
        -9.666516165356299
      ],
      [
        "yanib",
        -9.666546450248777
      ],
      [
        "bis",
        -9.666863081269678
      ],
      [
        "bubu",
        -9.667448031062202
      ],
      [
        "Kabang",
        -9.66831240305908
      ],
      [
        "Tag",
        -9.669651572993576
      ],
      [
        "Philippines",
        -9.670415469252795
      ],
      [
        "dá",
        -9.671046652942557
      ],
      [
        "memalen",
        -9.67233260204645
      ],
      [
        "2004",
        -9.672450468146328
      ],
      [
        "aga",
        -9.67361542509546
      ],
      [
        "siun",
        -9.67375687250816
      ],
      [
        "ulu",
        -9.673809857088903
      ],
      [
        "sen",
        -9.67481257293015
      ],
      [
        "ity",
        -9.67494341312645
      ],
      [
        "utus",
        -9.675520885825174
      ],
      [
        "û",
        -9.675596710566634
      ],
      [
        "manuknanga",
        -9.678427872875812
      ],
      [
        "pasbul",
        -9.679579635494758
      ],
      [
        "2000",
        -9.681320490482063
      ],
      [
        "Karin",
        -9.682172877126293
      ],
      [
        "tut",
        -9.682651802902358
      ],
      [
        "pil",
        -9.683215542641253
      ],
      [
        "pre",
        -9.687281334258934
      ],
      [
        "ip",
        -9.6875415008062
      ],
      [
        "gad",
        -9.688776173538518
      ],
      [
        "Banal",
        -9.689779729929814
      ],
      [
        "Aldo",
        -9.69102836405245
      ],
      [
        "gut",
        -9.69488062984488
      ],
      [
        "log",
        -9.69517247458242
      ],
      [
        "gang",
        -9.695194636026283
      ],
      [
        "Pro",
        -9.6962801667812
      ],
      [
        "Isidr",
        -9.696366109280673
      ],
      [
        "siping",
        -9.699377026981054
      ],
      [
        "III",
        -9.700241778527808
      ],
      [
        "tutuki",
        -9.700299150254386
      ],
      [
        "ology",
        -9.700353837581279
      ],
      [
        "miya",
        -9.702149839788717
      ],
      [
        "tus",
        -9.702245284025253
      ],
      [
        "papil",
        -9.705126006824338
      ],
      [
        "page",
        -9.705381913264851
      ],
      [
        "Mayo",
        -9.707966151889153
      ],
      [
        "Septiembr",
        -9.708699992147153
      ],
      [
        "tanggap",
        -9.710543027416309
      ],
      [
        "Science",
        -9.712849374360388
      ],
      [
        "tinggap",
        -9.71289906939171
      ],
      [
        "Panga",
        -9.715421991088045
      ],
      [
        "papunta",
        -9.716046938993237
      ],
      [
        "ná",
        -9.716767536127353
      ],
      [
        "ino",
        -9.716979758175324
      ],
      [
        "Information",
        -9.717016079051808
      ],
      [
        "ight",
        -9.71972347553923
      ],
      [
        "tinape",
        -9.721272208281542
      ],
      [
        "mag-",
        -9.723932523199164
      ],
      [
        "kekayung",
        -9.724361699950467
      ],
      [
        "ica",
        -9.724808813401427
      ],
      [
        "pani",
        -9.725769686544684
      ],
      [
        "that",
        -9.72632656475482
      ],
      [
        "miyayaliwa",
        -9.729691418200108
      ],
      [
        "ec",
        -9.730445655843493
      ],
      [
        "mini",
        -9.731988868802194
      ],
      [
        "bina",
        -9.733270098461176
      ],
      [
        "California",
        -9.733858523554503
      ],
      [
        "wat",
        -9.733869779523719
      ],
      [
        "pisamban",
        -9.734181479640142
      ],
      [
        "imalan",
        -9.734507977632493
      ],
      [
        "alak",
        -9.735026976597455
      ],
      [
        "47",
        -9.736139249005644
      ],
      [
        "not",
        -9.737866923775798
      ],
      [
        "gewa",
        -9.738498009880471
      ],
      [
        "uang",
        -9.739277604039454
      ],
      [
        "enti",
        -9.739294566770909
      ],
      [
        "puri",
        -9.740521475741545
      ],
      [
        "ikayu",
        -9.740736409883901
      ],
      [
        "langan",
        -9.741733644163272
      ],
      [
        "mak",
        -9.743359523672957
      ],
      [
        "Day",
        -9.743540186844502
      ],
      [
        "Her",
        -9.744609198225795
      ],
      [
        "ket",
        -9.745923048154152
      ],
      [
        "Bal",
        -9.746019882259896
      ],
      [
        "balamu",
        -9.746510101737591
      ],
      [
        "lalung",
        -9.746758759323995
      ],
      [
        "Itang",
        -9.748138702460952
      ],
      [
        "lapit",
        -9.7492695214495
      ],
      [
        "úl",
        -9.750188017512816
      ],
      [
        "Gi",
        -9.75027801207716
      ],
      [
        "bayan",
        -9.750374324471949
      ],
      [
        "kalam",
        -9.751030917198628
      ],
      [
        "lawan",
        -9.751492944092519
      ],
      [
        "Kayabe",
        -9.751702041366133
      ],
      [
        "mor",
        -9.752258583411464
      ],
      [
        "lí",
        -9.753297856449336
      ],
      [
        "til",
        -9.753324564090669
      ],
      [
        "For",
        -9.760437713894863
      ],
      [
        "Ru",
        -9.761208241136895
      ],
      [
        "linis",
        -9.76265580093375
      ],
      [
        "dor",
        -9.763090447578056
      ],
      [
        "por",
        -9.763704073490157
      ],
      [
        "era",
        -9.764799958035976
      ],
      [
        "nayun",
        -9.765757113112196
      ],
      [
        "dayu",
        -9.766164498240695
      ],
      [
        "isipan",
        -9.76648890118908
      ],
      [
        "Kaibat",
        -9.767579216534767
      ],
      [
        "har",
        -9.767767252288998
      ],
      [
        "lug",
        -9.767905620148836
      ],
      [
        "Sal",
        -9.768924541031648
      ],
      [
        "tig",
        -9.7698986190402
      ],
      [
        "pay",
        -9.770507194859462
      ],
      [
        "Bb",
        -9.772200496335017
      ],
      [
        "Ph",
        -9.772597893127646
      ],
      [
        "agyang",
        -9.773221775060902
      ],
      [
        "pelicula",
        -9.773352876836817
      ],
      [
        "takut",
        -9.77386301107996
      ],
      [
        "yon",
        -9.774630072661878
      ],
      [
        "Mayap",
        -9.77484636650713
      ],
      [
        "Neng",
        -9.774884750514898
      ],
      [
        "sung",
        -9.775261744143027
      ],
      [
        "US",
        -9.776919480631157
      ],
      [
        "pengari",
        -9.77731620101345
      ],
      [
        "egovi",
        -9.77756964059725
      ],
      [
        "suli",
        -9.779661729907009
      ],
      [
        "kanu",
        -9.779954697632542
      ],
      [
        "gaga",
        -9.780097623388903
      ],
      [
        "Pal",
        -9.786288660994718
      ],
      [
        "Juli",
        -9.786578075133924
      ],
      [
        "bú",
        -9.78845739222416
      ],
      [
        "ron",
        -9.789343547805684
      ],
      [
        "ramdam",
        -9.789510370279903
      ],
      [
        "yun",
        -9.791144783578174
      ],
      [
        "makapa",
        -9.792617230670283
      ],
      [
        "eganagana",
        -9.793063882193572
      ],
      [
        "tupad",
        -9.793185903997031
      ],
      [
        "babaing",
        -9.793708269456818
      ],
      [
        "imut",
        -9.794066320701765
      ],
      [
        "Junio",
        -9.794874493351085
      ],
      [
        "lapad",
        -9.795117442698047
      ],
      [
        "Map",
        -9.796334207903605
      ],
      [
        "kadane",
        -9.796580764275792
      ],
      [
        "AT",
        -9.796710394164462
      ],
      [
        "lako",
        -9.797369077937473
      ],
      [
        "bor",
        -9.799723434064365
      ],
      [
        "paka",
        -9.803579112920144
      ],
      [
        "his",
        -9.806284606313142
      ],
      [
        "Ania",
        -9.807570815545393
      ],
      [
        "Malda",
        -9.80785770484125
      ],
      [
        "cor",
        -9.80827247889243
      ],
      [
        "York",
        -9.808794552780459
      ],
      [
        "ipa",
        -9.809665023626252
      ],
      [
        "war",
        -9.80978969030912
      ],
      [
        "bil",
        -9.812913860274982
      ],
      [
        "Francisco",
        -9.813372281603488
      ],
      [
        "arapat",
        -9.815120354081088
      ],
      [
        "pauli",
        -9.815618969234055
      ],
      [
        "pamana",
        -9.816266737001005
      ],
      [
        "pilatan",
        -9.818069411723304
      ],
      [
        "luma",
        -9.818813458567735
      ],
      [
        "yayaus",
        -9.819057932761906
      ],
      [
        "pangulung",
        -9.81957646472965
      ],
      [
        "magagamit",
        -9.820139206124148
      ],
      [
        "Amanung",
        -9.820381459207287
      ],
      [
        "libu",
        -9.820585003153912
      ],
      [
        "rug",
        -9.820934592354892
      ],
      [
        "abak",
        -9.821205183192195
      ],
      [
        "hal",
        -9.821308178974334
      ],
      [
        "43",
        -9.821333294114462
      ],
      [
        "Manila",
        -9.822457715135375
      ],
      [
        "States",
        -9.82302069269269
      ],
      [
        "ix",
        -9.824942641014772
      ],
      [
        "sikanan",
        -9.825336205364078
      ],
      [
        "Mal",
        -9.825398065895776
      ],
      [
        "cá",
        -9.827196223037067
      ],
      [
        "dal",
        -9.82730819702732
      ],
      [
        "Cala",
        -9.827502494741863
      ],
      [
        "kayanakan",
        -9.827594194873624
      ],
      [
        "bait",
        -9.828324690296132
      ],
      [
        "ju",
        -9.829481815972985
      ],
      [
        "pámag",
        -9.829949371943801
      ],
      [
        "pol",
        -9.830090776629698
      ],
      [
        "Bay",
        -9.830336027667006
      ],
      [
        "IN",
        -9.831839216382717
      ],
      [
        "Menila",
        -9.832287724440476
      ],
      [
        "ndhra",
        -9.832473240475494
      ],
      [
        "diwa",
        -9.833165542145935
      ],
      [
        "Gui",
        -9.833186123534716
      ],
      [
        "katuliran",
        -9.833657121556481
      ],
      [
        "DA",
        -9.83393616264874
      ],
      [
        "malda",
        -9.83418447246976
      ],
      [
        "way",
        -9.83429304644071
      ],
      [
        "pus",
        -9.83658339826114
      ],
      [
        "sabyan",
        -9.836643280746372
      ],
      [
        "ipus",
        -9.837042244081402
      ],
      [
        "biasa",
        -9.837129724421626
      ],
      [
        "gum",
        -9.837688709037842
      ],
      [
        "CA",
        -9.83846671968371
      ],
      [
        "rapat",
        -9.838493974909731
      ],
      [
        "kanta",
        -9.838859915110092
      ],
      [
        "talaga",
        -9.83908442287731
      ],
      [
        "adu",
        -9.839104537749936
      ],
      [
        "mayay",
        -9.83956521297533
      ],
      [
        "talasulat",
        -9.841872158552025
      ],
      [
        "asbuk",
        -9.8419805196291
      ],
      [
        "bon",
        -9.844411406428122
      ],
      [
        "other",
        -9.84530498408947
      ],
      [
        "197",
        -9.845349580801326
      ],
      [
        "sil",
        -9.84579022146514
      ],
      [
        "Bas",
        -9.847623574611116
      ],
      [
        "gamitan",
        -9.849228706548308
      ],
      [
        "tátag",
        -9.84931220343783
      ],
      [
        "lim",
        -9.85042458817155
      ],
      [
        "General",
        -9.851200075663332
      ],
      [
        "ram",
        -9.851756273866837
      ],
      [
        "Mig",
        -9.853464693226353
      ],
      [
        "lakuan",
        -9.855023595966937
      ],
      [
        "pakit",
        -9.855060360973965
      ],
      [
        "official",
        -9.855630190341861
      ],
      [
        "familia",
        -9.855631806148345
      ],
      [
        "lunus",
        -9.855710111563265
      ],
      [
        "pamilya",
        -9.855845033824306
      ],
      [
        "sadia",
        -9.85587673061995
      ],
      [
        "NG",
        -9.856986611022165
      ],
      [
        "maniwala",
        -9.85713639733865
      ],
      [
        "ura",
        -9.857474133923564
      ],
      [
        "Dm",
        -9.857894949523565
      ],
      [
        "kaming",
        -9.858750196614036
      ],
      [
        "des",
        -9.858825275256816
      ],
      [
        "mitatag",
        -9.859831383596347
      ],
      [
        "Academy",
        -9.860437880652501
      ],
      [
        "lawe",
        -9.860714924425562
      ],
      [
        "shi",
        -9.860868691384226
      ],
      [
        "rap",
        -9.862104698487432
      ],
      [
        "rá",
        -9.865171670582907
      ],
      [
        "ía",
        -9.866150502523144
      ],
      [
        "mán",
        -9.866191254988014
      ],
      [
        "alus",
        -9.866563401330385
      ],
      [
        "buk",
        -9.866654911075337
      ],
      [
        "magdala",
        -9.866847351511819
      ],
      [
        "ori",
        -9.867513211304011
      ],
      [
        "tali",
        -9.868503901677624
      ],
      [
        "Art",
        -9.868504610150048
      ],
      [
        "Ri",
        -9.869184438709116
      ],
      [
        "pampang",
        -9.870001716787666
      ],
      [
        "mismu",
        -9.870689600674082
      ],
      [
        "î",
        -9.871746192368555
      ],
      [
        "tuk",
        -9.87176468475317
      ],
      [
        "aslag",
        -9.87300494997723
      ],
      [
        "fo",
        -9.874661058181616
      ],
      [
        "News",
        -9.874726254016206
      ],
      [
        "gagawan",
        -9.875778526242767
      ],
      [
        "Chi",
        -9.876211509049345
      ],
      [
        "don",
        -9.876557292155194
      ],
      [
        "uc",
        -9.877083672963265
      ],
      [
        "aralas",
        -9.878648442042238
      ],
      [
        "linub",
        -9.879007437018817
      ],
      [
        "sam",
        -9.879492513092094
      ],
      [
        "Republic",
        -9.880022897704908
      ],
      [
        "port",
        -9.88013519755324
      ],
      [
        "butul",
        -9.880693446256824
      ],
      [
        "laga",
        -9.881325607381296
      ],
      [
        "2010",
        -9.88206031880525
      ],
      [
        "able",
        -9.883593285072891
      ],
      [
        "pé",
        -9.88376728613446
      ],
      [
        "org",
        -9.884222341501545
      ],
      [
        "bun",
        -9.884486856950762
      ],
      [
        "60",
        -9.88472604330525
      ],
      [
        "Rizal",
        -9.884831376846767
      ],
      [
        "Ju",
        -9.886703117084597
      ],
      [
        "pri",
        -9.886910854119561
      ],
      [
        "Ab",
        -9.887320801591944
      ],
      [
        "ory",
        -9.887413542353602
      ],
      [
        "NING",
        -9.88925721713241
      ],
      [
        "ish",
        -9.890471337759038
      ],
      [
        "ard",
        -9.890542883400897
      ],
      [
        "meko",
        -9.892763901605361
      ],
      [
        "pon",
        -9.895968698275594
      ],
      [
        "cent",
        -9.897560706479817
      ],
      [
        "bout",
        -9.898259815413835
      ],
      [
        "daka",
        -9.8983897170728
      ],
      [
        "die",
        -9.898462996349723
      ],
      [
        "Gm",
        -9.899888121917606
      ],
      [
        "89",
        -9.900773476448144
      ],
      [
        "Cam",
        -9.901341272388345
      ],
      [
        "Inia",
        -9.901956063522181
      ],
      [
        "Yang",
        -9.904497304065412
      ],
      [
        "mil",
        -9.904531499922104
      ],
      [
        "mú",
        -9.904662531470548
      ],
      [
        "col",
        -9.905513285711109
      ],
      [
        "sia",
        -9.907065038057839
      ],
      [
        "time",
        -9.907398955610908
      ],
      [
        "pilan",
        -9.908442614333417
      ],
      [
        "ín",
        -9.908693640229934
      ],
      [
        "Ilug",
        -9.908760174853366
      ],
      [
        "iz",
        -9.909763206416486
      ],
      [
        "Association",
        -9.90983052697872
      ],
      [
        "International",
        -9.909837754951933
      ],
      [
        "your",
        -9.910451323154717
      ],
      [
        "Per",
        -9.91076405947725
      ],
      [
        "aral",
        -9.911144774481851
      ],
      [
        "mitmu",
        -9.913191286374303
      ],
      [
        "Men",
        -9.9143977013339
      ],
      [
        "Tarlac",
        -9.914909890320448
      ],
      [
        "Maca",
        -9.914922354177643
      ],
      [
        "Zone",
        -9.91519512700548
      ],
      [
        "Marzo",
        -9.915313698761631
      ],
      [
        "Island",
        -9.915499041918721
      ],
      [
        "Angga",
        -9.916109403080728
      ],
      [
        "MA",
        -9.916303994932377
      ],
      [
        "amilatan",
        -9.916667224895692
      ],
      [
        "manakit",
        -9.917041690012333
      ],
      [
        "Pun",
        -9.91721268766964
      ],
      [
        "Agost",
        -9.917782832140205
      ],
      [
        "Antonio",
        -9.920013016803617
      ],
      [
        "Bala",
        -9.921649842829716
      ],
      [
        "ric",
        -9.922335305973121
      ],
      [
        "tam",
        -9.922469906191353
      ],
      [
        "batas",
        -9.923334681188107
      ],
      [
        "pamag-",
        -9.924442381682205
      ],
      [
        "Malyari",
        -9.925383708694351
      ],
      [
        "stro",
        -9.926218583892105
      ],
      [
        "nasa",
        -9.92630497938232
      ],
      [
        "sinta",
        -9.926749849461553
      ],
      [
        "art",
        -9.926851641039367
      ],
      [
        "Ating",
        -9.92750793066445
      ],
      [
        "manula",
        -9.92756593637679
      ],
      [
        "panalangin",
        -9.928049946646436
      ],
      [
        "rio",
        -9.929149470594004
      ],
      [
        "inter",
        -9.929430035127329
      ],
      [
        "tul",
        -9.930480624131635
      ],
      [
        "Manibat",
        -9.933071044337947
      ],
      [
        "net",
        -9.933301105796879
      ],
      [
        "cap",
        -9.935372009131598
      ],
      [
        "²",
        -9.93547290137781
      ],
      [
        "Dan",
        -9.937967791232541
      ],
      [
        "46",
        -9.938055106185377
      ],
      [
        "ros",
        -9.94071757944862
      ],
      [
        "munta",
        -9.940820171529307
      ],
      [
        "kay",
        -9.940882322427559
      ],
      [
        "Sin",
        -9.941264083452078
      ],
      [
        "Institute",
        -9.94198581926841
      ],
      [
        "atlu",
        -9.942326352470193
      ],
      [
        "nuan",
        -9.943653563827503
      ],
      [
        "meki",
        -9.944531178857758
      ],
      [
        "media",
        -9.945277187301784
      ],
      [
        "luk",
        -9.94576213876822
      ],
      [
        "lungkut",
        -9.948018587406082
      ],
      [
        "sanga",
        -9.948205354320642
      ],
      [
        "ste",
        -9.948758857173008
      ],
      [
        "sab",
        -9.948770549919768
      ],
      [
        "talan",
        -9.950799238882166
      ],
      [
        "ley",
        -9.951053632977603
      ],
      [
        "ulaga",
        -9.951120811409258
      ],
      [
        "sacerdote",
        -9.951179996836473
      ],
      [
        "Vicente",
        -9.951180948023886
      ],
      [
        "pera",
        -9.951388136949683
      ],
      [
        "War",
        -9.951493910375843
      ],
      [
        "45",
        -9.951586490411259
      ],
      [
        "punan",
        -9.951797229259302
      ],
      [
        "gá",
        -9.954400905520385
      ],
      [
        "Dr",
        -9.955410616902842
      ],
      [
        "MI",
        -9.955680645368902
      ],
      [
        "Diciembr",
        -9.956470999995455
      ],
      [
        "Roman",
        -9.956589855153569
      ],
      [
        "mbi",
        -9.956821858873843
      ],
      [
        "80",
        -9.956864623562819
      ],
      [
        "zo",
        -9.9579913159052
      ],
      [
        "pamipa",
        -9.958036497358414
      ],
      [
        "kad",
        -9.958928806747961
      ],
      [
        "sum",
        -9.959441835473294
      ],
      [
        "bigla",
        -9.959647145350546
      ],
      [
        "masa",
        -9.960880074980164
      ],
      [
        "Aveyron",
        -9.96179026624915
      ],
      [
        "lulu",
        -9.962769637722378
      ],
      [
        "nanuman",
        -9.964041860859727
      ],
      [
        "Ketang",
        -9.964902360107
      ],
      [
        "angel",
        -9.966503281744078
      ],
      [
        "Gra",
        -9.966662138446832
      ],
      [
        "awad",
        -9.967511806067243
      ],
      [
        "ima",
        -9.968284778055088
      ],
      [
        "red",
        -9.969146957314948
      ],
      [
        "labi",
        -9.969904478346084
      ],
      [
        "cul",
        -9.970125892174586
      ],
      [
        "carín",
        -9.970883097532386
      ],
      [
        "Ber",
        -9.971063371788674
      ],
      [
        "sali",
        -9.972626607352034
      ],
      [
        "aquit",
        -9.973821474888023
      ],
      [
        "Quez",
        -9.974313411383164
      ],
      [
        "gay",
        -9.975094215167356
      ],
      [
        "pis",
        -9.97704460187823
      ],
      [
        "bong",
        -9.977649636513922
      ],
      [
        "caya",
        -9.977906095755884
      ],
      [
        "pangulungalbugan",
        -9.978083019534361
      ],
      [
        "matuli",
        -9.978314162676453
      ],
      [
        "Koro",
        -9.978754005228701
      ],
      [
        "pisi",
        -9.979076930621485
      ],
      [
        "nig",
        -9.979616955029115
      ],
      [
        "git",
        -9.980166423751221
      ],
      [
        "lista",
        -9.980529702798917
      ],
      [
        "Han",
        -9.9808346800781
      ],
      [
        "kule",
        -9.981067666049508
      ],
      [
        "lar",
        -9.982659177761686
      ],
      [
        "ibpa",
        -9.983544985208747
      ],
      [
        "44",
        -9.985002578727315
      ],
      [
        "Mayor",
        -9.985816753552257
      ],
      [
        "Que",
        -9.985850697229978
      ],
      [
        "sakup",
        -9.986470374623698
      ],
      [
        "mam",
        -9.98693558107368
      ],
      [
        "Cal",
        -9.987079850369163
      ],
      [
        "daraptan",
        -9.988822397399375
      ],
      [
        "sampaga",
        -9.988836119111369
      ],
      [
        "misa",
        -9.989135602415796
      ],
      [
        "tubud",
        -9.989264550276847
      ],
      [
        "keca",
        -9.989361017633982
      ],
      [
        "ablas",
        -9.990223472627653
      ],
      [
        "has",
        -9.990263599036279
      ],
      [
        "cam",
        -9.990872538294642
      ],
      [
        "megu",
        -9.990988325753122
      ],
      [
        "rí",
        -9.99139525924453
      ],
      [
        "All",
        -9.992962035818259
      ],
      [
        "ray",
        -9.99296342273378
      ],
      [
        "Marco",
        -9.993005013387613
      ],
      [
        "adwa",
        -9.993196482800087
      ],
      [
        "tun",
        -9.993714095442911
      ],
      [
        "mila",
        -9.994307824343071
      ],
      [
        "Europa",
        -9.994313567384987
      ],
      [
        "You",
        -9.995293490714435
      ],
      [
        "dara",
        -9.995831595862883
      ],
      [
        "prefecture",
        -9.995941181821717
      ],
      [
        "val",
        -9.997910292231396
      ],
      [
        "magaral",
        -9.998044403192132
      ],
      [
        "48",
        -9.998540208943195
      ],
      [
        "Pebrer",
        -9.999848640419586
      ],
      [
        "pos",
        -9.999973469523676
      ],
      [
        "populasi",
        -10.001717541289175
      ],
      [
        "baluan",
        -10.003130709052833
      ],
      [
        "mesabi",
        -10.004166847962718
      ],
      [
        "kapa",
        -10.005541065115192
      ],
      [
        "sasabi",
        -10.005994338433648
      ],
      [
        "KU",
        -10.006658392530237
      ],
      [
        "kayábé",
        -10.00743249392142
      ],
      [
        "Lib",
        -10.007980757233351
      ],
      [
        "tz",
        -10.008986044052563
      ],
      [
        "Arts",
        -10.00913843397812
      ],
      [
        "Angele",
        -10.01000436004749
      ],
      [
        "tes",
        -10.010028349380056
      ],
      [
        "nú",
        -10.010100463952618
      ],
      [
        "Febrer",
        -10.010983013242647
      ],
      [
        "Má",
        -10.011103982176632
      ],
      [
        "tinu",
        -10.011106031244031
      ],
      [
        "pinili",
        -10.011762409567943
      ],
      [
        "tutung",
        -10.011890330679286
      ],
      [
        "sukul",
        -10.012829776594835
      ],
      [
        "ákit",
        -10.012836597533155
      ],
      [
        "je",
        -10.01297394511575
      ],
      [
        "2012",
        -10.013072086932443
      ],
      [
        "anac",
        -10.01369548063493
      ],
      [
        "yong",
        -10.015340563522269
      ],
      [
        "ual",
        -10.016234972610283
      ],
      [
        "tud",
        -10.016359002986185
      ],
      [
        "sinulat",
        -10.016755167706634
      ],
      [
        "Pota",
        -10.016972150990279
      ],
      [
        "subli",
        -10.017323766940482
      ],
      [
        "Angel",
        -10.018093847154132
      ],
      [
        "Mor",
        -10.01905100234457
      ],
      [
        "kambe",
        -10.020156364887313
      ],
      [
        "Wiki",
        -10.020249684324902
      ],
      [
        "tanda",
        -10.020828100009119
      ],
      [
        "Keng",
        -10.021227523757684
      ],
      [
        "asyun",
        -10.021328950470835
      ],
      [
        "China",
        -10.021631258864293
      ],
      [
        "Foundation",
        -10.022248001849146
      ],
      [
        "manintun",
        -10.022429305935246
      ],
      [
        "kutang",
        -10.025019487037756
      ],
      [
        "Ben",
        -10.025538963059574
      ],
      [
        "tar",
        -10.025923723571754
      ],
      [
        "pari",
        -10.026718668194013
      ],
      [
        "ble",
        -10.027196394714721
      ],
      [
        "SA",
        -10.027710925625447
      ],
      [
        "Lalawigan",
        -10.027929797096828
      ],
      [
        "iglesia",
        -10.027929814538947
      ],
      [
        "aguia",
        -10.028234825810904
      ],
      [
        "2008",
        -10.028360027455523
      ],
      [
        "und",
        -10.028460246818463
      ],
      [
        "lua",
        -10.028568693691511
      ],
      [
        "maniabi",
        -10.029084741951209
      ],
      [
        "Octubre",
        -10.029504645456447
      ],
      [
        "pintor",
        -10.029554902203408
      ],
      [
        "out",
        -10.029619828021405
      ],
      [
        "taya",
        -10.029643978327472
      ],
      [
        "masaya",
        -10.030238623930725
      ],
      [
        "parti",
        -10.03194536079766
      ],
      [
        "gon",
        -10.032213390585127
      ],
      [
        "luguran",
        -10.03283605066163
      ],
      [
        "Distritu",
        -10.033644115509773
      ],
      [
        "antimó",
        -10.03365216034181
      ],
      [
        "pakalulu",
        -10.033823864511715
      ],
      [
        "video",
        -10.033970135057508
      ],
      [
        "tí",
        -10.034167658757864
      ],
      [
        "ati",
        -10.034368126457554
      ],
      [
        "BS",
        -10.035100838769912
      ],
      [
        "tim",
        -10.03535012880566
      ],
      [
        "ago",
        -10.0353909717745
      ],
      [
        "mbo",
        -10.03544785446135
      ],
      [
        "sac",
        -10.037363684656857
      ],
      [
        "tauli",
        -10.037897926193704
      ],
      [
        "Noviembre",
        -10.039664730431761
      ],
      [
        "lagu",
        -10.040690222409033
      ],
      [
        "asu",
        -10.041167815069493
      ],
      [
        "lima",
        -10.041184219587901
      ],
      [
        "gagamit",
        -10.042880769547065
      ],
      [
        "sap",
        -10.043072572276554
      ],
      [
        "AL",
        -10.043641545046077
      ],
      [
        "susu",
        -10.044028936126669
      ],
      [
        "cut",
        -10.044254696488062
      ],
      [
        "municipal",
        -10.044489111939573
      ],
      [
        "Diyos",
        -10.045181589293914
      ],
      [
        "Wi",
        -10.045613719052678
      ],
      [
        "opera",
        -10.046630587483012
      ],
      [
        "pac",
        -10.04735245863877
      ],
      [
        "matula",
        -10.047454806593565
      ],
      [
        "2011",
        -10.04790034223928
      ],
      [
        "pesu",
        -10.049343082199513
      ],
      [
        "ambag",
        -10.049475949063211
      ],
      [
        "Pin",
        -10.050067595621083
      ],
      [
        "pakatukna",
        -10.050280525913575
      ],
      [
        "van",
        -10.05051922419773
      ],
      [
        "Fernando",
        -10.050985612402869
      ],
      [
        "IV",
        -10.051358144410017
      ],
      [
        "tuknang",
        -10.051949648141555
      ],
      [
        "lelangan",
        -10.05199421571387
      ],
      [
        "49",
        -10.052500104629008
      ],
      [
        "mibalik",
        -10.052997157798927
      ],
      [
        "Estado",
        -10.053935334054929
      ],
      [
        "55",
        -10.055867348482616
      ],
      [
        "pero",
        -10.05661908152467
      ],
      [
        "karaniwan",
        -10.05683728461911
      ],
      [
        "tum",
        -10.056850959544757
      ],
      [
        "tagumpe",
        -10.056861686487242
      ],
      [
        "makatua",
        -10.057068211040225
      ],
      [
        "oini",
        -10.058045308246855
      ],
      [
        "galal",
        -10.058162425051677
      ],
      [
        "ilapin",
        -10.058466421672483
      ],
      [
        "Ibat",
        -10.058539296600022
      ],
      [
        "MU",
        -10.05957495458162
      ],
      [
        "atulan",
        -10.060054679569003
      ],
      [
        "bra",
        -10.060737569218578
      ],
      [
        "kwa",
        -10.061707338732703
      ],
      [
        "Tom",
        -10.062788529790947
      ],
      [
        "Makanian",
        -10.062947188942676
      ],
      [
        "Rhin",
        -10.063026214734125
      ],
      [
        "Makanyan",
        -10.063178678745658
      ],
      [
        "ayup",
        -10.063279067960957
      ],
      [
        "ence",
        -10.065295919936041
      ],
      [
        "ño",
        -10.065917240322474
      ],
      [
        "pamagaral",
        -10.065938195329686
      ],
      [
        "tuknangan",
        -10.066651404180707
      ],
      [
        "85",
        -10.067116960308857
      ],
      [
        "linto",
        -10.06722814331215
      ],
      [
        "fin",
        -10.067573531096876
      ],
      [
        "bandang",
        -10.067839509069696
      ],
      [
        "ldan",
        -10.067957417214188
      ],
      [
        "bak",
        -10.067979922868197
      ],
      [
        "inaus",
        -10.06857086664521
      ],
      [
        "zhou",
        -10.068645807992691
      ],
      [
        "kaligtasan",
        -10.068683924359009
      ],
      [
        "lipat",
        -10.069408156804926
      ],
      [
        "C7",
        -10.070045885548367
      ],
      [
        "Manga",
        -10.070975993607375
      ],
      [
        "Ge",
        -10.071472840703155
      ],
      [
        "42",
        -10.072053764928839
      ],
      [
        "Che",
        -10.072104193864643
      ],
      [
        "ves",
        -10.072782666518567
      ],
      [
        "41",
        -10.073278786947164
      ],
      [
        "Education",
        -10.074585544798573
      ],
      [
        "kabiasnan",
        -10.074593192893074
      ],
      [
        "iniang",
        -10.074975952929982
      ],
      [
        "pamam",
        -10.07503186736399
      ],
      [
        "cha",
        -10.075327103941108
      ],
      [
        "Simon",
        -10.075753892520861
      ],
      [
        "kuyad",
        -10.076593333897053
      ],
      [
        "bud",
        -10.076653148979945
      ],
      [
        "yampang",
        -10.076654111333243
      ],
      [
        "ris",
        -10.079763538062629
      ],
      [
        "Har",
        -10.080160864405219
      ],
      [
        "pania",
        -10.080579049772286
      ],
      [
        "ugnayan",
        -10.080650766436925
      ],
      [
        "arian",
        -10.081064348701577
      ],
      [
        "director",
        -10.081752694182963
      ],
      [
        "pang3",
        -10.083557987677942
      ],
      [
        "ice",
        -10.084283624360701
      ],
      [
        "tuturu",
        -10.084324245964975
      ],
      [
        "itu",
        -10.084691678591339
      ],
      [
        "lahi",
        -10.084870943948877
      ],
      [
        "sul",
        -10.08523953891347
      ],
      [
        "mág",
        -10.085827934630291
      ],
      [
        "tulu",
        -10.0865315349206
      ],
      [
        "Lebanon",
        -10.086601177662669
      ],
      [
        "alas",
        -10.088374264293861
      ],
      [
        "timawa",
        -10.089972044455502
      ],
      [
        "dig",
        -10.090397854337459
      ],
      [
        "eraklan",
        -10.09168618366063
      ],
      [
        "Agyang",
        -10.092431069642164
      ],
      [
        "GUINU",
        -10.092496569346388
      ],
      [
        "05",
        -10.09334306423778
      ],
      [
        "turu",
        -10.093400868470827
      ],
      [
        "kasi",
        -10.093473837845991
      ],
      [
        "tac",
        -10.094407590557054
      ],
      [
        "bre",
        -10.096758131524089
      ],
      [
        "Bur",
        -10.098309074271336
      ],
      [
        "igit",
        -10.098596426454542
      ],
      [
        "Central",
        -10.098756501830579
      ],
      [
        "2009",
        -10.099291111280788
      ],
      [
        "ulan",
        -10.100602702354117
      ],
      [
        "balat",
        -10.10086290295506
      ],
      [
        "Frances",
        -10.100934390200681
      ],
      [
        "pamang",
        -10.10142818177911
      ],
      [
        "cho",
        -10.10449192168171
      ],
      [
        "Santiago",
        -10.104891685535625
      ],
      [
        "Unido",
        -10.104898628292451
      ],
      [
        "apostol",
        -10.10490034523199
      ],
      [
        "Sinabi",
        -10.105345795974056
      ],
      [
        "linual",
        -10.105825628123853
      ],
      [
        "zi",
        -10.105889977164205
      ],
      [
        "dati",
        -10.106159595346519
      ],
      [
        "ze",
        -10.106366679307506
      ],
      [
        "akiramdam",
        -10.106509783513694
      ],
      [
        "saya",
        -10.107198731555862
      ],
      [
        "menibat",
        -10.108088390043669
      ],
      [
        "gbug",
        -10.109076011713896
      ],
      [
        "cer",
        -10.110974194424163
      ],
      [
        "mabibye",
        -10.111066458764366
      ],
      [
        "Ver",
        -10.113111024992417
      ],
      [
        "rine",
        -10.113900389607519
      ],
      [
        "My",
        -10.114301735909443
      ],
      [
        "tibu",
        -10.114957766357989
      ],
      [
        "gawang",
        -10.11569916599613
      ],
      [
        "dikut",
        -10.117409550464664
      ],
      [
        "book",
        -10.117504825466167
      ],
      [
        "xi",
        -10.118036860588695
      ],
      [
        "tubu",
        -10.119485156101849
      ],
      [
        "ilwal",
        -10.120232048550612
      ],
      [
        "malagu",
        -10.121080417496968
      ],
      [
        "ias",
        -10.121233720439943
      ],
      [
        "magsilbi",
        -10.12156239085915
      ],
      [
        "yabe",
        -10.12219623081781
      ],
      [
        "fer",
        -10.122580979438958
      ],
      [
        "kit",
        -10.123137909682864
      ],
      [
        "bibilug",
        -10.123564257479156
      ],
      [
        "bulalag",
        -10.123856662687743
      ],
      [
        "amba",
        -10.123986611503272
      ],
      [
        "organ",
        -10.124234571377903
      ],
      [
        "2001",
        -10.12429061808449
      ],
      [
        "lap",
        -10.124582404941126
      ],
      [
        "míbay",
        -10.124637317276147
      ],
      [
        "And",
        -10.12533255947447
      ],
      [
        "autusan",
        -10.125924732833955
      ],
      [
        "ME",
        -10.128380640374488
      ],
      [
        "ture",
        -10.129313944627807
      ],
      [
        "Chinese",
        -10.129815554727617
      ],
      [
        "marangle",
        -10.129832991424024
      ],
      [
        "agyu",
        -10.130453078251065
      ],
      [
        "minta",
        -10.131673944876988
      ],
      [
        "Qu",
        -10.131753624710688
      ],
      [
        "form",
        -10.131938922576198
      ],
      [
        "Za",
        -10.134484686686525
      ],
      [
        "buring",
        -10.134487042557314
      ],
      [
        "sus",
        -10.135089564975559
      ],
      [
        "ure",
        -10.135474743009382
      ],
      [
        "ese",
        -10.136397876394854
      ],
      [
        "quit",
        -10.136679272105033
      ],
      [
        "lé",
        -10.136733944912702
      ],
      [
        "Tin",
        -10.13804991953953
      ],
      [
        "mis",
        -10.138480453582922
      ],
      [
        "Deta",
        -10.138584546409222
      ],
      [
        "ier",
        -10.138601344655712
      ],
      [
        "tis",
        -10.13974888672179
      ],
      [
        "ven",
        -10.140856214827949
      ],
      [
        "bay",
        -10.14086977597221
      ],
      [
        "magsalita",
        -10.142278902044461
      ],
      [
        "natural",
        -10.142596086544486
      ],
      [
        "Balang",
        -10.143306354157644
      ],
      [
        "Buri",
        -10.143735653886413
      ],
      [
        "malati",
        -10.143793104208893
      ],
      [
        "dar",
        -10.145887660768452
      ],
      [
        "Paman",
        -10.14615982541427
      ],
      [
        "dila",
        -10.147852129315515
      ],
      [
        "On",
        -10.148575087095036
      ],
      [
        "if",
        -10.149408925785131
      ],
      [
        "Mali",
        -10.14979246826508
      ],
      [
        "agkat",
        -10.150020892358885
      ],
      [
        "rs",
        -10.151974193360903
      ],
      [
        "hy",
        -10.15272967564119
      ],
      [
        "ero",
        -10.153332896690559
      ],
      [
        "masala",
        -10.154408192407212
      ],
      [
        "kasalesayan",
        -10.154621072133704
      ],
      [
        "kawani",
        -10.15578453228704
      ],
      [
        "Tutu",
        -10.156482511146216
      ],
      [
        "ker",
        -10.157296158600227
      ],
      [
        "gun",
        -10.158163994893126
      ],
      [
        "09",
        -10.158291918951596
      ],
      [
        "’y",
        -10.159323312042199
      ],
      [
        "RA",
        -10.159677779882166
      ],
      [
        "Yatu",
        -10.159883608753761
      ],
      [
        "Mari",
        -10.161709886620626
      ],
      [
        "Department",
        -10.16186793059439
      ],
      [
        "language",
        -10.161873707769582
      ],
      [
        "kapampangan",
        -10.162567257825774
      ],
      [
        "áng",
        -10.163191609359643
      ],
      [
        "pakiramdam",
        -10.163199132446604
      ],
      [
        "Pol",
        -10.164333182332353
      ],
      [
        "Bag",
        -10.166605861502614
      ],
      [
        "sí",
        -10.167938000743689
      ],
      [
        "bur",
        -10.169203631909234
      ],
      [
        "rra",
        -10.169601782851363
      ],
      [
        "end",
        -10.170341146633584
      ],
      [
        "Mon",
        -10.171420259822433
      ],
      [
        "pansin",
        -10.171452910137324
      ],
      [
        "say",
        -10.17302041052022
      ],
      [
        "Carlo",
        -10.173043896553736
      ],
      [
        "cong",
        -10.173524375745995
      ],
      [
        "Sp",
        -10.174971137814651
      ],
      [
        "kaburian",
        -10.175131938739508
      ],
      [
        "muku",
        -10.176001131511757
      ],
      [
        "AR",
        -10.176021316387413
      ],
      [
        "Ain",
        -10.17615191791514
      ],
      [
        "66",
        -10.176284247420385
      ],
      [
        "dalumdum",
        -10.176502088059607
      ],
      [
        "luc",
        -10.177323100541265
      ],
      [
        "wak",
        -10.17738150467179
      ],
      [
        "pasalamat",
        -10.177385716834841
      ],
      [
        "dinalan",
        -10.177515413074165
      ],
      [
        "tter",
        -10.177868163368037
      ],
      [
        "ilan",
        -10.178667618917341
      ],
      [
        "ikimedia",
        -10.179225467304853
      ],
      [
        "tini",
        -10.179365153606668
      ],
      [
        "Mí",
        -10.180136397752161
      ],
      [
        "information",
        -10.181605857900752
      ],
      [
        "Africa",
        -10.181606457682522
      ],
      [
        "Kastila",
        -10.1816325940442
      ],
      [
        "Mani",
        -10.181946906038803
      ],
      [
        "salikut",
        -10.181968771354375
      ],
      [
        "wala",
        -10.182197536257327
      ],
      [
        "use",
        -10.182466688019609
      ],
      [
        "mirinan",
        -10.183004472356103
      ],
      [
        "kon",
        -10.1832266675799
      ],
      [
        "bes",
        -10.184877271748038
      ],
      [
        "kalulu",
        -10.185551828498522
      ],
      [
        "ré",
        -10.18575558593539
      ],
      [
        "cacung",
        -10.18592787806123
      ],
      [
        "nor",
        -10.186265833951303
      ],
      [
        "panibalan",
        -10.188303523100142
      ],
      [
        "abu",
        -10.188392459967545
      ],
      [
        "mangabaldugan",
        -10.188431531382093
      ],
      [
        "carbon",
        -10.188541756355468
      ],
      [
        "talaturu",
        -10.188623092546425
      ],
      [
        "poeta",
        -10.188745895879986
      ],
      [
        "90",
        -10.188768077162006
      ],
      [
        "BBC",
        -10.1888397793259
      ],
      [
        "cad",
        -10.188942447661862
      ],
      [
        "ugse",
        -10.189988403038779
      ],
      [
        "rong",
        -10.191144797060572
      ],
      [
        "ball",
        -10.194561825403035
      ],
      [
        "kayupaya",
        -10.19458795868687
      ],
      [
        "utan",
        -10.194655520888297
      ],
      [
        "É",
        -10.194983331837342
      ],
      [
        "Australia",
        -10.194983483263766
      ],
      [
        "panintuna",
        -10.195237108370257
      ],
      [
        "File",
        -10.195702839270488
      ],
      [
        "anghel",
        -10.195781656383934
      ],
      [
        "awan",
        -10.196764145678571
      ],
      [
        "ises",
        -10.196902216208834
      ],
      [
        "bukas",
        -10.197031714459662
      ],
      [
        "drama",
        -10.197259277855071
      ],
      [
        "ger",
        -10.198523613482724
      ],
      [
        "gulis",
        -10.198679561039686
      ],
      [
        "layun",
        -10.198911188787235
      ],
      [
        "sic",
        -10.199709339074232
      ],
      [
        "58",
        -10.200242217008034
      ],
      [
        "53",
        -10.200819533061985
      ],
      [
        "Ini",
        -10.201423419766499
      ],
      [
        "kadwang",
        -10.201648636500325
      ],
      [
        "autonom",
        -10.201744671779757
      ],
      [
        "sundalu",
        -10.201807541046353
      ],
      [
        "akung",
        -10.201822207070348
      ],
      [
        "alkus",
        -10.202144808142634
      ],
      [
        "hay",
        -10.202377050515986
      ],
      [
        "Thi",
        -10.202516803828514
      ],
      [
        "Fu",
        -10.202569954271578
      ],
      [
        "likuan",
        -10.203238983300023
      ],
      [
        "Cha",
        -10.203685216820347
      ],
      [
        "Japan",
        -10.203747620460177
      ],
      [
        "Nor",
        -10.20410101259408
      ],
      [
        "mapa",
        -10.20425577281258
      ],
      [
        "Web",
        -10.204733865553045
      ],
      [
        "Pero",
        -10.204959762884371
      ],
      [
        "paran",
        -10.205020339534698
      ],
      [
        "article",
        -10.206314728347614
      ],
      [
        "Malat",
        -10.206331628587947
      ],
      [
        "06",
        -10.206762070047967
      ],
      [
        "Pen",
        -10.20702151844165
      ],
      [
        "Pre",
        -10.207987102283251
      ],
      [
        "Tourism",
        -10.208557932285126
      ],
      [
        "sistema",
        -10.208579156733748
      ],
      [
        "Library",
        -10.208581179011173
      ],
      [
        "Miguel",
        -10.208590465492039
      ],
      [
        "maulingalbugan",
        -10.208814798790309
      ],
      [
        "sundu",
        -10.209369418842273
      ],
      [
        "pibandi",
        -10.210064270039197
      ],
      [
        "canacu",
        -10.211695275808703
      ],
      [
        "pagka",
        -10.21394042026219
      ],
      [
        "Juda",
        -10.214808522947274
      ],
      [
        "01",
        -10.21521946717985
      ],
      [
        "Union",
        -10.215516592486658
      ],
      [
        "Tur",
        -10.217542443783334
      ],
      [
        "Site",
        -10.218642685061166
      ],
      [
        "UN",
        -10.218789781705304
      ],
      [
        "gulut",
        -10.219146689577375
      ],
      [
        "Sh",
        -10.219806372330812
      ],
      [
        "ikua",
        -10.220229097737109
      ],
      [
        "Labuad",
        -10.22228995765695
      ],
      [
        "bantug",
        -10.222334225960772
      ],
      [
        "High",
        -10.22248179529355
      ],
      [
        "paburen",
        -10.222764902405192
      ],
      [
        "ní",
        -10.223427102744175
      ],
      [
        "santing",
        -10.22369691684618
      ],
      [
        "masalese",
        -10.22386910412565
      ],
      [
        "LU",
        -10.224021315785043
      ],
      [
        "layan",
        -10.22402306903869
      ],
      [
        "yari",
        -10.224071625851924
      ],
      [
        "Roque",
        -10.224146115239526
      ],
      [
        "D7",
        -10.22566527525457
      ],
      [
        "kaduang",
        -10.225799755366861
      ],
      [
        "sugat",
        -10.226564488815931
      ],
      [
        "row",
        -10.227030172935876
      ],
      [
        "ANG",
        -10.227666843984306
      ],
      [
        "naku",
        -10.229008208030661
      ],
      [
        "mikaka",
        -10.229020128533362
      ],
      [
        "sentru",
        -10.229318364316864
      ],
      [
        "River",
        -10.229596126129977
      ],
      [
        "mangaragul",
        -10.229934223544223
      ],
      [
        "té",
        -10.230014475001244
      ],
      [
        "ngapalyari",
        -10.23064141224545
      ],
      [
        "kilála",
        -10.231587839836264
      ],
      [
        "69",
        -10.232281368173567
      ],
      [
        "Aliwa",
        -10.232499940768829
      ],
      [
        "ler",
        -10.233102947389112
      ],
      [
        "04",
        -10.23335360604711
      ],
      [
        "yaus",
        -10.233519824085167
      ],
      [
        "apulung",
        -10.23403548703121
      ],
      [
        "matuang",
        -10.234040866719162
      ],
      [
        "03",
        -10.234158520142994
      ],
      [
        "umpisa",
        -10.234187687481231
      ],
      [
        "tuntun",
        -10.234817299515239
      ],
      [
        "Rosa",
        -10.235924405808191
      ],
      [
        "Arroyo",
        -10.236226547884485
      ],
      [
        "Council",
        -10.236226870405444
      ],
      [
        "taram",
        -10.236543865183805
      ],
      [
        "Capampangan",
        -10.2365904067733
      ],
      [
        "tuan",
        -10.236899882263543
      ],
      [
        "opisyal",
        -10.236943481470949
      ],
      [
        "kuanan",
        -10.237139573873293
      ],
      [
        "lasa",
        -10.237321755614513
      ],
      [
        "alilan",
        -10.237672797665414
      ],
      [
        "obrang",
        -10.238551327324338
      ],
      [
        "Roma",
        -10.23897072797853
      ],
      [
        "Den",
        -10.239306951313612
      ],
      [
        "mira",
        -10.23944098866824
      ],
      [
        "RE",
        -10.240059905356091
      ],
      [
        "Datang",
        -10.240704891176282
      ],
      [
        "pamanga",
        -10.24119581544322
      ],
      [
        "ries",
        -10.241463037362852
      ],
      [
        "amánu",
        -10.242463484453573
      ],
      [
        "mili",
        -10.242763174380546
      ],
      [
        "zon",
        -10.242804855107748
      ],
      [
        "•",
        -10.243268381433744
      ],
      [
        "Filipino",
        -10.243268382409536
      ],
      [
        "William",
        -10.243268456498232
      ],
      [
        "Technolog",
        -10.243268487088699
      ],
      [
        "2002",
        -10.24394956767284
      ],
      [
        "let",
        -10.244073385051962
      ],
      [
        "Fr",
        -10.244075283881
      ],
      [
        "gulu",
        -10.244675277708335
      ],
      [
        "100",
        -10.246141020967837
      ],
      [
        "’ng",
        -10.247252215433498
      ],
      [
        "arch",
        -10.248365643100293
      ],
      [
        "Alba",
        -10.248389098078171
      ],
      [
        "Tau",
        -10.250199086037469
      ],
      [
        "patugut",
        -10.250397394418695
      ],
      [
        "iran",
        -10.250762167139897
      ],
      [
        "Korea",
        -10.250853459397733
      ],
      [
        "pres",
        -10.25126607463352
      ],
      [
        "dalaga",
        -10.251320616260621
      ],
      [
        "Latin",
        -10.25234796228677
      ],
      [
        "Buku",
        -10.252433287836453
      ],
      [
        "bini",
        -10.252663272769613
      ],
      [
        "pilit",
        -10.252952058717602
      ],
      [
        "mako",
        -10.253381912182551
      ],
      [
        "web",
        -10.253778955825634
      ],
      [
        "Samar",
        -10.255203694778526
      ],
      [
        "President",
        -10.25529943872814
      ],
      [
        "rit",
        -10.25541168631085
      ],
      [
        "ito",
        -10.255483815911976
      ],
      [
        "ember",
        -10.255771051515842
      ],
      [
        "suc",
        -10.25593098013336
      ],
      [
        "Com",
        -10.256582119688284
      ],
      [
        "ukum",
        -10.257095309133819
      ],
      [
        "2003",
        -10.258176400815504
      ],
      [
        "0-",
        -10.258302544110897
      ],
      [
        "pamaki",
        -10.258694433418935
      ],
      [
        "báyu",
        -10.25876852665256
      ],
      [
        "pane",
        -10.258832754505924
      ],
      [
        "ugali",
        -10.259241902352775
      ],
      [
        "bitasa",
        -10.259404166893257
      ],
      [
        "awsan",
        -10.259727048268656
      ],
      [
        "magobra",
        -10.260181963160074
      ],
      [
        "agus",
        -10.260647939363135
      ],
      [
        "walung",
        -10.26069208185184
      ],
      [
        "kasundu",
        -10.261254029867327
      ],
      [
        "salukuyan",
        -10.26196322208448
      ],
      [
        "carera",
        -10.262229917160026
      ],
      [
        "parati",
        -10.262386911355332
      ],
      [
        "win",
        -10.263251910179324
      ],
      [
        "sican",
        -10.264150061867928
      ],
      [
        "gubyernu",
        -10.264697784267746
      ],
      [
        "Renato",
        -10.264745088380476
      ],
      [
        "nic",
        -10.265372505945269
      ],
      [
        "dian",
        -10.265733184692323
      ],
      [
        "alam",
        -10.26573648172976
      ],
      [
        "tudtu",
        -10.265884003168035
      ],
      [
        "Pala",
        -10.266168549353292
      ],
      [
        "galang",
        -10.266840608416942
      ],
      [
        "ium",
        -10.269352959417926
      ],
      [
        "suma",
        -10.269745175305943
      ],
      [
        "ania",
        -10.269886979163559
      ],
      [
        "pusan",
        -10.270057948336309
      ],
      [
        "Bas-",
        -10.27109416716109
      ],
      [
        "dagdag",
        -10.271968549918855
      ],
      [
        "mamu",
        -10.272042029977392
      ],
      [
        "big",
        -10.272226328384377
      ],
      [
        "nanung",
        -10.272420698664245
      ],
      [
        "zu",
        -10.272909680190846
      ],
      [
        "trans",
        -10.273980211644979
      ],
      [
        "damdam",
        -10.274462488438239
      ],
      [
        "German",
        -10.274555271308273
      ],
      [
        "fl",
        -10.275162082219936
      ],
      [
        "Nag",
        -10.275177087858292
      ],
      [
        "sira",
        -10.275472802416743
      ],
      [
        "Pangulung",
        -10.275935178545911
      ],
      [
        "Qui",
        -10.275990832928523
      ],
      [
        "panga-",
        -10.276796927561342
      ],
      [
        "marayu",
        -10.277152574176933
      ],
      [
        "ical",
        -10.277822153992307
      ],
      [
        "wá",
        -10.278086658073006
      ],
      [
        "aduan",
        -10.278197560473973
      ],
      [
        "Park",
        -10.278218983384452
      ],
      [
        "buklat",
        -10.279222782492353
      ],
      [
        "ensi",
        -10.279286718088265
      ],
      [
        "Ligaya",
        -10.279545425115789
      ],
      [
        "tawli",
        -10.27956803811434
      ],
      [
        "busal",
        -10.280236551727974
      ],
      [
        "Paki",
        -10.280709644133463
      ],
      [
        "kara",
        -10.280721619032928
      ],
      [
        "kimut",
        -10.281957883585141
      ],
      [
        "katayang",
        -10.282881412743153
      ],
      [
        "saka",
        -10.285268337421549
      ],
      [
        "canta",
        -10.285554811736699
      ],
      [
        "54",
        -10.286056146429129
      ],
      [
        "usan",
        -10.28612696967403
      ],
      [
        "Mika",
        -10.286553050719894
      ],
      [
        "07",
        -10.286808595231419
      ],
      [
        "grasya",
        -10.287168262178696
      ],
      [
        "makatuki",
        -10.28743154875397
      ],
      [
        "kasalang",
        -10.28759298232421
      ],
      [
        "inawa",
        -10.287680240747203
      ],
      [
        "pakibat",
        -10.28851683342819
      ],
      [
        "még",
        -10.289304790011155
      ],
      [
        "mita",
        -10.29019878679956
      ],
      [
        "bangun",
        -10.29074836463988
      ],
      [
        "wit",
        -10.291150211492173
      ],
      [
        "Bin",
        -10.291710823779123
      ],
      [
        "Los",
        -10.292844334833678
      ],
      [
        "sol",
        -10.293705467845061
      ],
      [
        "mara",
        -10.293774743854051
      ],
      [
        "Filipinu",
        -10.29400368060677
      ],
      [
        "ham",
        -10.294411067099524
      ],
      [
        "kapuri",
        -10.294569462346018
      ],
      [
        "Paul",
        -10.294844004384974
      ],
      [
        "tanam",
        -10.295100541681812
      ],
      [
        "Cebu",
        -10.295164410407452
      ],
      [
        "salamat",
        -10.295795227511675
      ],
      [
        "binang",
        -10.296282176076922
      ],
      [
        "Dava",
        -10.296421234736705
      ],
      [
        "vel",
        -10.29660351680381
      ],
      [
        "uanan",
        -10.296705298837301
      ],
      [
        "televisi",
        -10.296720589660616
      ],
      [
        "pete",
        -10.29709453816398
      ],
      [
        "var",
        -10.298080234845916
      ],
      [
        "Kapata",
        -10.298819234987095
      ],
      [
        "02",
        -10.299032917107235
      ],
      [
        "aliua",
        -10.299761276173868
      ],
      [
        "ganaka",
        -10.29983805505557
      ],
      [
        "Tri",
        -10.300911005709562
      ],
      [
        "Zamboang",
        -10.301466389023291
      ],
      [
        "baryu",
        -10.301583273509667
      ],
      [
        "cacu",
        -10.301914465725776
      ],
      [
        "péka",
        -10.302922554455725
      ],
      [
        "katutubu",
        -10.303109022069535
      ],
      [
        "ville",
        -10.30359811473469
      ],
      [
        "isa",
        -10.303650382216455
      ],
      [
        "Keba",
        -10.304400407629341
      ],
      [
        "88",
        -10.30489384188792
      ],
      [
        "stor",
        -10.305314790977617
      ],
      [
        "illa",
        -10.306212284316716
      ],
      [
        "ern",
        -10.307592180258979
      ],
      [
        "Cap",
        -10.310236759029308
      ],
      [
        "banalan",
        -10.315056423033155
      ],
      [
        "malan",
        -10.315586677592409
      ],
      [
        "limbag",
        -10.316543216969425
      ],
      [
        "simpan",
        -10.317537218284244
      ],
      [
        "Luzon",
        -10.317640878280368
      ],
      [
        "Bel",
        -10.317765068693943
      ],
      [
        "app",
        -10.318566863133569
      ],
      [
        "sug",
        -10.318780269968707
      ],
      [
        "manalangin",
        -10.319988519176778
      ],
      [
        "Dis",
        -10.320114744417054
      ],
      [
        "aran",
        -10.320153886038241
      ],
      [
        "Ngara",
        -10.320467976088484
      ],
      [
        "list",
        -10.320476448139992
      ],
      [
        "BC",
        -10.320853149191073
      ],
      [
        "matua",
        -10.3222503102223
      ],
      [
        "Nanung",
        -10.323620947976522
      ],
      [
        "kapamahalan",
        -10.324194796345829
      ],
      [
        "táu",
        -10.324360806017708
      ],
      [
        "tupa",
        -10.324373559969736
      ],
      [
        "pangaku",
        -10.324559702281285
      ],
      [
        "imba",
        -10.325303442818786
      ],
      [
        "libung",
        -10.325640850508854
      ],
      [
        "2013",
        -10.326926720754784
      ],
      [
        "Guide",
        -10.326945032734725
      ],
      [
        "mebie",
        -10.327084233114252
      ],
      [
        "labas",
        -10.327127114624197
      ],
      [
        "pipi",
        -10.327185700866295
      ],
      [
        "08",
        -10.327658660205024
      ],
      [
        "UP",
        -10.328720536098851
      ],
      [
        "likas",
        -10.329484693131658
      ],
      [
        "Ed",
        -10.330439875274365
      ],
      [
        "mababa",
        -10.331712201758718
      ],
      [
        "Á",
        -10.33187330582672
      ],
      [
        "Societ",
        -10.331886829156065
      ],
      [
        "pipagaralan",
        -10.331892170922458
      ],
      [
        "Alzad",
        -10.331907863902867
      ],
      [
        "1999",
        -10.332236810203868
      ],
      [
        "Tra",
        -10.332600338100463
      ],
      [
        "Pepa",
        -10.33292083272074
      ],
      [
        "kol",
        -10.33295182131674
      ],
      [
        "gintu",
        -10.33313927267859
      ],
      [
        "Basse",
        -10.333224674107003
      ],
      [
        "Pri",
        -10.334239910487558
      ],
      [
        "pamama",
        -10.335078383076933
      ],
      [
        "múmúna",
        -10.335302226239254
      ],
      [
        "bé",
        -10.335328919780666
      ],
      [
        "banda",
        -10.335518348276741
      ],
      [
        "gene",
        -10.335989734998822
      ],
      [
        "G7",
        -10.336139494416365
      ],
      [
        "bulag",
        -10.336269574790428
      ],
      [
        "bí",
        -10.336491188085857
      ],
      [
        "56",
        -10.336767328729515
      ],
      [
        "back",
        -10.33692753120596
      ],
      [
        "maulagang",
        -10.338258439014407
      ],
      [
        "census",
        -10.338285066752764
      ],
      [
        "ics",
        -10.338654635678783
      ],
      [
        "Vietnam",
        -10.339119628087836
      ],
      [
        "Public",
        -10.339433411486754
      ],
      [
        "kabilyan",
        -10.339702332270404
      ],
      [
        "muli",
        -10.340880122835145
      ],
      [
        "than",
        -10.341598842942563
      ],
      [
        "buc",
        -10.342289972062225
      ],
      [
        "Mang",
        -10.34299962914989
      ],
      [
        "ally",
        -10.343307406389478
      ],
      [
        "ikwa",
        -10.343917427500493
      ],
      [
        "also",
        -10.346970342086838
      ],
      [
        "tatang",
        -10.347087802485634
      ],
      [
        "panaral",
        -10.347367907686
      ],
      [
        "botu",
        -10.347369498213888
      ],
      [
        "mabibie",
        -10.347483921211772
      ],
      [
        "talasuyu",
        -10.347728773189349
      ],
      [
        "pabustan",
        -10.347796075668501
      ],
      [
        "eniwala",
        -10.348806626099226
      ],
      [
        "cayá",
        -10.350464359040728
      ],
      [
        "Law",
        -10.351155659971106
      ],
      [
        "lutu",
        -10.351304542429492
      ],
      [
        "Caba",
        -10.351372772389178
      ],
      [
        "deta",
        -10.35179462759725
      ],
      [
        "ta’",
        -10.352660927812709
      ],
      [
        "histor",
        -10.352871949748891
      ],
      [
        "rate",
        -10.35375879658399
      ],
      [
        "52",
        -10.354336033483218
      ],
      [
        "Shi",
        -10.355016774696054
      ],
      [
        "air",
        -10.35515883653051
      ],
      [
        "Kapampángan",
        -10.355325271628935
      ],
      [
        "1986",
        -10.35533470065431
      ],
      [
        "manungkulan",
        -10.355338417594613
      ],
      [
        "65",
        -10.355343198469921
      ],
      [
        "Nuan",
        -10.355561831941586
      ],
      [
        "nik",
        -10.356942096336017
      ],
      [
        "asabi",
        -10.357208513890871
      ],
      [
        "burg",
        -10.35790025934241
      ],
      [
        "Ze",
        -10.35866193665692
      ],
      [
        "Dayat",
        -10.358749766038386
      ],
      [
        "VI",
        -10.359499292350046
      ],
      [
        "Par",
        -10.359628611314635
      ],
      [
        "guin",
        -10.360484742436984
      ],
      [
        "ulat",
        -10.361314893778179
      ],
      [
        "Espania",
        -10.361947878280064
      ],
      [
        "MP",
        -10.362668671039408
      ],
      [
        "antabe",
        -10.363018981840952
      ],
      [
        "Magsaysay",
        -10.363261787266755
      ],
      [
        "British",
        -10.36326196797809
      ],
      [
        "1998",
        -10.363888727018043
      ],
      [
        "pareu",
        -10.364445435814652
      ],
      [
        "-Norman",
        -10.364488379734386
      ],
      [
        "get",
        -10.364679128992874
      ],
      [
        "UNG",
        -10.36682535349519
      ],
      [
        "jan",
        -10.36824026915815
      ],
      [
        "format",
        -10.368389617643329
      ],
      [
        "ite",
        -10.369990719319484
      ],
      [
        "tipun",
        -10.370412613402149
      ],
      [
        "election",
        -10.371376255345456
      ],
      [
        "Hapon",
        -10.371460280603543
      ],
      [
        "Antimo",
        -10.37148646826695
      ],
      [
        "inutus",
        -10.372464613562187
      ],
      [
        "a’na",
        -10.372551082041348
      ],
      [
        "ù",
        -10.37283200191639
      ],
      [
        "sín",
        -10.374266316145905
      ],
      [
        "kanan",
        -10.374492289572322
      ],
      [
        "bir",
        -10.374689125361382
      ],
      [
        "ben",
        -10.374844970246773
      ],
      [
        "plas",
        -10.375107088970541
      ],
      [
        "míba",
        -10.375150928325727
      ],
      [
        "akilala",
        -10.376360134137403
      ],
      [
        "Pá",
        -10.376836831213776
      ],
      [
        "úli",
        -10.3779017296803
      ],
      [
        "kabilugan",
        -10.378391799394553
      ],
      [
        "lian",
        -10.378780788750896
      ],
      [
        "Sil",
        -10.37930154384227
      ],
      [
        "Jehova",
        -10.379326292794184
      ],
      [
        "pelikula",
        -10.379336250513955
      ],
      [
        "Pablasa",
        -10.379410578505723
      ],
      [
        "bati",
        -10.380272584575014
      ],
      [
        "íng",
        -10.380912237458059
      ],
      [
        "gising",
        -10.38304304824586
      ],
      [
        "berg",
        -10.383099257822394
      ],
      [
        "law",
        -10.383927267762484
      ],
      [
        "low",
        -10.384997510337021
      ],
      [
        "ì",
        -10.385596256943519
      ],
      [
        "sakitan",
        -10.386298825289966
      ],
      [
        "malino",
        -10.387521946746336
      ],
      [
        "plant",
        -10.387611034349774
      ],
      [
        "Aslagan",
        -10.388042504854656
      ],
      [
        "tong",
        -10.388091766793895
      ],
      [
        "lingap",
        -10.388370149199122
      ],
      [
        "cat",
        -10.388777897287635
      ],
      [
        "saupan",
        -10.388819249175738
      ],
      [
        "ugne",
        -10.389844122467256
      ],
      [
        "Andre",
        -10.389895534105644
      ],
      [
        "bié",
        -10.390164353570562
      ],
      [
        "have",
        -10.390616555400644
      ],
      [
        "Sabla",
        -10.3922684594637
      ],
      [
        "It",
        -10.39301891737044
      ],
      [
        "64",
        -10.394297600442242
      ],
      [
        "gli",
        -10.394453902351486
      ],
      [
        "old",
        -10.394733145887454
      ],
      [
        "mel",
        -10.39473335428544
      ],
      [
        "malu",
        -10.395225200065088
      ],
      [
        "kasal",
        -10.395445677098788
      ],
      [
        "Geografia",
        -10.395653094264699
      ],
      [
        "Oriental",
        -10.395653101060944
      ],
      [
        "Kemat",
        -10.39580791866479
      ],
      [
        "59",
        -10.395897702361001
      ],
      [
        "uru",
        -10.396972728748818
      ],
      [
        "siglu",
        -10.397703973832776
      ],
      [
        "county",
        -10.397919605084919
      ],
      [
        "panyul",
        -10.398018749129216
      ],
      [
        "Kristo",
        -10.398493903213147
      ],
      [
        "ingatan",
        -10.399641302901195
      ],
      [
        "mangalating",
        -10.400962262709019
      ],
      [
        "ile",
        -10.401623395679604
      ],
      [
        "Misan",
        -10.403388936327808
      ],
      [
        "vari",
        -10.403524994383226
      ],
      [
        "view",
        -10.403909923507493
      ],
      [
        "Mindanao",
        -10.403917987729281
      ],
      [
        "miayaliwa",
        -10.403993537709507
      ],
      [
        "Niño",
        -10.404095153041407
      ],
      [
        "daralan",
        -10.405268486023234
      ],
      [
        "tutuk",
        -10.405673467266418
      ],
      [
        "Oini",
        -10.405792117414695
      ],
      [
        "carela",
        -10.4061809599765
      ],
      [
        "ka-",
        -10.406544483498813
      ],
      [
        "tagan",
        -10.408813753651074
      ],
      [
        "Fe",
        -10.409358015548655
      ],
      [
        "Guin",
        -10.410152842134831
      ],
      [
        "uryan",
        -10.410235514245624
      ],
      [
        "Pulu",
        -10.410557258713279
      ],
      [
        "Paris",
        -10.4121107796512
      ],
      [
        "kaisipan",
        -10.412515432723945
      ],
      [
        "ated",
        -10.412535334627137
      ],
      [
        "tru",
        -10.412552533910773
      ],
      [
        "binyag",
        -10.412576966139808
      ],
      [
        "vent",
        -10.412873473458369
      ],
      [
        "marakal",
        -10.41289220141901
      ],
      [
        "malilyari",
        -10.412903975804273
      ],
      [
        "Deti",
        -10.413014664908964
      ],
      [
        "vin",
        -10.413331192602094
      ],
      [
        "balangkas",
        -10.41470697703845
      ],
      [
        "bulus",
        -10.414715661505085
      ],
      [
        "Star",
        -10.415857838234414
      ],
      [
        "klasi",
        -10.416296222267913
      ],
      [
        "key",
        -10.417520834323593
      ],
      [
        "prefecture-",
        -10.418165989190939
      ],
      [
        "tinubu",
        -10.418674582513948
      ],
      [
        "part",
        -10.418829782663819
      ],
      [
        "68",
        -10.419569971616081
      ],
      [
        "Great",
        -10.420081473367219
      ],
      [
        "ever",
        -10.420323455213813
      ],
      [
        "lungu",
        -10.420380586944805
      ],
      [
        "inum",
        -10.42050753730509
      ],
      [
        "píkabalu",
        -10.420679085511896
      ],
      [
        "Common",
        -10.420774388120744
      ],
      [
        "record",
        -10.420808457693816
      ],
      [
        "pany",
        -10.420814936053223
      ],
      [
        "mati",
        -10.421050832421768
      ],
      [
        "1980",
        -10.421494768515558
      ],
      [
        "amlat",
        -10.422011738450951
      ],
      [
        "páman",
        -10.422247963859608
      ],
      [
        "tel",
        -10.422842424374583
      ],
      [
        "Kay",
        -10.422844125509698
      ],
      [
        "ill",
        -10.42292267981351
      ],
      [
        "nder",
        -10.423091432987087
      ],
      [
        "kí",
        -10.42440639752375
      ],
      [
        "75",
        -10.424492688123488
      ],
      [
        "Tam",
        -10.425010484444917
      ],
      [
        "into",
        -10.425969838676465
      ],
      [
        "Sab",
        -10.425994356561297
      ],
      [
        "ism",
        -10.426583799743698
      ],
      [
        "care",
        -10.42741905909821
      ],
      [
        "Kayari",
        -10.42766351653965
      ],
      [
        "Louis",
        -10.429136164970902
      ],
      [
        "Aquino",
        -10.429137528800204
      ],
      [
        "Un",
        -10.429293868479885
      ],
      [
        "high",
        -10.42937731745316
      ],
      [
        "munie",
        -10.429398575594092
      ],
      [
        "rakal",
        -10.429402188627456
      ],
      [
        "usuk",
        -10.429669716545614
      ],
      [
        "Kin",
        -10.42970239979989
      ],
      [
        "lambat",
        -10.429898592711881
      ],
      [
        "panamdam",
        -10.429903786415846
      ],
      [
        "cay",
        -10.430708768670446
      ],
      [
        "alun",
        -10.430713457143314
      ],
      [
        "fr",
        -10.431451255506722
      ],
      [
        "gil",
        -10.43208149229448
      ],
      [
        "nun",
        -10.432578257814633
      ],
      [
        "tatakut",
        -10.432974926482032
      ],
      [
        "who",
        -10.436195672705491
      ],
      [
        "ginu",
        -10.43639092603528
      ],
      [
        "main",
        -10.437231838416402
      ],
      [
        "taga",
        -10.437242404690418
      ],
      [
        "tauling",
        -10.43734162912521
      ],
      [
        "bri",
        -10.437345548062712
      ],
      [
        "Pacific",
        -10.437675846443959
      ],
      [
        "Office",
        -10.437678414785667
      ],
      [
        "planeta",
        -10.437753546100177
      ],
      [
        "James",
        -10.437761539751104
      ],
      [
        "lagan",
        -10.438117079343527
      ],
      [
        "kinua",
        -10.438592639925696
      ],
      [
        "song",
        -10.439230410523935
      ],
      [
        "lino",
        -10.439246563326469
      ],
      [
        "Post",
        -10.439704451722093
      ],
      [
        "rugu",
        -10.439978270491341
      ],
      [
        "ship",
        -10.440596589312168
      ],
      [
        "milyun",
        -10.44126085367451
      ],
      [
        "ration",
        -10.442027952657186
      ],
      [
        "Amanu",
        -10.44280328230705
      ],
      [
        "reta",
        -10.442948424950682
      ],
      [
        "Apu",
        -10.443759875168752
      ],
      [
        "dewaka",
        -10.443824783103619
      ],
      [
        "timan",
        -10.444310681043628
      ],
      [
        "Megi",
        -10.444763720199813
      ],
      [
        "labanan",
        -10.445362943913281
      ],
      [
        "Mam",
        -10.44555788102927
      ],
      [
        "paniwalan",
        -10.445960080134093
      ],
      [
        "Air",
        -10.446247140080375
      ],
      [
        "headquarter",
        -10.446296527120325
      ],
      [
        "government",
        -10.446296541655489
      ],
      [
        "Abraham",
        -10.44629671466928
      ],
      [
        "Network",
        -10.446296776350707
      ],
      [
        "Galilea",
        -10.446314002485533
      ],
      [
        "Salamat",
        -10.446336086847621
      ],
      [
        "capital",
        -10.446338046877408
      ],
      [
        "púlu",
        -10.44637451292557
      ],
      [
        "patutu",
        -10.446883721437207
      ],
      [
        "pepakit",
        -10.447492617514795
      ],
      [
        "tandanan",
        -10.44761443680085
      ],
      [
        "bio",
        -10.44765537231105
      ],
      [
        "kamb",
        -10.44841234467321
      ],
      [
        "70",
        -10.448766792022049
      ],
      [
        "Reyna",
        -10.449950489962538
      ],
      [
        "dic",
        -10.450181959266768
      ],
      [
        "yer",
        -10.45022444587901
      ],
      [
        "katamu",
        -10.45090957429968
      ],
      [
        "illo",
        -10.451310098767223
      ],
      [
        "kulang",
        -10.45160527991966
      ],
      [
        "June",
        -10.452469704122018
      ],
      [
        "pamanibala",
        -10.452489186775015
      ],
      [
        "mayg",
        -10.452587015374782
      ],
      [
        "Sala",
        -10.452760811589965
      ],
      [
        "mayayak",
        -10.453089765840783
      ],
      [
        "Aleman",
        -10.453102958451051
      ],
      [
        "over",
        -10.453344092460755
      ],
      [
        "tuturing",
        -10.453473088192496
      ],
      [
        "linap",
        -10.453879354818948
      ],
      [
        "malutu",
        -10.453977264804818
      ],
      [
        "Sabi",
        -10.454161157757756
      ],
      [
        "tsa",
        -10.454653426937526
      ],
      [
        "People",
        -10.454992215809934
      ],
      [
        "Castila",
        -10.454997545631816
      ],
      [
        "gao",
        -10.455214462564753
      ],
      [
        "saken",
        -10.455458647944008
      ],
      [
        "marok",
        -10.455972674865162
      ],
      [
        "this",
        -10.456520809856602
      ],
      [
        "minum",
        -10.45665885983453
      ],
      [
        "See",
        -10.457222058224136
      ],
      [
        "katas",
        -10.457769333600076
      ],
      [
        "kapanayan",
        -10.458347030760512
      ],
      [
        "pasi",
        -10.45867189602962
      ],
      [
        "Pamag",
        -10.459494554825044
      ],
      [
        "kabalen",
        -10.459605536210837
      ],
      [
        "Pina",
        -10.45992255405439
      ],
      [
        "tunggal",
        -10.460042596274864
      ],
      [
        "decadang",
        -10.460484552816705
      ],
      [
        "Garcia",
        -10.46114485200782
      ],
      [
        "penibatan",
        -10.46135763798297
      ],
      [
        "mismung",
        -10.461637602990965
      ],
      [
        "char",
        -10.462113874519247
      ],
      [
        "penand",
        -10.462453222503278
      ],
      [
        "ompositor",
        -10.463764764548511
      ],
      [
        "sinuyu",
        -10.46380389136671
      ],
      [
        "Rosario",
        -10.463831044905193
      ],
      [
        "Book",
        -10.464183650355743
      ],
      [
        "Kasusu",
        -10.465252640086097
      ],
      [
        "mayumu",
        -10.46562511735884
      ],
      [
        "mapalyari",
        -10.466050378737737
      ],
      [
        "maputi",
        -10.466283420284404
      ],
      [
        "uyat",
        -10.46642239670603
      ],
      [
        "ipan",
        -10.466585480323143
      ],
      [
        "baga",
        -10.46715787066449
      ],
      [
        "ego",
        -10.467325488092769
      ],
      [
        "Nueva",
        -10.467390265019793
      ],
      [
        "munaman",
        -10.467535065817412
      ],
      [
        "kutkutan",
        -10.468403654460214
      ],
      [
        "Mac",
        -10.468468334877347
      ],
      [
        "ces",
        -10.470549305956448
      ],
      [
        "00",
        -10.470914962456156
      ],
      [
        "katlu",
        -10.47117954825578
      ],
      [
        "Ven",
        -10.47119546388539
      ],
      [
        "loc",
        -10.471317793775782
      ],
      [
        "ller",
        -10.471809149397
      ],
      [
        "kultura",
        -10.472131660679871
      ],
      [
        "see",
        -10.472442628852546
      ],
      [
        "ō",
        -10.472613665737024
      ],
      [
        "people",
        -10.472613808017746
      ],
      [
        "Commerc",
        -10.472619448926945
      ],
      [
        "Kailangan",
        -10.472649568333242
      ],
      [
        "Robert",
        -10.472703179441073
      ],
      [
        "Press",
        -10.472776162205594
      ],
      [
        "Sol",
        -10.472826763677578
      ],
      [
        "Ob",
        -10.475202071139526
      ],
      [
        "bot",
        -10.475240433551694
      ],
      [
        "Pani",
        -10.475505557028864
      ],
      [
        "sakdal",
        -10.476098663737227
      ],
      [
        "pitu",
        -10.477313448583782
      ],
      [
        "file",
        -10.478182301549591
      ],
      [
        "lands",
        -10.478396676506701
      ],
      [
        "Gen",
        -10.47852105934345
      ],
      [
        "duc",
        -10.47865952075711
      ],
      [
        "Cho",
        -10.478675339721672
      ],
      [
        "TV",
        -10.479169357970573
      ],
      [
        "paten",
        -10.479661776759455
      ],
      [
        "Fer",
        -10.479859285760611
      ],
      [
        "79",
        -10.47990226009231
      ],
      [
        "hor",
        -10.480606622289516
      ],
      [
        "RI",
        -10.48067816389521
      ],
      [
        "akup",
        -10.480733132914732
      ],
      [
        "bangka",
        -10.480974931099258
      ],
      [
        "pulu’t",
        -10.481117217172553
      ],
      [
        "Ay",
        -10.481199702580993
      ],
      [
        "acea",
        -10.481299458286106
      ],
      [
        "ā",
        -10.481542237165595
      ],
      [
        "kondadu",
        -10.481545899628887
      ],
      [
        "Franci",
        -10.481576230512617
      ],
      [
        "House",
        -10.481698843977625
      ],
      [
        "karas",
        -10.483137045681811
      ],
      [
        "manaya",
        -10.483141454288297
      ],
      [
        "watas",
        -10.483307841842741
      ],
      [
        "Tang",
        -10.48363767692809
      ],
      [
        "mibaba",
        -10.48543284580299
      ],
      [
        "commun",
        -10.485778007517956
      ],
      [
        "like",
        -10.485914244928129
      ],
      [
        "serie",
        -10.486192970167506
      ],
      [
        "dane",
        -10.486553930033727
      ],
      [
        "year",
        -10.486959343639398
      ],
      [
        "yábé",
        -10.487338514988636
      ],
      [
        "lawen",
        -10.487732075645766
      ],
      [
        "agi",
        -10.488009662592516
      ],
      [
        "78",
        -10.488437248374087
      ],
      [
        "Mont",
        -10.488445763848018
      ],
      [
        "Santos",
        -10.489411822294702
      ],
      [
        "pí",
        -10.4895954573229
      ],
      [
        "Business",
        -10.490551490286904
      ],
      [
        "album",
        -10.490705790794198
      ],
      [
        "local",
        -10.491446286982377
      ],
      [
        "Nukarin",
        -10.491452566966037
      ],
      [
        "1995",
        -10.491465444915224
      ],
      [
        "pet",
        -10.491721788873798
      ],
      [
        "kuldas",
        -10.492260263847086
      ],
      [
        "Tomas",
        -10.493401459107048
      ],
      [
        "Bataan",
        -10.493700777052736
      ],
      [
        "76",
        -10.493792219718404
      ],
      [
        "itas",
        -10.493840870015958
      ],
      [
        "mpu",
        -10.493843510156333
      ],
      [
        "Sub",
        -10.494316133507326
      ],
      [
        "Ram",
        -10.494544232372272
      ],
      [
        "Tre",
        -10.496559151239868
      ],
      [
        "March",
        -10.49734161944113
      ],
      [
        "pamisan",
        -10.497922454490713
      ],
      [
        "Dec",
        -10.49810501139602
      ],
      [
        "baldug",
        -10.498491724419566
      ],
      [
        "Sto",
        -10.498591873332973
      ],
      [
        "angganan",
        -10.498665335794273
      ],
      [
        "→",
        -10.499642155265512
      ],
      [
        "Gobernador",
        -10.499642155448711
      ],
      [
        "karampatan",
        -10.499642490497543
      ],
      [
        "Museum",
        -10.499643281988423
      ],
      [
        "Manuel",
        -10.499925895395235
      ],
      [
        "abad",
        -10.4999972131365
      ],
      [
        "Las",
        -10.500525848546681
      ],
      [
        "1990",
        -10.500527563143345
      ],
      [
        "fic",
        -10.5010242918386
      ],
      [
        "work",
        -10.502790822403632
      ],
      [
        "Holy",
        -10.502808792344943
      ],
      [
        "sur",
        -10.502918180335975
      ],
      [
        "some",
        -10.50334715092474
      ],
      [
        "altar",
        -10.50336009794591
      ],
      [
        "suyu",
        -10.503531679896469
      ],
      [
        "Makananu",
        -10.503598960733154
      ],
      [
        "panayan",
        -10.504071175707999
      ],
      [
        "aganaka",
        -10.504171177084144
      ],
      [
        "tuc",
        -10.50549467983019
      ],
      [
        "57",
        -10.505618693622008
      ],
      [
        "gagawa",
        -10.505827506594613
      ],
      [
        "pangka",
        -10.506547913029056
      ],
      [
        "cur",
        -10.50682491035197
      ],
      [
        "wis",
        -10.507107777000638
      ],
      [
        "tatag",
        -10.507645623704619
      ],
      [
        "ize",
        -10.507844434301038
      ],
      [
        "stra",
        -10.508122474020439
      ],
      [
        "tín",
        -10.508176977632274
      ],
      [
        "payung",
        -10.50880141858812
      ],
      [
        "school",
        -10.50882152246026
      ],
      [
        "pablasa",
        -10.508870199534485
      ],
      [
        "dú",
        -10.508881737266012
      ],
      [
        "panulu",
        -10.508909660149081
      ],
      [
        "ness",
        -10.509522022127983
      ],
      [
        "ibili",
        -10.509681981364903
      ],
      [
        "mangga",
        -10.510267468491655
      ],
      [
        "len",
        -10.510384753024194
      ],
      [
        "pp",
        -10.510730648010833
      ],
      [
        "kakaluguran",
        -10.511696756082676
      ],
      [
        "nalangin",
        -10.512021408180711
      ],
      [
        "pamagpa",
        -10.51206710865582
      ],
      [
        "ney",
        -10.51361382360028
      ],
      [
        "takutan",
        -10.515227347696468
      ],
      [
        "act",
        -10.515367534913363
      ],
      [
        "dai",
        -10.516324266004784
      ],
      [
        "Yu",
        -10.516550951265224
      ],
      [
        "Pr",
        -10.516618732358292
      ],
      [
        "tribu",
        -10.517005876680233
      ],
      [
        "agnan",
        -10.51708424069285
      ],
      [
        "Alimbawa",
        -10.51807583736716
      ],
      [
        "George",
        -10.518077050834279
      ],
      [
        "region",
        -10.518094820907613
      ],
      [
        "kamaganak",
        -10.518482417749844
      ],
      [
        "hol",
        -10.518595688678904
      ],
      [
        "Cab",
        -10.518791596483961
      ],
      [
        "pupul",
        -10.518870060273962
      ],
      [
        "ough",
        -10.518929280368532
      ],
      [
        "milako",
        -10.519385970811047
      ],
      [
        "aguman",
        -10.51944217163253
      ],
      [
        "cultura",
        -10.519612389497873
      ],
      [
        "ign",
        -10.520336338239716
      ],
      [
        "uring",
        -10.52059683901587
      ],
      [
        "Sch",
        -10.521114182498305
      ],
      [
        "clasi",
        -10.52123051664071
      ],
      [
        "Best",
        -10.521416988481278
      ],
      [
        "matudtu",
        -10.521885146304122
      ],
      [
        "agawa",
        -10.523610159968104
      ],
      [
        "Pari",
        -10.524787484420308
      ],
      [
        "rul",
        -10.525232002388172
      ],
      [
        "yú",
        -10.525843143170679
      ],
      [
        "ô",
        -10.527421520289863
      ],
      [
        "Birhen",
        -10.527439041031519
      ],
      [
        "Tina",
        -10.527451234379866
      ],
      [
        "Golden",
        -10.527622251593144
      ],
      [
        "Balita",
        -10.528018891916169
      ],
      [
        "belu",
        -10.529226897188801
      ],
      [
        "far",
        -10.529857790291516
      ],
      [
        "Kong",
        -10.53072929657924
      ],
      [
        "edit",
        -10.530888992223268
      ],
      [
        "A7",
        -10.531170471802143
      ],
      [
        "mica",
        -10.531474785212403
      ],
      [
        "51",
        -10.53173008647432
      ],
      [
        "blast",
        -10.532753588996743
      ],
      [
        "Tal",
        -10.532892124936353
      ],
      [
        "Mipa",
        -10.533066856759149
      ],
      [
        "Bie",
        -10.533129019019393
      ],
      [
        "DI",
        -10.533130913017349
      ],
      [
        "67",
        -10.535028623029765
      ],
      [
        "panamdaman",
        -10.536446411015113
      ],
      [
        "misulat",
        -10.536710730113143
      ],
      [
        "Charles",
        -10.536926526557886
      ],
      [
        "basi",
        -10.537109735335125
      ],
      [
        "lunto",
        -10.537693138753504
      ],
      [
        "Grand",
        -10.537693198792281
      ],
      [
        "95",
        -10.537811470148943
      ],
      [
        "paganu",
        -10.538135319835376
      ],
      [
        "sasabyan",
        -10.538933808972669
      ],
      [
        "pang2",
        -10.53895131283732
      ],
      [
        "Bat",
        -10.538985423045588
      ],
      [
        "Henr",
        -10.539701731599276
      ],
      [
        "karapatan",
        -10.540337462261938
      ],
      [
        "Camp",
        -10.54057447790661
      ],
      [
        "cum",
        -10.54080441334372
      ],
      [
        "1Pe",
        -10.541307432075486
      ],
      [
        "mont",
        -10.542286678727653
      ],
      [
        "Saint",
        -10.542552912522748
      ],
      [
        "vil",
        -10.54410059160179
      ],
      [
        "+",
        -10.546379292631862
      ],
      [
        "Jesucristo",
        -10.546379295961007
      ],
      [
        "sinagoga",
        -10.54638887813217
      ],
      [
        "malagung",
        -10.546797881884098
      ],
      [
        "Inc",
        -10.547827572979802
      ],
      [
        "Jesu-",
        -10.54783170342917
      ],
      [
        "menakit",
        -10.548078524927385
      ],
      [
        "Sha",
        -10.548456368761078
      ],
      [
        "personal",
        -10.548756638452314
      ],
      [
        "bebe",
        -10.549433413935112
      ],
      [
        "order",
        -10.54960943119816
      ],
      [
        "Col",
        -10.549658109200127
      ],
      [
        "ikami",
        -10.551112017209071
      ],
      [
        "mac",
        -10.551322418861618
      ],
      [
        "ches",
        -10.551405319585061
      ],
      [
        "salapi",
        -10.551538768614453
      ],
      [
        "non",
        -10.551838755630897
      ],
      [
        "hich",
        -10.551856851808477
      ],
      [
        "Alt",
        -10.553197029748318
      ],
      [
        "eneral",
        -10.5533241062646
      ],
      [
        "Bon",
        -10.55357127484384
      ],
      [
        "karen",
        -10.554120718197362
      ],
      [
        "lulub",
        -10.555171756166082
      ],
      [
        "niversidad",
        -10.555559322610131
      ],
      [
        "inuman",
        -10.555698940892324
      ],
      [
        "Agustin",
        -10.556179835284627
      ],
      [
        "Dom",
        -10.55623600757889
      ],
      [
        "UE",
        -10.556431500823177
      ],
      [
        "pú",
        -10.55657640151107
      ],
      [
        "sumpa",
        -10.557862291666716
      ],
      [
        "Gar",
        -10.55810100954952
      ],
      [
        "tao",
        -10.558151354019456
      ],
      [
        "pangatau",
        -10.558897920466602
      ],
      [
        "alalan",
        -10.559011071372437
      ],
      [
        "ext",
        -10.559159975041972
      ],
      [
        "sha",
        -10.559717413990107
      ],
      [
        "lakwan",
        -10.559772737124247
      ],
      [
        "zar",
        -10.560177175088008
      ],
      [
        "reni",
        -10.560977664896747
      ],
      [
        "pale",
        -10.561349149858355
      ],
      [
        "ene",
        -10.561358888161257
      ],
      [
        "more",
        -10.561770450126804
      ],
      [
        "lwa",
        -10.563134681078914
      ],
      [
        "múrin",
        -10.563254465673971
      ],
      [
        "late",
        -10.563305994629316
      ],
      [
        "LE",
        -10.56336897283486
      ],
      [
        "wakas",
        -10.564537809218667
      ],
      [
        "count",
        -10.564785522954136
      ],
      [
        "Christ",
        -10.565469258981192
      ],
      [
        "ा",
        -10.565703415111322
      ],
      [
        "gobernador",
        -10.565703415153006
      ],
      [
        "industria",
        -10.565704299137991
      ],
      [
        "Negro",
        -10.565775196604925
      ],
      [
        "Director",
        -10.566662573537748
      ],
      [
        "Kabud",
        -10.567143630441139
      ],
      [
        "tatak",
        -10.568126417260554
      ],
      [
        "tap",
        -10.568591021377234
      ],
      [
        "Bou",
        -10.568931344118498
      ],
      [
        "sasakup",
        -10.569020851674598
      ],
      [
        "babasan",
        -10.569327786807392
      ],
      [
        "uel",
        -10.57088117147961
      ],
      [
        "bali",
        -10.571133655992195
      ],
      [
        "Papa",
        -10.57202264209852
      ],
      [
        "Bakit",
        -10.572478996402968
      ],
      [
        "mabilis",
        -10.573412541113754
      ],
      [
        "dios",
        -10.573449866608659
      ],
      [
        "its",
        -10.573564899591087
      ],
      [
        "less",
        -10.573751140412263
      ],
      [
        "oso",
        -10.574008879212961
      ],
      [
        "Sag",
        -10.574358337871857
      ],
      [
        "Aptas",
        -10.575521961261552
      ],
      [
        "babi",
        -10.575533871514775
      ],
      [
        "Online",
        -10.575635024364278
      ],
      [
        "dáké",
        -10.57569242789771
      ],
      [
        "tab",
        -10.575871022553958
      ],
      [
        "Music",
        -10.576154523943089
      ],
      [
        "Leon",
        -10.576828768798414
      ],
      [
        "MAN",
        -10.576953379804433
      ],
      [
        "-edit",
        -10.57713006840313
      ],
      [
        "uman",
        -10.578036445730731
      ],
      [
        "will",
        -10.578187917916594
      ],
      [
        "agalug",
        -10.57839044583813
      ],
      [
        "ico",
        -10.579309915535223
      ],
      [
        "tuglung",
        -10.579999685642242
      ],
      [
        "manibala",
        -10.580575081827316
      ],
      [
        "alipan",
        -10.580984148821564
      ],
      [
        "px",
        -10.581148249557003
      ],
      [
        "pilitan",
        -10.58187062659552
      ],
      [
        "macá",
        -10.582070624387995
      ],
      [
        "Er",
        -10.582550096238005
      ],
      [
        "Sir",
        -10.582946844158517
      ],
      [
        "Region",
        -10.583889634224672
      ],
      [
        "mple",
        -10.584794919650284
      ],
      [
        "Puri",
        -10.584833407632555
      ],
      [
        "Mexico",
        -10.585408808773686
      ],
      [
        "ganakan",
        -10.585449739918076
      ],
      [
        "genetic",
        -10.585608232225674
      ],
      [
        "gus",
        -10.587073249533951
      ],
      [
        "kebaluan",
        -10.587087346992591
      ],
      [
        "eta",
        -10.587837489762741
      ],
      [
        "bakal",
        -10.587945400112396
      ],
      [
        "piku",
        -10.588187894717933
      ],
      [
        "Ita",
        -10.588304830968312
      ],
      [
        "Note",
        -10.588744334998644
      ],
      [
        "Bac",
        -10.588952969741928
      ],
      [
        "programa",
        -10.589253334521313
      ],
      [
        "Bet",
        -10.589563418986252
      ],
      [
        "keganagana",
        -10.590017864460334
      ],
      [
        "elec",
        -10.590074770959724
      ],
      [
        "We",
        -10.59024104813597
      ],
      [
        "Anac",
        -10.590288945789606
      ],
      [
        "Ser",
        -10.590405042947449
      ],
      [
        "Gregorian",
        -10.59057932855788
      ],
      [
        "pita",
        -10.590605554294038
      ],
      [
        "libe",
        -10.591040958375363
      ],
      [
        "Nav",
        -10.591071605176182
      ],
      [
        "palsintan",
        -10.591352948809348
      ],
      [
        "kayi",
        -10.591375634725082
      ],
      [
        "ogon",
        -10.592056602868531
      ],
      [
        "paligi",
        -10.593347782053446
      ],
      [
        "Hen",
        -10.593553927232676
      ],
      [
        "hon",
        -10.593682788074203
      ],
      [
        "71",
        -10.593809420949803
      ],
      [
        "enus",
        -10.593885948385697
      ],
      [
        "rake",
        -10.59424711751274
      ],
      [
        "pánga",
        -10.594991288022602
      ],
      [
        "pate",
        -10.5950028789254
      ],
      [
        "Occidental",
        -10.595408326780765
      ],
      [
        "Gloria",
        -10.595409473389754
      ],
      [
        "Karagdagan",
        -10.595439857588982
      ],
      [
        "campu",
        -10.595489657136138
      ],
      [
        "taba",
        -10.595588022149947
      ],
      [
        "pili",
        -10.595617546179263
      ],
      [
        "ligalig",
        -10.595773976800432
      ],
      [
        "Time",
        -10.596095269990615
      ],
      [
        "pikabal",
        -10.596441076432518
      ],
      [
        "kapitna",
        -10.596987647734556
      ],
      [
        "pusung",
        -10.597193948563671
      ],
      [
        "ukluk",
        -10.597841241021673
      ],
      [
        "Monte",
        -10.597926505972712
      ],
      [
        "matibe",
        -10.597974649209272
      ],
      [
        "bro",
        -10.598263519287542
      ],
      [
        "town",
        -10.598335396469787
      ],
      [
        "Dap",
        -10.598713664340243
      ],
      [
        "aklat",
        -10.599512546858648
      ],
      [
        "kakanan",
        -10.59987574923264
      ],
      [
        "Bali",
        -10.600729660891709
      ],
      [
        "ograph",
        -10.60239037951909
      ],
      [
        "sukad",
        -10.60290649653843
      ],
      [
        "many",
        -10.603044397881796
      ],
      [
        "kú",
        -10.603241615742682
      ],
      [
        "guit",
        -10.605010385082533
      ],
      [
        "First",
        -10.605510093524671
      ],
      [
        "ramdaman",
        -10.605675673312799
      ],
      [
        "ux",
        -10.605794212410714
      ],
      [
        "Bra",
        -10.606181725651972
      ],
      [
        "Italy",
        -10.60621962095103
      ],
      [
        "paninap",
        -10.606307182996332
      ],
      [
        "-H",
        -10.609366352462445
      ],
      [
        "Val",
        -10.609401875694976
      ],
      [
        "waga",
        -10.609784629754461
      ],
      [
        "Nan",
        -10.609943472441252
      ],
      [
        "Sina",
        -10.610074218611729
      ],
      [
        "Mary",
        -10.610086193716086
      ],
      [
        "malat",
        -10.611256369763629
      ],
      [
        "77",
        -10.611998022111422
      ],
      [
        "CE",
        -10.612428402564607
      ],
      [
        "Sig",
        -10.61328580032513
      ],
      [
        "meto",
        -10.613837024818395
      ],
      [
        "pagnasan",
        -10.614427801045316
      ],
      [
        "Kh",
        -10.614496410470512
      ],
      [
        "Eb",
        -10.614992798466117
      ],
      [
        "susulat",
        -10.615257693639627
      ],
      [
        "biga",
        -10.61531910369499
      ],
      [
        "sign",
        -10.615475628372312
      ],
      [
        "Pati",
        -10.615496547527957
      ],
      [
        "public",
        -10.615626764091047
      ],
      [
        "Prefecture",
        -10.615713418523342
      ],
      [
        "Fariseo",
        -10.615714933572166
      ],
      [
        "JPG",
        -10.615722477884072
      ],
      [
        "poesia",
        -10.615733368896901
      ],
      [
        "zz",
        -10.61579760816057
      ],
      [
        "pamanuru",
        -10.61602756359281
      ],
      [
        "1960",
        -10.616812755685306
      ],
      [
        "Kang",
        -10.616830177486515
      ],
      [
        "pagal",
        -10.61759489023525
      ],
      [
        "CO",
        -10.61844947140241
      ],
      [
        "pekapu",
        -10.61960610790484
      ],
      [
        "ikang",
        -10.620714830493428
      ],
      [
        "daun",
        -10.620742775903889
      ],
      [
        "Syn",
        -10.62167950646645
      ],
      [
        "Far",
        -10.622450347925557
      ],
      [
        "Mana",
        -10.62274362277045
      ],
      [
        "Hall",
        -10.622923140509812
      ],
      [
        "activ",
        -10.623270428625712
      ],
      [
        "Luis",
        -10.6235508405051
      ],
      [
        "DE",
        -10.623993969705236
      ],
      [
        "set",
        -10.624659949884006
      ],
      [
        "Inglis",
        -10.624871332335552
      ],
      [
        "Cabu",
        -10.62565854402244
      ],
      [
        "August",
        -10.626022860864587
      ],
      [
        "mayor",
        -10.626521959683348
      ],
      [
        "Life",
        -10.626878134510061
      ],
      [
        "dininan",
        -10.626950114435413
      ],
      [
        "paras",
        -10.627498160708349
      ],
      [
        "lot",
        -10.6277107684583
      ],
      [
        "Aba",
        -10.627972374164496
      ],
      [
        "dom",
        -10.628134228567696
      ],
      [
        "maluat",
        -10.628508294090175
      ],
      [
        "danup",
        -10.629674700085033
      ],
      [
        "Cot",
        -10.630511192307353
      ],
      [
        "Sen",
        -10.630757872734431
      ],
      [
        "peki",
        -10.631038477205692
      ],
      [
        "Bri",
        -10.631336389072825
      ],
      [
        "TI",
        -10.631426384801065
      ],
      [
        "makaba",
        -10.63150427725734
      ],
      [
        "palyari",
        -10.631725553294416
      ],
      [
        "ON",
        -10.633594668945975
      ],
      [
        "point",
        -10.633756336750608
      ],
      [
        "pante",
        -10.633871726042551
      ],
      [
        "lála",
        -10.634447140116613
      ],
      [
        "Ve",
        -10.634975875509252
      ],
      [
        "Centro",
        -10.636445459864781
      ],
      [
        "Hindi",
        -10.636461950256027
      ],
      [
        "ár",
        -10.636617984731874
      ],
      [
        "Aguinald",
        -10.636668890059413
      ],
      [
        "Pabust",
        -10.636671486504255
      ],
      [
        "Administration",
        -10.636753933991134
      ],
      [
        "sadiang",
        -10.63700531961484
      ],
      [
        "Media",
        -10.638009074244682
      ],
      [
        "Mira",
        -10.638408971560736
      ],
      [
        "mapan",
        -10.638553713473005
      ],
      [
        "top",
        -10.639360517715662
      ],
      [
        "Bilang",
        -10.639786618439055
      ],
      [
        "Ikit",
        -10.6401058225753
      ],
      [
        "App",
        -10.64073721041419
      ],
      [
        "agia",
        -10.640982348094141
      ],
      [
        "dagat",
        -10.641202660519411
      ],
      [
        "bagya",
        -10.643593402462841
      ],
      [
        "mabayat",
        -10.643703771929253
      ],
      [
        "Lalu",
        -10.644309659351071
      ],
      [
        "bog",
        -10.644576065986792
      ],
      [
        "tela",
        -10.644832912333772
      ],
      [
        "agkalub",
        -10.644922235072562
      ],
      [
        "pamintu",
        -10.645646587285292
      ],
      [
        "Pilat",
        -10.645823287405587
      ],
      [
        "kawal",
        -10.646084061522945
      ],
      [
        "home",
        -10.646391649949921
      ],
      [
        "ü",
        -10.64696567931928
      ],
      [
        "Spanish",
        -10.646967451165757
      ],
      [
        "Isabel",
        -10.647006914756169
      ],
      [
        "Albugan",
        -10.647050026036279
      ],
      [
        "kabilian",
        -10.647106665933684
      ],
      [
        "kilometr",
        -10.647165846304993
      ],
      [
        "kalalangan",
        -10.647188553338985
      ],
      [
        "planu",
        -10.647275636632616
      ],
      [
        "kapag",
        -10.647850486198855
      ],
      [
        "vis",
        -10.648021085995216
      ],
      [
        "BE",
        -10.648189636446993
      ],
      [
        "Indian",
        -10.649473870530176
      ],
      [
        "maulaga",
        -10.650199312191997
      ],
      [
        "pagmaragul",
        -10.65022401231266
      ],
      [
        "Bir",
        -10.650237578285786
      ],
      [
        "irport",
        -10.650260707426668
      ],
      [
        "Bina",
        -10.650606525715295
      ],
      [
        "tinuki",
        -10.650621932052529
      ],
      [
        "lage",
        -10.650659343441282
      ],
      [
        "ulisak",
        -10.650710861968037
      ],
      [
        "Apri",
        -10.6514381252365
      ],
      [
        "SAN",
        -10.652255200657471
      ],
      [
        "Sta",
        -10.654113541225886
      ],
      [
        "cm",
        -10.654300089793026
      ],
      [
        "yapin",
        -10.655621994912613
      ],
      [
        "side",
        -10.655925286225894
      ],
      [
        "mandal",
        -10.655934107785239
      ],
      [
        "plan",
        -10.656356504121156
      ],
      [
        "Kea",
        -10.656988183277244
      ],
      [
        "Europe",
        -10.657604026786627
      ],
      [
        "pilubluban",
        -10.657604213311599
      ],
      [
        "Computer",
        -10.65760451556254
      ],
      [
        "computer",
        -10.657609559086342
      ],
      [
        "panimanman",
        -10.657610006163784
      ],
      [
        "pulu't",
        -10.65768347648171
      ],
      [
        "samantala",
        -10.657776012059987
      ],
      [
        "asuk",
        -10.65855211595045
      ],
      [
        "sangkap",
        -10.658823928527465
      ],
      [
        "anggap",
        -10.658999169014855
      ],
      [
        "maki-",
        -10.659597809958942
      ],
      [
        "pakilala",
        -10.65960247096918
      ],
      [
        "artist",
        -10.66007904635704
      ],
      [
        "Ye",
        -10.660976839326985
      ],
      [
        "Mc",
        -10.661125969932213
      ],
      [
        "post",
        -10.66159612914316
      ],
      [
        "ft",
        -10.661851423079012
      ],
      [
        "Tru",
        -10.662270431713182
      ],
      [
        "tinda",
        -10.663495813417434
      ],
      [
        "199",
        -10.66361567720045
      ],
      [
        "ukiat",
        -10.664023402989573
      ],
      [
        "doba",
        -10.664201827398273
      ],
      [
        "lihim",
        -10.664558538442098
      ],
      [
        "read",
        -10.665172759414837
      ],
      [
        "ward",
        -10.665756365860986
      ],
      [
        "try",
        -10.666857311398342
      ],
      [
        "abasa",
        -10.667179512839319
      ],
      [
        "porma",
        -10.667217709084692
      ],
      [
        "Mil",
        -10.668074159047318
      ],
      [
        "capitoli",
        -10.668356772768085
      ],
      [
        "militar",
        -10.668584069064867
      ],
      [
        "class",
        -10.668814156172452
      ],
      [
        "mayupaya",
        -10.668966873852902
      ],
      [
        "pangkabilugan",
        -10.669540842245738
      ],
      [
        "buu",
        -10.669901839229855
      ],
      [
        "bayat",
        -10.670661327156811
      ],
      [
        "karapat",
        -10.670831986647746
      ],
      [
        "Tar",
        -10.671231671883326
      ],
      [
        "Bor",
        -10.671676991204883
      ],
      [
        "radio",
        -10.671890815639252
      ],
      [
        "dusa",
        -10.672292243159777
      ],
      [
        "tikdo",
        -10.672416500851506
      ],
      [
        "napun",
        -10.672746890452805
      ],
      [
        "UK",
        -10.673668510553146
      ],
      [
        "guil",
        -10.67415782181767
      ],
      [
        "west",
        -10.674324630655661
      ],
      [
        "spir",
        -10.674932748873838
      ],
      [
        "music",
        -10.674971919324875
      ],
      [
        "ág",
        -10.675057671905357
      ],
      [
        "lie",
        -10.675846785558857
      ],
      [
        "musica",
        -10.676255527237313
      ],
      [
        "strada",
        -10.67639902314129
      ],
      [
        "bilis",
        -10.676589234427661
      ],
      [
        "utak",
        -10.67739257696088
      ],
      [
        "Dalit",
        -10.677634573152696
      ],
      [
        "Lond",
        -10.678275515520381
      ],
      [
        "tawan",
        -10.67847688408527
      ],
      [
        "Rafael",
        -10.679226241790243
      ],
      [
        "standard",
        -10.679256798220056
      ],
      [
        "siguru",
        -10.67934352763259
      ],
      [
        "tigtig",
        -10.67947387070939
      ],
      [
        "maranun",
        -10.679731782478894
      ],
      [
        "bista",
        -10.679799048267894
      ],
      [
        "pekama",
        -10.680852016053858
      ],
      [
        "inamit",
        -10.68242923811243
      ],
      [
        "YU",
        -10.68323029039171
      ],
      [
        "misna",
        -10.683666346982003
      ],
      [
        "Mayu",
        -10.683763437756284
      ],
      [
        "Hol",
        -10.685393589899617
      ],
      [
        "magumpisa",
        -10.6855684608229
      ],
      [
        "each",
        -10.685959990589634
      ],
      [
        "sikat",
        -10.685973411271899
      ],
      [
        "palage",
        -10.68602493788321
      ],
      [
        "Tune",
        -10.686119421535468
      ],
      [
        "mig-",
        -10.686365531790033
      ],
      [
        "akua",
        -10.68716150609551
      ],
      [
        "lungan",
        -10.687461517715299
      ],
      [
        "bula",
        -10.687796340535952
      ],
      [
        "libr",
        -10.688205724768302
      ],
      [
        "kiabe",
        -10.688441443562471
      ],
      [
        "Long",
        -10.688570221086987
      ],
      [
        "binil",
        -10.689210996083705
      ],
      [
        "ified",
        -10.689512122921787
      ],
      [
        "rga",
        -10.689636349042512
      ],
      [
        "Project",
        -10.690169484362231
      ],
      [
        "January",
        -10.690215822254316
      ],
      [
        "KORO",
        -10.69021583626753
      ],
      [
        "kasangkapan",
        -10.690263540044262
      ],
      [
        "film",
        -10.69028230566133
      ],
      [
        "Dizon",
        -10.690530195063754
      ],
      [
        "asin",
        -10.690555330213659
      ],
      [
        "Vo",
        -10.690612609727093
      ],
      [
        "intang",
        -10.6907403034076
      ],
      [
        "wel",
        -10.690847227079136
      ],
      [
        "paksa",
        -10.69209627773775
      ],
      [
        "pamisip",
        -10.692358931875415
      ],
      [
        "bac",
        -10.692425635769121
      ],
      [
        "yátu",
        -10.69255356717543
      ],
      [
        "litan",
        -10.692770518572203
      ],
      [
        "ote",
        -10.693303169379346
      ],
      [
        "TO",
        -10.69346190004958
      ],
      [
        "’s",
        -10.693598462645802
      ],
      [
        "ís",
        -10.69365834370387
      ],
      [
        "play",
        -10.694002355783145
      ],
      [
        "nagar",
        -10.695135834262317
      ],
      [
        "Intern",
        -10.696826012622704
      ],
      [
        "ocan",
        -10.696846935976282
      ],
      [
        "samut",
        -10.696894905836363
      ],
      [
        "Bulan",
        -10.697093967820791
      ],
      [
        "sip",
        -10.69748882972684
      ],
      [
        "vers",
        -10.697667861130128
      ],
      [
        "pic",
        -10.698202763884666
      ],
      [
        "ñ",
        -10.698445776543483
      ],
      [
        "payapa",
        -10.699101143401263
      ],
      [
        "yabut",
        -10.699292757644727
      ],
      [
        "tana",
        -10.701073668708194
      ],
      [
        "Development",
        -10.70132635268275
      ],
      [
        "miniabi",
        -10.701389883896441
      ],
      [
        "kid",
        -10.701580900737408
      ],
      [
        "Cór",
        -10.701931640033369
      ],
      [
        "Upper",
        -10.702274476195885
      ],
      [
        "tiru",
        -10.702523835769705
      ],
      [
        "ismo",
        -10.703159938890472
      ],
      [
        "right",
        -10.703161661894919
      ],
      [
        "Canton",
        -10.703272496531689
      ],
      [
        "pámi",
        -10.703567539706615
      ],
      [
        "palto",
        -10.703749372569023
      ],
      [
        "PE",
        -10.703859134243807
      ],
      [
        "kayapan",
        -10.703956782867547
      ],
      [
        "lupung",
        -10.704952953527968
      ],
      [
        "DO",
        -10.705625172903343
      ],
      [
        "álung",
        -10.706481447676154
      ],
      [
        "Medica",
        -10.707431400000134
      ],
      [
        "sulung",
        -10.7079403521573
      ],
      [
        "Bun",
        -10.708766729580594
      ],
      [
        "code",
        -10.710113100324946
      ],
      [
        "peka-",
        -10.711022372219038
      ],
      [
        "host",
        -10.711393946754583
      ],
      [
        "Pig",
        -10.711763263870257
      ],
      [
        "pamagbayu",
        -10.71192203979406
      ],
      [
        "samban",
        -10.712537660703958
      ],
      [
        "Bunduk",
        -10.71256426103248
      ],
      [
        "Pangasinan",
        -10.712566626828242
      ],
      [
        "tropic",
        -10.712569251970404
      ],
      [
        "popula",
        -10.712571298230893
      ],
      [
        "è",
        -10.712697188998785
      ],
      [
        "field",
        -10.712747099523446
      ],
      [
        "megumpisa",
        -10.712784729400585
      ],
      [
        "migpa",
        -10.712882241698036
      ],
      [
        "1992",
        -10.71337673249106
      ],
      [
        "Engineering",
        -10.714815163880845
      ],
      [
        "kundi",
        -10.71559658103157
      ],
      [
        "kalaban",
        -10.716073937282339
      ],
      [
        "kapagnasan",
        -10.716243435180335
      ],
      [
        "Bisa",
        -10.716339803282189
      ],
      [
        "Lipat",
        -10.717282299315283
      ],
      [
        "phyl",
        -10.7188379805147
      ],
      [
        "gisan",
        -10.719324592544096
      ],
      [
        "panakit",
        -10.719367782428103
      ],
      [
        "metru",
        -10.72044883226526
      ],
      [
        "ful",
        -10.720567036407953
      ],
      [
        "guinu",
        -10.720581352338822
      ],
      [
        "aiguit",
        -10.721197268881145
      ],
      [
        "Banua",
        -10.721286969832162
      ],
      [
        "Base",
        -10.7217671565659
      ],
      [
        "canita",
        -10.7226249849199
      ],
      [
        "JPEG",
        -10.723926131589902
      ],
      [
        "Historic",
        -10.723928245351907
      ],
      [
        "ayus",
        -10.72396131320906
      ],
      [
        "Iloco",
        -10.724003063995145
      ],
      [
        "guintu",
        -10.724392749652772
      ],
      [
        "Japon",
        -10.724394676156393
      ],
      [
        "Amlat",
        -10.724587054679887
      ],
      [
        "pasiag",
        -10.724930954438527
      ],
      [
        "1970",
        -10.726393796714833
      ],
      [
        "Sun",
        -10.726736072206505
      ],
      [
        "aske",
        -10.727075744952131
      ],
      [
        "pámani",
        -10.72739038684938
      ],
      [
        "tunan",
        -10.727490881035454
      ],
      [
        "B7",
        -10.728265950469744
      ],
      [
        "lablab",
        -10.728404016234999
      ],
      [
        "Bug",
        -10.728602144288187
      ],
      [
        "Area",
        -10.728606968638323
      ],
      [
        "maqui",
        -10.729182363772807
      ],
      [
        "Gregori",
        -10.729446055953654
      ],
      [
        "She",
        -10.730326902014742
      ],
      [
        "cayu",
        -10.730342541089412
      ],
      [
        "ampang",
        -10.73037866931551
      ],
      [
        "Home",
        -10.730905239041526
      ],
      [
        "laru",
        -10.733135391083044
      ],
      [
        "hang",
        -10.73437202676092
      ],
      [
        "mapilang",
        -10.734454292811368
      ],
      [
        "Bachelor",
        -10.735420199156184
      ],
      [
        "Calendari",
        -10.735420222814572
      ],
      [
        "producer",
        -10.735420384203362
      ],
      [
        "district",
        -10.735421375964762
      ],
      [
        "Burgos",
        -10.735421443039154
      ],
      [
        "escuela",
        -10.735424507700934
      ],
      [
        "propeta",
        -10.735471038409486
      ],
      [
        "Templo",
        -10.735660680508449
      ],
      [
        "atbus",
        -10.735664918352082
      ],
      [
        "Sisuan",
        -10.736402858001675
      ],
      [
        "Huel",
        -10.736658476577741
      ],
      [
        "pilak",
        -10.737088680788833
      ],
      [
        "Ji",
        -10.737746538503455
      ],
      [
        "ít",
        -10.737881818867198
      ],
      [
        "Miss",
        -10.738795601602948
      ],
      [
        "Garci",
        -10.739037956346461
      ],
      [
        "ñgana",
        -10.740048399386787
      ],
      [
        "Agostu",
        -10.740612565049611
      ],
      [
        "talik",
        -10.741138591581276
      ],
      [
        "photo",
        -10.742400308873828
      ],
      [
        "Keti",
        -10.742703859332053
      ],
      [
        "how",
        -10.743100183758507
      ],
      [
        "salbag",
        -10.743624411222797
      ],
      [
        "Ken",
        -10.743630604807723
      ],
      [
        "ambu",
        -10.743920282289277
      ],
      [
        "maluka",
        -10.744119057334608
      ],
      [
        "Rita",
        -10.744197394098801
      ],
      [
        "Russia",
        -10.74466932306568
      ],
      [
        "ENG",
        -10.745616145042371
      ],
      [
        "abato",
        -10.745781443685853
      ],
      [
        "ular",
        -10.745839738208172
      ],
      [
        "bulu",
        -10.746090356611592
      ],
      [
        "Tim",
        -10.746359016405894
      ],
      [
        "kasu",
        -10.746402267894492
      ],
      [
        "bara",
        -10.746910033171433
      ],
      [
        "federal",
        -10.747049299140755
      ],
      [
        "Benjami",
        -10.747073389208476
      ],
      [
        "mangatua",
        -10.747271160309168
      ],
      [
        "dalise",
        -10.747278687283757
      ],
      [
        "katimawan",
        -10.747328399208644
      ],
      [
        "eyte",
        -10.747369830096353
      ],
      [
        "Sar",
        -10.747758586984851
      ],
      [
        "Maliari",
        -10.747884268143702
      ],
      [
        "teorya",
        -10.748302309712667
      ],
      [
        "Manch",
        -10.749150327086195
      ],
      [
        "Lab",
        -10.7496655689132
      ],
      [
        "mekad",
        -10.750089581041525
      ],
      [
        "Bula",
        -10.750104078937088
[...]
