{"version": 1, "lowercase": true, "vocab": {"<s>": 0, "<pad>": 1, "</s>": 2, "<unk>": 3, "__pam_Latn__": 4, "▁": 5, "<0x00>": 6, "<0x01>": 7, "<0x02>": 8, "<0x03>": 9, "<0x04>": 10, "<0x05>": 11, "<0x06>": 12, "<0x07>": 13, "<0x08>": 14, "<0x09>": 15, "<0x0A>": 16, "<0x0B>": 17, "<0x0C>": 18, "<0x0D>": 19, "<0x0E>": 20, "<0x0F>": 21, "<0x10>": 22, "<0x11>": 23, "<0x12>": 24, "<0x13>": 25, "<0x14>": 26, "<0x15>": 27, "<0x16>": 28, "<0x17>": 29, "<0x18>": 30, "<0x19>": 31, "<0x1A>": 32, "<0x1B>": 33, "<0x1C>": 34, "<0x1D>": 35, "<0x1E>": 36, "<0x1F>": 37, "<0x20>": 38, "<0x21>": 39, "<0x22>": 40, "<0x23>": 41, "<0x24>": 42, "<0x25>": 43, "<0x26>": 44, "<0x27>": 45, "<0x28>": 46, "<0x29>": 47, "<0x2A>": 48, "<0x2B>": 49, "<0x2C>": 50, "<0x2D>": 51, "<0x2E>": 52, "<0x2F>": 53, "<0x30>": 54, "<0x31>": 55, "<0x32>": 56, "<0x33>": 57, "<0x34>": 58, "<0x35>": 59, "<0x36>": 60, "<0x37>": 61, "<0x38>": 62, "<0x39>": 63, "<0x3A>": 64, "<0x3B>": 65, "<0x3C>": 66, "<0x3D>": 67, "<0x3E>": 68, "<0x3F>": 69, "<0x40>": 70, "<0x41>": 71, "<0x42>": 72, "<0x43>": 73, "<0x44>": 74, "<0x45>": 75, "<0x46>": 76, "<0x47>": 77, "<0x48>": 78, "<0x49>": 79, "<0x4A>": 80, "<0x4B>": 81, "<0x4C>": 82, "<0x4D>": 83, "<0x4E>": 84, "<0x4F>": 85, "<0x50>": 86, "<0x51>": 87, "<0x52>": 88, "<0x53>": 89, "<0x54>": 90, "<0x55>": 91, "<0x56>": 92, "<0x57>": 93, "<0x58>": 94, "<0x59>": 95, "<0x5A>": 96, "<0x5B>": 97, "<0x5C>": 98, "<0x5D>": 99, "<0x5E>": 100, "<0x5F>": 101, "<0x60>": 102, "<0x61>": 103, "<0x62>": 104, "<0x63>": 105, "<0x64>": 106, "<0x65>": 107, "<0x66>": 108, "<0x67>": 109, "<0x68>": 110, "<0x69>": 111, "<0x6A>": 112, "<0x6B>": 113, "<0x6C>": 114, "<0x6D>": 115, "<0x6E>": 116, "<0x6F>": 117, "<0x70>": 118, "<0x71>": 119, "<0x72>": 120, "<0x73>": 121, "<0x74>": 122, "<0x75>": 123, "<0x76>": 124, "<0x77>": 125, "<0x78>": 126, "<0x79>": 127, "<0x7A>": 128, "<0x7B>": 129, "<0x7C>": 130, "<0x7D>": 131, "<0x7E>": 132, "<0x7F>": 133, "<0x80>": 134, "<0x81>": 135, "<0x82>": 136, "<0x83>": 137, "<0x84>": 138, "<0x85>": 139, "<0x86>": 140, "<0x87>": 141, "<0x88>": 142, "<0x89>": 143, "<0x8A>": 144, "<0x8B>": 145, "<0x8C>": 146, "<0x8D>": 147, "<0x8E>": 148, "<0x8F>": 149, "<0x90>": 150, "<0x91>": 151, "<0x92>": 152, "<0x93>": 153, "<0x94>": 154, "<0x95>": 155, "<0x96>": 156, "<0x97>": 157, "<0x98>": 158, "<0x99>": 159, "<0x9A>": 160, "<0x9B>": 161, "<0x9C>": 162, "<0x9D>": 163, "<0x9E>": 164, "<0x9F>": 165, "<0xA0>": 166, "<0xA1>": 167, "<0xA2>": 168, "<0xA3>": 169, "<0xA4>": 170, "<0xA5>": 171, "<0xA6>": 172, "<0xA7>": 173, "<0xA8>": 174, "<0xA9>": 175, "<0xAA>": 176, "<0xAB>": 177, "<0xAC>": 178, "<0xAD>": 179, "<0xAE>": 180, "<0xAF>": 181, "<0xB0>": 182, "<0xB1>": 183, "<0xB2>": 184, "<0xB3>": 185, "<0xB4>": 186, "<0xB5>": 187, "<0xB6>": 188, "<0xB7>": 189, "<0xB8>": 190, "<0xB9>": 191, "<0xBA>": 192, "<0xBB>": 193, "<0xBC>": 194, "<0xBD>": 195, "<0xBE>": 196, "<0xBF>": 197, "<0xC0>": 198, "<0xC1>": 199, "<0xC2>": 200, "<0xC3>": 201, "<0xC4>": 202, "<0xC5>": 203, "<0xC6>": 204, "<0xC7>": 205, "<0xC8>": 206, "<0xC9>": 207, "<0xCA>": 208, "<0xCB>": 209, "<0xCC>": 210, "<0xCD>": 211, "<0xCE>": 212, "<0xCF>": 213, "<0xD0>": 214, "<0xD1>": 215, "<0xD2>": 216, "<0xD3>": 217, "<0xD4>": 218, "<0xD5>": 219, "<0xD6>": 220, "<0xD7>": 221, "<0xD8>": 222, "<0xD9>": 223, "<0xDA>": 224, "<0xDB>": 225, "<0xDC>": 226, "<0xDD>": 227, "<0xDE>": 228, "<0xDF>": 229, "<0xE0>": 230, "<0xE1>": 231, "<0xE2>": 232, "<0xE3>": 233, "<0xE4>": 234, "<0xE5>": 235, "<0xE6>": 236, "<0xE7>": 237, "<0xE8>": 238, "<0xE9>": 239, "<0xEA>": 240, "<0xEB>": 241, "<0xEC>": 242, "<0xED>": 243, "<0xEE>": 244, "<0xEF>": 245, "<0xF0>": 246, "<0xF1>": 247, "<0xF2>": 248, "<0xF3>": 249, "<0xF4>": 250, "<0xF5>": 251, "<0xF6>": 252, "<0xF7>": 253, "<0xF8>": 254, "<0xF9>": 255, "<0xFA>": 256, "<0xFB>": 257, "<0xFC>": 258, "<0xFD>": 259, "<0xFE>": 260, "<0xFF>": 261, "!": 262, "\"": 263, "$": 264, "'": 265, "(": 266, ")": 267, "*": 268, ",": 269, "-": 270, ".": 271, "/": 272, "0": 273, "1": 274, "2": 275, "3": 276, "4": 277, "5": 278, "6": 279, "7": 280, "8": 281, "9": 282, ":": 283, ";": 284, "=": 285, ">": 286, "?": 287, "@": 288, "[": 289, "\\": 290, "]": 291, "`": 292, "a": 293, "b": 294, "c": 295, "d": 296, "e": 297, "f": 298, "g": 299, "h": 300, "i": 301, "j": 302, "k": 303, "l": 304, "m": 305, "n": 306, "o": 307, "p": 308, "q": 309, "r": 310, "s": 311, "t": 312, "u": 313, "v": 314, "w": 315, "x": 316, "y": 317, "z": 318, "¨": 319, "´": 320, "…": 321, "▁\"": 322, "▁'": 323, "▁(": 324, "▁)": 325, "▁*": 326, "▁+": 327, "▁,": 328, "▁-": 329, "▁.": 330, "▁0": 331, "▁1": 332, "▁2": 333, "▁3": 334, "▁4": 335, "▁5": 336, "▁6": 337, "▁7": 338, "▁8": 339, "▁9": 340, "▁=": 341, "▁[": 342, "▁\\": 343, "▁]": 344, "▁a": 345, "▁b": 346, "▁c": 347, "▁d": 348, "▁e": 349, "▁f": 350, "▁g": 351, "▁h": 352, "▁i": 353, "▁j": 354, "▁k": 355, "▁l": 356, "▁m": 357, "▁n": 358, "▁o": 359, "▁p": 360, "▁q": 361, "▁r": 362, "▁s": 363, "▁t": 364, "▁u": 365, "▁v": 366, "▁w": 367, "▁x": 368, "▁y": 369, "▁z": 370, "▁¨": 371, "▁…": 372, "ng": 373, "an": 374, "ing": 375, "al": 376, "ang": 377, "ak": 378, "▁at": 379, "▁ka": 380, "▁king": 381, "in": 382, "▁ing": 383, "at": 384, "am": 385, "▁ke": 386, "ab": 387, "as": 388, "ag": 389, "▁na": 390, "ar": 391, "ung": 392, "ul": 393, "▁ning": 394, "ap": 395, "▁ya": 396, "▁ku": 397, "it": 398, "▁me": 399, "▁ding": 400, "il": 401, "ay": 402, "▁kek": 403, "▁mu": 404, "ad": 405, "▁kar": 406, "us": 407, "▁la": 408, "ut": 409, "un": 410, "la": 411, "is": 412, "▁nang": 413, "uk": 414, "aku": 415, "▁man": 416, "▁keka": 417, "▁mak": 418, "ti": 419, "▁an": 420, "▁kea": 421, "ik": 422, "anu": 423, "▁al": 424, "▁karing": 425, "ya": 426, "▁da": 427, "ib": 428, "ig": 429, "ug": 430, "en": 431, "os": 432, "el": 433, "▁bal": 434, "▁in": 435, "▁ne": 436, "tung": 437, "ta": 438, "ip": 439, "▁kap": 440, "abi": 441, "▁kan": 442, "um": 443, "▁pa": 444, "▁ul": 445, "aw": 446, "▁metung": 447, "▁pam": 448, "▁di": 449, "▁de": 450, "▁nung": 451, "ur": 452, "▁mag": 453, "ub": 454, "ud": 455, "pa": 456, "inu": 457, "▁ta": 458, "▁kaku": 459, "er": 460, "▁kang": 461, "ala": 462, "im": 463, "▁dios": 464, "▁uling": 465, "▁ng": 466, "▁pe": 467, "ku": 468, "▁ang": 469, "ir": 470, "▁ginu": 471, "▁dap": 472, "▁kal": 473, "on": 474, "yu": 475, "ua": 476, "▁je": 477, "tang": 478, "▁mal": 479, "ili": 480, "ho": 481, "anan": 482, "▁anak": 483, "alak": 484, "▁ban": 485, "▁pan": 486, "▁angg": 487, "hov": 488, "do": 489, "▁jehov": 490, "▁lab": 491, "ong": 492, "ari": 493, "▁pang": 494, "es": 495, "▁jehova": 496, "▁mo": 497, "▁anti": 498, "ayu": 499, "▁ra": 500, "aman": 501, "▁kab": 502, "▁mat": 503, "▁kanaku": 504, "ie": 505, "alang": 506, "ra": 507, "iu": 508, "▁dal": 509, "▁as": 510, "ita": 511, "wa": 512, "amat": 513, "ayan": 514, "amu": 515, "ot": 516, "▁am": 517, "id": 518, "uad": 519, "▁ik": 520, "▁kas": 521, "eni": 522, "▁ar": 523, "angan": 524, "▁labuad": 525, "akit": 526, "▁no": 527, "aya": 528, "▁aldo": 529, "sa": 530, "▁yu": 531, "▁ib": 532, "▁sa": 533, "▁ag": 534, "akal": 535, "ibat": 536, "▁ab": 537, "▁kay": 538, "uan": 539, "▁ring": 540, "ian": 541, "elang": 542, "eng": 543, "▁dapot": 544, "ula": 545, "▁iti": 546, "▁alang": 547, "▁mang": 548, "▁ngeni": 549, "▁min": 550, "tas": 551, "▁kam": 552, "alaki": 553, "▁lalaki": 554, "awa": 555, "aka": 556, "▁bab": 557, "anua": 558, "▁ko": 559, "▁anggang": 560, "ana": 561, "▁ba": 562, "ali": 563, "asa": 564, "▁kekong": 565, "▁neng": 566, "▁karin": 567, "▁tal": 568, "alu": 569, "▁pas": 570, "▁gamat": 571, "▁keng": 572, "▁ak": 573, "▁si": 574, "▁banua": 575, "▁is": 576, "apat": 577, "▁tau": 578, "ia": 579, "ata": 580, "usu": 581, "ela": 582, "to": 583, "▁ap": 584, "▁oh": 585, "amp": 586, "na": 587, "du": 588, "▁bang": 589, "ulu": 590, "ayap": 591, "▁mab": 592, "▁kat": 593, "▁pin": 594, "▁ma": 595, "▁kanita": 596, "▁kaya": 597, "▁nanu": 598, "te": 599, "uri": 600, "▁mar": 601, "dam": 602, "▁pag": 603, "▁lu": 604, "▁naman": 605, "▁sab": 606, "wan": 607, "▁pi": 608, "▁pusu": 609, "▁amanu": 610, "ara": 611, "▁ali": 612, "akan": 613, "nan": 614, "up": 615, "▁mas": 616, "▁pep": 617, "▁ala": 618, "▁bale": 619, "▁pak": 620, "and": 621, "▁makan": 622, "▁pat": 623, "abe": 624, "agul": 625, "ini": 626, "▁karela": 627, "alan": 628, "▁ika": 629, "▁sal": 630, "'t": 631, "int": 632, "amb": 633, "▁lib": 634, "ai": 635, "▁atiu": 636, "▁balayan": 637, "▁bag": 638, "ako": 639, "rael": 640, "▁israel": 641, "ilan": 642, "▁dalan": 643, "▁map": 644, "pan": 645, "atu": 646, "▁men": 647, "aga": 648, "atan": 649, "lu": 650, "mu": 651, "or": 652, "▁sabla": 653, "▁ibpa": 654, "▁mek": 655, "▁pek": 656, "▁lag": 657, "▁inya": 658, "ukn": 659, "und": 660, "▁mi": 661, "kul": 662, "▁arap": 663, "▁kapat": 664, "▁makap": 665, "▁paman": 666, "▁uli": 667, "▁aku": 668, "▁angga": 669, "▁mig": 670, "ilug": 671, "▁dapat": 672, "alik": 673, "▁dik": 674, "▁atin": 675, "▁ken": 676, "▁tu": 677, "me": 678, "ac": 679, "yari": 680, "▁lug": 681, "unt": 682, "atang": 683, "om": 684, "kut": 685, "ust": 686, "▁kapatad": 687, "▁balang": 688, "inan": 689, "utu": 690, "ting": 691, "▁ni": 692, "▁nu": 693, "▁pamag": 694, "amdam": 695, "awan": 696, "▁kayu": 697, "▁lub": 698, "▁babai": 699, "▁kapilan": 700, "▁mayap": 701, "▁mik": 702, "igtas": 703, "▁bie": 704, "▁li": 705, "ake": 706, "▁mabilug": 707, "▁mata": 708, "▁makanian": 709, "ko": 710, "mal": 711, "utus": 712, "▁kekayu": 713, "▁le": 714, "da": 715, "▁ating": 716, "yan": 717, "▁po": 718, "asan": 719, "▁bage": 720, "▁pal": 721, "▁dakal": 722, "▁re": 723, "alakad": 724, "bul": 725, "▁bul": 726, "▁tamu": 727, "ma": 728, "uran": 729, "▁balu": 730, "las": 731, "ami": 732, "▁lagiu": 733, "ka": 734, "pang": 735, "▁kayabe": 736, "▁meg": 737, "▁ye": 738, "▁dikil": 739, "▁kalad": 740, "▁mip": 741, "▁sabi": 742, "unduk": 743, "▁bay": 744, "▁danu": 745, "▁dalit": 746, "tu": 747, "▁ita": 748, "ye": 749, "▁ari": 750, "▁meng": 751, "lab": 752, "▁ibat": 753, "awak": 754, "isan": 755, "iti": 756, "lang": 757, "uknangan": 758, "uli": 759, "man": 760, "▁babo": 761, "▁ikit": 762, "▁sik": 763, "re": 764, "alam": 765, "be": 766, "▁makat": 767, "ati": 768, "▁aliwa": 769, "▁ngana": 770, "agan": 771, "bie": 772, "bust": 773, "le": 774, "▁pu": 775, "▁salang": 776, "▁san": 777, "▁kabang": 778, "akut": 779, "ba": 780, "mang": 781, "una": 782, "ulid": 783, "▁buri": 784, "akob": 785, "apan": 786, "ale": 787, "▁bis": 788, "▁gab": 789, "▁jakob": 790, "akas": 791, "▁asawa": 792, "▁maki": 793, "di": 794, "wala": 795, "▁ketang": 796, "kal": 797, "uyu": 798, "akad": 799, "▁kong": 800, "▁lugud": 801, "▁kaladua": 802, "▁oini": 803, "li": 804, "▁gabun": 805, "▁wari": 806, "itu": 807, "yang": 808, "aun": 809, "atas": 810, "▁kil": 811, "aba": 812, "ampangan": 813, "engi": 814, "▁bansa": 815, "onom": 816, "▁bunduk": 817, "▁ip": 818, "▁mam": 819, "▁mil": 820, "ina": 821, "ose": 822, "udad": 823, "▁eg": 824, "arili": 825, "si": 826, "▁kul": 827, "nu": 828, "▁balen": 829, "▁detang": 830, "▁mula": 831, "eronom": 832, "pak": 833, "uteronom": 834, "▁deuteronom": 835, "▁siudad": 836, "▁danum": 837, "utad": 838, "ke": 839, "▁makas": 840, "ila": 841, "utung": 842, "▁do": 843, "▁ninu": 844, "▁panaun": 845, "alig": 846, "ate": 847, "▁meging": 848, "▁mika": 849, "io": 850, "▁deti": 851, "▁lupa": 852, "anak": 853, "aran": 854, "▁egip": 855, "▁libutad": 856, "▁tang": 857, "une": 858, "▁sang": 859, "balik": 860, "▁jose": 861, "▁keti": 862, "agu": 863, "iran": 864, "▁egipto": 865, "▁kapampangan": 866, "uki": 867, "▁pab": 868, "▁se": 869, "ulut": 870, "▁kata": 871, "▁kaw": 872, "▁sarili": 873, "bug": 874, "▁bengi": 875, "▁pil": 876, "abie": 877, "ayat": 878, "kang": 879, "▁ga": 880, "ald": 881, "▁matulid": 882, "▁ume": 883, "alas": 884, "▁kasalang": 885, "apun": 886, "inap": 887, "su": 888, "ulung": 889, "▁ila": 890, "iping": 891, "kas": 892, "ukl": 893, "ane": 894, "bang": 895, "inta": 896, "mo": 897, "itan": 898, "▁maragul": 899, "▁pamam": 900, "bat": 901, "▁may": 902, "alung": 903, "bu": 904, "▁mir": 905, "ligtas": 906, "▁ad": 907, "▁agpang": 908, "▁dew": 909, "▁kekeng": 910, "ilala": 911, "▁be": 912, "▁es": 913, "▁dewakan": 914, "▁kekata": 915, "▁sana": 916, "era": 917, "ibayu": 918, "ulat": 919, "yo": 920, "▁deng": 921, "▁dim": 922, "ino": 923, "ro": 924, "tus": 925, "▁bung": 926, "▁dep": 927, "▁kasal": 928, "▁manuknangan": 929, "ni": 930, "▁pen": 931, "▁puri": 932, "mul": 933, "▁pis": 934, "kan": 935, "uru": 936, "▁adu": 937, "▁akit": 938, "▁siwala": 939, "apit": 940, "▁ngan": 941, "aus": 942, "gal": 943, "gat": 944, "ungkul": 945, "untuk": 946, "▁kabud": 947, "▁bit": 948, "▁pasbul": 949, "sabi": 950, "arin": 951, "das": 952, "▁batu": 953, "▁indu": 954, "▁taung": 955, "ele": 956, "iramdam": 957, "▁pasibayu": 958, "no": 959, "▁ay": 960, "▁suk": 961, "buk": 962, "▁banal": 963, "▁mete": 964, "▁tula": 965, "umpa": 966, "▁jud": 967, "▁kami": 968, "▁malyari": 969, "▁daya": 970, "▁ge": 971, "▁mis": 972, "▁mit": 973, "api": 974, "▁kekami": 975, "▁talas": 976, "ese": 977, "ham": 978, "se": 979, "uluan": 980, "▁buk": 981, "▁marang": 982, "▁peng": 983, "▁te": 984, "akang": 985, "asik": 986, "iang": 987, "▁kaibat": 988, "-b": 989, "lag": 990, "lung": 991, "raham": 992, "▁abraham": 993, "▁aduang": 994, "▁katul": 995, "▁kilub": 996, "igaya": 997, "tan": 998, "▁depatan": 999, "ga": 1000, "uguran": 1001, "▁amp": 1002, "▁dutung": 1003, "▁par": 1004, "iabi": 1005, "isip": 1006, "pas": 1007, "sal": 1008, "dan": 1009, "vid": 1010, "▁or": 1011, "▁panga": 1012, "▁utus": 1013, "amang": 1014, "▁bi": 1015, "▁david": 1016, "▁makananu": 1017, "▁sis": 1018, "▁wa": 1019, "▁yatu": 1020, "▁agyang": 1021, "▁tune": 1022, "urian": 1023, "▁kaniti": 1024, "▁mine": 1025, "atili": 1026, "uku": 1027, "▁bayung": 1028, "▁keni": 1029, "▁makal": 1030, "▁ro": 1031, "akl": 1032, "alangin": 1033, "he": 1034, "▁lalam": 1035, "▁uk": 1036, "ilang": 1037, "lub": 1038, "▁makab": 1039, "▁kapakal": 1040, "▁pitu": 1041, "▁su": 1042, "▁ti": 1043, "▁yan": 1044, "bili": 1045, "ran": 1046, "▁katuliran": 1047, "lug": 1048, "ol": 1049, "pun": 1050, "▁bat": 1051, "▁dai": 1052, "▁mangat": 1053, "▁sala": 1054, "▁tungkul": 1055, "atag": 1056, "ne": 1057, "uknang": 1058, "▁din": 1059, "▁kapakaluluan": 1060, "▁kening": 1061, "▁milyari": 1062, "▁pad": 1063, "▁rin": 1064, "gap": 1065, "upa": 1066, "▁ipus": 1067, "▁marangle": 1068, "▁sig": 1069, "atamu": 1070, "intu": 1071, "sit": 1072, "ubu": 1073, "ugat": 1074, "utusan": 1075, "ama": 1076, "ias": 1077, "untun": 1078, "▁anting": 1079, "▁bandi": 1080, "▁daka": 1081, "▁kag": 1082, "▁pig": 1083, "araon": 1084, "ri": 1085, "ukluk": 1086, "yas": 1087, "▁bayu": 1088, "▁bitis": 1089, "▁faraon": 1090, "▁laman": 1091, "▁manatili": 1092, "▁sin": 1093, "▁us": 1094, "daman": 1095, "▁bisa": 1096, "▁dimdam": 1097, "▁gewa": 1098, "▁kautusan": 1099, "▁laban": 1100, "▁mum": 1101, "▁mun": 1102, "▁tik": 1103, "▁tip": 1104, "aram": 1105, "tud": 1106, "▁asbuk": 1107, "▁big": 1108, "▁kare": 1109, "▁kayan": 1110, "andi": 1111, "ilatan": 1112, "iman": 1113, "▁sam": 1114, "de": 1115, "▁reng": 1116, "aragul": 1117, "gan": 1118, "inguan": 1119, "san": 1120, "uc": 1121, "unus": 1122, "▁gen": 1123, "▁makapag": 1124, "▁yo": 1125, "atul": 1126, "ipam": 1127, "▁ampon": 1128, "▁talasuyu": 1129, "ibe": 1130, "umang": 1131, "▁atlu": 1132, "▁atyu": 1133, "▁kalupa": 1134, "▁mangal": 1135, "▁pamik": 1136, "▁sag": 1137, "▁siping": 1138, "▁tag": 1139, "ilangan": 1140, "imb": 1141, "sik": 1142, "▁api": 1143, "▁dayat": 1144, "▁kanu": 1145, "▁misan": 1146, "king": 1147, "▁bunga": 1148, "▁kak": 1149, "▁kayanakan": 1150, "▁matua": 1151, "ura": 1152, "yat": 1153, "▁deuteronomio": 1154, "▁deuteronomy": 1155, "▁karetang": 1156, "▁ligaya": 1157, "▁meb": 1158, "▁para": 1159, "▁salu": 1160, "▁sas": 1161, "amas": 1162, "dal": 1163, "ilis": 1164, "▁bulan": 1165, "▁naka": 1166, "par": 1167, "▁niti": 1168, "bangun": 1169, "intun": 1170, "paya": 1171, "usan": 1172, "▁isa": 1173, "▁kapan": 1174, "▁labi": 1175, "▁mua": 1176, "▁panalangin": 1177, "▁tuntun": 1178, "▁ukum": 1179, "aldug": 1180, "amdaman": 1181, "igit": 1182, "ind": 1183, "pal": 1184, "takut": 1185, "ual": 1186, "ulis": 1187, "▁bini": 1188, "▁he": 1189, "▁kula": 1190, "kat": 1191, "malat": 1192, "ru": 1193, "▁kamat": 1194, "▁namang": 1195, "ins": 1196, "ira": 1197, "kong": 1198, "lakad": 1199, "▁isaac": 1200, "▁kapurian": 1201, "▁kekatamu": 1202, "▁lalu": 1203, "▁maka": 1204, "▁mel": 1205, "▁padre": 1206, "alamat": 1207, "dum": 1208, "tal": 1209, "ulang": 1210, "▁ati": 1211, "▁pakiramdam": 1212, "abal": 1213, "ating": 1214, "imal": 1215, "usa": 1216, "▁ben": 1217, "▁bu": 1218, "▁pap": 1219, "eru": 1220, "ipamuk": 1221, "sau": 1222, "wang": 1223, "▁bye": 1224, "▁dalaga": 1225, "▁pati": 1226, "aming": 1227, "amit": 1228, "aral": 1229, "ipag": 1230, "lo": 1231, "▁bakit": 1232, "▁dili": 1233, "▁esau": 1234, "▁kamatayan": 1235, "▁pik": 1236, "▁pr": 1237, "ayi": 1238, "ibatan": 1239, "iling": 1240, "ilu": 1241, "umdum": 1242, "ump": 1243, "▁anac": 1244, "▁buntuk": 1245, "▁dit": 1246, "▁dayatmalat": 1247, "▁inia": 1248, "▁kin": 1249, "▁katutu": 1250, "▁makapagmul": 1251, "▁miras": 1252, "ic": 1253, "imut": 1254, "ising": 1255, "itas": 1256, "sang": 1257, "ukan": 1258, "we": 1259, "▁bake": 1260, "▁balamu": 1261, "▁ini": 1262, "▁pamang": 1263, "▁wanan": 1264, "akitan": 1265, "mi": 1266, "▁aliua": 1267, "▁dake": 1268, "▁kaluguran": 1269, "▁mangatua": 1270, "▁nanumang": 1271, "▁sel": 1272, "▁sim": 1273, "▁salita": 1274, "amuamu": 1275, "awe": 1276, "bra": 1277, "ibul": 1278, "tul": 1279, "▁bar": 1280, "▁kit": 1281, "▁lar": 1282, "▁mer": 1283, "▁pota": 1284, "akap": 1285, "ampa": 1286, "dala": 1287, "yup": 1288, "▁apat": 1289, "▁datang": 1290, "▁lung": 1291, "▁mabie": 1292, "▁per": 1293, "▁pekapun": 1294, "▁saup": 1295, "▁salamat": 1296, "▁tel": 1297, "▁tutu": 1298, "▁tupa": 1299, "amate": 1300, "esis": 1301, "ris": 1302, "yos": 1303, "▁esp": 1304, "▁ilug": 1305, "▁sak": 1306, "-s": 1307, "alikut": 1308, "ipan": 1309, "jim": 1310, "talakad": 1311, "▁bina": 1312, "▁genesis": 1313, "▁lal": 1314, "eta": 1315, "lasa": 1316, "ubud": 1317, "▁animal": 1318, "▁but": 1319, "▁gintu": 1320, "▁libu": 1321, "ilab": 1322, "inape": 1323, "isi": 1324, "udtud": 1325, "ugud": 1326, "▁lim": 1327, "▁mana": 1328, "▁mem": 1329, "▁nita": 1330, "▁vaka": 1331, "adu": 1332, "alag": 1333, "amin": 1334, "anting": 1335, "dung": 1336, "lak": 1337, "lako": 1338, "sing": 1339, "sul": 1340, "usung": 1341, "▁ayup": 1342, "▁baket": 1343, "▁ef": 1344, "▁kapitan": 1345, "▁katawan": 1346, "▁samp": 1347, "utan": 1348, "▁antimo": 1349, "▁bus": 1350, "▁bukud": 1351, "▁dioses": 1352, "▁kaligtas": 1353, "▁mali": 1354, "▁nuk": 1355, "▁pamamilatan": 1356, "▁tapat": 1357, "▁tinape": 1358, "han": 1359, "usi": 1360, "▁bas": 1361, "▁banwa": 1362, "▁kaligtasan": 1363, "▁kekaming": 1364, "▁tab": 1365, "ablas": 1366, "aldugan": 1367, "ayang": 1368, "ayapan": 1369, "lan": 1370, "mp": 1371, "sin": 1372, "tar": 1373, "ue": 1374, "▁gaw": 1375, "eko": 1376, "inis": 1377, "labas": 1378, "lual": 1379, "turu": 1380, "wal": 1381, "▁kambe": 1382, "▁maigit": 1383, "▁ngaku": 1384, "▁pun": 1385, "▁tim": 1386, "▁talaga": 1387, "anaka": 1388, "awad": 1389, "pat": 1390, "▁abak": 1391, "▁adua": 1392, "▁keta": 1393, "▁tand": 1394, "▁ten": 1395, "akalulu": 1396, "ambut": 1397, "bayi": 1398, "ile": 1399, "ling": 1400, "nam": 1401, "ore": 1402, "osa": 1403, "▁benj": 1404, "▁kati": 1405, "▁kabaldugan": 1406, "▁kana": 1407, "▁lual": 1408, "▁malagu": 1409, "▁pamak": 1410, "▁pekab": 1411, "▁sap": 1412, "bing": 1413, "kap": 1414, "yun": 1415, "▁ej": 1416, "▁mes": 1417, "▁pablasa": 1418, "▁sampaga": 1419, "angal": 1420, "ent": 1421, "iag": 1422, "ingat": 1423, "iritu": 1424, "kab": 1425, "mag": 1426, "min": 1427, "pu": 1428, "pul": 1429, "sak": 1430, "▁abe": 1431, "▁dur": 1432, "▁dinalan": 1433, "▁judg": 1434, "▁leg": 1435, "▁tr": 1436, "adia": 1437, "akup": 1438, "alastas": 1439, "ban": 1440, "bus": 1441, "ibung": 1442, "ika": 1443, "▁abim": 1444, "▁angel": 1445, "▁babie": 1446, "▁ditak": 1447, "▁ejer": 1448, "▁ikayu": 1449, "▁kut": 1450, "▁lagyu": 1451, "▁pib": 1452, "▁tak": 1453, "bal": 1454, "elah": 1455, "ion": 1456, "ipit": 1457, "isa": 1458, "mas": 1459, "nung": 1460, "▁abimele": 1461, "▁akilala": 1462, "▁bilang": 1463, "▁espiritu": 1464, "▁judges": 1465, "▁kapam": 1466, "▁kubu": 1467, "▁lubus": 1468, "▁masanting": 1469, "▁miniabi": 1470, "▁nukarin": 1471, "▁poeta": 1472, "▁takut": 1473, "▁talapan": 1474, "abas": 1475, "bai": 1476, "ente": 1477, "gising": 1478, "ises": 1479, "pag": 1480, "sil": 1481, "sint": 1482, "tun": 1483, "tor": 1484, "yal": 1485, "▁ayan": 1486, "▁by": 1487, "▁benjamin": 1488, "▁ejersit": 1489, "▁gag": 1490, "▁ki": 1491, "▁lin": 1492, "▁lev": 1493, "▁many": 1494, "▁mangaragul": 1495, "▁moises": 1496, "▁nak": 1497, "▁paninap": 1498, "▁talakad": 1499, "▁yng": 1500, "-d": 1501, "aliwa": 1502, "amal": 1503, "awani": 1504, "lat": 1505, "sub": 1506, "tay": 1507, "undu": 1508, "▁abalu": 1509, "▁dala": 1510, "▁deni": 1511, "▁dila": 1512, "▁danup": 1513, "▁gawa": 1514, "▁kapal": 1515, "▁kapayapan": 1516, "▁makapat": 1517, "▁mekad": 1518, "▁menuknangan": 1519, "▁sul": 1520, "agsa": 1521, "amban": 1522, "bandi": 1523, "lit": 1524, "ugse": 1525, "▁agad": 1526, "▁alak": 1527, "▁aslag": 1528, "▁ayanak": 1529, "▁bel": 1530, "▁mie": 1531, "▁maniabi": 1532, "▁samb": 1533, "▁sub": 1534, "▁tata": 1535, "apulu": 1536, "impan": 1537, "nang": 1538, "pulu": 1539, "tabe": 1540, "was": 1541, "▁aus": 1542, "▁and": 1543, "▁bir": 1544, "▁juda": 1545, "▁kailangan": 1546, "▁pali": 1547, "▁pasalamat": 1548, "▁poes": 1549, "▁salapi": 1550, "▁talibung": 1551, "aban": 1552, "igalig": 1553, "ipat": 1554, "kw": 1555, "malag": 1556, "ram": 1557, "tuki": 1558, "tula": 1559, "tig": 1560, "▁agiang": 1561, "▁altar": 1562, "▁damas": 1563, "▁kasakitan": 1564, "▁lungub": 1565, "▁mekibat": 1566, "▁oras": 1567, "▁pagamuamu": 1568, "▁sakit": 1569, "▁sinta": 1570, "▁upaya": 1571, "au": 1572, "abang": 1573, "abing": 1574, "andit": 1575, "elangan": 1576, "rus": 1577, "selah": 1578, "son": 1579, "tak": 1580, "ulug": 1581, "undukan": 1582, "▁ain": 1583, "▁damasu": 1584, "▁kapag": 1585, "▁keya": 1586, "▁nune": 1587, "▁rak": 1588, "▁sib": 1589, "▁sumpa": 1590, "▁sanga": 1591, "▁sangkan": 1592, "▁tuknang": 1593, "apag": 1594, "isabi": 1595, "lin": 1596, "ning": 1597, "tag": 1598, "tuk": 1599, "yag": 1600, "yente": 1601, "▁bana": 1602, "▁diwa": 1603, "▁dikut": 1604, "▁ed": 1605, "▁gu": 1606, "▁makapagmulala": 1607, "▁makapatulug": 1608, "▁so": 1609, "anuanan": 1610, "aptan": 1611, "aring": 1612, "arra": 1613, "bag": 1614, "ding": 1615, "eon": 1616, "gu": 1617, "ordan": 1618, "ubung": 1619, "▁bigla": 1620, "▁iting": 1621, "▁jordan": 1622, "▁lua": 1623, "▁masal": 1624, "▁migl": 1625, "▁pane": 1626, "▁pem": 1627, "▁pepa": 1628, "▁sugat": 1629, "▁uran": 1630, "'ing": 1631, "abat": 1632, "akilala": 1633, "aling": 1634, "alo": 1635, "ampang": 1636, "esa": 1637, "hi": 1638, "ilead": 1639, "ipul": 1640, "kalub": 1641, "lis": 1642, "pata": 1643, "sus": 1644, "ter": 1645, "umas": 1646, "unan": 1647, "▁abram": 1648, "▁damdam": 1649, "▁filis": 1650, "▁lelangan": 1651, "▁lukluk": 1652, "▁law": 1653, "▁mako": 1654, "▁malugud": 1655, "▁mani": 1656, "▁mapan": 1657, "▁nako": 1658, "▁pala": 1659, "▁peka": 1660, "▁pekabuntuk": 1661, "▁penandit": 1662, "▁pepas": 1663, "▁saka": 1664, "▁tanda": 1665, "-bundukan": 1666, "aguli": 1667, "alakit": 1668, "apu": 1669, "ge": 1670, "kam": 1671, "kutkut": 1672, "lad": 1673, "lap": 1674, "saya": 1675, "▁bet": 1676, "▁jer": 1677, "▁kad": 1678, "▁libru": 1679, "▁mad": 1680, "▁mayu": 1681, "▁miy": 1682, "▁pangane": 1683, "▁sing": 1684, "▁sulu": 1685, "▁sisuan": 1686, "▁sukat": 1687, "▁tig": 1688, "-l": 1689, "raim": 1690, "santung": 1691, "teos": 1692, "unu": 1693, "▁bayang": 1694, "▁dak": 1695, "▁isip": 1696, "▁kalam": 1697, "▁limang": 1698, "▁maku": 1699, "▁menganak": 1700, "▁on": 1701, "▁pusung": 1702, "▁prins": 1703, "▁tuk": 1704, "▁tiagu": 1705, "apal": 1706, "em": 1707, "galang": 1708, "ha": 1709, "ker": 1710, "salita": 1711, "uman": 1712, "▁bunduk-bundukan": 1713, "▁butul": 1714, "▁ibarra": 1715, "▁kon": 1716, "▁mapam": 1717, "▁muk": 1718, "▁nakang": 1719, "▁nig": 1720, "▁penganak": 1721, "aganaka": 1722, "erdo": 1723, "ikan": 1724, "ilip": 1725, "kad": 1726, "kil": 1727, "ok": 1728, "sis": 1729, "▁apulu": 1730, "▁atul": 1731, "▁filisteos": 1732, "▁gan": 1733, "▁gilead": 1734, "▁kalma": 1735, "▁katau": 1736, "▁las": 1737, "▁labis": 1738, "▁memal": 1739, "▁nanupata": 1740, "▁pamany": 1741, "▁simpa": 1742, "▁zion": 1743, "alic": 1744, "apatan": 1745, "arine": 1746, "elyo": 1747, "ipun": 1748, "ise": 1749, "ras": 1750, "tim": 1751, "uka": 1752, "ukul": 1753, "umangid": 1754, "ungkut": 1755, "ve": 1756, "▁bayinta": 1757, "▁dalumdum": 1758, "▁efraim": 1759, "▁katas": 1760, "▁kayapan": 1761, "▁kor": 1762, "▁larawan": 1763, "▁lugal": 1764, "▁mib": 1765, "▁mebie": 1766, "▁munie": 1767, "▁noe": 1768, "▁pamip": 1769, "▁pepat": 1770, "▁prinsip": 1771, "▁sara": 1772, "▁tala": 1773, "▁the": 1774, "▁tenyente": 1775, "ain": 1776, "agd": 1777, "agli": 1778, "alus": 1779, "amanu": 1780, "angalan": 1781, "angis": 1782, "aria": 1783, "atulan": 1784, "bi": 1785, "bait": 1786, "ern": 1787, "gali": 1788, "iwa": 1789, "isipan": 1790, "pakit": 1791, "sinta": 1792, "upus": 1793, "▁agg": 1794, "▁atilu": 1795, "▁bib": 1796, "▁dyos": 1797, "▁ganak": 1798, "▁gagawan": 1799, "▁kanian": 1800, "▁menibatan": 1801, "▁pampang": 1802, "▁pamu": 1803, "▁pangab": 1804, "▁pangas": 1805, "▁rakel": 1806, "▁sir": 1807, "▁samson": 1808, "▁santu": 1809, "akung": 1810, "bo": 1811, "iasnan": 1812, "ilung": 1813, "kawani": 1814, "lac": 1815, "luban": 1816, "ment": 1817, "nas": 1818, "tubud": 1819, "uldas": 1820, "▁jesus": 1821, "▁kaba": 1822, "▁kapas": 1823, "▁ker": 1824, "▁lak": 1825, "▁lot": 1826, "▁libis": 1827, "▁makay": 1828, "▁makib": 1829, "▁maliari": 1830, "▁menakit": 1831, "▁pakibat": 1832, "▁panintun": 1833, "▁pepal": 1834, "▁saguli": 1835, "▁saserdo": 1836, "▁wakas": 1837, "'na": 1838, "adi": 1839, "kar": 1840, "lablab": 1841, "nawa": 1842, "tipun": 1843, "uat": 1844, "uma": 1845, "yalung": 1846, "▁apu": 1847, "▁asno": 1848, "▁asu": 1849, "▁bulung": 1850, "▁busal": 1851, "▁dane": 1852, "▁en": 1853, "▁gat": 1854, "▁go": 1855, "▁kabiasnan": 1856, "▁katapatan": 1857, "▁kinanua": 1858, "▁kom": 1859, "▁mag-": 1860, "▁makar": 1861, "▁makatua": 1862, "▁mep": 1863, "▁memalen": 1864, "▁munta": 1865, "▁pit": 1866, "▁pamani": 1867, "▁panamdam": 1868, "▁pemalag": 1869, "▁sid": 1870, "apa": 1871, "bun": 1872, "bung": 1873, "ch": 1874, "gun": 1875, "ideon": 1876, "lus": 1877, "nya": 1878, "panapun": 1879, "sab": 1880, "▁abimelec": 1881, "▁anyu": 1882, "▁apatapulu": 1883, "▁asa": 1884, "▁gideon": 1885, "▁kimut": 1886, "▁kapit": 1887, "▁lakad": 1888, "▁lo": 1889, "▁leguan": 1890, "▁lijim": 1891, "▁my": 1892, "▁makapayan": 1893, "▁mapag": 1894, "▁pay": 1895, "▁pir": 1896, "▁pabur": 1897, "▁pangal": 1898, "▁pepakit": 1899, "▁roka": 1900, "▁tib": 1901, "▁tuki": 1902, "'y": 1903, "-p": 1904, "ame": 1905, "arian": 1906, "awang": 1907, "enti": 1908, "iya": 1909, "ilo": 1910, "imbur": 1911, "ki": 1912, "pasiag": 1913, "salikut": 1914, "sam": 1915, "tr": 1916, "ulan": 1917, "uti": 1918, "▁bagya": 1919, "▁batal": 1920, "▁biseru": 1921, "▁bungsu": 1922, "▁dan": 1923, "▁dig": 1924, "▁kaisipan": 1925, "▁lum": 1926, "▁lun": 1927, "▁malapit": 1928, "▁moab": 1929, "▁obra": 1930, "▁pamanalastas": 1931, "▁patutu": 1932, "▁pete": 1933, "▁pilak": 1934, "▁sakdal": 1935, "▁tauli": 1936, "▁takde": 1937, "abuk": 1938, "age": 1939, "akayap": 1940, "akul": 1941, "aklat": 1942, "angk": 1943, "ayad": 1944, "igaligan": 1945, "ilabut": 1946, "inum": 1947, "iru": 1948, "lungpulu": 1949, "metung": 1950, "umu": 1951, "yung": 1952, "▁angin": 1953, "▁atlungpulu": 1954, "▁balug": 1955, "▁daklat": 1956, "▁gino": 1957, "▁kutkut": 1958, "▁leon": 1959, "▁luguran": 1960, "▁makiramdam": 1961, "▁makapang": 1962, "▁mapal": 1963, "▁matibe": 1964, "▁mitmu": 1965, "▁mukami": 1966, "▁panu": 1967, "▁pul": 1968, "▁pemalagiu": 1969, "▁pepanuanan": 1970, "▁pero": 1971, "▁sund": 1972, "▁ter": 1973, "▁ting": 1974, "▁ustu": 1975, "'ng": 1976, "abung": 1977, "alumdum": 1978, "apo": 1979, "awi": 1980, "bas": 1981, "bulus": 1982, "ed": 1983, "fa": 1984, "ima": 1985, "imburisan": 1986, "nanu": 1987, "tik": 1988, "▁20": 1989, "▁apan": 1990, "▁baling": 1991, "▁biasa": 1992, "▁dakang": 1993, "▁dusa": 1994, "▁daung": 1995, "▁ima": 1996, "▁ja": 1997, "▁kala": 1998, "▁kalulu": 1999, "▁linto": 2000, "▁makatalakad": 2001, "▁manas": 2002, "▁pro": 2003, "▁sintang": 2004, "▁taya": 2005, "alaman": 2006, "alangsang": 2007, "alem": 2008, "aliwang": 2009, "angg": 2010, "aras": 2011, "atau": 2012, "gawa": 2013, "gen": 2014, "go": 2015, "him": 2016, "iku": 2017, "ilig": 2018, "ilid": 2019, "iri": 2020, "isia": 2021, "isnawa": 2022, "lal": 2023, "oreos": 2024, "sip": 2025, "tin": 2026, "umasdan": 2027, "upad": 2028, "usalem": 2029, "usig": 2030, "utg": 2031, "▁alik": 2032, "▁dati": 2033, "▁del": 2034, "▁dalung": 2035, "▁jehovang": 2036, "▁kaligaligan": 2037, "▁kaladwa": 2038, "▁kayarian": 2039, "▁kusa": 2040, "▁lele": 2041, "▁ling": 2042, "▁muli": 2043, "▁malinis": 2044, "▁matudtud": 2045, "▁met": 2046, "▁miragsa": 2047, "▁nasa": 2048, "▁pamal": 2049, "▁panga-": 2050, "▁pisamban": 2051, "▁tap": 2052, "▁timan": 2053, "▁tutung": 2054, "akali": 2055, "alipit": 2056, "ampat": 2057, "angi": 2058, "ibut": 2059, "igo": 2060, "imanman": 2061, "intulut": 2062, "iramdaman": 2063, "kub": 2064, "lawe": 2065, "nub": 2066, "pit": 2067, "rug": 2068, "samb": 2069, "sap": 2070, "sulat": 2071, "tatag": 2072, "utut": 2073, "wat": 2074, "yon": 2075, "▁aganaka": 2076, "▁balugbug": 2077, "▁bayintau": 2078, "▁eku": 2079, "▁el": 2080, "▁gi": 2081, "▁ipag": 2082, "▁kama": 2083, "▁kel": 2084, "▁kuldas": 2085, "▁magp": 2086, "▁manga": 2087, "▁pakamal": 2088, "▁panimanman": 2089, "▁pekiramdaman": 2090, "▁pilatan": 2091, "▁prinsipes": 2092, "▁sake": 2093, "▁saya": 2094, "▁sagiwa": 2095, "▁subali": 2096, "▁usuk": 2097, "▁yuku": 2098, "▁ze": 2099, "-al": 2100, "11": 2101, "abul": 2102, "agat": 2103, "antabe": 2104, "anun": 2105, "arap": 2106, "ard": 2107, "asu": 2108, "balic": 2109, "bayu": 2110, "bit": 2111, "dap": 2112, "dul": 2113, "eb": 2114, "est": 2115, "inas": 2116, "ingg": 2117, "lala": 2118, "lalu": 2119, "lakbe": 2120, "oni": 2121, "pe": 2122, "pulung": 2123, "res": 2124, "sadia": 2125, "tura": 2126, "uang": 2127, "ulisak": 2128, "usta": 2129, "wad": 2130, "yus": 2131, "▁ambun": 2132, "▁anam": 2133, "▁bakal": 2134, "▁bili": 2135, "▁bug": 2136, "▁bante": 2137, "▁bangke": 2138, "▁dalakit": 2139, "▁dul": 2140, "▁iya": 2141, "▁jef": 2142, "▁kabal": 2143, "▁kalalaman": 2144, "▁kamelyo": 2145, "▁lalto": 2146, "▁magpak": 2147, "▁makapam": 2148, "▁maranun": 2149, "▁menibat": 2150, "▁mipak": 2151, "▁mitagan": 2152, "▁napun": 2153, "▁paburen": 2154, "▁pami": 2155, "▁rebe": 2156, "▁suyu": 2157, "▁santung": 2158, "▁sic": 2159, "▁tanggap": 2160, "-t": 2161, "absi": 2162, "ador": 2163, "agdag": 2164, "alit": 2165, "ambing": 2166, "apali": 2167, "asag": 2168, "asi": 2169, "ayapa": 2170, "dom": 2171, "eti": 2172, "git": 2173, "ibule": 2174, "ilian": 2175, "kasa": 2176, "kailangan": 2177, "kutang": 2178, "lalawe": 2179, "lualu": 2180, "od": 2181, "sag": 2182, "ubi": 2183, "uklat": 2184, "ule": 2185, "umami": 2186, "umpe": 2187, "ustisia": 2188, "yad": 2189, "▁adwa": 2190, "▁alus": 2191, "▁angina": 2192, "▁bik": 2193, "▁bala": 2194, "▁bukas": 2195, "▁ejersitos": 2196, "▁gatpanapun": 2197, "▁jefta": 2198, "▁kalib": 2199, "▁kambing": 2200, "▁kasangk": 2201, "▁kaybat": 2202, "▁kule": 2203, "▁laru": 2204, "▁lea": 2205, "▁lunto": 2206, "▁mala": 2207, "▁makanianman": 2208, "▁makapan": 2209, "▁makapagmulalang": 2210, "▁malati": 2211, "▁mangar": 2212, "▁mapali": 2213, "▁mayupaya": 2214, "▁o'": 2215, "▁of": 2216, "▁oreni": 2217, "▁pari": 2218, "▁pilan": 2219, "▁pago": 2220, "▁palsint": 2221, "▁pansin": 2222, "▁pangaku": 2223, "▁rom": 2224, "▁sakali": 2225, "▁sup": 2226, "▁seli": 2227, "▁sukul": 2228, "▁telakad": 2229, "abut": 2230, "aklak": 2231, "alat": 2232, "are": 2233, "atasan": 2234, "ayung": 2235, "bala": 2236, "hem": 2237, "ikit": 2238, "inienti": 2239, "irgen": 2240, "kanu": 2241, "lapit": 2242, "maragul": 2243, "mis": 2244, "sad": 2245, "sumpa": 2246, "sintan": 2247, "takas": 2248, "tali": 2249, "tat": 2250, "tasan": 2251, "wag": 2252, "▁akal": 2253, "▁albug": 2254, "▁alikabuk": 2255, "▁baka": 2256, "▁bil": 2257, "▁dalise": 2258, "▁e'": 2259, "▁ejersito": 2260, "▁fran": 2261, "▁gulut": 2262, "▁jerusalem": 2263, "▁kai": 2264, "▁kanta": 2265, "▁kawatasan": 2266, "▁kitang": 2267, "▁komment": 2268, "▁ku't": 2269, "▁mga": 2270, "▁makapamisan": 2271, "▁malag": 2272, "▁maligaya": 2273, "▁malutu": 2274, "▁marin": 2275, "▁masalese": 2276, "▁mayumu": 2277, "▁pulu": 2278, "▁paki": 2279, "▁pamib": 2280, "▁pastul": 2281, "▁pengari": 2282, "▁rebeka": 2283, "▁sun": 2284, "▁tin": 2285, "▁tinienti": 2286, "▁virgen": 2287, "▁watas": 2288, "abalu": 2289, "alto": 2290, "apang": 2291, "apus": 2292, "asakit": 2293, "atbus": 2294, "baba": 2295, "cnang": 2296, "dak": 2297, "et": 2298, "igla": 2299, "ily": 2300, "ipa": 2301, "kibat": 2302, "kus": 2303, "mplo": 2304, "nasa": 2305, "ron": 2306, "suk": 2307, "tungkul": 2308, "ugu": 2309, "ukas": 2310, "uling": 2311, "utang": 2312, "wani": 2313, "▁aw": 2314, "▁aggiang": 2315, "▁alipan": 2316, "▁amoreos": 2317, "▁apag": 2318, "▁cris": 2319, "▁deta": 2320, "▁durul": 2321, "▁espan": 2322, "▁ikami": 2323, "▁kabayu": 2324, "▁kalasag": 2325, "▁kapulung": 2326, "▁kapamilatan": 2327, "▁kasiran": 2328, "▁kura": 2329, "▁lul": 2330, "▁lawe": 2331, "▁malangi": 2332, "▁pakalulu": 2333, "▁palak": 2334, "▁palad": 2335, "▁panlalawe": 2336, "▁pangatau": 2337, "▁pemalagiuwan": 2338, "▁ri": 2339, "▁rosa": 2340, "▁sagu": 2341, "▁saksi": 2342, "▁sundalus": 2343, "▁taram": 2344, "▁tatang": 2345, "▁th": 2346, "▁to": 2347, "▁tulid": 2348, "▁tagimpan": 2349, "▁ustung": 2350, "aup": 2351, "abu": 2352, "algal": 2353, "awaran": 2354, "awat": 2355, "ber": 2356, "eo": 2357, "ilya": 2358, "iliari": 2359, "imp": 2360, "ipas": 2361, "iuala": 2362, "jan": 2363, "jimik": 2364, "kua": 2365, "law": 2366, "mua": 2367, "nus": 2368, "sakit": 2369, "so": 2370, "tis": 2371, "uac": 2372, "ubluban": 2373, "uknanganan": 2374, "untuc": 2375, "usuk": 2376, "utgutan": 2377, "vas": 2378, "yut": 2379, "▁au": 2380, "▁agus": 2381, "▁asan": 2382, "▁asias": 2383, "▁bakas": 2384, "▁balat": 2385, "▁balik": 2386, "▁banglu": 2387, "▁beluan": 2388, "▁das": 2389, "▁dom": 2390, "▁filip": 2391, "▁fransis": 2392, "▁gale": 2393, "▁jo": 2394, "▁ju": 2395, "▁justisia": 2396, "▁kini": 2397, "▁kapar": 2398, "▁kasu": 2399, "▁katub": 2400, "▁kutang": 2401, "▁kulang": 2402, "▁kulkul": 2403, "▁lig": 2404, "▁lik": 2405, "▁maw": 2406, "▁makag": 2407, "▁makipag": 2408, "▁makud": 2409, "▁manases": 2410, "▁mangalati": 2411, "▁minie": 2412, "▁oyan": 2413, "▁pamagl": 2414, "▁panayan": 2415, "▁pany": 2416, "▁piblas": 2417, "▁ser": 2418, "▁silid": 2419, "▁sale": 2420, "▁santa": 2421, "▁sikem": 2422, "▁tan": 2423, "▁tara": 2424, "▁tapuk": 2425, "▁ulaga": 2426, "ait": 2427, "akalan": 2428, "aluan": 2429, "amul": 2430, "ario": 2431, "asng": 2432, "atin": 2433, "der": 2434, "iapat": 2435, "ibea": 2436, "kaluguran": 2437, "obra": 2438, "tutu": 2439, "umis": 2440, "unga": 2441, "util": 2442, "yap": 2443, "zar": 2444, "▁agyu": 2445, "▁asabi": 2446, "▁buac": 2447, "▁buntuc": 2448, "▁bust": 2449, "▁ba'": 2450, "▁ba't": 2451, "▁babye": 2452, "▁banda": 2453, "▁ch": 2454, "▁cl": 2455, "▁dng": 2456, "▁dung": 2457, "▁daun": 2458, "▁die": 2459, "▁diyos": 2460, "▁durulukan": 2461, "▁edom": 2462, "▁gibea": 2463, "▁kaburian": 2464, "▁kalar": 2465, "▁kanane": 2466, "▁kapup": 2467, "▁kasing": 2468, "▁ket": 2469, "▁kenu": 2470, "▁lon": 2471, "▁labing": 2472, "▁lasip": 2473, "▁levita": 2474, "▁makis": 2475, "▁maluka": 2476, "▁mengan": 2477, "▁musik": 2478, "▁nanan": 2479, "▁nand": 2480, "▁nia": 2481, "▁nya": 2482, "▁na't": 2483, "▁nga": 2484, "▁pale": 2485, "▁pamanu": 2486, "▁pangap": 2487, "▁silu": 2488, "▁sapni": 2489, "▁siga": 2490, "▁sulip": 2491, "▁taw": 2492, "▁templo": 2493, "▁ya'ing": 2494, "-k": 2495, "abil": 2496, "aklan": 2497, "alanan": 2498, "alino": 2499, "apak": 2500, "aslag": 2501, "doma": 2502, "entu": 2503, "ernu": 2504, "ilit": 2505, "ilugan": 2506, "intind": 2507, "iting": 2508, "jag": 2509, "kalinguan": 2510, "katasan": 2511, "lay": 2512, "sundu": 2513, "th": 2514, "ts": 2515, "tau": 2516, "tungkulan": 2517, "uge": 2518, "uro": 2519, "utud": 2520, "utul": 2521, "va": 2522, "wel": 2523, "ying": 2524, "▁18": 2525, "▁aar": 2526, "▁ampo": 2527, "▁anino": 2528, "▁ber": 2529, "▁bur": 2530, "▁batis": 2531, "▁batuin": 2532, "▁day": 2533, "▁dulang": 2534, "▁ger": 2535, "▁kw": 2536, "▁kaili": 2537, "▁katungkulan": 2538, "▁kagutgutan": 2539, "▁katubale": 2540, "▁kayatulan": 2541, "▁kayup": 2542, "▁kesa": 2543, "▁keraklan": 2544, "▁kur": 2545, "▁legwan": 2546, "▁makalukluk": 2547, "▁makalunus": 2548, "▁makapangilabut": 2549, "▁manu": 2550, "▁mapalyari": 2551, "▁masakit": 2552, "▁mey": 2553, "▁mengal": 2554, "▁musika": 2555, "▁nakayu": 2556, "▁papan": 2557, "▁pl": 2558, "▁pulut": 2559, "▁paimburisan": 2560, "▁pani": 2561, "▁pangak": 2562, "▁pangay": 2563, "▁pate": 2564, "▁pes": 2565, "▁pilubluban": 2566, "▁retang": 2567, "▁sese": 2568, "▁she": 2569, "▁sil": 2570, "▁siuala": 2571, "▁saserdote": 2572, "▁sodoma": 2573, "▁tua": 2574, "▁trigo": 2575, "▁ubing": 2576, "▁uvas": 2577, "▁yat": 2578, "▁yutus": 2579, "-g": 2580, "aua": 2581, "ada": 2582, "ado": 2583, "agana": 2584, "ambat": 2585, "apatad": 2586, "atni": 2587, "atun": 2588, "atiawan": 2589, "awal": 2590, "ayo": 2591, "buc": 2592, "ez": 2593, "ening": 2594, "eno": 2595, "ganak": 2596, "gatas": 2597, "gn": 2598, "hen": 2599, "hon": 2600, "iwan": 2601, "ibala": 2602, "isabian": 2603, "itang": 2604, "itar": 2605, "kit": 2606, "kanta": 2607, "kasakit": 2608, "kuldas": 2609, "lam": 2610, "les": 2611, "laban": 2612, "labis": 2613, "oa": 2614, "oc": 2615, "po": 2616, "pac": 2617, "pant": 2618, "suyu": 2619, "subli": 2620, "sulud": 2621, "tug": 2622, "tya": 2623, "ugn": 2624, "ugut": 2625, "ukyat": 2626, "ukiat": 2627, "ulaga": 2628, "urut": 2629, "yasa": 2630, "yutus": 2631, "▁ac": 2632, "▁abimelek": 2633, "▁alpa": 2634, "▁alun": 2635, "▁aptas": 2636, "▁arapat": 2637, "▁band": 2638, "▁bitasa": 2639, "▁dayu": 2640, "▁dis": 2641, "▁ganap": 2642, "▁krus": 2643, "▁kabilugan": 2644, "▁kanini": 2645, "▁kapalaran": 2646, "▁kapulungan": 2647, "▁kayat": 2648, "▁kayupayan": 2649, "▁kopa": 2650, "▁kun": 2651, "▁mabayat": 2652, "▁makasumami": 2653, "▁malating": 2654, "▁maluat": 2655, "▁mangarawak": 2656, "▁maybug": 2657, "▁migp": 2658, "▁mikak": 2659, "▁militar": 2660, "▁miny": 2661, "▁mipakarine": 2662, "▁mistula": 2663, "▁mu't": 2664, "▁mutya": 2665, "▁namu": 2666, "▁pera": 2667, "▁pakakalulu": 2668, "▁pamikas": 2669, "▁panata": 2670, "▁pangat": 2671, "▁pangisnawa": 2672, "▁pisali": 2673, "▁raka": 2674, "▁sibul": 2675, "▁seir": 2676, "▁sisera": 2677, "▁tudtud": 2678, "▁tul": 2679, "▁talapag": 2680, "▁taluk": 2681, "▁talapaniapat": 2682, "▁uari": 2683, "▁usa": 2684, "▁ubingan": 2685, "▁ulit": 2686, "▁yam": 2687, "▁you": 2688, "▁zo": 2689, "alian": 2690, "alili": 2691, "alut": 2692, "alamatan": 2693, "alumduman": 2694, "angu": 2695, "ayaus": 2696, "ben": 2697, "bule": 2698, "cris": 2699, "dalit": 2700, "ens": 2701, "igapu": 2702, "iki": 2703, "inabang": 2704, "ingasng": 2705, "ingwan": 2706, "inup": 2707, "kup": 2708, "lor": 2709, "pantaya": 2710, "salbat": 2711, "tamu": 2712, "ungul": 2713, "yasang": 2714, "▁11": 2715, "▁13": 2716, "▁2011": 2717, "▁asuk": 2718, "▁babi": 2719, "▁bakung": 2720, "▁bet-": 2721, "▁biklat": 2722, "▁emu": 2723, "▁fransiskanu": 2724, "▁her": 2725, "▁ikakayap": 2726, "▁ipagamuamu": 2727, "▁kabalen": 2728, "▁kakilala": 2729, "▁kalig": 2730, "▁kamul": 2731, "▁kand": 2732, "▁kapupusan": 2733, "▁karakal": 2734, "▁kum": 2735, "▁kultura": 2736, "▁lilung": 2737, "▁lulam": 2738, "▁makipamuk": 2739, "▁mangab": 2740, "▁mangalating": 2741, "▁marangal": 2742, "▁marinat": 2743, "▁masampat": 2744, "▁mayay": 2745, "▁meto": 2746, "▁nandin": 2747, "▁payat": 2748, "▁pip": 2749, "▁pulung": 2750, "▁pagkalub": 2751, "▁palalu": 2752, "▁pamisip": 2753, "▁pamikapali": 2754, "▁pengan": 2755, "▁pilip": 2756, "▁reti": 2757, "▁sapat": 2758, "▁sampa": 2759, "▁samba": 2760, "▁sepu": 2761, "▁tam": 2762, "▁tana": 2763, "▁taim": 2764, "▁ugali": 2765, "aili": 2766, "abak": 2767, "abit": 2768, "abilin": 2769, "alaya": 2770, "aldawan": 2771, "apunta": 2772, "aramdam": 2773, "arac": 2774, "arinayan": 2775, "asias": 2776, "asio": 2777, "asanting": 2778, "atuli": 2779, "ataskatasan": 2780, "ayun": 2781, "bata": 2782, "bin": 2783, "dis": 2784, "gar": 2785, "galo": 2786, "hu": 2787, "iniku": 2788, "irait": 2789, "isanan": 2790, "ji": 2791, "kulang": 2792, "lugud": 2793, "nasan": 2794, "olo": 2795, "pabal": 2796, "put": 2797, "pantay": 2798, "sinan": 2799, "sakab": 2800, "saplala": 2801, "sintang": 2802, "tum": 2803, "ungkutan": 2804, "upul": 2805, "ure": 2806, "uropa": 2807, "yam": 2808, "yasnan": 2809, "▁12": 2810, "▁aaron": 2811, "▁ablas": 2812, "▁akalinguan": 2813, "▁anya": 2814, "▁aral": 2815, "▁aske": 2816, "▁bin": 2817, "▁bub": 2818, "▁bula": 2819, "▁balas": 2820, "▁balita": 2821, "▁baryu": 2822, "▁beer": 2823, "▁biga": 2824, "▁dagat": 2825, "▁dominiku": 2826, "▁espanol": 2827, "▁ibye": 2828, "▁kagalang": 2829, "▁kagum": 2830, "▁kakataskatasan": 2831, "▁kalaraman": 2832, "▁kalibakan": 2833, "▁kaligayan": 2834, "▁kamarinayan": 2835, "▁kapamisanan": 2836, "▁kapasalamatan": 2837, "▁kayaldawan": 2838, "▁kelinguan": 2839, "▁kuma": 2840, "▁kuta": 2841, "▁luk": 2842, "▁lunus": 2843, "▁laue": 2844, "▁lingap": 2845, "▁lungkut": 2846, "▁mauli": 2847, "▁mabilis": 2848, "▁makak": 2849, "▁manoa": 2850, "▁maput": 2851, "▁matalik": 2852, "▁mawala": 2853, "▁nanuman": 2854, "▁palang": 2855, "▁papunta": 2856, "▁pus": 2857, "▁pagumasdan": 2858, "▁pamana": 2859, "▁pamipamuk": 2860, "▁panatag": 2861, "▁pare": 2862, "▁pekam": 2863, "▁pengaku": 2864, "▁ren": 2865, "▁ros": 2866, "▁roma": 2867, "▁sadia": 2868, "▁susu": 2869, "▁selese": 2870, "▁sheol": 2871, "▁siam": 2872, "▁tar": 2873, "▁tat": 2874, "▁tubud": 2875, "▁tulang": 2876, "▁tabern": 2877, "aul": 2878, "abo": 2879, "abaluan": 2880, "agang": 2881, "agas": 2882, "agkat": 2883, "akuan": 2884, "alm": 2885, "amung": 2886, "amant": 2887, "anti": 2888, "anup": 2889, "apas": 2890, "ayubu": 2891, "bakit": 2892, "bayan": 2893, "bud": 2894, "dug": 2895, "fer": 2896, "iac": 2897, "igl": 2898, "ikas": 2899, "imla": 2900, "inakit": 2901, "iras": 2902, "isanu": 2903, "itac": 2904, "ja": 2905, "kamit": 2906, "kayu": 2907, "keng": 2908, "lib": 2909, "luk": 2910, "ly": 2911, "lacbe": 2912, "mb": 2913, "pala": 2914, "pald": 2915, "pantayanan": 2916, "punan": 2917, "tulut": 2918, "tur": 2919, "tanam": 2920, "uben": 2921, "ubuan": 2922, "uglung": 2923, "ukit": 2924, "ulit": 2925, "ulisac": 2926, "usang": 2927, "wak": 2928, "walan": 2929, "win": 2930, "yawad": 2931, "▁ah": 2932, "▁aintind": 2933, "▁adw": 2934, "▁agi": 2935, "▁ako": 2936, "▁apal": 2937, "▁ata": 2938, "▁bako": 2939, "▁batiawan": 2940, "▁bano": 2941, "▁birhen": 2942, "▁bukal": 2943, "▁dangal": 2944, "▁dangalan": 2945, "▁depat": 2946, "▁diegu": 2947, "▁dimla": 2948, "▁europa": 2949, "▁gun": 2950, "▁ganid": 2951, "▁ha": 2952, "▁ir": 2953, "▁ind": 2954, "▁kib": 2955, "▁kaisanu": 2956, "▁katang": 2957, "▁kaug": 2958, "▁kapagnasan": 2959, "▁kapanamdaman": 2960, "▁kapanayan": 2961, "▁karalumduman": 2962, "▁karamp": 2963, "▁karua": 2964, "▁kasiping": 2965, "▁kasumangid": 2966, "▁kasalpantayanan": 2967, "▁kasangkapan": 2968, "▁katut": 2969, "▁kayubuan": 2970, "▁kayatinan": 2971, "▁kiniak": 2972, "▁lam": 2973, "▁lit": 2974, "▁liguran": 2975, "▁lubas": 2976, "▁mabib": 2977, "▁makibat": 2978, "▁makimut": 2979, "▁maka-": 2980, "▁makatungkul": 2981, "▁maki-": 2982, "▁matatag": 2983, "▁mekipamuk": 2984, "▁mipag": 2985, "▁ore": 2986, "▁payapa": 2987, "▁pauli": 2988, "▁pamis": 2989, "▁pamakipamuk": 2990, "▁pamikak": 2991, "▁pampanga": 2992, "▁panugali": 2993, "▁pepar": 2994, "▁poesia": 2995, "▁poesya": 2996, "▁rugu": 2997, "▁rey": 2998, "▁sad": 2999, "▁sh": 3000, "▁sihon": 3001, "▁siguru": 3002, "▁sikan": 3003, "▁talang": 3004, "▁ts": 3005, "▁tud": 3006, "▁turu": 3007, "▁taliri": 3008, "▁tikpan": 3009, "▁upa": 3010, "▁walu": 3011, "▁yugse": 3012, "▁ya't": 3013, "20": 3014, "abel": 3015, "abulon": 3016, "agal": 3017, "agum": 3018, "aganapan": 3019, "alale": 3020, "albag": 3021, "alda": 3022, "aliua": 3023, "amatawad": 3024, "anam": 3025, "andaman": 3026, "arauan": 3027, "asang": 3028, "aso": 3029, "asaup": 3030, "ayit": 3031, "bante": 3032, "day": 3033, "dro": 3034, "gapang": 3035, "ius": 3036, "idad": 3037, "ikdo": 3038, "inawa": 3039, "iro": 3040, "laku": 3041, "lud": 3042, "luc": 3043, "lungkut": 3044, "mus": 3045, "mael": 3046, "nuk": 3047, "sim": 3048, "sisi": 3049, "sulapo": 3050, "tabi": 3051, "tad": 3052, "tapat": 3053, "tubu": 3054, "ulud": 3055, "unut": 3056, "walas": 3057, "▁apa": 3058, "▁ana": 3059, "▁atat": 3060, "▁baal": 3061, "▁bau": 3062, "▁barku": 3063, "▁bugtung": 3064, "▁clara": 3065, "▁dar": 3066, "▁dakayu": 3067, "▁eh": 3068, "▁ganaka": 3069, "▁gil": 3070, "▁gras": 3071, "▁ham": 3072, "▁inatbus": 3073, "▁ismael": 3074, "▁jab": 3075, "▁kake": 3076, "▁kris": 3077, "▁kaul": 3078, "▁kabyasnan": 3079, "▁kalaganapan": 3080, "▁kalinguan": 3081, "▁kandung": 3082, "▁kananeos": 3083, "▁kaplas": 3084, "▁katiwala": 3085, "▁kitkut": 3086, "▁la't": 3087, "▁lah": 3088, "▁lakwas": 3089, "▁levi": 3090, "▁liwal": 3091, "▁lubid": 3092, "▁mabi": 3093, "▁makaba": 3094, "▁makit": 3095, "▁malda": 3096, "▁malungkut": 3097, "▁mangamate": 3098, "▁mekamate": 3099, "▁mekeni": 3100, "▁miglalang": 3101, "▁mipa": 3102, "▁ngamu": 3103, "▁pibatan": 3104, "▁pag-": 3105, "▁pamit": 3106, "▁pating": 3107, "▁pepakilala": 3108, "▁pikakas": 3109, "▁pinat": 3110, "▁salut": 3111, "▁sunis": 3112, "▁tabernakul": 3113, "▁talat": 3114, "▁teresa": 3115, "▁tinggap": 3116, "▁tucnang": 3117, "▁wake": 3118, "▁yanasa": 3119, "▁zabulon": 3120, "-galang": 3121, "14": 3122, "aud": 3123, "agnan": 3124, "ainawan": 3125, "akasan": 3126, "alal": 3127, "aligan": 3128, "aluc": 3129, "amana": 3130, "amantala": 3131, "ambis": 3132, "anga": 3133, "anggap": 3134, "atmu": 3135, "ato": 3136, "ayani": 3137, "bawi": 3138, "bilang": 3139, "engian": 3140, "gamit": 3141, "gulut": 3142, "galgal": 3143, "igkas": 3144, "indi": 3145, "indu": 3146, "intunan": 3147, "isal": 3148, "isu": 3149, "kamali": 3150, "laram": 3151, "lig": 3152, "los": 3153, "lut": 3154, "mut": 3155, "nubayan": 3156, "pin": 3157, "paki": 3158, "ry": 3159, "tam": 3160, "umud": 3161, "uryan": 3162, "▁19": 3163, "▁agawa": 3164, "▁alal": 3165, "▁barac": 3166, "▁byasang": 3167, "▁baug": 3168, "▁batwin": 3169, "▁beer-": 3170, "▁biru": 3171, "▁bista": 3172, "▁bulad": 3173, "▁dagul": 3174, "▁ditac": 3175, "▁diri": 3176, "▁durung": 3177, "▁eya": 3178, "▁gamit": 3179, "▁git": 3180, "▁genaka": 3181, "▁haran": 3182, "▁kawani": 3183, "▁kabengian": 3184, "▁kabilian": 3185, "▁kabukas": 3186, "▁kades": 3187, "▁kagalang-galang": 3188, "▁kalungkutan": 3189, "▁kapainawan": 3190, "▁kapalaluan": 3191, "▁kapatagan": 3192, "▁karro": 3193, "▁karampatan": 3194, "▁karuaji": 3195, "▁kasi": 3196, "▁katmu": 3197, "▁lamesa": 3198, "▁luat": 3199, "▁mid": 3200, "▁miliari": 3201, "▁mah": 3202, "▁magm": 3203, "▁makule": 3204, "▁makabang": 3205, "▁makasulat": 3206, "▁makudta": 3207, "▁malare": 3208, "▁malig": 3209, "▁mangalambut": 3210, "▁maniaman": 3211, "▁maroc": 3212, "▁mayakit": 3213, "▁mela": 3214, "▁melas": 3215, "▁mewala": 3216, "▁miabe": 3217, "▁miz": 3218, "▁mipnu": 3219, "▁misna": 3220, "▁nakatamu": 3221, "▁ot": 3222, "▁pakit": 3223, "▁pagsalbat": 3224, "▁pakib": 3225, "▁paldas": 3226, "▁pamilya": 3227, "▁pamanyampa": 3228, "▁pana": 3229, "▁pangaras": 3230, "▁patak": 3231, "▁patingapun": 3232, "▁pekibatan": 3233, "▁pikakasaman": 3234, "▁pilit": 3235, "▁sand": 3236, "▁sulat": 3237, "▁sarai": 3238, "▁sem": 3239, "▁sukad": 3240, "▁tambing": 3241, "▁tac": 3242, "▁talan": 3243, "▁tigtig": 3244, "▁tuksu": 3245, "▁un": 3246, "▁uyat": 3247, "▁ukdu": 3248, "▁vic": 3249, "▁wali": 3250, "▁zalm": 3251, "-m": 3252, "-dili": 3253, "10": 3254, "15": 3255, "18": 3256, "aganak": 3257, "akar": 3258, "akayan": 3259, "alta": 3260, "aly": 3261, "alingwan": 3262, "amba": 3263, "ampan": 3264, "amulala": 3265, "an-": 3266, "anat": 3267, "ano": 3268, "andyan": 3269, "angas": 3270, "arul": 3271, "asikan": 3272, "ayus": 3273, "dar": 3274, "dawa": 3275, "diman": 3276, "ep": 3277, "esta": 3278, "fasio": 3279, "gale": 3280, "gunam": 3281, "iblas": 3282, "ign": 3283, "ilia": 3284, "imu": 3285, "ine": 3286, "intulutan": 3287, "iposa": 3288, "isak": 3289, "islap": 3290, "iuang": 3291, "kalat": 3292, "kalulu": 3293, "kekang": 3294, "lagan": 3295, "lar": 3296, "lim": 3297, "ladlad": 3298, "lehem": 3299, "male": 3300, "nag": 3301, "nube": 3302, "onifasio": 3303, "pad": 3304, "pam": 3305, "pi": 3306, "paldas": 3307, "sanu": 3308, "say": 3309, "suku": 3310, "seba": 3311, "tangis": 3312, "tigtig": 3313, "toria": 3314, "ukud": 3315, "umasid": 3316, "unduc": 3317, "ungan": 3318, "yak": 3319, "yla": 3320, "zo": 3321, "▁agum": 3322, "▁aggia": 3323, "▁agiamang": 3324, "▁akas": 3325, "▁aklis": 3326, "▁akua": 3327, "▁angeles": 3328, "▁animales": 3329, "▁apak": 3330, "▁asul": 3331, "▁ayun": 3332, "▁bayani": 3333, "▁bonifasio": 3334, "▁bet-el": 3335, "▁bulsa": 3336, "▁dil": 3337, "▁du": 3338, "▁dir": 3339, "▁eka": 3340, "▁ena": 3341, "▁filipinas": 3342, "▁galang": 3343, "▁gatas": 3344, "▁gnu": 3345, "▁gom": 3346, "▁ido": 3347, "▁ipa": 3348, "▁isabel": 3349, "▁kadu": 3350, "▁kau": 3351, "▁kababa": 3352, "▁kabig": 3353, "▁kabily": 3354, "▁kadua": 3355, "▁kalab": 3356, "▁kalili": 3357, "▁kamulangan": 3358, "▁kanyan": 3359, "▁kandila": 3360, "▁kapisi": 3361, "▁kapitna": 3362, "▁kasbu": 3363, "▁kaseb": 3364, "▁katlung": 3365, "▁kawakasan": 3366, "▁kilu": 3367, "▁kuer": 3368, "▁lis": 3369, "▁labislabis": 3370, "▁love": 3371, "▁lukib": 3372, "▁mwa": 3373, "▁makakal": 3374, "▁makibalu": 3375, "▁mangadi": 3376, "▁mangas": 3377, "▁mangayap": 3378, "▁mangmang": 3379, "▁mapait": 3380, "▁maputi": 3381, "▁mapamakalulu": 3382, "▁mariposa": 3383, "▁merapat": 3384, "▁miabeabe": 3385, "▁mipanuanan": 3386, "▁mipat": 3387, "▁niting": 3388, "▁nwan": 3389, "▁nyo": 3390, "▁naya": 3391, "▁neman": 3392, "▁og": 3393, "▁peni": 3394, "▁pipag": 3395, "▁pungul": 3396, "▁paw": 3397, "▁pamagd": 3398, "▁pamamuri": 3399, "▁pamangal": 3400, "▁pantas": 3401, "▁panulu": 3402, "▁paralaya": 3403, "▁patse": 3404, "▁pepabal": 3405, "▁pepak": 3406, "▁pepalakuan": 3407, "▁pilipinas": 3408, "▁pista": 3409, "▁rima": 3410, "▁sug": 3411, "▁set": 3412, "▁sibyla": 3413, "▁siku": 3414, "▁singsing": 3415, "▁taba": 3416, "▁tali": 3417, "▁tum": 3418, "▁tung": 3419, "▁tao": 3420, "▁taldawa": 3421, "▁taluktuk": 3422, "▁tawling": 3423, "▁tenam": 3424, "▁tikdo": 3425, "▁uma": 3426, "▁ur": 3427, "▁uyung": 3428, "▁wagas": 3429, "▁yuyutus": 3430, "▁zalmuna": 3431, "▁zeba": 3432, "aue": 3433, "abag": 3434, "abengi": 3435, "abus": 3436, "abusu": 3437, "agkas": 3438, "agsac": 3439, "akak": 3440, "alugud": 3441, "alagua": 3442, "aldak": 3443, "alual": 3444, "anganak": 3445, "ardin": 3446, "asuk": 3447, "awpan": 3448, "bugan": 3449, "bulad": 3450, "diu": 3451, "dr": 3452, "fr": 3453, "ftali": 3454, "fael": 3455, "gas": 3456, "gul": 3457, "ganagana": 3458, "guni": 3459, "hel": 3460, "ikap": 3461, "iko": 3462, "ingsing": 3463, "inggulut": 3464, "irapal": 3465, "irug": 3466, "iso": 3467, "kwa": 3468, "kuban": 3469, "masa": 3470, "mura": 3471, "ngi": 3472, "ona": 3473, "orra": 3474, "pangan": 3475, "payang": 3476, "puk": 3477, "pagkalub": 3478, "palad": 3479, "ser": 3480, "sic": 3481, "tes": 3482, "talaga": 3483, "tanggap": 3484, "torya": 3485, "tratu": 3486, "tumpak": 3487, "tungul": 3488, "ugun": 3489, "ulad": 3490, "uluk": 3491, "ulwan": 3492, "ulio": 3493, "ungut": 3494, "upu": 3495, "za": 3496, "zareno": 3497, "▁alaya": 3498, "▁amer": 3499, "▁apalsintan": 3500, "▁asal": 3501, "▁asung": 3502, "▁bamban": 3503, "▁bo": 3504, "▁bud": 3505, "▁bai": 3506, "▁balitang": 3507, "▁banga": 3508, "▁beg": 3509, "▁beer-seba": 3510, "▁beth": 3511, "▁bigu": 3512, "▁bistat": 3513, "▁bulkan": 3514, "▁dumpa": 3515, "▁dakila": 3516, "▁ela": 3517, "▁eran": 3518, "▁for": 3519, "▁fra": 3520, "▁gr": 3521, "▁iyan": 3522, "▁idolos": 3523, "▁kim": 3524, "▁ka't": 3525, "▁kababainan": 3526, "▁kagiwan": 3527, "▁kali": 3528, "▁kalub": 3529, "▁kapara": 3530, "▁karagul": 3531, "▁katuki": 3532, "▁kayo": 3533, "▁keganagana": 3534, "▁ketasan": 3535, "▁kekaban": 3536, "▁kibkuban": 3537, "▁kildap": 3538, "▁kinulisak": 3539, "▁kore": 3540, "▁kuerdas": 3541, "▁kundiman": 3542, "▁lakbang": 3543, "▁lep": 3544, "▁mon": 3545, "▁maina": 3546, "▁mabag": 3547, "▁mabibie": 3548, "▁makaramdam": 3549, "▁makasalanan": 3550, "▁makasalikut": 3551, "▁malipul": 3552, "▁manag": 3553, "▁manuk": 3554, "▁mangap": 3555, "▁mayayakit": 3556, "▁mayupayang": 3557, "▁melungkut": 3558, "▁menalig": 3559, "▁menila": 3560, "▁meninap": 3561, "▁mikas": 3562, "▁minukiat": 3563, "▁nag": 3564, "▁nign": 3565, "▁pel": 3566, "▁pug": 3567, "▁pawas": 3568, "▁pagmas": 3569, "▁pakakak": 3570, "▁pakinabang": 3571, "▁pamig": 3572, "▁pamanalangsang": 3573, "▁pamikasala": 3574, "▁pangamate": 3575, "▁pinta": 3576, "▁pinatubu": 3577, "▁rafael": 3578, "▁simb": 3579, "▁sumangid": 3580, "▁sy": 3581, "▁sagip": 3582, "▁santo": 3583, "▁sibuk": 3584, "▁sidia": 3585, "▁silbag": 3586, "▁taga": 3587, "▁tia": 3588, "▁til": 3589, "▁tiru": 3590, "▁tajimik": 3591, "▁uri": 3592, "-j": 3593, "-pan": 3594, "24": 3595, "aa": 3596, "aal": 3597, "abandi": 3598, "abug": 3599, "agimpan": 3600, "agus": 3601, "agulele": 3602, "akpan": 3603, "alasan": 3604, "albe": 3605, "aluk": 3606, "alakaran": 3607, "amle": 3608, "ambul": 3609, "ampalasan": 3610, "anib": 3611, "anandaman": 3612, "angun": 3613, "aru": 3614, "asawa": 3615, "ayli": 3616, "bale": 3617, "buklat": 3618, "daun": 3619, "ema": 3620, "eli": 3621, "ena": 3622, "ener": 3623, "estro": 3624, "guli": 3625, "gau": 3626, "hant": 3627, "iba": 3628, "iglang": 3629, "ikala": 3630, "imus": 3631, "inyag": 3632, "intindi": 3633, "ipi": 3634, "irang": 3635, "ite": 3636, "its": 3637, "iup": 3638, "jo": 3639, "kabsi": 3640, "kabus": 3641, "kado": 3642, "lati": 3643, "laya": 3644, "luguran": 3645, "laud": 3646, "mak": 3647, "makap": 3648, "mana": 3649, "ninu": 3650, "naua": 3651, "ork": 3652, "osue": 3653, "pate": 3654, "pis": 3655, "ros": 3656, "reo": 3657, "sake": 3658, "sala": 3659, "subuk": 3660, "tel": 3661, "tuldu": 3662, "ubli": 3663, "ucnang": 3664, "uda": 3665, "ulian": 3666, "ulkul": 3667, "undag": 3668, "ungkulan": 3669, "utla": 3670, "yab": 3671, "yabe": 3672, "yangu": 3673, "zen": 3674, "▁16": 3675, "▁21": 3676, "▁32": 3677, "▁aya": 3678, "▁aba": 3679, "▁aintindian": 3680, "▁alfer": 3681, "▁alalay": 3682, "▁alang-": 3683, "▁albugan": 3684, "▁ampang": 3685, "▁asag": 3686, "▁aser": 3687, "▁baku": 3688, "▁bunduc": 3689, "▁bagius": 3690, "▁bey": 3691, "▁bibu": 3692, "▁bulaklak": 3693, "▁bulus": 3694, "▁byasa": 3695, "▁dagdag": 3696, "▁duku": 3697, "▁daing": 3698, "▁dimut": 3699, "▁eno": 3700, "▁era": 3701, "▁efron": 3702, "▁esku": 3703, "▁fraile": 3704, "▁gal": 3705, "▁gas": 3706, "▁glor": 3707, "▁gol": 3708, "▁gub": 3709, "▁gule": 3710, "▁gob": 3711, "▁gomorra": 3712, "▁har": 3713, "▁hore": 3714, "▁heber": 3715, "▁het": 3716, "▁id": 3717, "▁ins": 3718, "▁josue": 3719, "▁jehovah": 3720, "▁kiki": 3721, "▁kababan": 3722, "▁kadwa": 3723, "▁kaduang": 3724, "▁kakugn": 3725, "▁kaninu": 3726, "▁kasaman": 3727, "▁kast": 3728, "▁katipunan": 3729, "▁keying": 3730, "▁ketuan": 3731, "▁kile": 3732, "▁korder": 3733, "▁kus": 3734, "▁lala": 3735, "▁land": 3736, "▁lang": 3737, "▁larauan": 3738, "▁les": 3739, "▁lid": 3740, "▁lwa": 3741, "▁lalon": 3742, "▁letratu": 3743, "▁lihim": 3744, "▁limangpulung": 3745, "▁lugma": 3746, "▁lumbug": 3747, "▁masa": 3748, "▁mabyasa": 3749, "▁makipan": 3750, "▁makapal": 3751, "▁malam": 3752, "▁malunus": 3753, "▁mangga": 3754, "▁mapagal": 3755, "▁maputing": 3756, "▁marok": 3757, "▁maskil": 3758, "▁mepal": 3759, "▁meyangu": 3760, "▁mebalu": 3761, "▁menalakad": 3762, "▁merakal": 3763, "▁merkado": 3764, "▁migsakab": 3765, "▁minyabi": 3766, "▁mizpa": 3767, "▁muri": 3768, "▁nabengi": 3769, "▁puad": 3770, "▁pupus": 3771, "▁paganaka": 3772, "▁pagmaragul": 3773, "▁pamibule": 3774, "▁pamanakit": 3775, "▁pamaniapat": 3776, "▁pamikalugud": 3777, "▁panas": 3778, "▁panganib": 3779, "▁papalto": 3780, "▁paslagan": 3781, "▁patawaran": 3782, "▁patio": 3783, "▁patugut": 3784, "▁peg": 3785, "▁pekabandi": 3786, "▁pibandyan": 3787, "▁pisngi": 3788, "▁pluma": 3789, "▁pulubi": 3790, "▁reyna": 3791, "▁sali": 3792, "▁sayang": 3793, "▁sen": 3794, "▁sacris": 3795, "▁saserdotes": 3796, "▁sichem": 3797, "▁simeon": 3798, "▁sukot": 3799, "▁teng": 3800, "▁tegal": 3801, "▁tipu": 3802, "▁tukud": 3803, "▁yampang": 3804, "▁yap": 3805, "'ning": 3806, "-ulit": 3807, "-aldo": 3808, "12": 3809, "adkad": 3810, "adon": 3811, "akala": 3812, "akwan": 3813, "akalale": 3814, "akua": 3815, "alip": 3816, "alug": 3817, "alun": 3818, "amech": 3819, "ampus": 3820, "aning": 3821, "anac": 3822, "andal": 3823, "angat": 3824, "angga": 3825, "anuan": 3826, "apac": 3827, "arakal": 3828, "aralanan": 3829, "atad": 3830, "ater": 3831, "ataulian": 3832, "awun": 3833, "ayn": 3834, "ayug": 3835, "ayantabe": 3836, "bis": 3837, "bon": 3838, "busan": 3839, "bugnus": 3840, "ck": 3841, "dilu": 3842, "dus": 3843, "eos": 3844, "ensia": 3845, "ero": 3846, "fet": 3847, "gana": 3848, "ginu": 3849, "gulan": 3850, "gulisac": 3851, "hanty": 3852, "iua": 3853, "ianitas": 3854, "ibu": 3855, "ibata": 3856, "ikil": 3857, "ikilala": 3858, "ikut": 3859, "ilon": 3860, "ilaban": 3861, "inang": 3862, "indo": 3863, "indayug": 3864, "ingasngasan": 3865, "ipati": 3866, "iria": 3867, "irut": 3868, "ista": 3869, "itak": 3870, "ito": 3871, "kera": 3872, "kur": 3873, "kait": 3874, "kapampangan": 3875, "kasian": 3876, "katmu": 3877, "lalam": 3878, "libut": 3879, "lipat": 3880, "lup": 3881, "lapo": 3882, "lasak": 3883, "mam": 3884, "mar": 3885, "mit": 3886, "mon": 3887, "malagua": 3888, "ner": 3889, "ondu": 3890, "onu": 3891, "param": 3892, "pm": 3893, "ps": 3894, "ril": 3895, "sakup": 3896, "saldak": 3897, "sel": 3898, "sy": 3899, "saup": 3900, "salpantaya": 3901, "sangguni": 3902, "silbi": 3903, "ten": 3904, "ton": 3905, "tra": 3906, "tuknang": 3907, "tut": 3908, "teo": 3909, "terio": 3910, "uala": 3911, "ubaal": 3912, "ubus": 3913, "umpisa": 3914, "undangan": 3915, "ungang": 3916, "upas": 3917, "usigan": 3918, "utas": 3919, "vi": 3920, "wanan": 3921, "wer": 3922, "wil": 3923, "zadon": 3924, "▁10": 3925, "▁22": 3926, "▁28": 3927, "▁aingat": 3928, "▁abac": 3929, "▁abal": 3930, "▁abu": 3931, "▁abug": 3932, "▁adle": 3933, "▁akalingwan": 3934, "▁alis": 3935, "▁alang-alang": 3936, "▁alferez": 3937, "▁ama": 3938, "▁amu": 3939, "▁ania": 3940, "▁arung": 3941, "▁asbuc": 3942, "▁asaf": 3943, "▁asaua": 3944, "▁bate": 3945, "▁bing": 3946, "▁bubung": 3947, "▁banakang": 3948, "▁banayad": 3949, "▁bantug": 3950, "▁batik": 3951, "▁bayintaung": 3952, "▁begut": 3953, "▁bijag": 3954, "▁biye": 3955, "▁budni": 3956, "▁dalpak": 3957, "▁debo": 3958, "▁degulan": 3959, "▁disnan": 3960, "▁doc": 3961, "▁dulum": 3962, "▁durungutan": 3963, "▁ek": 3964, "▁eko": 3965, "▁eden": 3966, "▁galo": 3967, "▁gulis": 3968, "▁geua": 3969, "▁gloria": 3970, "▁gozen": 3971, "▁grasia": 3972, "▁gunawan": 3973, "▁hes": 3974, "▁hos": 3975, "▁heteo": 3976, "▁horeb": 3977, "▁imp": 3978, "▁ingke": 3979, "▁ipaintulut": 3980, "▁isakar": 3981, "▁jul": 3982, "▁jafet": 3983, "▁jerubaal": 3984, "▁judas": 3985, "▁kalingasngasan": 3986, "▁kamaganak": 3987, "▁kamkam": 3988, "▁kape": 3989, "▁kapil": 3990, "▁kapalsintan": 3991, "▁kapilanman": 3992, "▁kapitangan": 3993, "▁karas": 3994, "▁kasap": 3995, "▁kasangkanan": 3996, "▁katataulian": 3997, "▁katu": 3998, "▁katutwan": 3999, "▁kaugt": 4000, "▁kordero": 4001, "▁kump": 4002, "▁kupas": 4003, "▁kurry": 4004, "▁kwayan": 4005, "▁lamech": 4006, "▁lamu": 4007, "▁lasa": 4008, "▁lipat": 4009, "▁lahi": 4010, "▁lahar": 4011, "▁liba": 4012, "▁lumbe": 4013, "▁mul": 4014, "▁maulaga": 4015, "▁magkasakit": 4016, "▁maglakbe": 4017, "▁maglu": 4018, "▁magpal": 4019, "▁makabili": 4020, "▁makapangan": 4021, "▁makatakut": 4022, "▁makuyad": 4023, "▁malaso": 4024, "▁malil": 4025, "▁malut": 4026, "▁manalangin": 4027, "▁manalo": 4028, "▁manuyang": 4029, "▁manyad": 4030, "▁manyaman": 4031, "▁mapinu": 4032, "▁masuk": 4033, "▁mataba": 4034, "▁matapang": 4035, "▁megaral": 4036, "▁mekat": 4037, "▁mika-": 4038, "▁miraras": 4039, "▁misus": 4040, "▁miyaliwang": 4041, "▁myaliwang": 4042, "▁nazareno": 4043, "▁oy": 4044, "▁pupul": 4045, "▁painggulut": 4046, "▁palage": 4047, "▁palakpak": 4048, "▁panuknanganan": 4049, "▁pangad": 4050, "▁pangaibat": 4051, "▁pangakab": 4052, "▁papil": 4053, "▁pasku": 4054, "▁patawad": 4055, "▁patipati": 4056, "▁patu": 4057, "▁patutut": 4058, "▁pesit": 4059, "▁pekamana": 4060, "▁penintun": 4061, "▁peparala": 4062, "▁pepasibayu": 4063, "▁pigkalub": 4064, "▁pikabaluan": 4065, "▁prutas": 4066, "▁prob": 4067, "▁prog": 4068, "▁renato": 4069, "▁robin": 4070, "▁ses": 4071, "▁silab": 4072, "▁sit": 4073, "▁sum": 4074, "▁saglit": 4075, "▁salterio": 4076, "▁sandata": 4077, "▁santuario": 4078, "▁sapa": 4079, "▁seg": 4080, "▁siswan": 4081, "▁sobra": 4082, "▁supling": 4083, "▁suyuwan": 4084, "▁tor": 4085, "▁tagle": 4086, "▁tagumpe": 4087, "▁taimtim": 4088, "▁talapanibala": 4089, "▁tete": 4090, "▁tiglung": 4091, "▁tiki": 4092, "▁tiktik": 4093, "▁ukul": 4094, "▁yata": 4095, "▁yain": 4096, "'ta": 4097, "-lehem": 4098, "-tau": 4099, "-bale": 4100, "16": 4101, "17": 4102, "26": 4103, "aj": 4104, "abuc": 4105, "adiang": 4106, "agp": 4107, "agdagan": 4108, "akmul": 4109, "akun": 4110, "akutan": 4111, "aldo": 4112, "alsa": 4113, "alakal": 4114, "alangi": 4115, "alungkut": 4116, "alungs": 4117, "alungsungan": 4118, "amasamas": 4119, "ambal": 4120, "ambun": 4121, "amius": 4122, "ante": 4123, "an-aram": 4124, "andanan": 4125, "anum": 4126, "apam": 4127, "apangan": 4128, "apda": 4129, "ape": 4130, "arug": 4131, "aryu": 4132, "ariu": 4133, "atak": 4134, "atsi": 4135, "atyat": 4136, "atauan": 4137, "atagun": 4138, "awili": 4139, "ayag": 4140, "ayna": 4141, "bayung": 4142, "br": 4143, "bubu": 4144, "bating": 4145, "bianan": 4146, "bulung": 4147, "cl": 4148, "duan": 4149, "dusa": 4150, "eting": 4151, "eldo": 4152, "elu": 4153, "elihi": 4154, "ers": 4155, "estu": 4156, "estra": 4157, "galig": 4158, "gota": 4159, "has": 4160, "ht": 4161, "himik": 4162, "hor": 4163, "i-": 4164, "iak": 4165, "igu": 4166, "ikal": 4167, "ikid": 4168, "ili-dili": 4169, "inag": 4170, "inaw": 4171, "inidad": 4172, "intang": 4173, "intas": 4174, "inung": 4175, "inaua": 4176, "ingan": 4177, "ingo": 4178, "ingasngas": 4179, "intuan": 4180, "intau": 4181, "iruan": 4182, "isnaua": 4183, "iuan": 4184, "kaku": 4185, "kakung": 4186, "kalu": 4187, "kari": 4188, "kilala": 4189, "kasal": 4190, "kwela": 4191, "lunus": 4192, "lupa": 4193, "mawan": 4194, "meng": 4195, "ming": 4196, "moni": 4197, "mung": 4198, "mur": 4199, "nat": 4200, "ngal": 4201, "op": 4202, "oy": 4203, "otam": 4204, "polo": 4205, "puri": 4206, "painaw": 4207, "patawad": 4208, "sampa": 4209, "sangan": 4210, "sarili": 4211, "sir": 4212, "sut": 4213, "sitsit": 4214, "sona": 4215, "sulit": 4216, "tab": 4217, "tit": 4218, "tupad": 4219, "turan": 4220, "tac": 4221, "tagal": 4222, "tagumpe": 4223, "tori": 4224, "tuel": 4225, "uani": 4226, "ubungan": 4227, "udtan": 4228, "ugak": 4229, "ukuan": 4230, "ulagang": 4231, "ulus": 4232, "uming": 4233, "umpisal": 4234, "unayan": 4235, "upil": 4236, "urun": 4237, "urung": 4238, "utula": 4239, "yabas": 4240, "yernu": 4241, "ywan": 4242, "yalungan": 4243, "zal": 4244, "▁17": 4245, "▁adam": 4246, "▁abit": 4247, "▁abugadu": 4248, "▁aduangpulung": 4249, "▁akikilala": 4250, "▁alzadon": 4251, "▁aldo-aldo": 4252, "▁amen": 4253, "▁amerika": 4254, "▁andres": 4255, "▁antipolo": 4256, "▁apansinan": 4257, "▁asahan": 4258, "▁atalastas": 4259, "▁atatandanan": 4260, "▁ayus": 4261, "▁bos": 4262, "▁bun": 4263, "▁bagiu": 4264, "▁bagyu": 4265, "▁balac": 4266, "▁balak": 4267, "▁bandera": 4268, "▁betuel": 4269, "▁bendis": 4270, "▁beth-lehem": 4271, "▁bingut": 4272, "▁buis": 4273, "▁bulak": 4274, "▁bulac": 4275, "▁burak": 4276, "▁chinu": 4277, "▁den": 4278, "▁demoni": 4279, "▁debora": 4280, "▁dinat": 4281, "▁dindam": 4282, "▁duldul": 4283, "▁er": 4284, "▁eva": 4285, "▁e'ra": 4286, "▁efr": 4287, "▁enoc": 4288, "▁eskuela": 4289, "▁gad": 4290, "▁golgota": 4291, "▁hener": 4292, "▁heb": 4293, "▁hesbon": 4294, "▁igit": 4295, "▁imb": 4296, "▁iy": 4297, "▁indat": 4298, "▁istorya": 4299, "▁jebus": 4300, "▁kaipas": 4301, "▁kalin": 4302, "▁kaluk": 4303, "▁kanawan": 4304, "▁kapa": 4305, "▁kapanandaman": 4306, "▁kasalungsungan": 4307, "▁kasay": 4308, "▁katni": 4309, "▁katimawan": 4310, "▁katulad": 4311, "▁kewani": 4312, "▁korona": 4313, "▁kua": 4314, "▁kuku": 4315, "▁kulisak": 4316, "▁laya": 4317, "▁lins": 4318, "▁labaud": 4319, "▁lagu": 4320, "▁mamu": 4321, "▁mac": 4322, "▁madalas": 4323, "▁magpa": 4324, "▁magpakas": 4325, "▁makad": 4326, "▁makapar": 4327, "▁makatagan": 4328, "▁makatiman": 4329, "▁malabung": 4330, "▁malambut": 4331, "▁malaram": 4332, "▁malsinta": 4333, "▁malagwa": 4334, "▁malutub": 4335, "▁mamintu": 4336, "▁mangisnawa": 4337, "▁mangalagu": 4338, "▁marimla": 4339, "▁masipit": 4340, "▁matind": 4341, "▁matwa": 4342, "▁med": 4343, "▁mekapan": 4344, "▁mekipag": 4345, "▁mekiramdam": 4346, "▁melipul": 4347, "▁melaus": 4348, "▁menatili": 4349, "▁mengari": 4350, "▁mepupus": 4351, "▁mepalyari": 4352, "▁mesugat": 4353, "▁migari": 4354, "▁miglakbe": 4355, "▁mikasbu": 4356, "▁mipamulala": 4357, "▁mipan": 4358, "▁mipatudtud": 4359, "▁more": 4360, "▁mulahan": 4361, "▁nasi": 4362, "▁nugn": 4363, "▁naftali": 4364, "▁oli": 4365, "▁paka": 4366, "▁pasa": 4367, "▁pata": 4368, "▁pingg": 4369, "▁pur": 4370, "▁pyalung": 4371, "▁paintulutan": 4372, "▁pait": 4373, "▁padan-aram": 4374, "▁pagal": 4375, "▁pakakalale": 4376, "▁pakisabian": 4377, "▁paksa": 4378, "▁pakundangan": 4379, "▁palp": 4380, "▁pamipat": 4381, "▁pamag-": 4382, "▁pamaglacbe": 4383, "▁pamaki": 4384, "▁pamalsinta": 4385, "▁pamanlakad": 4386, "▁pamikakatauan": 4387, "▁pamitipun": 4388, "▁panirug": 4389, "▁panyu": 4390, "▁pangapala": 4391, "▁patnubayan": 4392, "▁pekat": 4393, "▁pekibat": 4394, "▁pekisabian": 4395, "▁pepakan": 4396, "▁peparagul": 4397, "▁pepaimburisan": 4398, "▁pibale": 4399, "▁piraya": 4400, "▁poesiya": 4401, "▁pres": 4402, "▁punlas": 4403, "▁rose": 4404, "▁ruben": 4405, "▁samantala": 4406, "▁sapi": 4407, "▁saw": 4408, "▁sua": 4409, "▁sutla": 4410, "▁swel": 4411, "▁saingsing": 4412, "▁sacristan": 4413, "▁sadya": 4414, "▁salese": 4415, "▁salubung": 4416, "▁samsam": 4417, "▁samyu": 4418, "▁santis": 4419, "▁santus": 4420, "▁sebianan": 4421, "▁selubungan": 4422, "▁siduan": 4423, "▁sigla": 4424, "▁sigur": 4425, "▁sikluban": 4426, "▁sindu": 4427, "▁siria": 4428, "▁subuk": 4429, "▁tro": 4430, "▁tugak": 4431, "▁tabernakulo": 4432, "▁tacde": 4433, "▁takpan": 4434, "▁talad": 4435, "▁talindo": 4436, "▁talasulat": 4437, "▁talaturu": 4438, "▁tangke": 4439, "▁tangsu": 4440, "▁tiparan": 4441, "▁trinidad": 4442, "▁tsong": 4443, "▁ua": 4444, "▁uaring": 4445, "▁ug": 4446, "▁ulap": 4447, "▁vakang": 4448, "▁waga": 4449, "'lan": 4450, "-ling": 4451, "-ti": 4452, "-alsa": 4453, "-bage": 4454, "-juda": 4455, "13": 4456, "21": 4457, "22": 4458, "29": 4459, "abata": 4460, "abating": 4461, "abaya": 4462, "abye": 4463, "abiasa": 4464, "abulad": 4465, "adura": 4466, "agad": 4467, "agi": 4468, "akg": 4469, "akgak": 4470, "alipan": 4471, "alake": 4472, "alangkas": 4473, "alangsangan": 4474, "aldan": 4475, "alucluc": 4476, "amut": 4477, "ambitan": 4478, "ampakan": 4479, "ampu": 4480, "amuyut": 4481, "anaunan": 4482, "andung": 4483, "ang-tau": 4484, "anglu": 4485, "aptas": 4486, "apatlud": 4487, "arapat": 4488, "asak": 4489, "asat": 4490, "aspa": 4491, "atalakaran": 4492, "ats": 4493, "atanas": 4494, "atio": 4495, "ayas": 4496, "babo": 4497, "bila": 4498, "cdo": 4499, "cpac": 4500, "dalan": 4501, "datu": 4502, "don": 4503, "dios": 4504, "dor": 4505, "dulap": 4506, "eleg": 4507, "ernador": 4508, "esti": 4509, "estiv": 4510, "estival": 4511, "gulu": 4512, "helyo": 4513, "iabing": 4514, "iun": 4515, "iw": 4516, "ibangun": 4517, "ibas": 4518, "ibi": 4519, "ibulayan": 4520, "ilag": 4521, "imba": 4522, "imbag": 4523, "imbawa": 4524, "inge": 4525, "ingning": 4526, "irasu": 4527, "iraya": 4528, "itin": 4529, "itl": 4530, "kalam": 4531, "katang": 4532, "kom": 4533, "kung": 4534, "kau": 4535, "kabat": 4536, "kada": 4537, "kuba": 4538, "lalang": 4539, "lipas": 4540, "lon": 4541, "lul": 4542, "lutu": 4543, "laue": 4544, "labung": 4545, "lod": 4546, "mab": 4547, "mata": 4548, "mig": 4549, "muk": 4550, "mula": 4551, "mwa": 4552, "malasakit": 4553, "masdan": 4554, "nangan": 4555, "ngana": 4556, "ngeni": 4557, "osto": 4558, "paku": 4559, "para": 4560, "pilit": 4561, "pula": 4562, "pus": 4563, "pital": 4564, "pultur": 4565, "pulai": 4566, "pultureru": 4567, "redus": 4568, "sane": 4569, "sibul": 4570, "sina": 4571, "sinup": 4572, "tagan": 4573, "tong": 4574, "tutul": 4575, "tagkil": 4576, "tia": 4577, "tipu": 4578, "tudtud": 4579, "ubuk": 4580, "ubiernu": 4581, "ugtu": 4582, "uking": 4583, "umb": 4584, "uminggu": 4585, "undun": 4586, "unggul": 4587, "ungkasian": 4588, "upan": 4589, "ustan": 4590, "wangan": 4591, "way": 4592, "waglit": 4593, "yayan": 4594, "yaul": 4595, "yasawa": 4596, "yatyat": 4597, "zer": 4598, "▁15": 4599, "▁23": 4600, "▁ada": 4601, "▁abat": 4602, "▁abel": 4603, "▁aduangpulu": 4604, "▁agar": 4605, "▁akwa": 4606, "▁alala": 4607, "▁alan": 4608, "▁alangalang": 4609, "▁angang": 4610, "▁apansin": 4611, "▁araba": 4612, "▁are": 4613, "▁atanggap": 4614, "▁atbu": 4615, "▁atbusan": 4616, "▁awing": 4617, "▁ayni": 4618, "▁batas": 4619, "▁bon": 4620, "▁baintau": 4621, "▁bait": 4622, "▁balag": 4623, "▁bayaran": 4624, "▁beth-lehem-juda": 4625, "▁biyabas": 4626, "▁bilha": 4627, "▁binit": 4628, "▁binondu": 4629, "▁bist": 4630, "▁bisyu": 4631, "▁bulik": 4632, "▁bulaclac": 4633, "▁busbus": 4634, "▁cristo": 4635, "▁dag": 4636, "▁dakap": 4637, "▁dalawan": 4638, "▁demonius": 4639, "▁diku": 4640, "▁em": 4641, "▁ene": 4642, "▁ehud": 4643, "▁ensina": 4644, "▁espana": 4645, "▁festival": 4646, "▁fr": 4647, "▁galgal": 4648, "▁gera": 4649, "▁gin": 4650, "▁gubiernu": 4651, "▁gulu": 4652, "▁gau": 4653, "▁gitara": 4654, "▁gobernador": 4655, "▁grupu": 4656, "▁hamor": 4657, "▁hospital": 4658, "▁ig": 4659, "▁it": 4660, "▁iyas": 4661, "▁ibabie": 4662, "▁iki": 4663, "▁inda": 4664, "▁ipabandi": 4665, "▁ipalto": 4666, "▁jabin": 4667, "▁jesu": 4668, "▁kaka": 4669, "▁kakal": 4670, "▁kislap": 4671, "▁kng": 4672, "▁kr": 4673, "▁kung": 4674, "▁kadal": 4675, "▁kabe": 4676, "▁kabsi": 4677, "▁kakeuan": 4678, "▁kalibe": 4679, "▁kaladuang": 4680, "▁kalibudtan": 4681, "▁kamal": 4682, "▁kamam": 4683, "▁kampu": 4684, "▁kap'lan": 4685, "▁kapanaunan": 4686, "▁kapin": 4687, "▁kapagalan": 4688, "▁kaparis": 4689, "▁kasabi": 4690, "▁kasampat": 4691, "▁kase": 4692, "▁kasebian": 4693, "▁katal": 4694, "▁kaugtuan": 4695, "▁kera": 4696, "▁konse": 4697, "▁kristo": 4698, "▁kualta": 4699, "▁kuna": 4700, "▁lir": 4701, "▁lira": 4702, "▁lol": 4703, "▁labwad": 4704, "▁lepitan": 4705, "▁levadura": 4706, "▁levitas": 4707, "▁lima": 4708, "▁luz": 4709, "▁maestro": 4710, "▁maintun": 4711, "▁mabangis": 4712, "▁magpat": 4713, "▁magumasid": 4714, "▁magpakarakal": 4715, "▁makamate": 4716, "▁makayat": 4717, "▁makilaban": 4718, "▁makir": 4719, "▁makisabi": 4720, "▁makabukud": 4721, "▁makaparati": 4722, "▁makasukul": 4723, "▁makasulud": 4724, "▁makudtang": 4725, "▁malab": 4726, "▁malambis": 4727, "▁malap": 4728, "▁maliliari": 4729, "▁malu": 4730, "▁maliap": 4731, "▁maliwalas": 4732, "▁maligayang": 4733, "▁mamalagua": 4734, "▁mamili": 4735, "▁mamre": 4736, "▁manangis": 4737, "▁mangailangan": 4738, "▁mapup": 4739, "▁maramdam": 4740, "▁masipag": 4741, "▁masis": 4742, "▁masalusu": 4743, "▁masuksuk": 4744, "▁matalic": 4745, "▁matapat": 4746, "▁matwang": 4747, "▁melang": 4748, "▁mepan": 4749, "▁metula": 4750, "▁mekas": 4751, "▁melunus": 4752, "▁menabu": 4753, "▁menaliwa": 4754, "▁mengap": 4755, "▁mengat": 4756, "▁meragul": 4757, "▁meriba": 4758, "▁mesabing": 4759, "▁miabie": 4760, "▁miuman": 4761, "▁miyal": 4762, "▁midianitas": 4763, "▁miglakad": 4764, "▁migpak": 4765, "▁migsantung": 4766, "▁milai": 4767, "▁mipal": 4768, "▁mipam": 4769, "▁misa": 4770, "▁mister": 4771, "▁mitda": 4772, "▁mitdas": 4773, "▁mor": 4774, "▁naing": 4775, "▁nay": 4776, "▁nayun": 4777, "▁nakor": 4778, "▁opu": 4779, "▁panan": 4780, "▁pibulayan": 4781, "▁pili": 4782, "▁por": 4783, "▁puge": 4784, "▁painawa": 4785, "▁pau": 4786, "▁pabanua": 4787, "▁paginakit": 4788, "▁pakanan": 4789, "▁pakipamuk": 4790, "▁pamamatawad": 4791, "▁pamat": 4792, "▁pamil": 4793, "▁pamagaral": 4794, "▁pamamie": 4795, "▁pamamigla": 4796, "▁pamanabusu": 4797, "▁pamanalig": 4798, "▁pamangul": 4799, "▁panabilin": 4800, "▁panawun": 4801, "▁pangapan": 4802, "▁pangar": 4803, "▁pangimut": 4804, "▁pangaligtas": 4805, "▁panyulat": 4806, "▁papanuknanganan": 4807, "▁patd": 4808, "▁pesil": 4809, "▁peniwalan": 4810, "▁pepab": 4811, "▁pepabalu": 4812, "▁pepasakitan": 4813, "▁perez": 4814, "▁persona": 4815, "▁pikas": 4816, "▁pinsinan": 4817, "▁pitung": 4818, "▁poesiang": 4819, "▁punla": 4820, "▁reni": 4821, "▁res": 4822, "▁reta": 4823, "▁reuben": 4824, "▁rizal": 4825, "▁sakup": 4826, "▁sar": 4827, "▁sc": 4828, "▁sip": 4829, "▁sto": 4830, "▁sa't": 4831, "▁saul": 4832, "▁sabo": 4833, "▁sabung": 4834, "▁saldak": 4835, "▁sambitl": 4836, "▁santisima": 4837, "▁sasag": 4838, "▁sedro": 4839, "▁sepultureru": 4840, "▁sulyap": 4841, "▁sweldu": 4842, "▁sybila": 4843, "▁tagulele": 4844, "▁tera": 4845, "▁tid": 4846, "▁tun": 4847, "▁tundun": 4848, "▁tagalug": 4849, "▁taimic": 4850, "▁talampakan": 4851, "▁talasaup": 4852, "▁talastas": 4853, "▁tamad": 4854, "▁tarlac": 4855, "▁tetagan": 4856, "▁tigre": 4857, "▁timpak": 4858, "▁tulus": 4859, "▁up": 4860, "▁utak": 4861, "▁utang": 4862, "▁ulit-ulit": 4863, "▁usis": 4864, "▁yari": 4865, "▁yka": 4866, "'yng": 4867, "-h": 4868, "-ng": 4869, "-tung": 4870, "-tunggal": 4871, "00": 4872, "19": 4873, "a'na": 4874, "abac": 4875, "abyan": 4876, "adala": 4877, "adung": 4878, "aduang": 4879, "agsak": 4880, "agtal": 4881, "aguan": 4882, "akbung": 4883, "aki": 4884, "akibat": 4885, "akaili": 4886, "akananu": 4887, "akunuan": 4888, "ales": 4889, "alis": 4890, "alpantaya": 4891, "alac": 4892, "alakat": 4893, "alamanu": 4894, "alaso": 4895, "aligaga": 4896, "aliksik": 4897, "amayap": 4898, "amilia": 4899, "ambayan": 4900, "ametung": 4901, "andam": 4902, "anda": 4903, "andian": 4904, "angane": 4905, "anualan": 4906, "apara": 4907, "apin": 4908, "apate": 4909, "aralan": 4910, "aril": 4911, "ari-s": 4912, "asalamat": 4913, "asas": 4914, "aspak": 4915, "asyas": 4916, "atagan": 4917, "atna": 4918, "atanam": 4919, "ation": 4920, "awayan": 4921, "ayaran": 4922, "ayunu": 4923, "bak": 4924, "balangkas": 4925, "batan": 4926, "bib": 4927, "but": 4928, "bye": 4929, "bibili": 4930, "bukas": 4931, "cpan": 4932, "ct": 4933, "clukan": 4934, "dac": 4935, "ea": 4936, "ek": 4937, "ento": 4938, "ere": 4939, "erkul": 4940, "erkules": 4941, "esayan": 4942, "far": 4943, "faim": 4944, "faz": 4945, "gi": 4946, "gal-tunggal": 4947, "ganaka": 4948, "gapus": 4949, "gardo": 4950, "hala": 4951, "hin": 4952, "iaman": 4953, "iat": 4954, "ii": 4955, "ibalan": 4956, "ibayan": 4957, "ibeon": 4958, "ida": 4959, "igid": 4960, "iglo": 4961, "iglip": 4962, "iktik": 4963, "ilad": 4964, "ilario": 4965, "ilim": 4966, "ilitan": 4967, "ilangang": 4968, "ilisia": 4969, "ilonia": 4970, "imang": 4971, "imic": 4972, "imin": 4973, "imbut": 4974, "inip": 4975, "irandam": 4976, "ist": 4977, "istoria": 4978, "itun": 4979, "kay": 4980, "kiling": 4981, "kimut": 4982, "kaluku": 4983, "kalupa": 4984, "karug": 4985, "kulung": 4986, "libe": 4987, "ligalig": 4988, "lyan": 4989, "larawan": 4990, "less": 4991, "lifaz": 4992, "libak": 4993, "mali": 4994, "matas": 4995, "mik": 4996, "muan": 4997, "murin": 4998, "nia": 4999, "ninap": 5000, "nong": 5001, "nyang": 5002, "nukarin": 5003, "okan": 5004, "oku": 5005, "ostomo": 5006, "pampan": 5007, "pay": 5008, "piling": 5009, "por": 5010, "puge": 5011, "pakde": 5012, "pakpak": 5013, "pamintu": 5014, "panpan": 5015, "paral": 5016, "patad": 5017, "rama": 5018, "ruz": 5019, "sandal": 5020, "sig": 5021, "sumami": 5022, "sadya": 5023, "salamat": 5024, "sikan": 5025, "sikap": 5026, "simi": 5027, "sisti": 5028, "subukan": 5029, "takap": 5030, "tanan": 5031, "tara": 5032, "tajimik": 5033, "taglus": 5034, "taksil": 5035, "tanganan": 5036, "timawa": 5037, "tsura": 5038, "tucnang": 5039, "uy": 5040, "uyung": 5041, "uban": 5042, "ubin": 5043, "uburan": 5044, "ugan": 5045, "ukal": 5046, "ulunus": 5047, "ulangul": 5048, "uluc": 5049, "unag": 5050, "unam": 5051, "untan": 5052, "upajan": 5053, "urus": 5054, "usg": 5055, "usian": 5056, "uskus": 5057, "usukan": 5058, "usun": 5059, "utuk": 5060, "ver": 5061, "wasan": 5062, "wata": 5063, "wis": 5064, "wagi": 5065, "walta": 5066, "yaup": 5067, "▁14": 5068, "▁aib": 5069, "▁awang": 5070, "▁abut": 5071, "▁abyas": 5072, "▁agila": 5073, "▁agnan": 5074, "▁akam": 5075, "▁akay": 5076, "▁alas": 5077, "▁albe": 5078, "▁alig": 5079, "▁alil": 5080, "▁alan'": 5081, "▁amale": 5082, "▁aman": 5083, "▁among": 5084, "▁any": 5085, "▁anghel": 5086, "▁antimurin": 5087, "▁apas": 5088, "▁arakap": 5089, "▁arte": 5090, "▁asik": 5091, "▁atab": 5092, "▁atupad": 5093, "▁atyan": 5094, "▁atatalastas": 5095, "▁awsan": 5096, "▁bata": 5097, "▁bela": 5098, "▁beng": 5099, "▁bes": 5100, "▁bro": 5101, "▁babilonia": 5102, "▁bage-bage": 5103, "▁bakud": 5104, "▁balabal": 5105, "▁barug": 5106, "▁bayat": 5107, "▁beater": 5108, "▁bebe": 5109, "▁belita": 5110, "▁bendisyon": 5111, "▁berdi": 5112, "▁bias": 5113, "▁bibili": 5114, "▁boti": 5115, "▁bonus": 5116, "▁bulbul": 5117, "▁bungu": 5118, "▁byuk": 5119, "▁crisostomo": 5120, "▁daku": 5121, "▁dandaman": 5122, "▁dara": 5123, "▁dilig": 5124, "▁disip": 5125, "▁dro": 5126, "▁duru": 5127, "▁dut": 5128, "▁dayus": 5129, "▁doctor": 5130, "▁dulap": 5131, "▁dungis": 5132, "▁durun": 5133, "▁eke": 5134, "▁elifaz": 5135, "▁emp": 5136, "▁edgardo": 5137, "▁efrata": 5138, "▁enos": 5139, "▁familia": 5140, "▁gapus": 5141, "▁gating": 5142, "▁gay": 5143, "▁ging": 5144, "▁gulisak": 5145, "▁gaza": 5146, "▁gagkas": 5147, "▁gubyernu": 5148, "▁hardin": 5149, "▁hel": 5150, "▁hig": 5151, "▁hilario": 5152, "▁itsura": 5153, "▁idng": 5154, "▁imbut": 5155, "▁int": 5156, "▁inta": 5157, "▁inter": 5158, "▁iragsa": 5159, "▁isanu": 5160, "▁ismaelitas": 5161, "▁jael": 5162, "▁july": 5163, "▁kabab": 5164, "▁kabas": 5165, "▁kaguluan": 5166, "▁kalubasan": 5167, "▁kamag": 5168, "▁kamalian": 5169, "▁kamalig": 5170, "▁kan't": 5171, "▁kaparalanan": 5172, "▁kapagsubukan": 5173, "▁kapintasan": 5174, "▁karan": 5175, "▁karen": 5176, "▁kari": 5177, "▁kastila": 5178, "▁katak": 5179, "▁katibayan": 5180, "▁katutubu": 5181, "▁kawangis": 5182, "▁kayab": 5183, "▁kayar": 5184, "▁kayantabe": 5185, "▁kegana": 5186, "▁kem": 5187, "▁kep": 5188, "▁key": 5189, "▁kerubin": 5190, "▁kinawat": 5191, "▁kingkekang": 5192, "▁kingua": 5193, "▁kiniakan": 5194, "▁konner": 5195, "▁kuad": 5196, "▁kub": 5197, "▁kubo": 5198, "▁kurus": 5199, "▁lati": 5200, "▁lili": 5201, "▁lilisia": 5202, "▁lino": 5203, "▁lablab": 5204, "▁lalaw": 5205, "▁lesakan": 5206, "▁libe": 5207, "▁lider": 5208, "▁limbug": 5209, "▁lingunan": 5210, "▁linsut": 5211, "▁lov": 5212, "▁luclukan": 5213, "▁luid": 5214, "▁lugod": 5215, "▁mamatawad": 5216, "▁mayaus": 5217, "▁mulang": 5218, "▁maingat": 5219, "▁mabalakat": 5220, "▁mabaldug": 5221, "▁mabiasa": 5222, "▁madalumdum": 5223, "▁magk": 5224, "▁maglasak": 5225, "▁magmay": 5226, "▁magpalimus": 5227, "▁makam": 5228, "▁makutud": 5229, "▁makauna": 5230, "▁makabuklat": 5231, "▁makakera": 5232, "▁makarayu": 5233, "▁makasand": 5234, "▁makatud": 5235, "▁makatuki": 5236, "▁makayama": 5237, "▁makipanuknangan": 5238, "▁malalaso": 5239, "▁maminyag": 5240, "▁mamirapal": 5241, "▁mamiru": 5242, "▁mamusan": 5243, "▁manal": 5244, "▁manan": 5245, "▁maningning": 5246, "▁manuc": 5247, "▁mangasanting": 5248, "▁mangut": 5249, "▁mangaslak": 5250, "▁maniabing": 5251, "▁manuala": 5252, "▁maples": 5253, "▁mapalad": 5254, "▁mapanlaban": 5255, "▁mararamdam": 5256, "▁marine": 5257, "▁masabal": 5258, "▁masama": 5259, "▁maski": 5260, "▁maskup": 5261, "▁masus": 5262, "▁matbud": 5263, "▁matilo": 5264, "▁matim": 5265, "▁matutula": 5266, "▁matinding": 5267, "▁maymut": 5268, "▁mebating": 5269, "▁meman": 5270, "▁menan": 5271, "▁mesa": 5272, "▁megumpisa": 5273, "▁mekabulad": 5274, "▁mekal": 5275, "▁mengab": 5276, "▁mengangas": 5277, "▁meyakit": 5278, "▁mi-": 5279, "▁mierkules": 5280, "▁miwaglit": 5281, "▁mibagsac": 5282, "▁migkamit": 5283, "▁mignasa": 5284, "▁mikakapatad": 5285, "▁minyaul": 5286, "▁mipapak": 5287, "▁mipas": 5288, "▁misas": 5289, "▁miyay": 5290, "▁moniko": 5291, "▁mus": 5292, "▁nana": 5293, "▁naning": 5294, "▁natin": 5295, "▁nino": 5296, "▁na'": 5297, "▁nahor": 5298, "▁neg": 5299, "▁nganing": 5300, "▁ningning": 5301, "▁nuing": 5302, "▁nuka": 5303, "▁opis": 5304, "▁o'bat": 5305, "▁oneng": 5306, "▁only": 5307, "▁ork": 5308, "▁oreb": 5309, "▁pisan": 5310, "▁plan": 5311, "▁pos": 5312, "▁pup": 5313, "▁pusan": 5314, "▁paud": 5315, "▁pabulung": 5316, "▁pagasa": 5317, "▁pag-asa": 5318, "▁pakir": 5319, "▁palma": 5320, "▁palsimi": 5321, "▁palto": 5322, "▁pamim": 5323, "▁pamipan": 5324, "▁pamuntuk": 5325, "▁pamag-alsa": 5326, "▁pamagkasakit": 5327, "▁pamaglakbe": 5328, "▁pamagpaldas": 5329, "▁pamagtapat": 5330, "▁pamakipag": 5331, "▁pamanablas": 5332, "▁pamangalalu": 5333, "▁pamaniakup": 5334, "▁pamibabata": 5335, "▁pamipanuan": 5336, "▁panigapu": 5337, "▁pante": 5338, "▁pang-": 5339, "▁pangabaluan": 5340, "▁pangadi": 5341, "▁pangamanu": 5342, "▁pangil": 5343, "▁pangakabla": 5344, "▁pangapangane": 5345, "▁pangapanlualu": 5346, "▁panualan": 5347, "▁papag": 5348, "▁paruminggu": 5349, "▁paraisa": 5350, "▁parehu": 5351, "▁pasak": 5352, "▁pasari": 5353, "▁paslit": 5354, "▁pawaga": 5355, "▁pedro": 5356, "▁peka-": 5357, "▁pekamasanting": 5358, "▁pepay": 5359, "▁pepainum": 5360, "▁piy": 5361, "▁pikatulan": 5362, "▁pikasaman": 5363, "▁pirakayan": 5364, "▁pisas": 5365, "▁pisiag": 5366, "▁pitatalakaran": 5367, "▁poema": 5368, "▁pugad": 5369, "▁punyal": 5370, "▁rakang": 5371, "▁rakayu": 5372, "▁refaim": 5373, "▁rosas": 5374, "▁sari-s": 5375, "▁satanas": 5376, "▁sela": 5377, "▁sent": 5378, "▁sipag": 5379, "▁sira": 5380, "▁suli": 5381, "▁sac": 5382, "▁sabik": 5383, "▁sadyang": 5384, "▁saling": 5385, "▁salvi": 5386, "▁samut": 5387, "▁santi": 5388, "▁santing": 5389, "▁saslag": 5390, "▁sesar": 5391, "▁siguradu": 5392, "▁sikang": 5393, "▁sindak": 5394, "▁sisi": 5395, "▁stop": 5396, "▁subli": 5397, "▁sugal": 5398, "▁sukal": 5399, "▁suluk": 5400, "▁tind": 5401, "▁tahimik": 5402, "▁tabalu": 5403, "▁tabor": 5404, "▁tabernakulos": 5405, "▁taglus": 5406, "▁taksil": 5407, "▁talag": 5408, "▁talikala": 5409, "▁talnan": 5410, "▁teg": 5411, "▁telaga": 5412, "▁tengalan": 5413, "▁terak": 5414, "▁teraf": 5415, "▁tibu": 5416, "▁timawa": 5417, "▁timbang": 5418, "▁tsonggu": 5419, "▁tuc": 5420, "▁ubud": 5421, "▁um": 5422, "▁ven": 5423, "▁victori": 5424, "▁wasan": 5425, "▁ya'y": 5426, "▁yay": 5427, "▁yantuk": 5428, "▁zibeon": 5429, "▁zeeb": 5430, "▁zoar": 5431, "▁zora": 5432, "'man": 5433, "-agnan": 5434, "-ka": 5435, "-lub": 5436, "-na": 5437, "-sal": 5438, "-bye": 5439, "-kaba": 5440, "-siping": 5441, "23": 5442, "25": 5443, "ahi": 5444, "abad": 5445, "abasan": 5446, "abayan": 5447, "abs": 5448, "abait": 5449, "abijag": 5450, "absyan": 5451, "adua": 5452, "adya": 5453, "agap": 5454, "ago": 5455, "agor": 5456, "agyang": 5457, "agac": 5458, "agacg": 5459, "agoras": 5460, "ajala": 5461, "aking": 5462, "aklung": 5463, "akman": 5464, "akanian": 5465, "aklian": 5466, "aklis": 5467, "akuil": 5468, "alt": 5469, "alaue": 5470, "alagad": 5471, "alagang": 5472, "alanging": 5473, "alasak": 5474, "alesitas": 5475, "aliwas": 5476, "alup": 5477, "alys": 5478, "ambula": 5479, "ampi": 5480, "ampulu": 5481, "amulag": 5482, "anakang": 5483, "andag": 5484, "anding": 5485, "angm": 5486, "angganan": 5487, "anggang": 5488, "anggi": 5489, "anggut": 5490, "angmangan": 5491, "anud": 5492, "anupaya": 5493, "apsap": 5494, "arak": 5495, "asig": 5496, "asyun": 5497, "asac": 5498, "asiun": 5499, "atamung": 5500, "atunan": 5501, "atung": 5502, "ataim": 5503, "atsat": 5504, "atuang": 5505, "awakan": 5506, "awas": 5507, "awakasan": 5508, "aying": 5509, "ayangnan": 5510, "balu": 5511, "bg": 5512, "buntun": 5513, "ba't": 5514, "baitan": 5515, "balita": 5516, "bet": 5517, "berensia": 5518, "bitay": 5519, "bukadkad": 5520, "clan": 5521, "dad": 5522, "dag": 5523, "dilig": 5524, "din": 5525, "dtud": 5526, "duk": 5527, "dut": 5528, "dapot": 5529, "dragoras": 5530, "e-ling": 5531, "ean": 5532, "elihiyun": 5533, "emat": 5534, "end": 5535, "enta": 5536, "enior": 5537, "enora": 5538, "ernan": 5539, "eryo": 5540, "fax": 5541, "faxad": 5542, "galu": 5543, "gulisak": 5544, "gato": 5545, "good": 5546, "holib": 5547, "holibama": 5548, "hova": 5549, "iam": 5550, "iwala": 5551, "iasat": 5552, "ibug": 5553, "igan": 5554, "igut": 5555, "ikakunuan": 5556, "ikat": 5557, "ikasala": 5558, "ilat": 5559, "ilib": 5560, "ilyan": 5561, "imlang": 5562, "inat": 5563, "inda": 5564, "intungul": 5565, "ingil": 5566, "inggitan": 5567, "inist": 5568, "inola": 5569, "insia": 5570, "intab": 5571, "ipagan": 5572, "irasuan": 5573, "isang": 5574, "isuas": 5575, "itla": 5576, "itsura": 5577, "iupan": 5578, "iuwan": 5579, "kaba": 5580, "kaka": 5581, "karan": 5582, "karin": 5583, "katas": 5584, "klak": 5585, "kalingwan": 5586, "kanian": 5587, "kasnuk": 5588, "kol": 5589, "kusad": 5590, "laklak": 5591, "lina": 5592, "long": 5593, "lasing": 5594, "layag": 5595, "layunan": 5596, "luyun": 5597, "luksu": 5598, "may": 5599, "mayap": 5600, "mabilug": 5601, "minung": 5602, "mista": 5603, "nuan": 5604, "nauan": 5605, "naso": 5606, "ngis": 5607, "ota": 5608, "orasan": 5609, "osu": 5610, "pabalu": 5611, "pamu": 5612, "ph": 5613, "piras": 5614, "putung": 5615, "palage": 5616, "panik": 5617, "pangadi": 5618, "paspas": 5619, "patak": 5620, "rosa": 5621, "rasya": 5622, "ree": 5623, "sali": 5624, "sama": 5625, "saman": 5626, "samantala": 5627, "sara": 5628, "sari": 5629, "saw": 5630, "shanty": 5631, "simpan": 5632, "siping": 5633, "sp": 5634, "sum": 5635, "sump": 5636, "sura": 5637, "sabit": 5638, "sias": 5639, "sion": 5640, "simba": 5641, "talang": 5642, "tais": 5643, "tangan": 5644, "tenyente": 5645, "terak": 5646, "thday": 5647, "tibayan": 5648, "tinda": 5649, "tonio": 5650, "tory": 5651, "tulak": 5652, "tulir": 5653, "ufr": 5654, "uclat": 5655, "ugalian": 5656, "ugi": 5657, "ugul": 5658, "ukang": 5659, "uklud": 5660, "ulapo": 5661, "ulayi": 5662, "ulupa": 5663, "umulan": 5664, "unta": 5665, "unung": 5666, "unting": 5667, "uparan": 5668, "uput": 5669, "urang": 5670, "urit": 5671, "usad": 5672, "utgut": 5673, "veo": 5674, "wale": 5675, "yaman": 5676, "yud": 5677, "yac": 5678, "yalben": 5679, "▁29": 5680, "▁39": 5681, "▁aholibama": 5682, "▁aili": 5683, "▁aita": 5684, "▁ayari": 5685, "▁abilang": 5686, "▁aburi": 5687, "▁abalitan": 5688, "▁abitasa": 5689, "▁aclis": 5690, "▁aintindyan": 5691, "▁akayantabe": 5692, "▁alaga": 5693, "▁ale": 5694, "▁alipul": 5695, "▁alkal": 5696, "▁aly": 5697, "▁amalesitas": 5698, "▁amung": 5699, "▁aniu": 5700, "▁antonio": 5701, "▁anamapulu": 5702, "▁anga": 5703, "▁apibule": 5704, "▁apili": 5705, "▁aplaya": 5706, "▁aram": 5707, "▁arfaxad": 5708, "▁aro": 5709, "▁artis": 5710, "▁asna": 5711, "▁atsu": 5712, "▁bapu": 5713, "▁bawal": 5714, "▁bern": 5715, "▁binggitan": 5716, "▁br": 5717, "▁bagyus": 5718, "▁balakang": 5719, "▁balangkas": 5720, "▁banyag": 5721, "▁basura": 5722, "▁batbat": 5723, "▁bayad": 5724, "▁bayi": 5725, "▁bek": 5726, "▁beateriu": 5727, "▁berdug": 5728, "▁besibas": 5729, "▁bignus": 5730, "▁bilus": 5731, "▁birthday": 5732, "▁bisita": 5733, "▁bisni": 5734, "▁bistaman": 5735, "▁bista't": 5736, "▁bubug": 5737, "▁buku": 5738, "▁bukut": 5739, "▁busten": 5740, "▁butil": 5741, "▁crus": 5742, "▁cruz": 5743, "▁dam": 5744, "▁danggut": 5745, "▁disan": 5746, "▁dr": 5747, "▁dug": 5748, "▁darandaman": 5749, "▁dase": 5750, "▁deli": 5751, "▁diego": 5752, "▁digpa": 5753, "▁dit'man": 5754, "▁ditman": 5755, "▁droga": 5756, "▁ebal": 5757, "▁ebang": 5758, "▁eng": 5759, "▁et": 5760, "▁eufr": 5761, "▁ex": 5762, "▁eglon": 5763, "▁eskwela": 5764, "▁fernan": 5765, "▁flor": 5766, "▁filipinu": 5767, "▁gilis": 5768, "▁gmetung": 5769, "▁gran": 5770, "▁gulisac": 5771, "▁gaua": 5772, "▁gasgas": 5773, "▁gastus": 5774, "▁gerar": 5775, "▁grasya": 5776, "▁had": 5777, "▁horeos": 5778, "▁hav": 5779, "▁heneral": 5780, "▁ipan": 5781, "▁itu": 5782, "▁indredus": 5783, "▁ingkeang": 5784, "▁ipanganak": 5785, "▁jardin": 5786, "▁jun": 5787, "▁jesucris": 5788, "▁joas": 5789, "▁kik": 5790, "▁ka-": 5791, "▁kailangang": 5792, "▁kaj": 5793, "▁kaorasan": 5794, "▁kabang-kaba": 5795, "▁kabangal": 5796, "▁kabiguan": 5797, "▁kabigwan": 5798, "▁kakalulwan": 5799, "▁kakewan": 5800, "▁kalagu": 5801, "▁kalimang": 5802, "▁kaluat": 5803, "▁kaluskus": 5804, "▁kalinisan": 5805, "▁kamandag": 5806, "▁kamangmangan": 5807, "▁kamau": 5808, "▁kamumulan": 5809, "▁kamuti": 5810, "▁kamamalu": 5811, "▁kamulal": 5812, "▁kananeo": 5813, "▁kapad": 5814, "▁kapamu": 5815, "▁kapanualan": 5816, "▁kapay": 5817, "▁kapiblas": 5818, "▁kapikakunuan": 5819, "▁kapila": 5820, "▁kapuryan": 5821, "▁kapanalangsangan": 5822, "▁kapanaligan": 5823, "▁kapanusigan": 5824, "▁kapasnauan": 5825, "▁kapatawaran": 5826, "▁kapilas": 5827, "▁kapitung": 5828, "▁karitun": 5829, "▁karug": 5830, "▁karaniuan": 5831, "▁kareta": 5832, "▁kasak": 5833, "▁kasakit": 5834, "▁kasaup": 5835, "▁kasawpan": 5836, "▁kasipagan": 5837, "▁kasul": 5838, "▁kasiping-siping": 5839, "▁kawawakasan": 5840, "▁keb": 5841, "▁kebaitan": 5842, "▁kekaldan": 5843, "▁keraclan": 5844, "▁ketawan": 5845, "▁kikiak": 5846, "▁kikiakan": 5847, "▁kilala": 5848, "▁koya": 5849, "▁kontr": 5850, "▁koral": 5851, "▁kuch": 5852, "▁kukul": 5853, "▁kulum": 5854, "▁kulung": 5855, "▁lambat": 5856, "▁lahat": 5857, "▁lalawigan": 5858, "▁landas": 5859, "▁laruja": 5860, "▁letra": 5861, "▁lien": 5862, "▁libakan": 5863, "▁libu-l": 5864, "▁liryo": 5865, "▁lisya": 5866, "▁lito": 5867, "▁lokal": 5868, "▁loving": 5869, "▁mapatlud": 5870, "▁maya": 5871, "▁mingat": 5872, "▁mr": 5873, "▁mae-ling": 5874, "▁mainge": 5875, "▁maulagang": 5876, "▁mabab": 5877, "▁mabandi": 5878, "▁mabagsik": 5879, "▁magkamali": 5880, "▁magtajimik": 5881, "▁magluat": 5882, "▁magpakasikan": 5883, "▁makabie": 5884, "▁makakul": 5885, "▁makalucluc": 5886, "▁makalungkut": 5887, "▁makagising": 5888, "▁makakalinguan": 5889, "▁makalbug": 5890, "▁makapanuknangan": 5891, "▁makasake": 5892, "▁makatalan": 5893, "▁makayamang": 5894, "▁makayatyat": 5895, "▁makiabe": 5896, "▁makiasawa": 5897, "▁makibandi": 5898, "▁makualta": 5899, "▁malambat": 5900, "▁malasi": 5901, "▁malik": 5902, "▁malumud": 5903, "▁malagua": 5904, "▁malapad": 5905, "▁malualas": 5906, "▁mamajala": 5907, "▁mamunga": 5908, "▁mamut": 5909, "▁mandragoras": 5910, "▁mania": 5911, "▁mangul": 5912, "▁maplas": 5913, "▁mapuri": 5914, "▁mapupupus": 5915, "▁maputla": 5916, "▁marakap": 5917, "▁masam": 5918, "▁masapsap": 5919, "▁masas": 5920, "▁masiglang": 5921, "▁matat": 5922, "▁matig": 5923, "▁maybe": 5924, "▁maygit": 5925, "▁meakua": 5926, "▁meari": 5927, "▁meaus": 5928, "▁melag": 5929, "▁mesabi": 5930, "▁metak": 5931, "▁metudtud": 5932, "▁meuala": 5933, "▁meyari": 5934, "▁mebaldug": 5935, "▁mebalung": 5936, "▁mebinang": 5937, "▁mebung": 5938, "▁mekakit": 5939, "▁mekap": 5940, "▁meki": 5941, "▁melikid": 5942, "▁melaun": 5943, "▁melasing": 5944, "▁melaso": 5945, "▁menintun": 5946, "▁mengamanu": 5947, "▁mengamate": 5948, "▁mengas": 5949, "▁metuli": 5950, "▁meto-": 5951, "▁mig-": 5952, "▁migd": 5953, "▁migsalita": 5954, "▁migtaksil": 5955, "▁mikal": 5956, "▁mikib": 5957, "▁milag": 5958, "▁milulupa": 5959, "▁minamayap": 5960, "▁minist": 5961, "▁mipap": 5962, "▁mipapag": 5963, "▁mipaiglip": 5964, "▁mirar": 5965, "▁misusumangid": 5966, "▁mitnube": 5967, "▁miyaliwa": 5968, "▁miyaliuang": 5969, "▁moabitas": 5970, "▁mura": 5971, "▁mukiat": 5972, "▁mulajan": 5973, "▁munag": 5974, "▁munye": 5975, "▁myaliwa": 5976, "▁n'": 5977, "▁nam": 5978, "▁nas": 5979, "▁nim": 5980, "▁nin": 5981, "▁nyang": 5982, "▁negos": 5983, "▁ngen": 5984, "▁ngulangul": 5985, "▁oita": 5986, "▁onan": 5987, "▁oliv": 5988, "▁ortel": 5989, "▁orkestra": 5990, "▁oyni": 5991, "▁palan": 5992, "▁palual": 5993, "▁peleg": 5994, "▁ping": 5995, "▁pirait": 5996, "▁pulis": 5997, "▁put": 5998, "▁pacpac": 5999, "▁paintungul": 6000, "▁pawa": 6001, "▁pabanglu": 6002, "▁padurut": 6003, "▁pakas": 6004, "▁pakis": 6005, "▁pakibaluan": 6006, "▁palpikasala": 6007, "▁pamalac": 6008, "▁pamanan": 6009, "▁pamagbayu": 6010, "▁pamagligtas": 6011, "▁pamagpal": 6012, "▁pamagtagumpe": 6013, "▁pamagdili-dili": 6014, "▁pamalsing": 6015, "▁pamalsintang": 6016, "▁pamanalipit": 6017, "▁pamanigapu": 6018, "▁pamanyal": 6019, "▁pamangulila": 6020, "▁pamanyumpa": 6021, "▁pamibulebule": 6022, "▁pamigaganaka": 6023, "▁pamikit": 6024, "▁pamipasalamat": 6025, "▁pamipatutu": 6026, "▁panagimpan": 6027, "▁panagkas": 6028, "▁panaligan": 6029, "▁panti": 6030, "▁panandam": 6031, "▁pangabijag": 6032, "▁pangag": 6033, "▁panginu": 6034, "▁pangabilian": 6035, "▁pangalbug": 6036, "▁pangayalipan": 6037, "▁pangayaliua": 6038, "▁panyulung": 6039, "▁parnaso": 6040, "▁parulang": 6041, "▁pasalikut": 6042, "▁pasig": 6043, "▁paskual": 6044, "▁patag": 6045, "▁patas": 6046, "▁patti": 6047, "▁pegumasdan": 6048, "▁pemungkasian": 6049, "▁peninap": 6050, "▁penu": 6051, "▁pepayaus": 6052, "▁perlas": 6053, "▁pesipam": 6054, "▁pibale-bale": 6055, "▁pilac": 6056, "▁piling": 6057, "▁pilmi": 6058, "▁pilos": 6059, "▁pirake": 6060, "▁pisak": 6061, "▁pitnubayan": 6062, "▁poti": 6063, "▁presid": 6064, "▁prinsipe": 6065, "▁probinsia": 6066, "▁progres": 6067, "▁puga": 6068, "▁punta": 6069, "▁ram": 6070, "▁reberensia": 6071, "▁selah": 6072, "▁silo": 6073, "▁sini": 6074, "▁sukl": 6075, "▁sulung": 6076, "▁sunu": 6077, "▁sagakgak": 6078, "▁sakung": 6079, "▁salikap": 6080, "▁salilung": 6081, "▁salmista": 6082, "▁sasal": 6083, "▁sea": 6084, "▁seda": 6085, "▁seganan": 6086, "▁selabat": 6087, "▁siasat": 6088, "▁siwal": 6089, "▁siclong": 6090, "▁sigalut": 6091, "▁sige": 6092, "▁siglo": 6093, "▁sinai": 6094, "▁suksuk": 6095, "▁sulapo": 6096, "▁supil": 6097, "▁tayang": 6098, "▁tinola": 6099, "▁tong": 6100, "▁tonu": 6101, "▁tur": 6102, "▁tacba": 6103, "▁talukab": 6104, "▁tandanan": 6105, "▁tandang": 6106, "▁tangis": 6107, "▁tem": 6108, "▁tibuk": 6109, "▁tikal": 6110, "▁tiktak": 6111, "▁tipa": 6112, "▁tsinu": 6113, "▁tunggal-tunggal": 6114, "▁ugun": 6115, "▁ulign": 6116, "▁uliran": 6117, "▁ulu": 6118, "▁victory": 6119, "▁wala": 6120, "▁walung": 6121, "▁york": 6122, "▁yumu": 6123, "▁yaduan": 6124, "▁yamut": 6125, "▁year": 6126, "-abe": 6127, "-amas": 6128, "-ing": 6129, "-labis": 6130, "-malat": 6131, "-palad": 6132, "-r": 6133, "-takut": 6134, "-bal": 6135, "-ban": 6136, "-gana": 6137, "-gilead": 6138, "-lunus": 6139, "-mni": 6140, "-pe": 6141, "-sape": 6142, "-susun": 6143, "ah": 6144, "ao": 6145, "auad": 6146, "abatan": 6147, "abisabi": 6148, "abusta": 6149, "abante": 6150, "abid": 6151, "adam": 6152, "adsad": 6153, "aglus": 6154, "agn": 6155, "agpang": 6156, "aganap": 6157, "agatpanapun": 6158, "agulan": 6159, "akli": 6160, "aksing": 6161, "aktak": 6162, "akauani": 6163, "akalinguan": 6164, "akasakit": 6165, "akuyad": 6166, "akupad": 6167, "alben": 6168, "albug": 6169, "alil": 6170, "alaad": 6171, "alagas": 6172, "alagiuwan": 6173, "alalel": 6174, "alamang": 6175, "alasing": 6176, "aldac": 6177, "aligo": 6178, "alikan": 6179, "alikutan": 6180, "amaran": 6181, "amsam": 6182, "amas-amas": 6183, "ampas": 6184, "ampun": 6185, "animal": 6186, "antug": 6187, "angap": 6188, "angka": 6189, "anglung": 6190, "apis": 6191, "apuan": 6192, "apulung": 6193, "apwak": 6194, "apaslan": 6195, "apastanganan": 6196, "apunan": 6197, "arit": 6198, "arok": 6199, "artel": 6200, "araptanan": 6201, "asinta": 6202, "aslam": 6203, "asuc": 6204, "asanmetung": 6205, "atlu": 6206, "atyu": 6207, "awu": 6208, "awul": 6209, "ayari": 6210, "ayid": 6211, "ayng": 6212, "ayaninag": 6213, "ayapang": 6214, "bablas": 6215, "barug": 6216, "batio": 6217, "bid": 6218, "bil": 6219, "bre": 6220, "balen": 6221, "balaus": 6222, "bansag": 6223, "bath": 6224, "beep": 6225, "bisyu": 6226, "bitin": 6227, "boim": 6228, "brador": 6229, "buat": 6230, "busni": 6231, "chtam": 6232, "dagdag": 6233, "dalakit": 6234, "daya": 6235, "dayu": 6236, "diria": 6237, "dit": 6238, "dua": 6239, "dulung": 6240, "dun": 6241, "durut": 6242, "dyos": 6243, "dareta": 6244, "diz": 6245, "dok": 6246, "dorla": 6247, "dorlaom": 6248, "dorlaomer": 6249, "drung": 6250, "e-sape": 6251, "elas": 6252, "enat": 6253, "eral": 6254, "es-gilead": 6255, "esday": 6256, "ess": 6257, "fe": 6258, "fo": 6259, "gasu": 6260, "gf": 6261, "gulat": 6262, "gulis": 6263, "galing": 6264, "ganap": 6265, "guyud": 6266, "hab": 6267, "hag": 6268, "hat": 6269, "hhe": 6270, "hn": 6271, "hheth": 6272, "himikan": 6273, "iayan": 6274, "ies": 6275, "iasawa": 6276, "ibabatan": 6277, "iban": 6278, "ibandian": 6279, "ibulebule": 6280, "icdo": 6281, "iclod": 6282, "idatu": 6283, "ids": 6284, "ieve": 6285, "iglan": 6286, "igpit": 6287, "ikad": 6288, "ikasan": 6289, "ilalang": 6290, "ilibust": 6291, "imalan": 6292, "imi": 6293, "imikan": 6294, "imir": 6295, "imbentu": 6296, "imbaua": 6297, "impis": 6298, "ining": 6299, "indac": 6300, "indat": 6301, "ingun": 6302, "inistilan": 6303, "inoam": 6304, "inting": 6305, "intulid": 6306, "ipang": 6307, "ipo": 6308, "ipus": 6309, "isn": 6310, "isud": 6311, "iswas": 6312, "itika": 6313, "itng": 6314, "itngit": 6315, "iualan": 6316, "je": 6317, "jel": 6318, "jing": 6319, "jimikan": 6320, "kablas": 6321, "kak": 6322, "kami": 6323, "karing": 6324, "kata": 6325, "katu": 6326, "ken": 6327, "kis": 6328, "ks": 6329, "kula": 6330, "kaili": 6331, "kaul": 6332, "kabud": 6333, "kalab": 6334, "kamalan": 6335, "kant": 6336, "kare": 6337, "karelang": 6338, "kolati": 6339, "kupas": 6340, "kulkul": 6341, "kultura": 6342, "lame": 6343, "langan": 6344, "layan": 6345, "lele": 6346, "limp": 6347, "lindayug": 6348, "lua": 6349, "lumud": 6350, "lau": 6351, "labug": 6352, "lapsu": 6353, "lasiun": 6354, "lema": 6355, "liwan": 6356, "limang": 6357, "lupung": 6358, "mg": 6359, "mim": 6360, "mip": 6361, "main": 6362, "makapag": 6363, "malun": 6364, "mania": 6365, "mega": 6366, "meo": 6367, "mulal": 6368, "mulala": 6369, "nay": 6370, "non": 6371, "naz": 6372, "nasang": 6373, "ngaku": 6374, "olu": 6375, "okuan": 6376, "oria": 6377, "ortan": 6378, "oses": 6379, "oth": 6380, "otsi": 6381, "otu": 6382, "otamia": 6383, "pab": 6384, "pakan": 6385, "pasa": 6386, "pela": 6387, "per": 6388, "peta": 6389, "pili": 6390, "ping": 6391, "pusu": 6392, "pusung": 6393, "pacde": 6394, "pagal": 6395, "palabas": 6396, "palsinta": 6397, "paralampu": 6398, "pastul": 6399, "pasyag": 6400, "pek": 6401, "pota": 6402, "psup": 6403, "punla": 6404, "ral": 6405, "rid": 6406, "ring": 6407, "rung": 6408, "read": 6409, "rek": 6410, "ress": 6411, "risataim": 6412, "salang": 6413, "salangsang": 6414, "sarul": 6415, "seru": 6416, "sian": 6417, "sun": 6418, "sunu": 6419, "sagana": 6420, "sagip": 6421, "saksi": 6422, "salubung": 6423, "samut": 6424, "samba": 6425, "santing": 6426, "silb": 6427, "silyo": 6428, "solasiun": 6429, "suc": 6430, "tand": 6431, "til": 6432, "tos": 6433, "tuburan": 6434, "tulid": 6435, "tulu": 6436, "taid": 6437, "taol": 6438, "tauli": 6439, "talusad": 6440, "tangal": 6441, "tarot": 6442, "tashheth": 6443, "ticdo": 6444, "tip": 6445, "tipas": 6446, "timore": 6447, "tuc": 6448, "ubal": 6449, "ubuslan": 6450, "udta": 6451, "udturan": 6452, "ugali": 6453, "ugo": 6454, "ukasan": 6455, "uklas": 6456, "ukpuk": 6457, "uksu": 6458, "ukulan": 6459, "ulag": 6460, "ulagan": 6461, "ulam": 6462, "umbayan": 6463, "umbe": 6464, "umeru": 6465, "umpisan": 6466, "undung": 6467, "ungge": 6468, "untalan": 6469, "urs": 6470, "urul": 6471, "urup": 6472, "ureado": 6473, "uruc": 6474, "us-palad": 6475, "usisa": 6476, "usgus": 6477, "usuc": 6478, "utungan": 6479, "valys": 6480, "varra": 6481, "wakas": 6482, "wari": 6483, "westu": 6484, "wi": 6485, "wing": 6486, "wa'na": 6487, "welu": 6488, "yeru": 6489, "yong": 6490, "yug": 6491, "yahi": 6492, "yawan": 6493, "yuwan": 6494, "zon": 6495, "▁31": 6496, "▁35": 6497, "▁36": 6498, "▁a-": 6499, "▁adi": 6500, "▁aisip": 6501, "▁abad": 6502, "▁abandi": 6503, "▁abinoam": 6504, "▁abo": 6505, "▁aburianan": 6506, "▁adma": 6507, "▁agaua": 6508, "▁agkat": 6509, "▁agta": 6510, "▁agnan-agnan": 6511, "▁akab": 6512, "▁akbung": 6513, "▁akino": 6514, "▁aklat": 6515, "▁akmul": 6516, "▁akwang": 6517, "▁akasaman": 6518, "▁albin": 6519, "▁alimbawa": 6520, "▁alipit": 6521, "▁alp": 6522, "▁alub": 6523, "▁alawe": 6524, "▁alemania": 6525, "▁alisus": 6526, "▁amlat": 6527, "▁amyam": 6528, "▁angjel": 6529, "▁anggiang": 6530, "▁apil": 6531, "▁aplit": 6532, "▁april": 6533, "▁apaninap": 6534, "▁apialas": 6535, "▁artista": 6536, "▁ash": 6537, "▁asilip": 6538, "▁asin": 6539, "▁asinta": 6540, "▁asagka": 6541, "▁atag": 6542, "▁atangalan": 6543, "▁atipun": 6544, "▁atsi": 6545, "▁bida": 6546, "▁bilug": 6547, "▁bless": 6548, "▁bwak": 6549, "▁baalim": 6550, "▁bagahi": 6551, "▁bagumbayan": 6552, "▁balisa": 6553, "▁baltimore": 6554, "▁balikid": 6555, "▁bandila": 6556, "▁bangsa": 6557, "▁banyagang": 6558, "▁baril": 6559, "▁barkada": 6560, "▁barong": 6561, "▁baru": 6562, "▁basemat": 6563, "▁beit": 6564, "▁beitan": 6565, "▁belik": 6566, "▁bernard": 6567, "▁betel": 6568, "▁beytan": 6569, "▁biri": 6570, "▁bitbit": 6571, "▁buak": 6572, "▁buyut": 6573, "▁bundok": 6574, "▁busil": 6575, "▁buslu": 6576, "▁butang": 6577, "▁damp": 6578, "▁damulag": 6579, "▁dayi": 6580, "▁dip": 6581, "▁don": 6582, "▁dpa": 6583, "▁dy": 6584, "▁dyan": 6585, "▁daig": 6586, "▁dakata": 6587, "▁dakpan": 6588, "▁dalan-d": 6589, "▁deang": 6590, "▁dekap": 6591, "▁denas": 6592, "▁diua": 6593, "▁digdag": 6594, "▁digma": 6595, "▁digsu": 6596, "▁dilag": 6597, "▁dimpa": 6598, "▁dimput": 6599, "▁dine": 6600, "▁dinwang": 6601, "▁disiplina": 6602, "▁dito": 6603, "▁domingo": 6604, "▁dungan": 6605, "▁dungdung": 6606, "▁eta": 6607, "▁e'ku": 6608, "▁e'ne": 6609, "▁efod": 6610, "▁elon": 6611, "▁ely": 6612, "▁eskol": 6613, "▁estaol": 6614, "▁filibust": 6615, "▁filistia": 6616, "▁galaad": 6617, "▁galing": 6618, "▁gana": 6619, "▁gar": 6620, "▁gf": 6621, "▁gising": 6622, "▁gunting": 6623, "▁gaal": 6624, "▁gaglas": 6625, "▁gevarra": 6626, "▁general": 6627, "▁giunu": 6628, "▁gilisac": 6629, "▁gubat": 6630, "▁hap": 6631, "▁hily": 6632, "▁him": 6633, "▁hus": 6634, "▁hehova": 6635, "▁heveo": 6636, "▁hebreo": 6637, "▁hermon": 6638, "▁higera": 6639, "▁iwasan": 6640, "▁iba": 6641, "▁ibigkas": 6642, "▁ikat": 6643, "▁ika'ng": 6644, "▁ingkung": 6645, "▁inglis": 6646, "▁inspiras": 6647, "▁intsic": 6648, "▁ipal": 6649, "▁istoria": 6650, "▁iyampang": 6651, "▁jar": 6652, "▁jok": 6653, "▁jotam": 6654, "▁jr": 6655, "▁jabes-gilead": 6656, "▁jebuseos": 6657, "▁jeriko": 6658, "▁kig": 6659, "▁kirut": 6660, "▁kotsi": 6661, "▁kwalta": 6662, "▁kaisip": 6663, "▁kaulaga": 6664, "▁kauli": 6665, "▁kauran": 6666, "▁kausukan": 6667, "▁kabag": 6668, "▁kabat": 6669, "▁kabel": 6670, "▁kabis": 6671, "▁kablas": 6672, "▁kabubuslan": 6673, "▁kabukasan": 6674, "▁kababayangnan": 6675, "▁kadalagnan": 6676, "▁kaisanuman": 6677, "▁kaisanumang": 6678, "▁kakampi": 6679, "▁kakubo": 6680, "▁kalabi": 6681, "▁kalag": 6682, "▁kaleb": 6683, "▁kalikasan": 6684, "▁kalingwan": 6685, "▁kalis": 6686, "▁kalokuan": 6687, "▁kalunus": 6688, "▁kalutu": 6689, "▁kalarawan": 6690, "▁kambil": 6691, "▁kamel": 6692, "▁kaministilan": 6693, "▁kamua": 6694, "▁kaniang": 6695, "▁kaniglan": 6696, "▁kant": 6697, "▁kantu": 6698, "▁kanwan": 6699, "▁kanga": 6700, "▁kapait": 6701, "▁kapibabatan": 6702, "▁kapirasu": 6703, "▁kapus-palad": 6704, "▁kapagmas": 6705, "▁kapanintunan": 6706, "▁kapantasan": 6707, "▁kaparang-tau": 6708, "▁kaparusan": 6709, "▁karangal": 6710, "▁karangalan": 6711, "▁kasa": 6712, "▁kasaya": 6713, "▁kasw": 6714, "▁kasalesayan": 6715, "▁kasebyan": 6716, "▁kasuywan": 6717, "▁kasulatan": 6718, "▁katunayan": 6719, "▁katahimikan": 6720, "▁kataimikan": 6721, "▁katiwal": 6722, "▁katiwangan": 6723, "▁kawal": 6724, "▁kayadu": 6725, "▁kayag": 6726, "▁kayangganan": 6727, "▁kayay": 6728, "▁kayabakan": 6729, "▁kayaryan": 6730, "▁kebat": 6731, "▁kedorlaomer": 6732, "▁keinan": 6733, "▁keliwan": 6734, "▁kenaz": 6735, "▁kesu": 6736, "▁kegana-gana": 6737, "▁kelso": 6738, "▁kilal": 6739, "▁kilkul": 6740, "▁kineo": 6741, "▁kobrador": 6742, "▁kol": 6743, "▁konsolasiun": 6744, "▁konsep": 6745, "▁kuartel": 6746, "▁kuentu": 6747, "▁kup": 6748, "▁kusan": 6749, "▁kuadrung": 6750, "▁kukulisak": 6751, "▁kulayu": 6752, "▁kuldun": 6753, "▁kulumbu": 6754, "▁kumusta": 6755, "▁kumpari": 6756, "▁kwar": 6757, "▁lalang": 6758, "▁lambing": 6759, "▁lambis": 6760, "▁lan": 6761, "▁lana": 6762, "▁langi": 6763, "▁late": 6764, "▁lindayug": 6765, "▁lisa": 6766, "▁labing-": 6767, "▁labingaduang": 6768, "▁labis-labis": 6769, "▁lagio": 6770, "▁lalbug": 6771, "▁lande": 6772, "▁lasun": 6773, "▁leb": 6774, "▁lehi": 6775, "▁lesak": 6776, "▁lidlad": 6777, "▁lienzo": 6778, "▁likas": 6779, "▁liklak": 6780, "▁likluk": 6781, "▁liliwan": 6782, "▁litid": 6783, "▁lumwal": 6784, "▁lunas": 6785, "▁mari": 6786, "▁mibulebule": 6787, "▁mita": 6788, "▁main": 6789, "▁maitsura": 6790, "▁mabanglung": 6791, "▁mabub": 6792, "▁macpela": 6793, "▁madrid": 6794, "▁magl": 6795, "▁magsadya": 6796, "▁magwagi": 6797, "▁mag-ari": 6798, "▁magmayabang": 6799, "▁magpakat": 6800, "▁magpatawe": 6801, "▁mahalalel": 6802, "▁makalasing": 6803, "▁makamal": 6804, "▁makamat": 6805, "▁makasaup": 6806, "▁makaw": 6807, "▁makawili": 6808, "▁makayantabe": 6809, "▁makil": 6810, "▁maklak": 6811, "▁makabalut": 6812, "▁makabante": 6813, "▁makaburul": 6814, "▁makadangat": 6815, "▁makakulurun": 6816, "▁makalinguan": 6817, "▁makalto": 6818, "▁makalub": 6819, "▁makamulang": 6820, "▁makapad": 6821, "▁makapas": 6822, "▁makasal": 6823, "▁makatal": 6824, "▁makatul": 6825, "▁makatula": 6826, "▁makayaliua": 6827, "▁makibale": 6828, "▁makitid": 6829, "▁malakwan": 6830, "▁malambing": 6831, "▁malingasngas": 6832, "▁malsintang": 6833, "▁malukang": 6834, "▁malyap": 6835, "▁malagawa": 6836, "▁malamarine": 6837, "▁malamlam": 6838, "▁malikmata": 6839, "▁mamit": 6840, "▁mamum": 6841, "▁mamunag": 6842, "▁manig": 6843, "▁manalese": 6844, "▁mangalakal": 6845, "▁mangamanu": 6846, "▁mangari": 6847, "▁mangilabut": 6848, "▁mangisnaua": 6849, "▁mangumpisal": 6850, "▁mangaina": 6851, "▁mangaintulid": 6852, "▁mangataba": 6853, "▁mangataram": 6854, "▁mapupus": 6855, "▁mapaglaban": 6856, "▁mapamiglang": 6857, "▁masag": 6858, "▁masolu": 6859, "▁masalpak": 6860, "▁masamyu": 6861, "▁matal": 6862, "▁matalas": 6863, "▁matamle": 6864, "▁maten": 6865, "▁matusalem": 6866, "▁mayari": 6867, "▁mayayalipit": 6868, "▁meakit": 6869, "▁mebang": 6870, "▁mepatad": 6871, "▁meya": 6872, "▁mebi": 6873, "▁mebisa": 6874, "▁megi": 6875, "▁megisan": 6876, "▁mekapag": 6877, "▁mekisabi": 6878, "▁mekit": 6879, "▁mekulung": 6880, "▁melakwan": 6881, "▁melisuas": 6882, "▁memag": 6883, "▁memintu": 6884, "▁menalangin": 6885, "▁menaliwang": 6886, "▁menic": 6887, "▁meniwala": 6888, "▁mengapali": 6889, "▁mepili": 6890, "▁mepanako": 6891, "▁meramdam": 6892, "▁mesambut": 6893, "▁miamas-amas": 6894, "▁michtam": 6895, "▁mibagsak": 6896, "▁mibayit": 6897, "▁mibuclat": 6898, "▁migpal": 6899, "▁migpat": 6900, "▁migpabusta": 6901, "▁mikan": 6902, "▁mikatagun": 6903, "▁mikaanak": 6904, "▁milka": 6905, "▁mini": 6906, "▁mipakayap": 6907, "▁mipakilala": 6908, "▁mipar": 6909, "▁mipunta": 6910, "▁mipaltutu": 6911, "▁miragdag": 6912, "▁miragdagan": 6913, "▁misalbag": 6914, "▁misis": 6915, "▁mitakpan": 6916, "▁mitisud": 6917, "▁mitsa": 6918, "▁miyabe": 6919, "▁mortal": 6920, "▁mupin": 6921, "▁mupul": 6922, "▁muse": 6923, "▁musmus": 6924, "▁nieve": 6925, "▁nini": 6926, "▁nng": 6927, "▁nau": 6928, "▁nakatang": 6929, "▁ngungut": 6930, "▁ninoy": 6931, "▁nue": 6932, "▁nungninu": 6933, "▁obat": 6934, "▁omega": 6935, "▁ong": 6936, "▁over": 6937, "▁ofra": 6938, "▁olivo": 6939, "▁orian": 6940, "▁oreti": 6941, "▁oyta": 6942, "▁pia": 6943, "▁pibata": 6944, "▁pibule": 6945, "▁punt": 6946, "▁pure": 6947, "▁pa't": 6948, "▁painaua": 6949, "▁paintunan": 6950, "▁pabulan": 6951, "▁paburean": 6952, "▁pagan": 6953, "▁pagano": 6954, "▁pagsubuk": 6955, "▁pakayapan": 6956, "▁pakli": 6957, "▁pakpak": 6958, "▁palas": 6959, "▁palasio": 6960, "▁palit": 6961, "▁pamilia": 6962, "▁pamagalsa": 6963, "▁pamagkamali": 6964, "▁pamaglakad": 6965, "▁pamagnasa": 6966, "▁pamaglame": 6967, "▁pamamasa": 6968, "▁pamamirait": 6969, "▁pamanamdam": 6970, "▁pamanuki": 6971, "▁pamanungkulan": 6972, "▁pamanudtud": 6973, "▁pamanumis": 6974, "▁pamanupad": 6975, "▁pamanyulat": 6976, "▁pamanyalit": 6977, "▁pami-": 6978, "▁pamibalik": 6979, "▁pamigunam": 6980, "▁pamikakunu": 6981, "▁pamimirasuan": 6982, "▁pamipante": 6983, "▁panakit": 6984, "▁pandareta": 6985, "▁panibalan": 6986, "▁panig": 6987, "▁pangabait": 6988, "▁pangagatpanapun": 6989, "▁pangapat": 6990, "▁pangisnaua": 6991, "▁pangaabak": 6992, "▁panga-animal": 6993, "▁pangabili": 6994, "▁pangalabas": 6995, "▁pangatudtud": 6996, "▁pangayari": 6997, "▁panginuan": 6998, "▁paniulung": 6999, "▁papal": 7000, "▁papel": 7001, "▁papiglo": 7002, "▁papagtibayan": 7003, "▁parada": 7004, "▁paranum": 7005, "▁parul": 7006, "▁pasanting": 7007, "▁pasil": 7008, "▁paslu": 7009, "▁pasyal": 7010, "▁pasakdalan": 7011, "▁pataram": 7012, "▁patubu": 7013, "▁patupad": 7014, "▁pawing": 7015, "▁payul": 7016, "▁pedrung": 7017, "▁pemal": 7018, "▁pesi": 7019, "▁pesus": 7020, "▁pegumpisan": 7021, "▁pekamal": 7022, "▁pekaman": 7023, "▁pekas": 7024, "▁peki": 7025, "▁pelalung": 7026, "▁pemutut": 7027, "▁penabilin": 7028, "▁penaral": 7029, "▁penins": 7030, "▁penuknanganan": 7031, "▁penuel": 7032, "▁pepadala": 7033, "▁pepag": 7034, "▁pepasikan": 7035, "▁pepalino": 7036, "▁perdiz": 7037, "▁pesitalakad": 7038, "▁piyalung": 7039, "▁pigkait": 7040, "▁pipapaslan": 7041, "▁pisga": 7042, "▁pitungpulu": 7043, "▁piyesta": 7044, "▁potifar": 7045, "▁presidenti": 7046, "▁propeta": 7047, "▁programa": 7048, "▁puestu": 7049, "▁pusad": 7050, "▁pusu't": 7051, "▁reu": 7052, "▁reyes": 7053, "▁rosario": 7054, "▁sanu": 7055, "▁senior": 7056, "▁senora": 7057, "▁sera": 7058, "▁shanty": 7059, "▁solo": 7060, "▁sus": 7061, "▁swe": 7062, "▁syam": 7063, "▁saug": 7064, "▁sabbath": 7065, "▁sabing": 7066, "▁sagr": 7067, "▁salamin": 7068, "▁salun": 7069, "▁sale-mni": 7070, "▁samas": 7071, "▁sambitan": 7072, "▁santos": 7073, "▁sangkap": 7074, "▁sasyo": 7075, "▁saserdoti": 7076, "▁sawil": 7077, "▁seba": 7078, "▁selikut": 7079, "▁serya": 7080, "▁setro": 7081, "▁ship": 7082, "▁sion": 7083, "▁sibli": 7084, "▁sidon": 7085, "▁sigaril": 7086, "▁sigmit": 7087, "▁sikapulu": 7088, "▁sikasu": 7089, "▁sikwil": 7090, "▁sikuil": 7091, "▁simpan": 7092, "▁simsam": 7093, "▁siniro": 7094, "▁sipin": 7095, "▁sisilim": 7096, "▁sitsit": 7097, "▁sity": 7098, "▁subic": 7099, "▁sugi": 7100, "▁suklati": 7101, "▁suluc": 7102, "▁sunlag": 7103, "▁sunde-sape": 7104, "▁suput": 7105, "▁takap": 7106, "▁tit": 7107, "▁tom": 7108, "▁tot": 7109, "▁tubu": 7110, "▁tupad": 7111, "▁taiktik": 7112, "▁tabing": 7113, "▁tagkil": 7114, "▁talabante": 7115, "▁talap": 7116, "▁talik": 7117, "▁talino": 7118, "▁talus": 7119, "▁taladalit": 7120, "▁tanam": 7121, "▁tawli": 7122, "▁tekas": 7123, "▁tenakan": 7124, "▁terminung": 7125, "▁terafim": 7126, "▁this": 7127, "▁thread": 7128, "▁them": 7129, "▁tibubus": 7130, "▁tiburan": 7131, "▁tikian": 7132, "▁tikus": 7133, "▁timyas": 7134, "▁tinda": 7135, "▁tingga": 7136, "▁trigu": 7137, "▁troy": 7138, "▁tuktuk": 7139, "▁tulisan": 7140, "▁tula't": 7141, "▁uanan": 7142, "▁ubas": 7143, "▁umis": 7144, "▁una": 7145, "▁ung": 7146, "▁ulam": 7147, "▁upon": 7148, "▁wawa": 7149, "▁wari't": 7150, "▁yabe": 7151, "▁yaman": 7152, "▁yapa": 7153, "▁yausan": 7154, "▁yawat": 7155, "▁yapse": 7156, "▁yatyat": 7157, "▁zer": 7158, "▁zoilo": 7159, "'nang": 7160, "'ne": 7161, "'no": 7162, "'nong": 7163, "'s": 7164, "'wala": 7165, "-a": 7166, "-ari": 7167, "-de": 7168, "-dios": 7169, "-e": 7170, "-kal": 7171, "-kamalan": 7172, "-katasan": 7173, "-lakad": 7174, "-sa": 7175, "-ul": 7176, "-und": 7177, "-banua": 7178, "-dapat": 7179, "-diling": 7180, "-durut": 7181, "-diosan": 7182, "-lating": 7183, "-pam": 7184, "-pil": 7185, "-pante": 7186, "-peor": 7187, "-tabug": 7188, "-tam": 7189, "-tidua": 7190, "38": 7191, "ahas": 7192, "ail": 7193, "aila": 7194, "augalian": 7195, "abis": 7196, "abun": 7197, "abalisa": 7198, "abangnan": 7199, "abiayan": 7200, "agsik": 7201, "agtas": 7202, "agun": 7203, "agut": 7204, "agyu": 7205, "agacgac": 7206, "agpuan": 7207, "aguanta": 7208, "ainawa": 7209, "ajalan": 7210, "akamal": 7211, "akbang": 7212, "akle": 7213, "aktangan": 7214, "akwil": 7215, "akasala": 7216, "akitanan": 7217, "aklo": 7218, "aklut": 7219, "akutkut": 7220, "alala": 7221, "alapac": 7222, "alawayan": 7223, "alita": 7224, "alng": 7225, "alpa": 7226, "alpak": 7227, "alsinta": 7228, "alubung": 7229, "alaus": 7230, "alage": 7231, "alagwa": 7232, "alamin": 7233, "alansan": 7234, "aliw": 7235, "aligid": 7236, "aligtad": 7237, "alikabuc": 7238, "alipitan": 7239, "alipusta": 7240, "alungat": 7241, "amalan": 7242, "amen": 7243, "amg": 7244, "amua": 7245, "amal-kamalan": 7246, "amanti": 7247, "amanuan": 7248, "amialung": 7249, "ampagang": 7250, "ampon": 7251, "ampulung": 7252, "ampangang": 7253, "ampulu't": 7254, "amuan": 7255, "anagana": 7256, "anari": 7257, "anasan": 7258, "ando": 7259, "anitu": 7260, "anaun": 7261, "andil": 7262, "andiluan": 7263, "angad": 7264, "anggan": 7265, "angalugud": 7266, "apil": 7267, "aplak": 7268, "aplit": 7269, "apn": 7270, "apsal": 7271, "apse": 7272, "apung": 7273, "aput": 7274, "apakibat": 7275, "apalyari": 7276, "apat-dapat": 7277, "apitung": 7278, "arim": 7279, "ark": 7280, "arokan": 7281, "art": 7282, "aruan": 7283, "arusa": 7284, "arya": 7285, "aranunan": 7286, "ardia": 7287, "asal": 7288, "asid": 7289, "asyal": 7290, "asaua": 7291, "asiknangan": 7292, "asngas": 7293, "ataw": 7294, "atba": 7295, "ates": 7296, "atiu": 7297, "aton": 7298, "atras": 7299, "atsa": 7300, "atur": 7301, "atyo": 7302, "atawlyan": 7303, "auas": 7304, "awaga": 7305, "awangan": 7306, "ayabut": 7307, "ayawan": 7308, "ayum": 7309, "ayac": 7310, "ayanakan": 7311, "ayatbus": 7312, "ayndung": 7313, "ayup": 7314, "bab": 7315, "babat": 7316, "bakas": 7317, "bawal": 7318, "baya": 7319, "bel": 7320, "bilug": 7321, "biru": 7322, "bita": 7323, "bli": 7324, "bor": 7325, "botu": 7326, "bran": 7327, "bri": 7328, "bubud": 7329, "buri": 7330, "balabal": 7331, "baluan": 7332, "bandu": 7333, "basnan": 7334, "batis": 7335, "bitaul": 7336, "bukud": 7337, "bulag": 7338, "bulan": 7339, "bulang": 7340, "bulayan": 7341, "cha": 7342, "chi": 7343, "cho": 7344, "clat": 7345, "clod": 7346, "cs": 7347, "cyat": 7348, "dakal": 7349, "danan": 7350, "dang": 7351, "dangat": 7352, "dapat": 7353, "des": 7354, "dili-dili": 7355, "dilid": 7356, "duku": 7357, "dalpak": 7358, "dernung": 7359, "diwata": 7360, "dilidili": 7361, "duyan": 7362, "eldu": 7363, "elangkas": 7364, "enan": 7365, "enas": 7366, "ensya": 7367, "erak": 7368, "erawan": 7369, "eria": 7370, "erong": 7371, "erto": 7372, "erdote": 7373, "ester": 7374, "eseo": 7375, "fas": 7376, "for": 7377, "gitan": 7378, "galit": 7379, "galigit": 7380, "garalan": 7381, "gator": 7382, "gob": 7383, "hang": 7384, "hay": 7385, "heru": 7386, "hic": 7387, "hilan": 7388, "hung": 7389, "hich": 7390, "hokolati": 7391, "home": 7392, "iwas": 7393, "iz": 7394, "izo": 7395, "iauan": 7396, "iago": 7397, "ianib": 7398, "ibalik": 7399, "ibub": 7400, "iclaud": 7401, "idaup": 7402, "ieti": 7403, "iez": 7404, "iezr": 7405, "igasig": 7406, "ighan": 7407, "igi": 7408, "igil": 7409, "igpo": 7410, "igtad": 7411, "iglon": 7412, "ikang": 7413, "ikanu": 7414, "ikaluguran": 7415, "ilar": 7416, "ildis": 7417, "ilyu": 7418, "ilion": 7419, "iliu": 7420, "ilugmuk": 7421, "ilungan": 7422, "imbang": 7423, "imbe": 7424, "imirapal": 7425, "imlim": 7426, "imunan": 7427, "imalad": 7428, "imbangan": 7429, "imbun": 7430, "iminal": 7431, "inal": 7432, "inlag": 7433, "inuman": 7434, "inya": 7435, "inatnat": 7436, "indak": 7437, "indatun": 7438, "indian": 7439, "ingal": 7440, "ingap": 7441, "ingatan": 7442, "ingid": 7443, "ingulut": 7444, "insin": 7445, "intingan": 7446, "inturu": 7447, "intwan": 7448, "intindian": 7449, "ipangalugud": 7450, "ipate": 7451, "ipis": 7452, "ipitan": 7453, "ipnuan": 7454, "ipatsian": 7455, "ipunpunan": 7456, "iragli": 7457, "irayang": 7458, "irian": 7459, "iring": 7460, "istorya": 7461, "isya": 7462, "isyun": 7463, "isanmetung": 7464, "isi't": 7465, "isial": 7466, "isnawang": 7467, "itis": 7468, "itsit": 7469, "iupa": 7470, "iupil": 7471, "iwaran": 7472, "izim": 7473, "jala": 7474, "kabie": 7475, "kag": 7476, "kala": 7477, "kana": 7478, "kand": 7479, "kara": 7480, "kaya": 7481, "kin": 7482, "kintab": 7483, "kislap": 7484, "kon": 7485, "krasya": 7486, "kum": 7487, "kalungkutan": 7488, "kalabkab": 7489, "kamua": 7490, "kanung": 7491, "kanyan": 7492, "kapamu": 7493, "kapilan": 7494, "kapkap": 7495, "kariot": 7496, "kariote": 7497, "kasala": 7498, "katsa": 7499, "kuentu": 7500, "kulate": 7501, "kule": 7502, "kulio": 7503, "kulait": 7504, "ladu": 7505, "lalan": 7506, "laman": 7507, "lapat": 7508, "larauan": 7509, "lasan": 7510, "linis": 7511, "lip": 7512, "lukas": 7513, "lukluk": 7514, "lump": 7515, "luran": 7516, "laus": 7517, "lagiu": 7518, "lasi": 7519, "leg": 7520, "ligay": 7521, "line": 7522, "lindayugan": 7523, "lista": 7524, "lisya": 7525, "lugmuk": 7526, "lugus": 7527, "lumpulu": 7528, "mac": 7529, "madam": 7530, "makananu": 7531, "mat": 7532, "mel": 7533, "mag-": 7534, "magn": 7535, "malagu": 7536, "malagawa": 7537, "maliari": 7538, "manga": 7539, "manggi": 7540, "masakit": 7541, "masid": 7542, "masusi": 7543, "mbaban": 7544, "mekad": 7545, "mengari": 7546, "menter": 7547, "mialung": 7548, "ming-pil": 7549, "mokrasya": 7550, "mulang": 7551, "nab": 7552, "nawan": 7553, "nd": 7554, "neng": 7555, "nwan": 7556, "net": 7557, "nga": 7558, "ngan": 7559, "now": 7560, "obr": 7561, "oo": 7562, "opu": 7563, "olusi": 7564, "oma": 7565, "ombra": 7566, "onata": 7567, "one": 7568, "onia": 7569, "opotamia": 7570, "orreo": 7571, "oreo": 7572, "osi": 7573, "oset": 7574, "otel": 7575, "oting": 7576, "pabaya": 7577, "palak": 7578, "panupaya": 7579, "pero": 7580, "piblas": 7581, "piku": 7582, "pos": 7583, "pulis": 7584, "pusan": 7585, "py": 7586, "painawa": 7587, "paindatun": 7588, "paitan": 7589, "padre": 7590, "pagmaragul": 7591, "pakat": 7592, "palub": 7593, "panalangin": 7594, "panigapu": 7595, "pangiling": 7596, "parangalan": 7597, "pare": 7598, "parit": 7599, "pasasa": 7600, "pase": 7601, "patawaran": 7602, "paynawa": 7603, "peto": 7604, "rang": 7605, "rin": 7606, "rio": 7607, "rit": 7608, "raf": 7609, "rei": 7610, "ret": 7611, "reeding": 7612, "sarya": 7613, "sas": 7614, "sawa": 7615, "sawang": 7616, "sera": 7617, "sia": 7618, "sid": 7619, "silan": 7620, "subu": 7621, "sug": 7622, "sulu": 7623, "sumangid": 7624, "sunga": 7625, "surun": 7626, "susu": 7627, "sadsad": 7628, "sagese": 7629, "salanan": 7630, "salbatan": 7631, "sanas": 7632, "sangk": 7633, "seas": 7634, "selino": 7635, "serbisyu": 7636, "siasan": 7637, "sios": 7638, "sikapan": 7639, "silbing": 7640, "singil": 7641, "takan": 7642, "tamban": 7643, "tampalasan": 7644, "tanud": 7645, "tsan": 7646, "tulang": 7647, "tyan": 7648, "takid": 7649, "talbug": 7650, "talia": 7651, "tangas": 7652, "ther": 7653, "ths": 7654, "tibuc": 7655, "tika": 7656, "tima": 7657, "timan": 7658, "tiuala": 7659, "tikdo": 7660, "tiles": 7661, "timbang": 7662, "tingan": 7663, "tith": 7664, "trum": 7665, "ua-tidua": 7666, "ubsub": 7667, "uglap": 7668, "uglug": 7669, "ugulu": 7670, "ugus": 7671, "ukad": 7672, "uktuk": 7673, "ukub": 7674, "ukum": 7675, "uklam": 7676, "uklip": 7677, "ular": 7678, "uldul": 7679, "ulkan": 7680, "ulubi": 7681, "uluran": 7682, "ulyo": 7683, "uliut": 7684, "ulingid": 7685, "ulunusan": 7686, "umam": 7687, "umpang": 7688, "umparit": 7689, "umduman": 7690, "umpuc": 7691, "unahan": 7692, "unduan": 7693, "ungle": 7694, "ungsu": 7695, "untukan": 7696, "upaya": 7697, "uranan": 7698, "uring": 7699, "urud": 7700, "urunut": 7701, "uri-p": 7702, "ursday": 7703, "usak": 7704, "usal": 7705, "use": 7706, "usia": 7707, "using": 7708, "uslus": 7709, "usub": 7710, "usyan": 7711, "usifer": 7712, "usignan": 7713, "ustisya": 7714, "ute": 7715, "utian": 7716, "uting": 7717, "vent": 7718, "vilion": 7719, "walu": 7720, "wid": 7721, "work": 7722, "wac": 7723, "ways": 7724, "werti": 7725, "yaring": 7726, "yira": 7727, "yain": 7728, "yaclung": 7729, "yagka": 7730, "yarian": 7731, "yuyu": 7732, "zan": 7733, "▁199": 7734, "▁33": 7735, "▁43": 7736, "▁44": 7737, "▁aini": 7738, "▁air": 7739, "▁abasa": 7740, "▁abau": 7741, "▁abiezr": 7742, "▁abili": 7743, "▁abril": 7744, "▁abel-": 7745, "▁adala": 7746, "▁adalanan": 7747, "▁agamit": 7748, "▁agud": 7749, "▁aibie": 7750, "▁aibye": 7751, "▁akad": 7752, "▁akalag": 7753, "▁akarapat": 7754, "▁akaugalian": 7755, "▁aket": 7756, "▁akamtan": 7757, "▁akasabi": 7758, "▁akayabe": 7759, "▁alagad": 7760, "▁alan-": 7761, "▁alimbaua": 7762, "▁alkus": 7763, "▁also": 7764, "▁alac": 7765, "▁alan'anggan": 7766, "▁aldo't": 7767, "▁aligwat": 7768, "▁alikabuc": 7769, "▁alkaldi": 7770, "▁alpombra": 7771, "▁altares": 7772, "▁amiam": 7773, "▁amoreo": 7774, "▁amorreo": 7775, "▁amalec": 7776, "▁amalek": 7777, "▁andam": 7778, "▁animu": 7779, "▁aninag": 7780, "▁apapag": 7781, "▁apapan": 7782, "▁apikas": 7783, "▁apis": 7784, "▁apl": 7785, "▁aplus": 7786, "▁apus": 7787, "▁apagmasdan": 7788, "▁apakaba": 7789, "▁apansing": 7790, "▁argob": 7791, "▁aroer": 7792, "▁asalikut": 7793, "▁asas": 7794, "▁asenat": 7795, "▁asera": 7796, "▁asiria": 7797, "▁asis": 7798, "▁ask": 7799, "▁astarot": 7800, "▁asubuk": 7801, "▁asalese": 7802, "▁ashera": 7803, "▁atagal": 7804, "▁atagpuan": 7805, "▁atal": 7806, "▁atba": 7807, "▁atd": 7808, "▁atlumpulu": 7809, "▁atukl": 7810, "▁atabili": 7811, "▁awak": 7812, "▁ayabut": 7813, "▁ayakmul": 7814, "▁banu": 7815, "▁bapa": 7816, "▁bara": 7817, "▁basa": 7818, "▁belangkas": 7819, "▁bia": 7820, "▁bilis": 7821, "▁bindian": 7822, "▁breeding": 7823, "▁bros": 7824, "▁byahi": 7825, "▁bahala": 7826, "▁bailon": 7827, "▁ba'ra": 7828, "▁ba'yang": 7829, "▁babag": 7830, "▁babat": 7831, "▁babayaran": 7832, "▁baging": 7833, "▁bagut": 7834, "▁bakugn": 7835, "▁balbas": 7836, "▁baliti": 7837, "▁balsam": 7838, "▁balus": 7839, "▁baly": 7840, "▁balikat": 7841, "▁bangal": 7842, "▁banua-banua": 7843, "▁bastun": 7844, "▁bayo": 7845, "▁bayugn": 7846, "▁bekuran": 7847, "▁belaus": 7848, "▁belikdan": 7849, "▁bengisan": 7850, "▁bet-se": 7851, "▁bethlehem": 7852, "▁beyaran": 7853, "▁biclat": 7854, "▁biyasa": 7855, "▁bibigkas": 7856, "▁bibiruan": 7857, "▁bigbugan": 7858, "▁bildug": 7859, "▁bolang": 7860, "▁buwis": 7861, "▁bubukal": 7862, "▁bugasuc": 7863, "▁bugasuk": 7864, "▁bugnus": 7865, "▁bulag": 7866, "▁bulalag": 7867, "▁bulang": 7868, "▁bulig": 7869, "▁bungil": 7870, "▁busni": 7871, "▁butit": 7872, "▁che": 7873, "▁chokolati": 7874, "▁cline": 7875, "▁cr": 7876, "▁clark": 7877, "▁dama": 7878, "▁dami": 7879, "▁dat": 7880, "▁dulung": 7881, "▁dunut": 7882, "▁da't": 7883, "▁dacpan": 7884, "▁daka'": 7885, "▁dakur": 7886, "▁dalo": 7887, "▁dalusung": 7888, "▁damput": 7889, "▁danilo": 7890, "▁darling": 7891, "▁dayat-malat": 7892, "▁debotu": 7893, "▁ded": 7894, "▁delub": 7895, "▁diwata": 7896, "▁dizon": 7897, "▁dikit": 7898, "▁dilukan": 7899, "▁dili-dili": 7900, "▁dili-diling": 7901, "▁dios-diosan": 7902, "▁diria": 7903, "▁dungut": 7904, "▁durug": 7905, "▁durut": 7906, "▁durungdung": 7907, "▁dutong": 7908, "▁ebun": 7909, "▁eda": 7910, "▁ele": 7911, "▁eme": 7912, "▁ev": 7913, "▁edad": 7914, "▁edmon": 7915, "▁edrei": 7916, "▁eganagana": 7917, "▁egipsios": 7918, "▁ekonom": 7919, "▁elam": 7920, "▁emperyo": 7921, "▁entab": 7922, "▁eskariote": 7923, "▁estat": 7924, "▁espanyo": 7925, "▁eufrates": 7926, "▁fe": 7927, "▁fo": 7928, "▁filibusteru": 7929, "▁filipina": 7930, "▁floring": 7931, "▁fray": 7932, "▁fransiskanung": 7933, "▁galamanu": 7934, "▁gayndung": 7935, "▁ges": 7936, "▁gisan": 7937, "▁gkakung": 7938, "▁gud": 7939, "▁gugul": 7940, "▁gulat": 7941, "▁gulung": 7942, "▁gaindu": 7943, "▁gauang": 7944, "▁gabung": 7945, "▁gaditas": 7946, "▁galying": 7947, "▁gawi": 7948, "▁gayak": 7949, "▁gentiles": 7950, "▁gererong": 7951, "▁gerizim": 7952, "▁gilas": 7953, "▁giluan": 7954, "▁gilutan": 7955, "▁gileadita": 7956, "▁gingkas": 7957, "▁gittith": 7958, "▁god": 7959, "▁granizo": 7960, "▁guardia": 7961, "▁hid": 7962, "▁hilig": 7963, "▁historia": 7964, "▁hor": 7965, "▁haz": 7966, "▁haroset": 7967, "▁havila": 7968, "▁hez": 7969, "▁hebron": 7970, "▁helen": 7971, "▁herm": 7972, "▁il": 7973, "▁ilig": 7974, "▁ilo": 7975, "▁ilut": 7976, "▁ipangiling": 7977, "▁italia": 7978, "▁idad": 7979, "▁ikamate": 7980, "▁ikayu'ing": 7981, "▁importan": 7982, "▁inimbentu": 7983, "▁inupajan": 7984, "▁ingat": 7985, "▁ingkekang": 7986, "▁ingsil": 7987, "▁instit": 7988, "▁ipam": 7989, "▁iparamdam": 7990, "▁irap": 7991, "▁isl": 7992, "▁isanuman": 7993, "▁isanumang": 7994, "▁jared": 7995, "▁jesurun": 7996, "▁jebuseo": 7997, "▁john": 7998, "▁joy": 7999, "▁judea": 8000, "▁kaklis": 8001, "▁kako": 8002, "▁kipnuan": 8003, "▁kir": 8004, "▁kiri": 8005, "▁kiso": 8006, "▁kulio": 8007, "▁kwa": 8008, "▁kaupajan": 8009, "▁ka-kapampangan": 8010, "▁kabay": 8011, "▁kabiayan": 8012, "▁kabilangan": 8013, "▁kabiruan": 8014, "▁kabundukan": 8015, "▁kaburi": 8016, "▁kabaung": 8017, "▁kabagayan": 8018, "▁kagulut": 8019, "▁kakamal-kamalan": 8020, "▁kakung": 8021, "▁kakua": 8022, "▁kakuang": 8023, "▁kakug": 8024, "▁kalabas": 8025, "▁kalasa": 8026, "▁kalat": 8027, "▁kalb": 8028, "▁kalde": 8029, "▁kaleldo": 8030, "▁kalukluk": 8031, "▁kalulunusan": 8032, "▁kalamidad": 8033, "▁kalunusan": 8034, "▁kamtan": 8035, "▁kamag-": 8036, "▁kamalyan": 8037, "▁kanam": 8038, "▁kanawangan": 8039, "▁kaniaman": 8040, "▁kanit": 8041, "▁kandidatu": 8042, "▁kapakibat": 8043, "▁kapali": 8044, "▁kapampangang": 8045, "▁kapilis": 8046, "▁kapitu": 8047, "▁kapun": 8048, "▁kapuri-p": 8049, "▁kapurit": 8050, "▁kapagmasusian": 8051, "▁kapaitpaitan": 8052, "▁kapamir": 8053, "▁kapasnawan": 8054, "▁kapatak": 8055, "▁kapila'na": 8056, "▁kararaptanan": 8057, "▁karawakan": 8058, "▁karayum": 8059, "▁karding": 8060, "▁karga": 8061, "▁kasikan": 8062, "▁kaskal": 8063, "▁kasulu": 8064, "▁kasakmal": 8065, "▁kasaplalan": 8066, "▁kasinglalam": 8067, "▁kaswapangan": 8068, "▁katamaran": 8069, "▁katamle": 8070, "▁katapa": 8071, "▁katlu": 8072, "▁katuparan": 8073, "▁kataksilan": 8074, "▁katalaruan": 8075, "▁katangian": 8076, "▁katas-katasan": 8077, "▁kaugalian": 8078, "▁kayanakang": 8079, "▁kayari": 8080, "▁kayi": 8081, "▁kayabeabe": 8082, "▁kayaduanan": 8083, "▁keal": 8084, "▁kebaluan": 8085, "▁kebukas": 8086, "▁kelab": 8087, "▁kesiasan": 8088, "▁kebay": 8089, "▁kekaba": 8090, "▁kenag": 8091, "▁kenig": 8092, "▁kenign": 8093, "▁kepuntan": 8094, "▁keririan": 8095, "▁ketiking": 8096, "▁kildas": 8097, "▁kinawul": 8098, "▁kola": 8099, "▁komanggi": 8100, "▁kop": 8101, "▁komusta": 8102, "▁konsepsion": 8103, "▁kontrata": 8104, "▁kuke": 8105, "▁kuking": 8106, "▁kuro": 8107, "▁kutu": 8108, "▁kulub": 8109, "▁kulut": 8110, "▁kulait": 8111, "▁kumabie": 8112, "▁kumayap": 8113, "▁kurbata": 8114, "▁kuswelu": 8115, "▁kutug": 8116, "▁kwentu": 8117, "▁kwartu": 8118, "▁laku": 8119, "▁lapo": 8120, "▁lata": 8121, "▁layas": 8122, "▁lerawan": 8123, "▁ligalig": 8124, "▁ligtas": 8125, "▁lil": 8126, "▁linis": 8127, "▁lipa": 8128, "▁lor": 8129, "▁lundag": 8130, "▁lusifer": 8131, "▁lutu": 8132, "▁lau": 8133, "▁laureado": 8134, "▁labahas": 8135, "▁labasas": 8136, "▁labinglimang": 8137, "▁labingmetung": 8138, "▁lagi": 8139, "▁lagnat": 8140, "▁lalsut": 8141, "▁lalu't": 8142, "▁langitngit": 8143, "▁lasing": 8144, "▁lati-lating": 8145, "▁lebasnan": 8146, "▁lepas": 8147, "▁lebasan": 8148, "▁libu-libung": 8149, "▁lingkas": 8150, "▁lisangan": 8151, "▁liter": 8152, "▁log": 8153, "▁luis": 8154, "▁luyus": 8155, "▁lubusan": 8156, "▁luksu": 8157, "▁mamat": 8158, "▁mamialung": 8159, "▁mia": 8160, "▁mimin": 8161, "▁mulat": 8162, "▁ma'": 8163, "▁ma-": 8164, "▁maestra": 8165, "▁maibug": 8166, "▁maigpit": 8167, "▁mailig": 8168, "▁mainang": 8169, "▁maugtu": 8170, "▁maung": 8171, "▁mabu": 8172, "▁mabunga": 8173, "▁mabura": 8174, "▁mababaldug": 8175, "▁mabibye": 8176, "▁macmac": 8177, "▁madal": 8178, "▁madam": 8179, "▁madiwa": 8180, "▁magdili-dili": 8181, "▁magmalagua": 8182, "▁magpang": 8183, "▁magsak": 8184, "▁magsal": 8185, "▁magsalbat": 8186, "▁magt": 8187, "▁magugulu": 8188, "▁mag-istoria": 8189, "▁mag-istorya": 8190, "▁mag-obra": 8191, "▁magkakasakit": 8192, "▁magluid": 8193, "▁magpayapa": 8194, "▁magpa-": 8195, "▁magpakatatag": 8196, "▁mahal": 8197, "▁makaganaka": 8198, "▁makalan": 8199, "▁makalik": 8200, "▁makarine": 8201, "▁makata": 8202, "▁makatanam": 8203, "▁makig": 8204, "▁makik": 8205, "▁makinabang": 8206, "▁makipam": 8207, "▁makpag": 8208, "▁makyabe": 8209, "▁makaimalan": 8210, "▁makaintindi": 8211, "▁makababat": 8212, "▁makabighan": 8213, "▁makabau": 8214, "▁makagapus": 8215, "▁makagiu": 8216, "▁makalaman": 8217, "▁makalapit": 8218, "▁makalib": 8219, "▁makalingwan": 8220, "▁makalunus-lunus": 8221, "▁makapalino": 8222, "▁makapampan": 8223, "▁makapibangun": 8224, "▁makapiblas": 8225, "▁makaptas": 8226, "▁makapadurut": 8227, "▁makapagal": 8228, "▁makapagligtas": 8229, "▁makapasno": 8230, "▁makarapat": 8231, "▁makasabit": 8232, "▁makasadiang": 8233, "▁makasiping": 8234, "▁makaslag": 8235, "▁makasubsub": 8236, "▁makasandatang": 8237, "▁makatakap": 8238, "▁makatali": 8239, "▁makatapitung": 8240, "▁makatat": 8241, "▁makatuldung": 8242, "▁makayablas": 8243, "▁makaying": 8244, "▁maki-l": 8245, "▁makialam": 8246, "▁makibir": 8247, "▁makipaglindayugan": 8248, "▁makisal": 8249, "▁makislap": 8250, "▁makitua": 8251, "▁malan": 8252, "▁malang": 8253, "▁malasakit": 8254, "▁malayo": 8255, "▁maliling": 8256, "▁malinatnat": 8257, "▁malingun": 8258, "▁maliswas": 8259, "▁malmura": 8260, "▁malulunus": 8261, "▁malulut": 8262, "▁malaus": 8263, "▁malaut": 8264, "▁malabab": 8265, "▁malilili": 8266, "▁mamal": 8267, "▁mamasyal": 8268, "▁mamilatan": 8269, "▁mamuk": 8270, "▁mamungang": 8271, "▁mamyus": 8272, "▁mamuc": 8273, "▁mamumulang": 8274, "▁mamutya": 8275, "▁manak": 8276, "▁manamdam": 8277, "▁manamdaman": 8278, "▁mananu": 8279, "▁mane": 8280, "▁manok": 8281, "▁mansanas": 8282, "▁manung": 8283, "▁manungkulan": 8284, "▁manyaclung": 8285, "▁managumpe": 8286, "▁managyag": 8287, "▁manasakit": 8288, "▁mangangas": 8289, "▁mangasikan": 8290, "▁mangatuang": 8291, "▁mangil": 8292, "▁mangilag": 8293, "▁mangababa": 8294, "▁mangabayat": 8295, "▁mangalaram": 8296, "▁mangaskad": 8297, "▁mangatapang": 8298, "▁mangutkut": 8299, "▁maniambut": 8300, "▁maniuluk": 8301, "▁maniauad": 8302, "▁manyabi": 8303, "▁manyira": 8304, "▁manyumpa": 8305, "▁mapang": 8306, "▁mapangal": 8307, "▁mapap": 8308, "▁mapinung": 8309, "▁mapaliaring": 8310, "▁mapamirait": 8311, "▁mapamirayang": 8312, "▁mapamungang": 8313, "▁marurunut": 8314, "▁masigasig": 8315, "▁masigla": 8316, "▁masinsin": 8317, "▁masira": 8318, "▁masukul": 8319, "▁masisira": 8320, "▁matabang": 8321, "▁matar": 8322, "▁mataram": 8323, "▁matinung": 8324, "▁matutus": 8325, "▁matatampus": 8326, "▁matigik": 8327, "▁mayayaus": 8328, "▁mayn": 8329, "▁mayor": 8330, "▁me'ing": 8331, "▁mearan": 8332, "▁meili": 8333, "▁melabug": 8334, "▁melugus": 8335, "▁memang": 8336, "▁memialung": 8337, "▁mepagal": 8338, "▁mepak": 8339, "▁mesikan": 8340, "▁mesintang": 8341, "▁mebilang": 8342, "▁mebye": 8343, "▁mebanggit": 8344, "▁megawa": 8345, "▁meka": 8346, "▁mekabalu": 8347, "▁mekapakibat": 8348, "▁mekapate": 8349, "▁mekib": 8350, "▁mekulkul": 8351, "▁mekitua": 8352, "▁melambat": 8353, "▁melap": 8354, "▁melili": 8355, "▁melino": 8356, "▁meluslus": 8357, "▁melagpak": 8358, "▁melange": 8359, "▁melangi": 8360, "▁memat": 8361, "▁memie": 8362, "▁memimirapal": 8363, "▁memiru": 8364, "▁memunga": 8365, "▁menasik": 8366, "▁menuc": 8367, "▁mengabus": 8368, "▁mengadi": 8369, "▁mengatmu": 8370, "▁mengilabut": 8371, "▁mengit": 8372, "▁mengul": 8373, "▁mengalabas": 8374, "▁mengapaliari": 8375, "▁mengatakutan": 8376, "▁mengatmung": 8377, "▁mepuri": 8378, "▁mepanat": 8379, "▁mesamsam": 8380, "▁mesopotamia": 8381, "▁mest": 8382, "▁mesyas": 8383, "▁metwa": 8384, "▁metungge": 8385, "▁meyli": 8386, "▁miay": 8387, "▁miyatyat": 8388, "▁miblas": 8389, "▁migel": 8390, "▁migkamali": 8391, "▁migkas": 8392, "▁migkulang": 8393, "▁migm": 8394, "▁migpa": 8395, "▁migsarya": 8396, "▁migsu": 8397, "▁migtangas": 8398, "▁migtas": 8399, "▁migdatun": 8400, "▁miglayag": 8401, "▁migligo": 8402, "▁mikakal": 8403, "▁mikakasala": 8404, "▁mikakauani": 8405, "▁mikapatad": 8406, "▁mikelangan": 8407, "▁mikakunung": 8408, "▁mikasundu": 8409, "▁mikibandi": 8410, "▁milabasan": 8411, "▁milalawayan": 8412, "▁milsinta": 8413, "▁milusuk": 8414, "▁milyo": 8415, "▁mina": 8416, "▁mingatba": 8417, "▁miniambut": 8418, "▁ministro": 8419, "▁minyabing": 8420, "▁minyaklung": 8421, "▁mipakanian": 8422, "▁mipand": 8423, "▁mipayapa": 8424, "▁mipapakarine": 8425, "▁mipasubu": 8426, "▁miraragdag": 8427, "▁misag": 8428, "▁misapwak": 8429, "▁mitat": 8430, "▁mitig": 8431, "▁mitauli": 8432, "▁miyukyat": 8433, "▁months": 8434, "▁mrs": 8435, "▁multu": 8436, "▁museo": 8437, "▁nabangnan": 8438, "▁nan": 8439, "▁nit": 8440, "▁niu": 8441, "▁n'ya": 8442, "▁na'ng": 8443, "▁nap": 8444, "▁nav": 8445, "▁nakami": 8446, "▁nakata": 8447, "▁nakatamung": 8448, "▁nanding": 8449, "▁nemang": 8450, "▁new": 8451, "▁niang": 8452, "▁noben": 8453, "▁nota": 8454, "▁ob": 8455, "▁obandu": 8456, "▁ofw": 8457, "▁oliva": 8458, "▁opisina": 8459, "▁opisyal": 8460, "▁ortelano": 8461, "▁pakal": 8462, "▁paku": 8463, "▁palakad": 8464, "▁papat": 8465, "▁payapang": 8466, "▁pelang": 8467, "▁pila": 8468, "▁pinu": 8469, "▁pipa": 8470, "▁pipatsian": 8471, "▁pipit": 8472, "▁pipunpunan": 8473, "▁pusta": 8474, "▁putung": 8475, "▁pwestu": 8476, "▁py": 8477, "▁pyalben": 8478, "▁paeng": 8479, "▁paintulut": 8480, "▁painturu": 8481, "▁paukiat": 8482, "▁paukyat": 8483, "▁pavilion": 8484, "▁pabakle": 8485, "▁pabalu": 8486, "▁pagas": 8487, "▁pagkasala": 8488, "▁pagkit": 8489, "▁pagmalun": 8490, "▁pagparangalan": 8491, "▁pagsalbatan": 8492, "▁paganong": 8493, "▁pagmasdan": 8494, "▁pagmasusian": 8495, "▁painggulutan": 8496, "▁pakabat": 8497, "▁pakik": 8498, "▁pakisabi": 8499, "▁pakibalak": 8500, "▁pakisabyan": 8501, "▁palalung": 8502, "▁paligid": 8503, "▁palis": 8504, "▁palkara": 8505, "▁palmura": 8506, "▁palpit": 8507, "▁paluka": 8508, "▁palyasa": 8509, "▁palakul": 8510, "▁palanakan": 8511, "▁paliwas": 8512, "▁pamajalan": 8513, "▁pamakit": 8514, "▁pamaklian": 8515, "▁pamald": 8516, "▁pamaman": 8517, "▁pamamu": 8518, "▁pamangan": 8519, "▁pamasa": 8520, "▁pamisanmetung": 8521, "▁pamukpuk": 8522, "▁pamagamuamu": 8523, "▁pamaganitu": 8524, "▁pamagbalik": 8525, "▁pamagbayung": 8526, "▁pamagparalampu": 8527, "▁pamagsalita": 8528, "▁pamag-ayunu": 8529, "▁pamaglaram": 8530, "▁pamakyabe": 8531, "▁pamakipagsalita": 8532, "▁pamalita": 8533, "▁pamaluka": 8534, "▁pamamalut": 8535, "▁pamamintu": 8536, "▁pamamiraya": 8537, "▁pamanakbung": 8538, "▁pamananggap": 8539, "▁pamanangis": 8540, "▁pamanasik": 8541, "▁pamanatul": 8542, "▁pamania": 8543, "▁pamaniabi": 8544, "▁pamaningat": 8545, "▁pamanlibak": 8546, "▁pamanyaup": 8547, "▁pamanaimic": 8548, "▁pamanantabe": 8549, "▁pamangamit": 8550, "▁pamangiak": 8551, "▁pamaniatang": 8552, "▁pamanyambitan": 8553, "▁pamanyirang": 8554, "▁pamiisip": 8555, "▁pamibasa": 8556, "▁pamikatagun": 8557, "▁pamikawani": 8558, "▁pamipalsinta": 8559, "▁pamipate": 8560, "▁pamipulung": 8561, "▁panagkat": 8562, "▁panakitan": 8563, "▁panali": 8564, "▁panaplak": 8565, "▁pandal": 8566, "▁panipa": 8567, "▁panlasa": 8568, "▁pant": 8569, "▁panyawad": 8570, "▁pangalasak": 8571, "▁pangamat": 8572, "▁pangkat": 8573, "▁pango": 8574, "▁pangutang": 8575, "▁pangabengi": 8576, "▁pangabilyan": 8577, "▁pangakablang": 8578, "▁pangaslag": 8579, "▁pangasubli": 8580, "▁pangilagan": 8581, "▁paniatang": 8582, "▁paniwal": 8583, "▁pante-pante": 8584, "▁pantiun": 8585, "▁panugaling": 8586, "▁papalual": 8587, "▁papang": 8588, "▁papas": 8589, "▁papuri": 8590, "▁papanuknangan": 8591, "▁papelis": 8592, "▁parang-tau": 8593, "▁parangal": 8594, "▁parikil": 8595, "▁parti": 8596, "▁paraiso": 8597, "▁pasi": 8598, "▁pasip": 8599, "▁pasipag": 8600, "▁pasis": 8601, "▁paskua": 8602, "▁pasu": 8603, "▁pasigalgal": 8604, "▁patatu": 8605, "▁patsy": 8606, "▁pays": 8607, "▁payung": 8608, "▁pegaralan": 8609, "▁pekamas": 8610, "▁pekamab": 8611, "▁pekamayap": 8612, "▁pekamaniaman": 8613, "▁pemutian": 8614, "▁penibala": 8615, "▁pengagli": 8616, "▁pepakuyad": 8617, "▁pepan": 8618, "▁pepatulan": 8619, "▁pepainawa": 8620, "▁pepaitas": 8621, "▁pepalabung": 8622, "▁pepalto": 8623, "▁pepatugut": 8624, "▁pepatuknang": 8625, "▁pepatunayan": 8626, "▁perla": 8627, "▁pesipag": 8628, "▁pesilako": 8629, "▁pesilapit": 8630, "▁pesipamuge": 8631, "▁pibalebale": 8632, "▁pibulebulayan": 8633, "▁pigtapat": 8634, "▁pikabsyan": 8635, "▁pikarine": 8636, "▁pilming-pil": 8637, "▁pilipinu": 8638, "▁pinanari": 8639, "▁pint": 8640, "▁pinatub": 8641, "▁pipandiluan": 8642, "▁piraton": 8643, "▁pisawili": 8644, "▁pisni": 8645, "▁pitungpulung": 8646, "▁plaka": 8647, "▁pol": 8648, "▁power": 8649, "▁prise": 8650, "▁prinsesa": 8651, "▁problema": 8652, "▁puente": 8653, "▁pulitika": 8654, "▁pupuntalan": 8655, "▁purgator": 8656, "▁qn": 8657, "▁rad": 8658, "▁relihiyun": 8659, "▁regalo": 8660, "▁rek": 8661, "▁rewel": 8662, "▁respeto": 8663, "▁reubenitas": 8664, "▁rosariu": 8665, "▁s'wala": 8666, "▁salak": 8667, "▁sarul": 8668, "▁sayad": 8669, "▁sho": 8670, "▁silang": 8671, "▁sintingan": 8672, "▁sonata": 8673, "▁st": 8674, "▁suglung": 8675, "▁sung": 8676, "▁sur": 8677, "▁sau": 8678, "▁savalys": 8679, "▁sabug": 8680, "▁sagin": 8681, "▁salamb": 8682, "▁salat": 8683, "▁salisi": 8684, "▁sala-sal": 8685, "▁salazar": 8686, "▁sankan": 8687, "▁santiagu": 8688, "▁sapul": 8689, "▁sapatus": 8690, "▁saresa": 8691, "▁sari-sari": 8692, "▁sasawpan": 8693, "▁scho": 8694, "▁seb": 8695, "▁sebu": 8696, "▁sementer": 8697, "▁senayan": 8698, "▁senor": 8699, "▁sentral": 8700, "▁seria": 8701, "▁serug": 8702, "▁shaly": 8703, "▁shur": 8704, "▁siwang": 8705, "▁sibal": 8706, "▁sibi": 8707, "▁sicluban": 8708, "▁sidim": 8709, "▁siglu": 8710, "▁sigarilyu": 8711, "▁sikat": 8712, "▁siklaud": 8713, "▁sime": 8714, "▁simbitla": 8715, "▁sindi": 8716, "▁singap": 8717, "▁singo": 8718, "▁siniclod": 8719, "▁sisiro": 8720, "▁sisisi't": 8721, "▁sopan": 8722, "▁sour": 8723, "▁suywan": 8724, "▁sukab": 8725, "▁sukle": 8726, "▁sukub": 8727, "▁sumiro": 8728, "▁sundang": 8729, "▁susup": 8730, "▁syudad": 8731, "▁take": 8732, "▁tampalasan": 8733, "▁tawad": 8734, "▁tayo": 8735, "▁tele": 8736, "▁tho": 8737, "▁tina": 8738, "▁tiupan": 8739, "▁tol": 8740, "▁tore": 8741, "▁tubal": 8742, "▁tuli": 8743, "▁tut": 8744, "▁tutul": 8745, "▁ty": 8746, "▁tabac": 8747, "▁tabak": 8748, "▁tabaku": 8749, "▁tabling": 8750, "▁tagku": 8751, "▁talulut": 8752, "▁talaingat": 8753, "▁talagale": 8754, "▁talapagligtas": 8755, "▁talapagmana": 8756, "▁talapanaral": 8757, "▁talatuki": 8758, "▁tamar": 8759, "▁tandus": 8760, "▁tanga": 8761, "▁tangere": 8762, "▁tangu": 8763, "▁tapang": 8764, "▁tatakpan": 8765, "▁tebugan": 8766, "▁tepangan": 8767, "▁teguryan": 8768, "▁telatau": 8769, "▁that": 8770, "▁thursday": 8771, "▁thy": 8772, "▁tic": 8773, "▁tiwala": 8774, "▁tibuc": 8775, "▁tibwan": 8776, "▁tidua-tidua": 8777, "▁tikman": 8778, "▁tilad": 8779, "▁tiniup": 8780, "▁tindera": 8781, "▁tindahan": 8782, "▁tingiran": 8783, "▁toro": 8784, "▁trio": 8785, "▁tucsu": 8786, "▁tuklu": 8787, "▁tuki-": 8788, "▁tulandung": 8789, "▁tumwa": 8790, "▁tunika": 8791, "▁tungatung": 8792, "▁ub": 8793, "▁uc": 8794, "▁ump": 8795, "▁uni": 8796, "▁ugtu": 8797, "▁ulin": 8798, "▁unto": 8799, "▁ver": 8800, "▁vis": 8801, "▁venus": 8802, "▁ward": 8803, "▁we": 8804, "▁which": 8805, "▁walungpulu": 8806, "▁yablas": 8807, "▁yagkat": 8808, "▁yake": 8809, "▁yeru": 8810, "▁ynya": 8811, "▁yuk": 8812, "▁ya'ng": 8813, "▁yayain": 8814, "▁yanapin": 8815, "▁yapin": 8816, "▁yatad": 8817, "▁yato": 8818, "▁your": 8819, "▁yuang": 8820, "▁zambal": 8821, "▁zera": 8822, "▁zilya": 8823, "▁zeboim": 8824, "▁zebul": 8825, "▁zered": 8826, "'ku": 8827, "'nya": 8828, "'ra": 8829, "'tin": 8830, "-ab": 8831, "-ag": 8832, "-agad": 8833, "-amit": 8834, "-ang": 8835, "-anting": 8836, "-asa": 8837, "-at": 8838, "-balik": 8839, "-bukas": 8840, "-bule": 8841, "-bulung": 8842, "-ge": 8843, "-ingat": 8844, "-ja": 8845, "-kanian": 8846, "-kap": 8847, "-kil": 8848, "-laue": 8849, "-lit": 8850, "-lung": 8851, "-luyun": 8852, "-male": 8853, "-pal": 8854, "-pulu": 8855, "-risataim": 8856, "-ro": 8857, "-sabi": 8858, "-sang": 8859, "-saup": 8860, "-tashheth": 8861, "-uk": 8862, "-um": 8863, "-wa": 8864, "-alipan": 8865, "-alsang": 8866, "-anghel": 8867, "-balat": 8868, "-bar": 8869, "-bayu": 8870, "-bengi": 8871, "-bigla": 8872, "-bisu": 8873, "-bitin": 8874, "-bungge": 8875, "-balayan": 8876, "-balikan": 8877, "-banalan": 8878, "-barne": 8879, "-barnea": 8880, "-dagul": 8881, "-dangal": 8882, "-dangalan": 8883, "-ditak": 8884, "-dyos": 8885, "-de-anghel": 8886, "-gabun": 8887, "-je": 8888, "-jair": 8889, "-jearim": 8890, "-kain": 8891, "-kauani": 8892, "-kalale": 8893, "-lare": 8894, "-ligid": 8895, "-lito": 8896, "-lubid": 8897, "-lungub": 8898, "-misan": 8899, "-nazareno": 8900, "-paligid": 8901, "-pitu": 8902, "-pamuk": 8903, "-panic": 8904, "-panilan": 8905, "-ray": 8906, "-roi": 8907, "-sab": 8908, "-sakali": 8909, "-salake": 8910, "-samut": 8911, "-sapin": 8912, "-sibi": 8913, "-sil": 8914, "-sundu": 8915, "-sangkan": 8916, "-tata": 8917, "-tilad": 8918, "-tit": 8919, "-tamar": 8920, "-timan": 8921, "-ulitan": 8922, "-undap": 8923, "000": 8924, "28": 8925, "30": 8926, "33": 8927, "35": 8928, "37": 8929, "40": 8930, "95": 8931, "aas": 8932, "ais": 8933, "aaa": 8934, "abagsac": 8935, "abala": 8936, "abanua": 8937, "abikan": 8938, "ablo": 8939, "abyang": 8940, "abyus": 8941, "abaian": 8942, "abanal": 8943, "abim": 8944, "abiran": 8945, "abilinan": 8946, "abitasan": 8947, "abukas": 8948, "abukasan": 8949, "abungan": 8950, "acde": 8951, "ach": 8952, "aclit": 8953, "adana": 8954, "adang": 8955, "adlad": 8956, "adtu": 8957, "advent": 8958, "aduangan": 8959, "adventure": 8960, "agasan": 8961, "agese": 8962, "agid": 8963, "aglawe": 8964, "agmit": 8965, "agpu": 8966, "agsag": 8967, "agsang": 8968, "agt": 8969, "agulu": 8970, "agung": 8971, "agaua": 8972, "agaula": 8973, "agacgakan": 8974, "aganakan": 8975, "aganas": 8976, "aganac": 8977, "agiung": 8978, "aguang": 8979, "aguyo": 8980, "aguantang": 8981, "agulutan": 8982, "ai-roi": 8983, "ak-": 8984, "akaka": 8985, "akdak": 8986, "akdal": 8987, "akes": 8988, "akibatan": 8989, "akisipan": 8990, "aklu": 8991, "akmus": 8992, "akpak": 8993, "aksi": 8994, "akaul": 8995, "akadem": 8996, "akadua": 8997, "akalunus": 8998, "akandayu": 8999, "akanl": 9000, "akanti": 9001, "akanyan": 9002, "akapal": 9003, "akapilan": 9004, "akapkap": 9005, "akaroc": 9006, "akasundu": 9007, "aket": 9008, "akespe": 9009, "akespeare": 9010, "akling": 9011, "akue": 9012, "akum": 9013, "akumbaban": 9014, "akuos": 9015, "akule": 9016, "akulkul": 9017, "akut-takut": 9018, "al-banalan": 9019, "alaku": 9020, "alata": 9021, "alim": 9022, "aliuang": 9023, "alor": 9024, "alud": 9025, "alund": 9026, "alwan": 9027, "alagala": 9028, "alagen": 9029, "alakab": 9030, "alakan": 9031, "alakanaran": 9032, "alalay": 9033, "alalayan": 9034, "alanat": 9035, "alanga": 9036, "alangan": 9037, "alangg": 9038, "alataya": 9039, "aldas": 9040, "ale-male": 9041, "alia": 9042, "aligiran": 9043, "aliguat": 9044, "alikid": 9045, "alikp": 9046, "alikpik": 9047, "aliligalig": 9048, "alingatan": 9049, "alog": 9050, "aloti": 9051, "altalan": 9052, "alupsup": 9053, "aluctuc": 9054, "alugsug": 9055, "alukaluan": 9056, "aluktuk": 9057, "alukyan": 9058, "alundalan": 9059, "alupalu": 9060, "alusad": 9061, "amak": 9062, "amale": 9063, "amig": 9064, "amita": 9065, "amkam": 9066, "amn": 9067, "amnan": 9068, "amo": 9069, "amsaman": 9070, "amsik": 9071, "amus": 9072, "amwan": 9073, "ama't": 9074, "amaulagang": 9075, "amalian": 9076, "amalita": 9077, "amasdan": 9078, "amatayan": 9079, "ambak": 9080, "ambana": 9081, "ambang": 9082, "ambi": 9083, "ambitla": 9084, "ambutan": 9085, "amgam": 9086, "amingwa": 9087, "amitas": 9088, "ampagan": 9089, "ampalataya": 9090, "ampiso": 9091, "amuel": 9092, "amuja": 9093, "amungang": 9094, "ani": 9095, "anid": 9096, "ank": 9097, "anp": 9098, "anung": 9099, "anaua": 9100, "anano": 9101, "andus": 9102, "anemik": 9103, "angel": 9104, "anggal": 9105, "angit": 9106, "angking": 9107, "angle": 9108, "angnan": 9109, "angkamin": 9110, "anguage": 9111, "anuala": 9112, "anuang": 9113, "anuasan": 9114, "apitu": 9115, "apl": 9116, "aplala": 9117, "aplus": 9118, "apmuan": 9119, "apakpak": 9120, "apanasakit": 9121, "apatnube": 9122, "apatula": 9123, "apitu-pitu": 9124, "apuapuan": 9125, "aratang": 9126, "arawan": 9127, "ardo": 9128, "ariling": 9129, "arkada": 9130, "arro": 9131, "arungan": 9132, "aryo": 9133, "arael": 9134, "arandam": 9135, "arano": 9136, "ardito": 9137, "ariung": 9138, "ariliu": 9139, "asad": 9140, "asalangsangan": 9141, "asb": 9142, "ase": 9143, "aserdote": 9144, "asgas": 9145, "aspac": 9146, "ast": 9147, "asta": 9148, "asyon": 9149, "asa'nong": 9150, "asaul": 9151, "asaksi": 9152, "asangap": 9153, "asukle": 9154, "at-jearim": 9155, "atawan": 9156, "atbang": 9157, "atbat": 9158, "ator": 9159, "atr": 9160, "atsang": 9161, "atsing": 9162, "ata-tata": 9163, "ataji": 9164, "atajiikan": 9165, "atanggap": 9166, "atiat": 9167, "aticdo": 9168, "atrikal": 9169, "auangis": 9170, "aunang": 9171, "aup-saup": 9172, "ausukan": 9173, "awli": 9174, "awup": 9175, "awus": 9176, "awakawani": 9177, "awaning": 9178, "ayalben": 9179, "ayanan": 9180, "ayaring": 9181, "aylangan": 9182, "ayon": 9183, "ayos": 9184, "ayunan": 9185, "aywan": 9186, "aya't": 9187, "ayapag": 9188, "aynawan": 9189, "balag": 9190, "basa": 9191, "bes": 9192, "bigla": 9193, "bkub": 9194, "bro": 9195, "bur": 9196, "by": 9197, "bagal": 9198, "bakw": 9199, "bakasyun": 9200, "balamu": 9201, "balitang": 9202, "balut": 9203, "balikid": 9204, "bant": 9205, "bangnan": 9206, "batbat": 9207, "batikan": 9208, "bayung-bye": 9209, "bea": 9210, "bed": 9211, "bi't": 9212, "biernu": 9213, "binsi": 9214, "buktut": 9215, "bungad": 9216, "bungang": 9217, "cluc": 9218, "cma": 9219, "cr": 9220, "csing": 9221, "cta": 9222, "ctor": 9223, "cher": 9224, "ckoth": 9225, "cks": 9226, "dado": 9227, "dagul": 9228, "dake": 9229, "dalangin": 9230, "danum": 9231, "dili": 9232, "dless": 9233, "dosa": 9234, "ds": 9235, "dta": 9236, "dula": 9237, "dulu": 9238, "durup": 9239, "dalo": 9240, "damut": 9241, "danse": 9242, "dap-undap": 9243, "dec": 9244, "detang": 9245, "dez": 9246, "dereta": 9247, "dias": 9248, "diwa": 9249, "doctor": 9250, "domeo": 9251, "drin": 9252, "duardito": 9253, "duluk": 9254, "dungis": 9255, "dutun": 9256, "e't": 9257, "e-": 9258, "eas": 9259, "ebu": 9260, "ebun": 9261, "ede": 9262, "ehe": 9263, "ej": 9264, "ejo": 9265, "emu": 9266, "epe": 9267, "eden": 9268, "edn": 9269, "ednesday": 9270, "elaman": 9271, "elan": 9272, "elio": 9273, "elo": 9274, "elanga": 9275, "elegrama": 9276, "eneas": 9277, "enno": 9278, "ensu": 9279, "endisi": 9280, "enga": 9281, "enge": 9282, "enggu": 9283, "enging": 9284, "engwa": 9285, "engwahi": 9286, "ennox": 9287, "enteng": 9288, "entino": 9289, "entista": 9290, "eparan": 9291, "epen": 9292, "epika": 9293, "erador": 9294, "erang": 9295, "erba": 9296, "eres": 9297, "erno": 9298, "eros": 9299, "erte": 9300, "ertu": 9301, "ernis": 9302, "esen": 9303, "eskwela": 9304, "estig": 9305, "esean": 9306, "esep": 9307, "esepuan": 9308, "esterday": 9309, "estigu": 9310, "fre": 9311, "fradia": 9312, "from": 9313, "galamanu": 9314, "gamat": 9315, "gasa": 9316, "gaw": 9317, "geseo": 9318, "giang": 9319, "gil": 9320, "gis": 9321, "giu": 9322, "grasya": 9323, "gung": 9324, "gusi": 9325, "gutan": 9326, "gutgutan": 9327, "gyang": 9328, "galapac": 9329, "ganid": 9330, "gastus": 9331, "ge-bungge": 9332, "get": 9333, "goda": 9334, "goodbye": 9335, "guliac": 9336, "hado": 9337, "hagi": 9338, "hai-roi": 9339, "hal": 9340, "har": 9341, "hil": 9342, "hilip": 9343, "hing": 9344, "hit": 9345, "hm": 9346, "husa": 9347, "hv": 9348, "haaa": 9349, "haz": 9350, "hed": 9351, "hehe": 9352, "hizo": 9353, "himagsik": 9354, "hinyeru": 9355, "hizoph": 9356, "hizophr": 9357, "hizophreni": 9358, "hob": 9359, "hoo": 9360, "homework": 9361, "hort": 9362, "huja": 9363, "hujael": 9364, "husael": 9365, "hvoa": 9366, "ial": 9367, "iatan": 9368, "ielu": 9369, "iesta": 9370, "if": 9371, "iimp": 9372, "iosu": 9373, "iung": 9374, "iusan": 9375, "iazar": 9376, "iaclung": 9377, "iagis": 9378, "ianung": 9379, "ibad": 9380, "ibang": 9381, "ibpa": 9382, "ibye": 9383, "ibulan": 9384, "icmata": 9385, "id-ligid": 9386, "idbid": 9387, "idel": 9388, "idon": 9389, "idua": 9390, "idwan": 9391, "iestan": 9392, "igaganaka": 9393, "igaganakan": 9394, "igang": 9395, "igpa": 9396, "igtig": 9397, "iglapan": 9398, "iglulu": 9399, "ikayu": 9400, "ikilan": 9401, "ikitan": 9402, "iklab": 9403, "iklaud": 9404, "ikol": 9405, "ikual": 9406, "ikudta": 9407, "ikum": 9408, "ikwanan": 9409, "ilas": 9410, "ilili": 9411, "iliran": 9412, "ilpa": 9413, "ilua": 9414, "ilus": 9415, "ilauk": 9416, "ilabutan": 9417, "ilianti": 9418, "imar": 9419, "imate": 9420, "imbul": 9421, "imen": 9422, "img": 9423, "imie": 9424, "imua": 9425, "imyas": 9426, "imbing": 9427, "imirusang": 9428, "impung": 9429, "imuyak": 9430, "imuyut": 9431, "imusyo": 9432, "in-bitin": 9433, "in-sapin": 9434, "inalan": 9435, "indan": 9436, "inia": 9437, "inumang": 9438, "inauan": 9439, "inaut": 9440, "indagul": 9441, "indik": 9442, "indredus": 9443, "indyan": 9444, "inga": 9445, "ingking": 9446, "ingus": 9447, "ingwa": 9448, "insala": 9449, "intal": 9450, "inturang": 9451, "intaw": 9452, "intawak": 9453, "iper": 9454, "ipid": 9455, "ipor": 9456, "ipamisan": 9457, "ipamunga": 9458, "ipantuk": 9459, "ipitung": 9460, "iram": 9461, "irame": 9462, "irap": 9463, "ire": 9464, "irn": 9465, "iraitnan": 9466, "irios": 9467, "isadiang": 9468, "isaring": 9469, "isbis": 9470, "isian": 9471, "ismo": 9472, "isngis": 9473, "ison": 9474, "isalamuja": 9475, "itagan": 9476, "itasan": 9477, "itbit": 9478, "iter": 9479, "ith": 9480, "itik": 9481, "itna": 9482, "itau": 9483, "itasang": 9484, "itio": 9485, "ition": 9486, "itingapun": 9487, "itsera": 9488, "itsuran": 9489, "iu-de-anghel": 9490, "iuyu": 9491, "iupilan": 9492, "iwi": 9493, "iyac": 9494, "janan": 9495, "jas": 9496, "jilig": 9497, "jn": 9498, "jumpa": 9499, "jagi": 9500, "jimic": 9501, "kabiayan": 9502, "kagli": 9503, "kali": 9504, "kamalian": 9505, "kaman": 9506, "kamb": 9507, "kambal": 9508, "kapatad": 9509, "karine": 9510, "katamu": 9511, "kawa": 9512, "kawal": 9513, "kawe": 9514, "kayanakan": 9515, "keni": 9516, "kindat": 9517, "kos": 9518, "kug": 9519, "kuku": 9520, "kumpisal": 9521, "kusa": 9522, "kahit": 9523, "kaung": 9524, "kabang": 9525, "kabyayan": 9526, "kakug": 9527, "kaladua": 9528, "kalagu": 9529, "kalbit": 9530, "kaligaligan": 9531, "kamalig": 9532, "kanaku": 9533, "kaninu": 9534, "kanita": 9535, "kany": 9536, "kantador": 9537, "kapait": 9538, "kapayapan": 9539, "kapilit": 9540, "kapulwan": 9541, "karaniwan": 9542, "karetang": 9543, "kasalang": 9544, "kasi": 9545, "katak": 9546, "katatagan": 9547, "katawan": 9548, "kaybat": 9549, "keti": 9550, "keran": 9551, "kiz": 9552, "kilya": 9553, "kinitan": 9554, "kitek": 9555, "koan": 9556, "kome": 9557, "kulan": 9558, "kulaput": 9559, "kulay": 9560, "kulut": 9561, "kupadu": 9562, "kurap": 9563, "kursu": 9564, "kurus": 9565, "kusang": 9566, "kutu": 9567, "kuturan": 9568, "labi": 9569, "laga": 9570, "lagu": 9571, "lambut": 9572, "lamu": 9573, "latag": 9574, "lia": 9575, "lika": 9576, "likut": 9577, "lili": 9578, "lipul": 9579, "ls": 9580, "luan": 9581, "lukan": 9582, "lulu": 9583, "lum": 9584, "lun": 9585, "lwalu": 9586, "lahai-roi": 9587, "lait": 9588, "laza": 9589, "labuad": 9590, "lagas": 9591, "lage": 9592, "lakwan": 9593, "lalawa": 9594, "lalaue": 9595, "lantang": 9596, "langi": 9597, "larga": 9598, "lasag": 9599, "lasar": 9600, "lawayan": 9601, "layas": 9602, "layun": 9603, "layunanan": 9604, "leo": 9605, "lijim": 9606, "libang": 9607, "ligid": 9608, "limpi": 9609, "lingap": 9610, "lish": 9611, "lisu": 9612, "loage": 9613, "lobe": 9614, "logan": 9615, "lora": 9616, "luanan": 9617, "luid": 9618, "lubas": 9619, "lugal": 9620, "lukub": 9621, "lupig": 9622, "luyun-luyun": 9623, "makanian": 9624, "mala": 9625, "mand": 9626, "manuala": 9627, "men": 9628, "mes": 9629, "misa": 9630, "mulat": 9631, "mum": 9632, "munag": 9633, "maestro": 9634, "mail": 9635, "mairing": 9636, "mauan": 9637, "maginakit": 9638, "maging": 9639, "makapayan": 9640, "makapagmulala": 9641, "malapit": 9642, "malino": 9643, "malum": 9644, "malungkut": 9645, "malunus": 9646, "malumben": 9647, "mamayad": 9648, "mamili": 9649, "mani": 9650, "manung": 9651, "manyaman": 9652, "mangakamal": 9653, "mangga": 9654, "marangal": 9655, "marangle": 9656, "maragulan": 9657, "maybug": 9658, "mbur": 9659, "mburisan": 9660, "meyari": 9661, "ments": 9662, "miy": 9663, "mipakananu": 9664, "mistula": 9665, "mol": 9666, "muel": 9667, "mulagat": 9668, "mult": 9669, "murang": 9670, "musing": 9671, "nig": 9672, "nino": 9673, "nit": 9674, "ns": 9675, "nul": 9676, "num": 9677, "naimic": 9678, "nau": 9679, "nanung": 9680, "ney": 9681, "nganing": 9682, "ngawan": 9683, "ngalalang": 9684, "ningning": 9685, "nono": 9686, "nown": 9687, "o'": 9688, "oba": 9689, "og": 9690, "oh": 9691, "okoan": 9692, "opan": 9693, "ora": 9694, "ouse": 9695, "oyan": 9696, "olf": 9697, "olusion": 9698, "ones": 9699, "onis": 9700, "onung": 9701, "onios": 9702, "opiya": 9703, "orbe": 9704, "oreti": 9705, "ot-jair": 9706, "otas": 9707, "otru": 9708, "pale": 9709, "pamana": 9710, "pana": 9711, "patag": 9712, "pawaga": 9713, "pibandian": 9714, "pilan": 9715, "pint": 9716, "pitu": 9717, "pl": 9718, "pli": 9719, "pr": 9720, "pub": 9721, "pud": 9722, "pur": 9723, "pusta": 9724, "putan": 9725, "pa'na": 9726, "paid": 9727, "pait": 9728, "pauli": 9729, "palat": 9730, "paling": 9731, "palino": 9732, "palut": 9733, "panabilin": 9734, "panagkas": 9735, "panali": 9736, "panic": 9737, "panim": 9738, "pansin": 9739, "pante": 9740, "pany": 9741, "panapunan": 9742, "pangaku": 9743, "paradang": 9744, "paralan": 9745, "pasalamat": 9746, "pasensya": 9747, "pasya": 9748, "pasyal": 9749, "pasaheru": 9750, "patd": 9751, "patda": 9752, "patugut": 9753, "patung": 9754, "payul": 9755, "peor": 9756, "petsan": 9757, "pekapun": 9758, "pinpin": 9759, "pitung": 9760, "porasiun": 9761, "port": 9762, "pst": 9763, "pues": 9764, "puyat": 9765, "publika": 9766, "pulay": 9767, "qng": 9768, "ralia": 9769, "rapal": 9770, "ratun": 9771, "relihi": 9772, "relihiyun": 9773, "rika": 9774, "ripis": 9775, "rite": 9776, "rong": 9777, "rsis": 9778, "rain": 9779, "raz": 9780, "rafel": 9781, "rans": 9782, "razy": 9783, "red": 9784, "rey": 9785, "riel": 9786, "ries": 9787, "rilyan": 9788, "risto": 9789, "rob": 9790, "rod": 9791, "rol": 9792, "ronu": 9793, "ruit": 9794, "s-": 9795, "sabing": 9796, "sagan": 9797, "saka": 9798, "sakan": 9799, "sakuil": 9800, "salansan": 9801, "salupsup": 9802, "samu": 9803, "sana": 9804, "sayang": 9805, "sen": 9806, "sess": 9807, "silab": 9808, "sising": 9809, "sitan": 9810, "situ": 9811, "sos": 9812, "sot": 9813, "st": 9814, "sud": 9815, "sugat": 9816, "suglung": 9817, "sula": 9818, "sulung": 9819, "sung": 9820, "sur": 9821, "syon": 9822, "syun": 9823, "sac": 9824, "saingsing": 9825, "saul": 9826, "sausig": 9827, "sabik": 9828, "sabug": 9829, "sabi-sabi": 9830, "sad-": 9831, "samsam": 9832, "sambulat": 9833, "sapul": 9834, "sec": 9835, "semani": 9836, "seras": 9837, "serve": 9838, "siasat": 9839, "siya": 9840, "sicle": 9841, "sidens": 9842, "sige": 9843, "sikapulu": 9844, "siklaud": 9845, "silbian": 9846, "sindi": 9847, "singan": 9848, "subsub": 9849, "sukristo": 9850, "sulsi": 9851, "sulugi": 9852, "sumikap": 9853, "sumpung": 9854, "suspetsan": 9855, "syerto": 9856, "take": 9857, "talan": 9858, "talas": 9859, "tambun": 9860, "tampiso": 9861, "taran": 9862, "tili": 9863, "tilung": 9864, "tinape": 9865, "tras": 9866, "tries": 9867, "tsemani": 9868, "tuklip": 9869, "tuna": 9870, "tutung": 9871, "tv": 9872, "twan": 9873, "tahimik": 9874, "taung": 9875, "tawan": 9876, "tacsil": 9877, "takam": 9878, "takaran": 9879, "taltal": 9880, "taluki": 9881, "tanb": 9882, "tantu": 9883, "tanggal": 9884, "tangu": 9885, "taru": 9886, "tayug": 9887, "teban": 9888, "tet": 9889, "tendanse": 9890, "terac": 9891, "tiano": 9892, "tidu": 9893, "tikan": 9894, "tipa": 9895, "tir": 9896, "tikum": 9897, "tindi": 9898, "tipastipas": 9899, "tisung": 9900, "torsi": 9901, "trina": 9902, "try": 9903, "trumentu": 9904, "tudies": 9905, "tugtug": 9906, "tuksu": 9907, "tulug": 9908, "tunan": 9909, "ualan": 9910, "uangis": 9911, "uaran": 9912, "uata": 9913, "uili": 9914, "uyas": 9915, "ualuan": 9916, "uant": 9917, "uatasan": 9918, "ubak": 9919, "ubali": 9920, "ubas": 9921, "ubg": 9922, "ubie": 9923, "ubug": 9924, "ubukan": 9925, "ucnul": 9926, "ucyat": 9927, "udas": 9928, "udpud": 9929, "udu": 9930, "udwang": 9931, "ug-tabug": 9932, "uga": 9933, "ugatan": 9934, "ugkasian": 9935, "ugkug": 9936, "ugma": 9937, "ugsi": 9938, "ugung": 9939, "uglugan": 9940, "ukanan": 9941, "ukaring": 9942, "ukduk": 9943, "uksa": 9944, "ukuban": 9945, "ukut": 9946, "ukyan": 9947, "ukas-bukas": 9948, "ukiutan": 9949, "uklatan": 9950, "uklulkan": 9951, "uklukan": 9952, "uknuk": 9953, "uknanga": 9954, "ukuyan": 9955, "ukulyus": 9956, "ulak": 9957, "ulakan": 9958, "ulaklak": 9959, "ulangan": 9960, "uldu": 9961, "ulig": 9962, "ulma": 9963, "ulpit": 9964, "ultu": 9965, "ulul": 9966, "ulumud": 9967, "uly": 9968, "ulisita": 9969, "ulutun": 9970, "umaming": 9971, "umbalik": 9972, "umbas": 9973, "umpan": 9974, "umpas": 9975, "umpunan": 9976, "umun": 9977, "umamela": 9978, "umbalas": 9979, "umbira": 9980, "umpawi": 9981, "umpisang": 9982, "umpung": 9983, "umpac": 9984, "un-susun": 9985, "uning": 9986, "unis": 9987, "unkulan": 9988, "unlad": 9989, "uno": 9990, "unud": 9991, "unying": 9992, "undang": 9993, "undat": 9994, "undiman": 9995, "undu-sundu": 9996, "uneta": 9997, "ungalian": 9998, "ungdung": 9999, "unggalit": 10000, "unggen": 10001, "ungus": 10002, "upayang": 10003, "upiter": 10004, "upo": 10005, "upri": 10006, "urayit": 10007, "uren": 10008, "ureti": 10009, "uruk": 10010, "uryal": 10011, "urahin": 10012, "ureting": 10013, "usac": 10014, "usbus": 10015, "usot": 10016, "usyo": 10017, "usyun": 10018, "ustu": 10019, "usturyal": 10020, "ustus": 10021, "usun-susun": 10022, "uta": 10023, "utasan": 10024, "utukba": 10025, "uyaran": 10026, "van": 10027, "vera": 10028, "via": 10029, "vin": 10030, "wage": 10031, "walung": 10032, "waran": 10033, "watan": 10034, "wha": 10035, "wli": 10036, "wls": 10037, "wus": 10038, "walasan": 10039, "wangis": 10040, "wangit": 10041, "weba": 10042, "weda": 10043, "welkome": 10044, "yaga": 10045, "yangan": 10046, "yapa": 10047, "yapus": 10048, "yar": 10049, "yatan": 10050, "yatu": 10051, "yatulan": 10052, "yen": 10053, "yenteng": 10054, "yenti": 10055, "yern": 10056, "yikad": 10057, "yl": 10058, "ypa": 10059, "yub": 10060, "yaang": 10061, "yahoo": 10062, "yawa": 10063, "yawat": 10064, "yaling": 10065, "yamut": 10066, "yapgap": 10067, "yaptasan": 10068, "yasat": 10069, "ye-bye": 10070, "yets": 10071, "yo-": 10072, "yok": 10073, "yota": 10074, "you": 10075, "yuan": 10076, "yunu": 10077, "yungyung": 10078, "zib": 10079, "zre": 10080, "▁122": 10081, "▁130": 10082, "▁24": 10083, "▁26": 10084, "▁2010": 10085, "▁30": 10086, "▁38": 10087, "▁45": 10088, "▁48": 10089, "▁5000": 10090, "▁aaaa": 10091, "▁afr": 10092, "▁aha": 10093, "▁ai": 10094, "▁aint": 10095, "▁ais": 10096, "▁ait": 10097, "▁auang": 10098, "▁aur": 10099, "▁av": 10100, "▁az": 10101, "▁aarong": 10102, "▁abab": 10103, "▁abala": 10104, "▁abatas": 10105, "▁abatiawan": 10106, "▁abdon": 10107, "▁abias": 10108, "▁abiram": 10109, "▁abitasang": 10110, "▁abli": 10111, "▁absik": 10112, "▁abung": 10113, "▁abatiauan": 10114, "▁abe-abe": 10115, "▁abiezrita": 10116, "▁abou": 10117, "▁abutin": 10118, "▁acdac": 10119, "▁acmul": 10120, "▁acsidens": 10121, "▁add": 10122, "▁adm": 10123, "▁aduampulung": 10124, "▁aduang-pulu": 10125, "▁again": 10126, "▁agapus": 10127, "▁agga": 10128, "▁agilar": 10129, "▁agin": 10130, "▁agiu": 10131, "▁agtal": 10132, "▁aguant": 10133, "▁agy": 10134, "▁agad-agad": 10135, "▁agiung": 10136, "▁akag": 10137, "▁akakal": 10138, "▁akala": 10139, "▁akalingatan": 10140, "▁akamit": 10141, "▁akapmuan": 10142, "▁akatajiikan": 10143, "▁akgutgutan": 10144, "▁akumpe": 10145, "▁akabangal": 10146, "▁akadem": 10147, "▁akalaban": 10148, "▁akalaru": 10149, "▁akayarap": 10150, "▁aku'y": 10151, "▁al-tashheth": 10152, "▁alale": 10153, "▁alam": 10154, "▁alamat": 10155, "▁alasa": 10156, "▁alba": 10157, "▁alduk": 10158, "▁aligtas": 10159, "▁alim": 10160, "▁aling": 10161, "▁alo": 10162, "▁alput": 10163, "▁alu": 10164, "▁alug": 10165, "▁aluguran": 10166, "▁aluk": 10167, "▁alukluk": 10168, "▁always": 10169, "▁alahas": 10170, "▁alalajanan": 10171, "▁alan-angga": 10172, "▁aldo'": 10173, "▁alkalde": 10174, "▁ami": 10175, "▁amrafel": 10176, "▁amanwan": 10177, "▁amanuang": 10178, "▁amerikanu": 10179, "▁ampu": 10180, "▁ampo'ning": 10181, "▁ani": 10182, "▁anim": 10183, "▁anloage": 10184, "▁ant": 10185, "▁ante": 10186, "▁anakeo": 10187, "▁angen": 10188, "▁anti'y": 10189, "▁apakilala": 10190, "▁apar": 10191, "▁aparalanan": 10192, "▁apasanting": 10193, "▁apate": 10194, "▁apibata": 10195, "▁apiling": 10196, "▁apipi": 10197, "▁apupul": 10198, "▁apagaralan": 10199, "▁apagkamalian": 10200, "▁apagsilbian": 10201, "▁apagumasdan": 10202, "▁apakaban": 10203, "▁apakinabang": 10204, "▁apanusigan": 10205, "▁apasiag": 10206, "▁apatibayan": 10207, "▁apikasunduan": 10208, "▁apilasa": 10209, "▁aplakan": 10210, "▁aramdaman": 10211, "▁aran": 10212, "▁arar": 10213, "▁ararapat": 10214, "▁arenas": 10215, "▁arkang": 10216, "▁arkitek": 10217, "▁arl": 10218, "▁art": 10219, "▁arts": 10220, "▁aru": 10221, "▁ariok": 10222, "▁asali": 10223, "▁asangap": 10224, "▁asasangap": 10225, "▁asingil": 10226, "▁asiwas": 10227, "▁asupri": 10228, "▁asur": 10229, "▁asusu": 10230, "▁asyas": 10231, "▁asagip": 10232, "▁asalubung": 10233, "▁asasabi": 10234, "▁asufre": 10235, "▁asukal": 10236, "▁atabi": 10237, "▁atad": 10238, "▁atakman": 10239, "▁atdu": 10240, "▁ate": 10241, "▁atiglapan": 10242, "▁atis": 10243, "▁atni": 10244, "▁atuklas": 10245, "▁atukyan": 10246, "▁atunggen": 10247, "▁atuparan": 10248, "▁atabnuan": 10249, "▁atagkil": 10250, "▁atagmuan": 10251, "▁atalinting": 10252, "▁atuklasan": 10253, "▁atulad": 10254, "▁atuldu": 10255, "▁awus": 10256, "▁awusan": 10257, "▁ayag": 10258, "▁ayagkas": 10259, "▁ayampang": 10260, "▁ayayaninag": 10261, "▁ayos": 10262, "▁ayaus": 10263, "▁baya": 10264, "▁bimie": 10265, "▁bor": 10266, "▁botas": 10267, "▁brilyan": 10268, "▁bru": 10269, "▁buklud": 10270, "▁buntun": 10271, "▁bwangis": 10272, "▁baidbid": 10273, "▁baj": 10274, "▁ba'keng": 10275, "▁baal-peor": 10276, "▁baba": 10277, "▁babel": 10278, "▁babagiu": 10279, "▁babai't": 10280, "▁bagiusan": 10281, "▁balani": 10282, "▁balbal": 10283, "▁baldosa": 10284, "▁balgn": 10285, "▁balintawak": 10286, "▁baltang": 10287, "▁baluk": 10288, "▁balagtas": 10289, "▁balakusa": 10290, "▁balakusang": 10291, "▁balayanl": 10292, "▁bale-k": 10293, "▁balik-balikan": 10294, "▁balingkinitan": 10295, "▁balsamo": 10296, "▁bansut": 10297, "▁bantayug": 10298, "▁banyaga": 10299, "▁bangbang": 10300, "▁banggitan": 10301, "▁bangi": 10302, "▁bangk": 10303, "▁bangka": 10304, "▁bangku": 10305, "▁bangketa": 10306, "▁barkas": 10307, "▁baraha": 10308, "▁base": 10309, "▁basti": 10310, "▁basu": 10311, "▁basyu": 10312, "▁bathala": 10313, "▁batwing": 10314, "▁batikbatikan": 10315, "▁beba": 10316, "▁bebatan": 10317, "▁beor": 10318, "▁betingan": 10319, "▁beer-lahai-roi": 10320, "▁beging": 10321, "▁belabag": 10322, "▁beligtad": 10323, "▁belikan": 10324, "▁ben-": 10325, "▁bendisyun": 10326, "▁bengit": 10327, "▁bengi-bengi": 10328, "▁benjamita": 10329, "▁benjamitas": 10330, "▁beria": 10331, "▁bersu": 10332, "▁berdugo": 10333, "▁berdugos": 10334, "▁betpeor": 10335, "▁bet-anat": 10336, "▁bet-semes": 10337, "▁beyatan": 10338, "▁bialng": 10339, "▁biernis": 10340, "▁bihag": 10341, "▁biasing": 10342, "▁bibi": 10343, "▁biblia": 10344, "▁bigsu": 10345, "▁bikas": 10346, "▁birtud": 10347, "▁bisbusan": 10348, "▁bisitas": 10349, "▁bistidu": 10350, "▁bistama't": 10351, "▁bitin-bitin": 10352, "▁boses": 10353, "▁bosis": 10354, "▁boss": 10355, "▁brilianti": 10356, "▁bubusuk": 10357, "▁bubut": 10358, "▁bulas": 10359, "▁buldit": 10360, "▁bulug": 10361, "▁bulung-bulung": 10362, "▁bunduc-bundukan": 10363, "▁bungbung": 10364, "▁bungge-bungge": 10365, "▁bungisngis": 10366, "▁burac": 10367, "▁buriku": 10368, "▁buri't": 10369, "▁busabus": 10370, "▁busta": 10371, "▁busilac": 10372, "▁busilak": 10373, "▁butcher": 10374, "▁buti": 10375, "▁butyl": 10376, "▁butul-balat": 10377, "▁byabas": 10378, "▁china": 10379, "▁chinung": 10380, "▁chris": 10381, "▁criminal": 10382, "▁cristal": 10383, "▁cristu": 10384, "▁damba": 10385, "▁dangka": 10386, "▁dilo": 10387, "▁dlit": 10388, "▁dor": 10389, "▁duda": 10390, "▁dudwang": 10391, "▁dugu": 10392, "▁dus": 10393, "▁dwa": 10394, "▁dahilan": 10395, "▁dawak": 10396, "▁dages": 10397, "▁dagis": 10398, "▁dakatang": 10399, "▁daka'lang": 10400, "▁dakug": 10401, "▁dale": 10402, "▁dalum": 10403, "▁dalun": 10404, "▁dalan-dalan": 10405, "▁dalan-danum": 10406, "▁danas": 10407, "▁danitas": 10408, "▁danupa": 10409, "▁dapug": 10410, "▁dayrit": 10411, "▁daywan": 10412, "▁de't": 10413, "▁dehado": 10414, "▁demokrasya": 10415, "▁des": 10416, "▁desyerto": 10417, "▁det": 10418, "▁delakitan": 10419, "▁delit": 10420, "▁delubyu": 10421, "▁dia": 10422, "▁diablo": 10423, "▁diamanti": 10424, "▁dicma": 10425, "▁diuata": 10426, "▁digdug": 10427, "▁digp": 10428, "▁digsa": 10429, "▁dilidili": 10430, "▁dimas": 10431, "▁dink": 10432, "▁diosdado": 10433, "▁diptan": 10434, "▁dirimla": 10435, "▁diritak": 10436, "▁disgrasya": 10437, "▁ditak-ditak": 10438, "▁diyosa": 10439, "▁doctrina": 10440, "▁donsel": 10441, "▁dpaot": 10442, "▁dues": 10443, "▁dugpa": 10444, "▁duluk": 10445, "▁dungus": 10446, "▁durugang": 10447, "▁durut-durut": 10448, "▁each": 10449, "▁eba": 10450, "▁ebed": 10451, "▁eber": 10452, "▁edomeo": 10453, "▁eduardito": 10454, "▁elasar": 10455, "▁emo": 10456, "▁ere": 10457, "▁etam": 10458, "▁etan": 10459, "▁eyu": 10460, "▁ez": 10461, "▁ezer": 10462, "▁e're": 10463, "▁ebaling": 10464, "▁ebanghelyo": 10465, "▁efrain": 10466, "▁efren": 10467, "▁ehip": 10468, "▁eje": 10469, "▁ejersitu": 10470, "▁ekonomia": 10471, "▁eliazar": 10472, "▁elilan": 10473, "▁emita": 10474, "▁emperador": 10475, "▁endless": 10476, "▁enjo": 10477, "▁enkantador": 10478, "▁entries": 10479, "▁engkant": 10480, "▁english": 10481, "▁entabladu": 10482, "▁escr": 10483, "▁esteban": 10484, "▁estilung": 10485, "▁eskolta": 10486, "▁espada": 10487, "▁espadana": 10488, "▁esposa": 10489, "▁espanya": 10490, "▁espanyola": 10491, "▁espiritual": 10492, "▁estatwa": 10493, "▁etala": 10494, "▁etc": 10495, "▁feneas": 10496, "▁fiesta": 10497, "▁fikol": 10498, "▁flora": 10499, "▁free": 10500, "▁fruit": 10501, "▁fernandez": 10502, "▁fernando": 10503, "▁fortuna": 10504, "▁from": 10505, "▁gabi": 10506, "▁gakisipan": 10507, "▁galagala": 10508, "▁galus": 10509, "▁gambul": 10510, "▁gandus": 10511, "▁garing": 10512, "▁gayac": 10513, "▁gipit": 10514, "▁gis": 10515, "▁globe": 10516, "▁gmag": 10517, "▁gn": 10518, "▁gpanali": 10519, "▁gsarili": 10520, "▁gul": 10521, "▁gumamela": 10522, "▁guna": 10523, "▁gutgut": 10524, "▁gain": 10525, "▁gabriel": 10526, "▁galnag": 10527, "▁galtung": 10528, "▁gates": 10529, "▁gato": 10530, "▁gayut": 10531, "▁geindu": 10532, "▁gepusan": 10533, "▁getsemani": 10534, "▁gezer": 10535, "▁genakan": 10536, "▁gergeseo": 10537, "▁gerilya": 10538, "▁gestas": 10539, "▁gilgal": 10540, "▁ginkas": 10541, "▁ginwan": 10542, "▁ginggun": 10543, "▁gitgutan": 10544, "▁gobiernu": 10545, "▁goi": 10546, "▁good": 10547, "▁gomer": 10548, "▁gradu": 10549, "▁gudgoda": 10550, "▁gugulyut": 10551, "▁gunam": 10552, "▁gunkas": 10553, "▁hada": 10554, "▁hapi": 10555, "▁hari": 10556, "▁helyo": 10557, "▁hen": 10558, "▁hindi": 10559, "▁his": 10560, "▁hon": 10561, "▁hotel": 10562, "▁house": 10563, "▁hustisia": 10564, "▁hustisya": 10565, "▁hadas": 10566, "▁hapon": 10567, "▁happy": 10568, "▁harana": 10569, "▁havot-jair": 10570, "▁hazor": 10571, "▁hehehe": 10572, "▁heteos": 10573, "▁henerasyun": 10574, "▁heneralitu": 10575, "▁heres": 10576, "▁hermnon": 10577, "▁hezron": 10578, "▁hilyel": 10579, "▁husam": 10580, "▁ii": 10581, "▁iii": 10582, "▁ilijim": 10583, "▁im": 10584, "▁iota": 10585, "▁iri": 10586, "▁itat": 10587, "▁iuti": 10588, "▁iyatyat": 10589, "▁iyu": 10590, "▁iyutus": 10591, "▁ibzan": 10592, "▁iba't": 10593, "▁ibaual": 10594, "▁igkas": 10595, "▁ikakaroc": 10596, "▁ikapanasakit": 10597, "▁ikatakut": 10598, "▁iligtras": 10599, "▁imperyo": 10600, "▁inauad": 10601, "▁indul": 10602, "▁inf": 10603, "▁ingamanu": 10604, "▁ingkakung": 10605, "▁ingkarelang": 10606, "▁ingl": 10607, "▁ingkeka": 10608, "▁inspirasion": 10609, "▁institusyun": 10610, "▁intern": 10611, "▁internet": 10612, "▁ipamalita": 10613, "▁ipat": 10614, "▁ipayabut": 10615, "▁ipayn": 10616, "▁ipagkait": 10617, "▁ipaglibe": 10618, "▁ipalkas": 10619, "▁ipanlualu": 10620, "▁irad": 10621, "▁isadya": 10622, "▁isarael": 10623, "▁isis": 10624, "▁iskw": 10625, "▁isp": 10626, "▁island": 10627, "▁jalam": 10628, "▁jangad": 10629, "▁japan": 10630, "▁jielu": 10631, "▁jilig": 10632, "▁jue": 10633, "▁jupiter": 10634, "▁jah": 10635, "▁jahaz": 10636, "▁jair": 10637, "▁jaboc": 10638, "▁jedutun": 10639, "▁jehvoa": 10640, "▁jesukristo": 10641, "▁jeus": 10642, "▁jerehe": 10643, "▁jesucristong": 10644, "▁jesucristu": 10645, "▁jesus-nazareno": 10646, "▁job": 10647, "▁joe": 10648, "▁joksan": 10649, "▁joktan": 10650, "▁joseph": 10651, "▁judah": 10652, "▁kakasundu": 10653, "▁kis": 10654, "▁km": 10655, "▁knig": 10656, "▁kp": 10657, "▁kuliut": 10658, "▁kwat": 10659, "▁kweba": 10660, "▁kaakung": 10661, "▁kade": 10662, "▁kaf": 10663, "▁kagat": 10664, "▁kaingat": 10665, "▁katorsi": 10666, "▁kauatasan": 10667, "▁kaustan": 10668, "▁kautus": 10669, "▁kawa": 10670, "▁kabaryu": 10671, "▁kabayat": 10672, "▁kabid": 10673, "▁kabilang": 10674, "▁kabug": 10675, "▁kabuklat": 10676, "▁kaburyan": 10677, "▁kabalitan": 10678, "▁kabatuan": 10679, "▁kabeliu-de-anghel": 10680, "▁kabeluan": 10681, "▁kadalumduman": 10682, "▁kades-barnea": 10683, "▁kaduagan": 10684, "▁kaganaka": 10685, "▁kagipitan": 10686, "▁kagising": 10687, "▁kagpa": 10688, "▁kagulutan": 10689, "▁kaisipang": 10690, "▁kaju": 10691, "▁kakametung": 10692, "▁kakat": 10693, "▁kakilalang": 10694, "▁kaking": 10695, "▁kakyatulan": 10696, "▁kakaug": 10697, "▁kakeuang": 10698, "▁kakuyad": 10699, "▁kalabing": 10700, "▁kalabung": 10701, "▁kalaksing": 10702, "▁kalang": 10703, "▁kalayawan": 10704, "▁kalbit": 10705, "▁kalele": 10706, "▁kalesa": 10707, "▁kalima": 10708, "▁kalokoan": 10709, "▁kaloy": 10710, "▁kalual": 10711, "▁kaluku": 10712, "▁kalul": 10713, "▁kalumparit": 10714, "▁kalup": 10715, "▁kalv": 10716, "▁kala-kalale": 10717, "▁kalacsing": 10718, "▁kaladu": 10719, "▁kalame": 10720, "▁kaldeo": 10721, "▁kaliwalasan": 10722, "▁kalinawan": 10723, "▁kaliskis": 10724, "▁kalukup": 10725, "▁kamaganac": 10726, "▁kamale-male": 10727, "▁kamate": 10728, "▁kambal": 10729, "▁kambang": 10730, "▁kamisa": 10731, "▁kamusta": 10732, "▁kamagung": 10733, "▁kamag-anak": 10734, "▁kamalinauan": 10735, "▁kamamaranunan": 10736, "▁kamatis": 10737, "▁kamelyong": 10738, "▁kaninumang": 10739, "▁kantor": 10740, "▁kanaku't": 10741, "▁kanakug": 10742, "▁kanakuing": 10743, "▁kanglap": 10744, "▁kapakayan": 10745, "▁kapakibatan": 10746, "▁kapaligiran": 10747, "▁kapamp": 10748, "▁kapang": 10749, "▁kapangan": 10750, "▁kapaya": 10751, "▁kapaynawan": 10752, "▁kapiestan": 10753, "▁kapigaganakan": 10754, "▁kapkap": 10755, "▁kappa": 10756, "▁kapuluan": 10757, "▁kapagmaragulan": 10758, "▁kapakalualuan": 10759, "▁kapamalan": 10760, "▁kapamiray": 10761, "▁kapanic": 10762, "▁kapaniupilan": 10763, "▁kapaniwaran": 10764, "▁kaparang": 10765, "▁kaparangan": 10766, "▁kapate": 10767, "▁kapilna": 10768, "▁kapilubluban": 10769, "▁kapilisyan": 10770, "▁kapital": 10771, "▁kapitana": 10772, "▁kapupuntan": 10773, "▁kapuri-puri": 10774, "▁karaklut": 10775, "▁karapat-dapat": 10776, "▁karapatan": 10777, "▁karig": 10778, "▁karlos": 10779, "▁karrong": 10780, "▁karamput": 10781, "▁karangal-dangalan": 10782, "▁karingmakapayan": 10783, "▁karingparalan": 10784, "▁karingwakas": 10785, "▁karuajing": 10786, "▁kasaka": 10787, "▁kasanting": 10788, "▁kasesepuan": 10789, "▁kasindagul": 10790, "▁kasngawan": 10791, "▁kasnuk": 10792, "▁kasuglung": 10793, "▁kasuk": 10794, "▁kasus": 10795, "▁kasakiman": 10796, "▁kasalesean": 10797, "▁kasalukuyan": 10798, "▁kasaplala": 10799, "▁kasapungul": 10800, "▁kasingkaba": 10801, "▁kastro": 10802, "▁katakut-takut": 10803, "▁katakutan": 10804, "▁katalik": 10805, "▁katambayan": 10806, "▁katapat": 10807, "▁katarungan": 10808, "▁katatag": 10809, "▁katatawlyan": 10810, "▁kated": 10811, "▁katua": 10812, "▁katulid": 10813, "▁katumbalas": 10814, "▁katajimikan": 10815, "▁katig": 10816, "▁katimauan": 10817, "▁katulitan": 10818, "▁katutuwan": 10819, "▁kawu": 10820, "▁kayagum": 10821, "▁kayalipitan": 10822, "▁kayap": 10823, "▁kayapuapuan": 10824, "▁kayarap": 10825, "▁kayli": 10826, "▁kaylyan": 10827, "▁kayablasan": 10828, "▁ke'ng": 10829, "▁ke't": 10830, "▁keakang": 10831, "▁keakitanan": 10832, "▁keg": 10833, "▁keing": 10834, "▁kelasag": 10835, "▁keling": 10836, "▁kepalsinta": 10837, "▁kesal": 10838, "▁kesaman": 10839, "▁kete": 10840, "▁keualan": 10841, "▁kealimbawa": 10842, "▁kebaytan": 10843, "▁kekat": 10844, "▁keke": 10845, "▁keknag": 10846, "▁kekulangan": 10847, "▁kekuyaran": 10848, "▁keka't": 10849, "▁kekao": 10850, "▁kelagan": 10851, "▁kelabuaran": 10852, "▁kemate": 10853, "▁kemikal": 10854, "▁kent": 10855, "▁keni't": 10856, "▁kerelang": 10857, "▁ketnag": 10858, "▁ketukan": 10859, "▁ketwan": 10860, "▁ketauan": 10861, "▁kiakan": 10862, "▁kijn": 10863, "▁kiong": 10864, "▁kibukuban": 10865, "▁kikyak": 10866, "▁kilap": 10867, "▁kilual": 10868, "▁kilubutan": 10869, "▁kimbe": 10870, "▁kinabukas": 10871, "▁kinayap": 10872, "▁kinbg": 10873, "▁kingkakung": 10874, "▁kinguli": 10875, "▁kiriat-jearim": 10876, "▁kofradia": 10877, "▁komp": 10878, "▁kopi": 10879, "▁komers": 10880, "▁kommand": 10881, "▁konejo": 10882, "▁konsi": 10883, "▁konsejo": 10884, "▁korde": 10885, "▁korporasiun": 10886, "▁kory": 10887, "▁korea": 10888, "▁krimen": 10889, "▁kring": 10890, "▁kristong": 10891, "▁kristu": 10892, "▁ku'y": 10893, "▁kudta": 10894, "▁kuenta": 10895, "▁kuintas": 10896, "▁kukub": 10897, "▁kuran": 10898, "▁kurug": 10899, "▁kusad-": 10900, "▁kusing": 10901, "▁kuya": 10902, "▁kuyug": 10903, "▁kucheru": 10904, "▁kukeka": 10905, "▁kulaking": 10906, "▁kulay": 10907, "▁kulyo": 10908, "▁kultura't": 10909, "▁kumpana": 10910, "▁kunb": 10911, "▁kunwari": 10912, "▁kupia": 10913, "▁kupya": 10914, "▁kursilyo": 10915, "▁kusan-risataim": 10916, "▁kusanrisataim": 10917, "▁kutseru": 10918, "▁kuturan": 10919, "▁lakas": 10920, "▁lamang": 10921, "▁lamat": 10922, "▁lanat": 10923, "▁langa": 10924, "▁language": 10925, "▁lapastanganan": 10926, "▁lapis": 10927, "▁laram": 10928, "▁laying": 10929, "▁lennox": 10930, "▁limbun": 10931, "▁linaut": 10932, "▁lipas": 10933, "▁lirios": 10934, "▁lud": 10935, "▁luklulkan": 10936, "▁lukulyus": 10937, "▁luneta": 10938, "▁lusuk": 10939, "▁lwal": 10940, "▁lyam": 10941, "▁lyus": 10942, "▁lais": 10943, "▁laur": 10944, "▁laut": 10945, "▁lawas": 10946, "▁labun": 10947, "▁labingpitung": 10948, "▁labingwalung": 10949, "▁lage": 10950, "▁lagulu": 10951, "▁lagusgus": 10952, "▁lagutuk": 10953, "▁lakad-lakad": 10954, "▁lakuas": 10955, "▁lalbe": 10956, "▁lalkas": 10957, "▁lansang": 10958, "▁lango": 10959, "▁larawang": 10960, "▁lasak": 10961, "▁lasenggu": 10962, "▁last": 10963, "▁laue-laue": 10964, "▁lebul": 10965, "▁lekaran": 10966, "▁letyan": 10967, "▁leukanan": 10968, "▁leparan": 10969, "▁lepastangan": 10970, "▁live": 10971, "▁liwalas": 10972, "▁libri": 10973, "▁libru't": 10974, "▁libu-libu": 10975, "▁light": 10976, "▁ligpak": 10977, "▁likat": 10978, "▁limpad": 10979, "▁limus": 10980, "▁liner": 10981, "▁linito": 10982, "▁linuknuk": 10983, "▁lirio": 10984, "▁lista": 10985, "▁literat": 10986, "▁lito-lito": 10987, "▁logika": 10988, "▁lord": 10989, "▁lucluc": 10990, "▁luwa": 10991, "▁luwal": 10992, "▁luypa": 10993, "▁luyun": 10994, "▁lual-lungub": 10995, "▁lubao": 10996, "▁lubtad": 10997, "▁luluruk": 10998, "▁lumusot": 10999, "▁lumut": 11000, "▁lungsud": 11001, "▁luzon": 11002, "▁makupad": 11003, "▁maman": 11004, "▁mangan": 11005, "▁mapatad": 11006, "▁milugmuk": 11007, "▁mim": 11008, "▁minu": 11009, "▁mitio": 11010, "▁mosa": 11011, "▁mulingid": 11012, "▁maiimp": 11013, "▁maimpis": 11014, "▁mainis": 11015, "▁mais": 11016, "▁mau": 11017, "▁ma-ayus": 11018, "▁mababalisa": 11019, "▁mababang": 11020, "▁mabanglu": 11021, "▁mabasa": 11022, "▁mabatbat": 11023, "▁mabatu": 11024, "▁mabe't": 11025, "▁mabisang": 11026, "▁mabunying": 11027, "▁mabagsic": 11028, "▁mabagut": 11029, "▁mabiasang": 11030, "▁mabuhay": 11031, "▁mabubugtu": 11032, "▁madianitas": 11033, "▁madre": 11034, "▁madalise": 11035, "▁magadtu": 11036, "▁magb": 11037, "▁maghimagsik": 11038, "▁magkalub": 11039, "▁magpas": 11040, "▁magserbisyu": 11041, "▁magsikap": 11042, "▁magsumikap": 11043, "▁magtipastipas": 11044, "▁mag-alas": 11045, "▁mag-aral": 11046, "▁mag-atlu": 11047, "▁mag-ari-ari": 11048, "▁maglwat": 11049, "▁magmakalunus": 11050, "▁magmat": 11051, "▁magmaymut": 11052, "▁magpabanua": 11053, "▁magpabaya": 11054, "▁magpakal": 11055, "▁magpa-alipan": 11056, "▁magpainaua": 11057, "▁magpakabiasa": 11058, "▁magpakabsi": 11059, "▁magpakatas": 11060, "▁magpakasaya": 11061, "▁magpalto": 11062, "▁magpanggap": 11063, "▁magpatilo": 11064, "▁magsakdal": 11065, "▁magtata-tata": 11066, "▁mahane": 11067, "▁makakayap": 11068, "▁makaku": 11069, "▁makale": 11070, "▁makanano": 11071, "▁makasan": 11072, "▁makatan": 11073, "▁makilauk": 11074, "▁makina": 11075, "▁makintab": 11076, "▁makip": 11077, "▁makirandam": 11078, "▁makyasawa": 11079, "▁maka-dyos": 11080, "▁makaagpang": 11081, "▁makaayus": 11082, "▁makah": 11083, "▁makaigit": 11084, "▁makaingat": 11085, "▁makainip": 11086, "▁maka-inum": 11087, "▁makababo": 11088, "▁makabate": 11089, "▁makabatyo": 11090, "▁makabawi": 11091, "▁makabitin": 11092, "▁makabusal": 11093, "▁makabye": 11094, "▁makabangka": 11095, "▁makabighaning": 11096, "▁makadukit": 11097, "▁makagawa": 11098, "▁makagyu": 11099, "▁makakabat": 11100, "▁makakulung": 11101, "▁makakalale": 11102, "▁makakalawat": 11103, "▁makakalingwan": 11104, "▁makalaban": 11105, "▁makaladlad": 11106, "▁makalalam": 11107, "▁makalawe": 11108, "▁makalibe": 11109, "▁makalingasngas": 11110, "▁makalisia": 11111, "▁makalantang": 11112, "▁makalibutad": 11113, "▁makaliku": 11114, "▁makanyan": 11115, "▁makanian-kanian": 11116, "▁makapakilala": 11117, "▁makapaldan": 11118, "▁makapibata": 11119, "▁makapikit": 11120, "▁makapisadiang": 11121, "▁makapagsane": 11122, "▁makapagmulalaku": 11123, "▁makapanasakit": 11124, "▁makapanaya": 11125, "▁makapaniabi": 11126, "▁makapaniabing": 11127, "▁makapangab": 11128, "▁makarap": 11129, "▁makarate": 11130, "▁makaruku": 11131, "▁makasabi": 11132, "▁makasadia": 11133, "▁makasadya": 11134, "▁makasak": 11135, "▁makasakuil": 11136, "▁makasaplala": 11137, "▁makasawup": 11138, "▁makasimpan": 11139, "▁makasumaming": 11140, "▁makasumpa": 11141, "▁makasandata": 11142, "▁makatakas": 11143, "▁makatalastas": 11144, "▁makatapulung": 11145, "▁makatatag": 11146, "▁makatikat": 11147, "▁makatipun": 11148, "▁makatna": 11149, "▁makatumpac": 11150, "▁makatuntun": 11151, "▁makatwa": 11152, "▁makatakut-takut": 11153, "▁makatalaga": 11154, "▁makawale": 11155, "▁makayabe": 11156, "▁makayatu": 11157, "▁makayatna": 11158, "▁makiagnan": 11159, "▁makiagum": 11160, "▁makialung": 11161, "▁makiutus": 11162, "▁maki-male": 11163, "▁maki-upaya": 11164, "▁maki-lwa": 11165, "▁makibunu": 11166, "▁makibirung": 11167, "▁makipagkal": 11168, "▁makipagobra": 11169, "▁makipagp": 11170, "▁makipags": 11171, "▁makipagsalita": 11172, "▁makirungut": 11173, "▁makisabing": 11174, "▁makitambayan": 11175, "▁makuyatyat": 11176, "▁malakue": 11177, "▁malalagua": 11178, "▁malalagwa": 11179, "▁malalanat": 11180, "▁malanat": 11181, "▁malapat": 11182, "▁malas": 11183, "▁malasak": 11184, "▁malayaring": 11185, "▁maleldo": 11186, "▁maleparan": 11187, "▁malicmata": 11188, "▁malikid": 11189, "▁malubak": 11190, "▁malugma": 11191, "▁malulumud": 11192, "▁malumpawi": 11193, "▁malwalas": 11194, "▁mala-e": 11195, "▁malagawang": 11196, "▁malagwang": 11197, "▁malagu't": 11198, "▁malagwa't": 11199, "▁malamyus": 11200, "▁malangsang": 11201, "▁malare-lare": 11202, "▁malati't": 11203, "▁maligosu": 11204, "▁malilingasngas": 11205, "▁mamala": 11206, "▁mamayad": 11207, "▁mamie": 11208, "▁mamiragli": 11209, "▁mamulayi": 11210, "▁mamyalung": 11211, "▁mamyalungan": 11212, "▁mamit-amit": 11213, "▁mamuangit": 11214, "▁mamukadkad": 11215, "▁mamutyawi": 11216, "▁managal": 11217, "▁managulele": 11218, "▁manat": 11219, "▁manatbus": 11220, "▁maniago": 11221, "▁manil": 11222, "▁manimusyo": 11223, "▁manong": 11224, "▁mantili": 11225, "▁manuknanga": 11226, "▁manunkulan": 11227, "▁manyunu": 11228, "▁manaid": 11229, "▁managipus": 11230, "▁managlus": 11231, "▁mananabu": 11232, "▁mananung": 11233, "▁manasitas": 11234, "▁mangabiasa": 11235, "▁mangakapal": 11236, "▁mangalanging": 11237, "▁mangali": 11238, "▁mangasias": 11239, "▁mangaylangan": 11240, "▁mangi": 11241, "▁mangib": 11242, "▁manginlag": 11243, "▁mangis": 11244, "▁mangk": 11245, "▁manglap": 11246, "▁mangmagn": 11247, "▁mangubie": 11248, "▁mangabaldugan": 11249, "▁mangabus": 11250, "▁mangalagung": 11251, "▁mangalindan": 11252, "▁mangalingwan": 11253, "▁mangalua": 11254, "▁mangapampangan": 11255, "▁mangaplas": 11256, "▁mangarangal": 11257, "▁mangarawal": 11258, "▁mangatimyas": 11259, "▁mangatsura": 11260, "▁mangildap": 11261, "▁mangulate": 11262, "▁mangulimlim": 11263, "▁mangutseru": 11264, "▁maniakap": 11265, "▁maniambitan": 11266, "▁manuas": 11267, "▁manukangnan": 11268, "▁manyagid": 11269, "▁manyali": 11270, "▁manyambitan": 11271, "▁manyugat": 11272, "▁mapad": 11273, "▁mapak": 11274, "▁mapanupaya": 11275, "▁mapapatlud": 11276, "▁maparas": 11277, "▁mapawi": 11278, "▁mapayit": 11279, "▁mapigaganaka": 11280, "▁mapitagan": 11281, "▁mapusyo": 11282, "▁maputut": 11283, "▁mapagmatas": 11284, "▁mapagpabaya": 11285, "▁mapalyaring": 11286, "▁mapamigla": 11287, "▁mapamyalungan": 11288, "▁mapanablas": 11289, "▁mapanagimpan": 11290, "▁mapanamdaman": 11291, "▁mapani": 11292, "▁mapaninap": 11293, "▁mapanirug": 11294, "▁mapany": 11295, "▁mapangangas": 11296, "▁mapangalalu": 11297, "▁mapapawi": 11298, "▁maralumdum": 11299, "▁markos": 11300, "▁marmol": 11301, "▁martir": 11302, "▁mariya": 11303, "▁masaklo": 11304, "▁masdan": 11305, "▁maselan": 11306, "▁maskul": 11307, "▁masubuk": 11308, "▁masugat": 11309, "▁masyaang": 11310, "▁masagip": 11311, "▁masasambut": 11312, "▁masisese": 11313, "▁masukad": 11314, "▁masusing": 11315, "▁masusora": 11316, "▁matag": 11317, "▁matako": 11318, "▁mataktak": 11319, "▁matakut": 11320, "▁mataloti": 11321, "▁matalusad": 11322, "▁matambun": 11323, "▁matampa": 11324, "▁matampang": 11325, "▁matangal": 11326, "▁matanggal": 11327, "▁matipid": 11328, "▁matipun": 11329, "▁matnube": 11330, "▁matsura": 11331, "▁matunud": 11332, "▁matupad": 11333, "▁matut": 11334, "▁matutud": 11335, "▁matutung": 11336, "▁mataloting": 11337, "▁matarling": 11338, "▁matimtiman": 11339, "▁matimyas": 11340, "▁matindag": 11341, "▁mawalak": 11342, "▁mayabang": 11343, "▁mayagap": 11344, "▁mayaktangan": 11345, "▁mayalikabuc": 11346, "▁mayalipit": 11347, "▁mayayaninag": 11348, "▁mayaplak": 11349, "▁maynip": 11350, "▁medias": 11351, "▁medis": 11352, "▁meduluk": 11353, "▁mehujael": 11354, "▁memalagua": 11355, "▁memul": 11356, "▁menaimic": 11357, "▁mero": 11358, "▁mesec": 11359, "▁mesias": 11360, "▁metanggal": 11361, "▁metigtig": 11362, "▁meugun": 11363, "▁meyat": 11364, "▁mebagut": 11365, "▁mebal": 11366, "▁mebawas": 11367, "▁mebengi": 11368, "▁mebigla": 11369, "▁mebina": 11370, "▁mebura": 11371, "▁mebyasang": 11372, "▁mebiasa": 11373, "▁mebungsul": 11374, "▁media": 11375, "▁medyu": 11376, "▁meg-": 11377, "▁megsilbing": 11378, "▁megumasid": 11379, "▁megumpisang": 11380, "▁megut": 11381, "▁megutgut": 11382, "▁megido": 11383, "▁mekaganaka": 11384, "▁mekakapilan": 11385, "▁mekakilala": 11386, "▁mekapal": 11387, "▁mekapang": 11388, "▁mekapangan": 11389, "▁mekapatula": 11390, "▁mekaramdam": 11391, "▁mekianib": 11392, "▁mekiasawa": 11393, "▁mekilala": 11394, "▁mekisalamuja": 11395, "▁mekutud": 11396, "▁mekapamungang": 11397, "▁mekapikit": 11398, "▁mekapaniabi": 11399, "▁mekatap": 11400, "▁mekiabe": 11401, "▁mekipaglaban": 11402, "▁mekipagsalita": 11403, "▁melalam": 11404, "▁melanat": 11405, "▁melarin": 11406, "▁meligalig": 11407, "▁melimbag": 11408, "▁melingo": 11409, "▁melasak": 11410, "▁memaksing": 11411, "▁memaryu": 11412, "▁memil": 11413, "▁memilatan": 11414, "▁memili": 11415, "▁memirapal": 11416, "▁memungang": 11417, "▁memupus": 11418, "▁memye": 11419, "▁mematlawe": 11420, "▁menab": 11421, "▁menagkat": 11422, "▁menalili": 11423, "▁menalipit": 11424, "▁menese": 11425, "▁menik": 11426, "▁meningat": 11427, "▁menuban": 11428, "▁menulakan": 11429, "▁menutang": 11430, "▁menandam": 11431, "▁menandaman": 11432, "▁menga": 11433, "▁mengaku": 11434, "▁mengakung": 11435, "▁mengapalyari": 11436, "▁mengapas": 11437, "▁mengebun": 11438, "▁mengip": 11439, "▁mengis": 11440, "▁mengumasdan": 11441, "▁mengutang": 11442, "▁mengalakuan": 11443, "▁mengalambut": 11444, "▁mengalasac": 11445, "▁mengalbag": 11446, "▁mengapamulala": 11447, "▁mengitubud": 11448, "▁menucnangan": 11449, "▁mepawi": 11450, "▁mepinturang": 11451, "▁merakap": 11452, "▁meranup": 11453, "▁merawak": 11454, "▁merine": 11455, "▁mesaglawe": 11456, "▁mesakup": 11457, "▁mesali": 11458, "▁mestra": 11459, "▁mesubuk": 11460, "▁mestru": 11461, "▁metambun": 11462, "▁metampus": 11463, "▁methusael": 11464, "▁metru": 11465, "▁metakmus": 11466, "▁meto-kapulwan": 11467, "▁meto-yatu": 11468, "▁meyapan": 11469, "▁meyaus": 11470, "▁mij": 11471, "▁miayaliwa": 11472, "▁mibal": 11473, "▁mibantug": 11474, "▁mibub": 11475, "▁migag": 11476, "▁migbabo": 11477, "▁migbal": 11478, "▁migbili": 11479, "▁migkera": 11480, "▁migkule": 11481, "▁migkusang": 11482, "▁migligtas": 11483, "▁miglupa": 11484, "▁migluyun-luyun": 11485, "▁migmalagawa": 11486, "▁migmalagua": 11487, "▁migmatas": 11488, "▁migmulang": 11489, "▁migparadang": 11490, "▁migsandal": 11491, "▁migsikap": 11492, "▁migsulit": 11493, "▁migtakap": 11494, "▁migtau": 11495, "▁migwagi": 11496, "▁migyamut": 11497, "▁migdalang": 11498, "▁miglalaue": 11499, "▁miglukas": 11500, "▁miglutu": 11501, "▁migpabaya": 11502, "▁migpiak": 11503, "▁migpakamate": 11504, "▁migpatawe": 11505, "▁mikagulu": 11506, "▁mikakandayu": 11507, "▁mikapali": 11508, "▁mikawakawani": 11509, "▁mika-atin": 11510, "▁mikakunu": 11511, "▁mikalabyus": 11512, "▁mikanlapit": 11513, "▁mikibalu": 11514, "▁milmura": 11515, "▁milagro": 11516, "▁milagru": 11517, "▁military": 11518, "▁minatbus": 11519, "▁miniabing": 11520, "▁mingatbang": 11521, "▁ministil": 11522, "▁mipakaili": 11523, "▁mipalagiuwan": 11524, "▁mipalaue": 11525, "▁mipapam": 11526, "▁mipapan": 11527, "▁mipapat": 11528, "▁mipasiknangan": 11529, "▁mipaticdo": 11530, "▁mipa-": 11531, "▁mipagkalam": 11532, "▁mipaglalaue": 11533, "▁mipagmas": 11534, "▁mipakarok": 11535, "▁mipamie": 11536, "▁mipamwat": 11537, "▁mipandatun": 11538, "▁mipapagmasakit": 11539, "▁miparuku": 11540, "▁miragli": 11541, "▁miragsang": 11542, "▁mirasan": 11543, "▁mirra": 11544, "▁mirun": 11545, "▁misabisabi": 11546, "▁misaclit": 11547, "▁misal": 11548, "▁misasanmetung": 11549, "▁misaup-saup": 11550, "▁mistisung": 11551, "▁misagkul": 11552, "▁misan-misan": 11553, "▁misanmetung": 11554, "▁misasalbag": 11555, "▁misteryu": 11556, "▁misusun-susun": 11557, "▁mitaluktuk": 11558, "▁mitang": 11559, "▁mitawli": 11560, "▁mitut": 11561, "▁mitigko": 11562, "▁miyab": 11563, "▁miyaliua": 11564, "▁miyalung": 11565, "▁miyampang": 11566, "▁miyayaliwang": 11567, "▁mizraim": 11568, "▁modernung": 11569, "▁modu": 11570, "▁morning": 11571, "▁mu'yng": 11572, "▁mu-ing": 11573, "▁muerte": 11574, "▁musing": 11575, "▁mukaming": 11576, "▁mulai": 11577, "▁mumukiat": 11578, "▁mumurahin": 11579, "▁munaman": 11580, "▁munikala": 11581, "▁munisip": 11582, "▁myaliw": 11583, "▁myamasamas": 11584, "▁n-": 11585, "▁natur": 11586, "▁nibu": 11587, "▁nman": 11588, "▁nug": 11589, "▁numeru": 11590, "▁nunu": 11591, "▁nyan": 11592, "▁n'yang": 11593, "▁na'ta": 11594, "▁napin": 11595, "▁narsis": 11596, "▁nakaming": 11597, "▁nangpibandian": 11598, "▁nanu-": 11599, "▁navarro": 11600, "▁nay'ng": 11601, "▁ne'ing": 11602, "▁ne't": 11603, "▁nebangnan": 11604, "▁nebo": 11605, "▁neftali": 11606, "▁neh": 11607, "▁net": 11608, "▁negosyu": 11609, "▁ngayon": 11610, "▁ngenga": 11611, "▁ngengi": 11612, "▁ngenig": 11613, "▁ngenign": 11614, "▁night": 11615, "▁nimfas": 11616, "▁nimrod": 11617, "▁ninukaring": 11618, "▁ningdanum": 11619, "▁ningkakug": 11620, "▁ningkaligaligan": 11621, "▁ninglabuad": 11622, "▁ninu'y": 11623, "▁noel": 11624, "▁nokiz": 11625, "▁noli": 11626, "▁nor": 11627, "▁nobena": 11628, "▁nueva": 11629, "▁nunge": 11630, "▁o't": 11631, "▁o'y": 11632, "▁oiti": 11633, "▁ok": 11634, "▁oleo": 11635, "▁omar": 11636, "▁o'ding": 11637, "▁o'indu": 11638, "▁o'kapait": 11639, "▁o'wa": 11640, "▁observe": 11641, "▁ofisial": 11642, "▁orap": 11643, "▁orator": 11644, "▁orasyun": 11645, "▁oreta": 11646, "▁otsu": 11647, "▁overseas": 11648, "▁palikpik": 11649, "▁palu": 11650, "▁palupalu": 11651, "▁panandaman": 11652, "▁parano": 11653, "▁payaus": 11654, "▁philip": 11655, "▁pianung": 11656, "▁pipan": 11657, "▁pita": 11658, "▁plaza": 11659, "▁ple": 11660, "▁pm": 11661, "▁potru": 11662, "▁psy": 11663, "▁pukiutan": 11664, "▁punggul": 11665, "▁pusa": 11666, "▁putu": 11667, "▁putut": 11668, "▁pwe": 11669, "▁pyag": 11670, "▁pyal": 11671, "▁pa'ing": 11672, "▁paimate": 11673, "▁paingulut": 11674, "▁paitas": 11675, "▁paucyat": 11676, "▁paulagan": 11677, "▁paulu": 11678, "▁paun": 11679, "▁pawang": 11680, "▁paz": 11681, "▁pababa": 11682, "▁pabalaus": 11683, "▁pabalikan": 11684, "▁pabayad": 11685, "▁pabayat": 11686, "▁pabilang": 11687, "▁pabu": 11688, "▁pader": 11689, "▁paganakang": 11690, "▁paganu": 11691, "▁pagawa": 11692, "▁page": 11693, "▁pagkabie": 11694, "▁paglibe": 11695, "▁paglunus": 11696, "▁pagmay": 11697, "▁pagngalalang": 11698, "▁pagpa": 11699, "▁pagsikapan": 11700, "▁pag-ukulan": 11701, "▁pagmasabal": 11702, "▁pakabitasan": 11703, "▁pakabsyan": 11704, "▁pakang": 11705, "▁pakap": 11706, "▁pakating": 11707, "▁pakaw": 11708, "▁pakayap": 11709, "▁pake": 11710, "▁pakil": 11711, "▁pakuldas": 11712, "▁pakyab": 11713, "▁pakyalungan": 11714, "▁paka-": 11715, "▁pakaluglugan": 11716, "▁pakasurian": 11717, "▁paki-": 11718, "▁pakibiruan": 11719, "▁pakibitasan": 11720, "▁pakirandaman": 11721, "▁palam": 11722, "▁palayo": 11723, "▁palbug": 11724, "▁paldak": 11725, "▁palibut": 11726, "▁paling": 11727, "▁paliping": 11728, "▁palmurang": 11729, "▁palpis": 11730, "▁palsinta": 11731, "▁palako": 11732, "▁palanas": 11733, "▁pali-paligid": 11734, "▁palitad": 11735, "▁palitada": 11736, "▁palpimua": 11737, "▁pamaligtad": 11738, "▁pamalu": 11739, "▁pamamat": 11740, "▁pamarokan": 11741, "▁pamarug": 11742, "▁pamayad": 11743, "▁pambale": 11744, "▁pambalen": 11745, "▁pambi": 11746, "▁pamepe": 11747, "▁pamid": 11748, "▁pamie": 11749, "▁pamintwan": 11750, "▁pamitas": 11751, "▁pampasaheru": 11752, "▁pamungkasian": 11753, "▁pamyutus": 11754, "▁pamagayunu": 11755, "▁pamagbalic": 11756, "▁pamagbangun": 11757, "▁pamagkera": 11758, "▁pamagkulang": 11759, "▁pamaglako": 11760, "▁pamaglual": 11761, "▁pamagmalagua": 11762, "▁pamagmalasakit": 11763, "▁pamagmalino": 11764, "▁pamagmasusi": 11765, "▁pamagnasang": 11766, "▁pamagobra": 11767, "▁pamagpam": 11768, "▁pamagpar": 11769, "▁pamagpilit": 11770, "▁pamagsamantala": 11771, "▁pamagsane": 11772, "▁pamagsaya": 11773, "▁pamagsikapulu": 11774, "▁pamagsisti": 11775, "▁pamagumasid": 11776, "▁pamag-aral": 11777, "▁pamaglipat": 11778, "▁pamaglukluk": 11779, "▁pamagpalalu": 11780, "▁pamagpalimbag": 11781, "▁pamakamate": 11782, "▁pamakde": 11783, "▁pamakikaluguran": 11784, "▁pamakirame": 11785, "▁pamakis": 11786, "▁pamaki-pamuk": 11787, "▁pamakiutus": 11788, "▁pamalugse": 11789, "▁pamaldakan": 11790, "▁pamalsinga": 11791, "▁pamalsingtang": 11792, "▁pamamakbung": 11793, "▁pamamalagua": 11794, "▁pamamarusa": 11795, "▁pamamawal": 11796, "▁pamamilang": 11797, "▁pamamili": 11798, "▁pamamipi": 11799, "▁pamamis": 11800, "▁pamamanata": 11801, "▁pamamupul": 11802, "▁pamanab": 11803, "▁pamanalakad": 11804, "▁pamanalangin": 11805, "▁pamananga": 11806, "▁pamanatbus": 11807, "▁pamanese": 11808, "▁pamanintun": 11809, "▁pamanisi": 11810, "▁pamaniuyu": 11811, "▁pamanlub": 11812, "▁pamanuknangan": 11813, "▁pamanuli": 11814, "▁pamanutul": 11815, "▁pamangadi": 11816, "▁pamangaili": 11817, "▁pamangamanu": 11818, "▁pamangawa": 11819, "▁pamangayn": 11820, "▁pamangil": 11821, "▁pamangilala": 11822, "▁pamangutud": 11823, "▁pamangalambut": 11824, "▁pamangalinguan": 11825, "▁pamangandiria": 11826, "▁pamanialakab": 11827, "▁pamaniaus": 11828, "▁pamanugali": 11829, "▁pamanuru": 11830, "▁pamanyirang-dangal": 11831, "▁pamaten": 11832, "▁pamatluran": 11833, "▁pamiablas": 11834, "▁pamialiwa": 11835, "▁pamiy": 11836, "▁pamibubung": 11837, "▁pamibye-bye": 11838, "▁pamibule-bule": 11839, "▁pamikalu": 11840, "▁pamikapatad": 11841, "▁pamikasalang": 11842, "▁pamikasbu": 11843, "▁pamikasundu": 11844, "▁pamilawayan": 11845, "▁pamiligtas": 11846, "▁pamimua": 11847, "▁pamisasalangsangan": 11848, "▁pamisasanmetung": 11849, "▁pamitutula": 11850, "▁panagaula": 11851, "▁panalili": 11852, "▁panalukyan": 11853, "▁panaral": 11854, "▁panaru": 11855, "▁panese": 11856, "▁paniglon": 11857, "▁panikwanan": 11858, "▁paniualan": 11859, "▁panlalawa": 11860, "▁pansing": 11861, "▁pantuk": 11862, "▁panuknangan": 11863, "▁panusignan": 11864, "▁panwalan": 11865, "▁panyagka": 11866, "▁panyaling": 11867, "▁panasakitan": 11868, "▁panasbuc": 11869, "▁pandalasan": 11870, "▁pangamasdan": 11871, "▁pangapun": 11872, "▁pangaring": 11873, "▁pangatanam": 11874, "▁pangausukan": 11875, "▁pangaw": 11876, "▁pangayatbus": 11877, "▁pangg": 11878, "▁pangis": 11879, "▁pangkayanakan": 11880, "▁pangkultura": 11881, "▁pangrelihiyun": 11882, "▁pangulu": 11883, "▁pangaalalayan": 11884, "▁pangaalipit": 11885, "▁pangaasawa": 11886, "▁pangaisnawang": 11887, "▁pangauan": 11888, "▁panga-alang": 11889, "▁panga-aliwa": 11890, "▁panga-ganid": 11891, "▁pangabalu": 11892, "▁pangabayit": 11893, "▁pangabite": 11894, "▁pangadalakit": 11895, "▁pangakabukasan": 11896, "▁pangakulung": 11897, "▁pangakubkub": 11898, "▁pangalalam": 11899, "▁pangamanuan": 11900, "▁pangamataba": 11901, "▁pangarate": 11902, "▁pangasag": 11903, "▁pangasambut": 11904, "▁pangasaserdote": 11905, "▁pangasuku": 11906, "▁pangatakmus": 11907, "▁pangatali": 11908, "▁pangatawu": 11909, "▁pangayabak": 11910, "▁pangilus": 11911, "▁panigampa": 11912, "▁pantyun": 11913, "▁panupaya": 11914, "▁panyilang": 11915, "▁papa": 11916, "▁paparamdam": 11917, "▁papanatili": 11918, "▁paragdag": 11919, "▁param": 11920, "▁paramdam": 11921, "▁paritan": 11922, "▁parkas": 11923, "▁paroba": 11924, "▁parsala": 11925, "▁parte": 11926, "▁paraisu": 11927, "▁paradajan": 11928, "▁pareu": 11929, "▁pasabat": 11930, "▁pasabi": 11931, "▁pasakit": 11932, "▁pasaldac": 11933, "▁paseo": 11934, "▁pasi-": 11935, "▁pasibalik": 11936, "▁pasibul": 11937, "▁pasibut": 11938, "▁pasipamunga": 11939, "▁pasubali": 11940, "▁pasuk": 11941, "▁pasusu": 11942, "▁pasilub": 11943, "▁pasipanganak": 11944, "▁pasipagdala": 11945, "▁pasisuku": 11946, "▁patanat": 11947, "▁patawak": 11948, "▁patda": 11949, "▁patibe": 11950, "▁patitingapun": 11951, "▁patlud": 11952, "▁patnube": 11953, "▁patpat": 11954, "▁patri": 11955, "▁patronu": 11956, "▁patudturan": 11957, "▁patukud": 11958, "▁patung": 11959, "▁patyu": 11960, "▁patajimikan": 11961, "▁patakaran": 11962, "▁patuyag": 11963, "▁pawian": 11964, "▁payampun": 11965, "▁payas": 11966, "▁payid": 11967, "▁payn": 11968, "▁payatut": 11969, "▁pesik": 11970, "▁pesip": 11971, "▁petad": 11972, "▁peyapa": 11973, "▁pekamaulagang": 11974, "▁pekapam": 11975, "▁pekasaksi": 11976, "▁pekasaup": 11977, "▁pekikitan": 11978, "▁pekis": 11979, "▁pekabungsu": 11980, "▁pekamalag": 11981, "▁pekamalapit": 11982, "▁pekataluctuc": 11983, "▁pekiutusan": 11984, "▁pelangga": 11985, "▁pemakli": 11986, "▁pemat": 11987, "▁pematulan": 11988, "▁pemidua": 11989, "▁pemimirusang": 11990, "▁pemintuan": 11991, "▁pemirasu": 11992, "▁pemitsera": 11993, "▁pemugkasian": 11994, "▁pemaltakan": 11995, "▁pemalagyuan": 11996, "▁penabilinan": 11997, "▁penagal": 11998, "▁penagsag": 11999, "▁penamdaman": 12000, "▁penuma": 12001, "▁penganac": 12002, "▁pengas": 12003, "▁pengutang": 12004, "▁peninsula": 12005, "▁peninsular": 12006, "▁pepagulutan": 12007, "▁pepakayap": 12008, "▁pepalanging": 12009, "▁pepaliwas": 12010, "▁pepamana": 12011, "▁pepamua": 12012, "▁pepap": 12013, "▁peparam": 12014, "▁pepatang": 12015, "▁pepaintulut": 12016, "▁pepaintulutan": 12017, "▁pepainuman": 12018, "▁pepauranan": 12019, "▁pepabandian": 12020, "▁pepabustan": 12021, "▁pepakaban": 12022, "▁pepakamalan": 12023, "▁pepaluban": 12024, "▁pepalyari": 12025, "▁pepanibala": 12026, "▁peparakal": 12027, "▁peparaman": 12028, "▁pepasakayan": 12029, "▁pepasari": 12030, "▁pepasias": 12031, "▁pepasukuan": 12032, "▁pepasulud": 12033, "▁pepasumpa": 12034, "▁pepatalakanaran": 12035, "▁pepatatagan": 12036, "▁pepatilip": 12037, "▁pepatudtud": 12038, "▁pepatula": 12039, "▁peradventure": 12040, "▁perezeo": 12041, "▁perezeos": 12042, "▁pesib": 12043, "▁pesibangun": 12044, "▁pesid": 12045, "▁pesitakas": 12046, "▁pi-": 12047, "▁piabaian": 12048, "▁pialung": 12049, "▁pihu": 12050, "▁pihung": 12051, "▁piungalian": 12052, "▁piyalben": 12053, "▁pibablas": 12054, "▁pibali": 12055, "▁pibla": 12056, "▁pibukas-bukas": 12057, "▁pigagap": 12058, "▁pigawang": 12059, "▁pigkalam": 12060, "▁piglas": 12061, "▁piglibe": 12062, "▁pigtawan": 12063, "▁pikalukaluan": 12064, "▁pikamwan": 12065, "▁pikatsa": 12066, "▁pikayari": 12067, "▁pikli": 12068, "▁pikudta": 12069, "▁pikurus": 12070, "▁pilalagen": 12071, "▁pilapil": 12072, "▁pilsintan": 12073, "▁pilipino": 12074, "▁pilming-pilming": 12075, "▁pilosopiya": 12076, "▁pilosopu": 12077, "▁pinlap": 12078, "▁pintig": 12079, "▁pintur": 12080, "▁pintura": 12081, "▁pinuman": 12082, "▁pinya": 12083, "▁pinatubo": 12084, "▁pingalip": 12085, "▁pipanuasan": 12086, "▁pipumpunan": 12087, "▁piragli": 12088, "▁piratonita": 12089, "▁pisabi": 12090, "▁pisac": 12091, "▁pisamb": 12092, "▁piskal": 12093, "▁pisulwan": 12094, "▁pisundu-sundu": 12095, "▁pisanmetung": 12096, "▁pisasabyan": 12097, "▁pisasali": 12098, "▁pittakaran": 12099, "▁plane": 12100, "▁plumeru": 12101, "▁polbo": 12102, "▁posts": 12103, "▁presu": 12104, "▁progresu": 12105, "▁puang": 12106, "▁pulpitu": 12107, "▁pulsera": 12108, "▁pulseras": 12109, "▁pulyets": 12110, "▁pulut-panilan": 12111, "▁pupud": 12112, "▁purgatoriu": 12113, "▁qu": 12114, "▁qnt": 12115, "▁rab": 12116, "▁rama": 12117, "▁ray": 12118, "▁resta": 12119, "▁rugo": 12120, "▁rweda": 12121, "▁ra't": 12122, "▁raama": 12123, "▁rahab": 12124, "▁real": 12125, "▁rebel": 12126, "▁rebulus": 12127, "▁regalu": 12128, "▁republika": 12129, "▁rev": 12130, "▁rebekang": 12131, "▁renald": 12132, "▁rivera": 12133, "▁romanu": 12134, "▁sagacgakan": 12135, "▁sakl": 12136, "▁sama": 12137, "▁sambut": 12138, "▁samuel": 12139, "▁satsat": 12140, "▁sawa": 12141, "▁sawi": 12142, "▁sawpan": 12143, "▁saying": 12144, "▁selang": 12145, "▁sele": 12146, "▁sieti": 12147, "▁silip": 12148, "▁sintun": 12149, "▁sinup": 12150, "▁siuang": 12151, "▁slogan": 12152, "▁song": 12153, "▁sore": 12154, "▁studies": 12155, "▁sumpung": 12156, "▁susi": 12157, "▁susun-susun": 12158, "▁sutil": 12159, "▁said": 12160, "▁save": 12161, "▁saba": 12162, "▁sabana": 12163, "▁sabic": 12164, "▁sabla-sab": 12165, "▁sacdal": 12166, "▁sacsi": 12167, "▁sacristia": 12168, "▁sagana": 12169, "▁sagkal": 12170, "▁sagkan": 12171, "▁saglawayan": 12172, "▁sagsag": 12173, "▁sagradung": 12174, "▁saklung": 12175,
[...]
