{"version": 1, "lowercase": true, "vocab": {"<s>": 0, "<pad>": 1, "</s>": 2, "<unk>": 3, "__pam_Latn__": 4, "▁": 5, "<0x00>": 6, "<0x01>": 7, "<0x02>": 8, "<0x03>": 9, "<0x04>": 10, "<0x05>": 11, "<0x06>": 12, "<0x07>": 13, "<0x08>": 14, "<0x09>": 15, "<0x0A>": 16, "<0x0B>": 17, "<0x0C>": 18, "<0x0D>": 19, "<0x0E>": 20, "<0x0F>": 21, "<0x10>": 22, "<0x11>": 23, "<0x12>": 24, "<0x13>": 25, "<0x14>": 26, "<0x15>": 27, "<0x16>": 28, "<0x17>": 29, "<0x18>": 30, "<0x19>": 31, "<0x1A>": 32, "<0x1B>": 33, "<0x1C>": 34, "<0x1D>": 35, "<0x1E>": 36, "<0x1F>": 37, "<0x20>": 38, "<0x21>": 39, "<0x22>": 40, "<0x23>": 41, "<0x24>": 42, "<0x25>": 43, "<0x26>": 44, "<0x27>": 45, "<0x28>": 46, "<0x29>": 47, "<0x2A>": 48, "<0x2B>": 49, "<0x2C>": 50, "<0x2D>": 51, "<0x2E>": 52, "<0x2F>": 53, "<0x30>": 54, "<0x31>": 55, "<0x32>": 56, "<0x33>": 57, "<0x34>": 58, "<0x35>": 59, "<0x36>": 60, "<0x37>": 61, "<0x38>": 62, "<0x39>": 63, "<0x3A>": 64, "<0x3B>": 65, "<0x3C>": 66, "<0x3D>": 67, "<0x3E>": 68, "<0x3F>": 69, "<0x40>": 70, "<0x41>": 71, "<0x42>": 72, "<0x43>": 73, "<0x44>": 74, "<0x45>": 75, "<0x46>": 76, "<0x47>": 77, "<0x48>": 78, "<0x49>": 79, "<0x4A>": 80, "<0x4B>": 81, "<0x4C>": 82, "<0x4D>": 83, "<0x4E>": 84, "<0x4F>": 85, "<0x50>": 86, "<0x51>": 87, "<0x52>": 88, "<0x53>": 89, "<0x54>": 90, "<0x55>": 91, "<0x56>": 92, "<0x57>": 93, "<0x58>": 94, "<0x59>": 95, "<0x5A>": 96, "<0x5B>": 97, "<0x5C>": 98, "<0x5D>": 99, "<0x5E>": 100, "<0x5F>": 101, "<0x60>": 102, "<0x61>": 103, "<0x62>": 104, "<0x63>": 105, "<0x64>": 106, "<0x65>": 107, "<0x66>": 108, "<0x67>": 109, "<0x68>": 110, "<0x69>": 111, "<0x6A>": 112, "<0x6B>": 113, "<0x6C>": 114, "<0x6D>": 115, "<0x6E>": 116, "<0x6F>": 117, "<0x70>": 118, "<0x71>": 119, "<0x72>": 120, "<0x73>": 121, "<0x74>": 122, "<0x75>": 123, "<0x76>": 124, "<0x77>": 125, "<0x78>": 126, "<0x79>": 127, "<0x7A>": 128, "<0x7B>": 129, "<0x7C>": 130, "<0x7D>": 131, "<0x7E>": 132, "<0x7F>": 133, "<0x80>": 134, "<0x81>": 135, "<0x82>": 136, "<0x83>": 137, "<0x84>": 138, "<0x85>": 139, "<0x86>": 140, "<0x87>": 141, "<0x88>": 142, "<0x89>": 143, "<0x8A>": 144, "<0x8B>": 145, "<0x8C>": 146, "<0x8D>": 147, "<0x8E>": 148, "<0x8F>": 149, "<0x90>": 150, "<0x91>": 151, "<0x92>": 152, "<0x93>": 153, "<0x94>": 154, "<0x95>": 155, "<0x96>": 156, "<0x97>": 157, "<0x98>": 158, "<0x99>": 159, "<0x9A>": 160, "<0x9B>": 161, "<0x9C>": 162, "<0x9D>": 163, "<0x9E>": 164, "<0x9F>": 165, "<0xA0>": 166, "<0xA1>": 167, "<0xA2>": 168, "<0xA3>": 169, "<0xA4>": 170, "<0xA5>": 171, "<0xA6>": 172, "<0xA7>": 173, "<0xA8>": 174, "<0xA9>": 175, "<0xAA>": 176, "<0xAB>": 177, "<0xAC>": 178, "<0xAD>": 179, "<0xAE>": 180, "<0xAF>": 181, "<0xB0>": 182, "<0xB1>": 183, "<0xB2>": 184, "<0xB3>": 185, "<0xB4>": 186, "<0xB5>": 187, "<0xB6>": 188, "<0xB7>": 189, "<0xB8>": 190, "<0xB9>": 191, "<0xBA>": 192, "<0xBB>": 193, "<0xBC>": 194, "<0xBD>": 195, "<0xBE>": 196, "<0xBF>": 197, "<0xC0>": 198, "<0xC1>": 199, "<0xC2>": 200, "<0xC3>": 201, "<0xC4>": 202, "<0xC5>": 203, "<0xC6>": 204, "<0xC7>": 205, "<0xC8>": 206, "<0xC9>": 207, "<0xCA>": 208, "<0xCB>": 209, "<0xCC>": 210, "<0xCD>": 211, "<0xCE>": 212, "<0xCF>": 213, "<0xD0>": 214, "<0xD1>": 215, "<0xD2>": 216, "<0xD3>": 217, "<0xD4>": 218, "<0xD5>": 219, "<0xD6>": 220, "<0xD7>": 221, "<0xD8>": 222, "<0xD9>": 223, "<0xDA>": 224, "<0xDB>": 225, "<0xDC>": 226, "<0xDD>": 227, "<0xDE>": 228, "<0xDF>": 229, "<0xE0>": 230, "<0xE1>": 231, "<0xE2>": 232, "<0xE3>": 233, "<0xE4>": 234, "<0xE5>": 235, "<0xE6>": 236, "<0xE7>": 237, "<0xE8>": 238, "<0xE9>": 239, "<0xEA>": 240, "<0xEB>": 241, "<0xEC>": 242, "<0xED>": 243, "<0xEE>": 244, "<0xEF>": 245, "<0xF0>": 246, "<0xF1>": 247, "<0xF2>": 248, "<0xF3>": 249, "<0xF4>": 250, "<0xF5>": 251, "<0xF6>": 252, "<0xF7>": 253, "<0xF8>": 254, "<0xF9>": 255, "<0xFA>": 256, "<0xFB>": 257, "<0xFC>": 258, "<0xFD>": 259, "<0xFE>": 260, "<0xFF>": 261, "!": 262, "\"": 263, "$": 264, "'": 265, "(": 266, ")": 267, "*": 268, ",": 269, "-": 270, ".": 271, "/": 272, "0": 273, "1": 274, "2": 275, "3": 276, "4": 277, "5": 278, "6": 279, "7": 280, "8": 281, "9": 282, ":": 283, ";": 284, "=": 285, ">": 286, "?": 287, "@": 288, "[": 289, "\\": 290, "]": 291, "`": 292, "a": 293, "b": 294, "c": 295, "d": 296, "e": 297, "f": 298, "g": 299, "h": 300, "i": 301, "j": 302, "k": 303, "l": 304, "m": 305, "n": 306, "o": 307, "p": 308, "q": 309, "r": 310, "s": 311, "t": 312, "u": 313, "v": 314, "w": 315, "x": 316, "y": 317, "z": 318, "¨": 319, "´": 320, "…": 321, "▁\"": 322, "▁'": 323, "▁(": 324, "▁)": 325, "▁*": 326, "▁+": 327, "▁,": 328, "▁-": 329, "▁.": 330, "▁0": 331, "▁1": 332, "▁2": 333, "▁3": 334, "▁4": 335, "▁5": 336, "▁6": 337, "▁7": 338, "▁8": 339, "▁9": 340, "▁=": 341, "▁[": 342, "▁\\": 343, "▁]": 344, "▁a": 345, "▁b": 346, "▁c": 347, "▁d": 348, "▁e": 349, "▁f": 350, "▁g": 351, "▁h": 352, "▁i": 353, "▁j": 354, "▁k": 355, "▁l": 356, "▁m": 357, "▁n": 358, "▁o": 359, "▁p": 360, "▁q": 361, "▁r": 362, "▁s": 363, "▁t": 364, "▁u": 365, "▁v": 366, "▁w": 367, "▁x": 368, "▁y": 369, "▁z": 370, "▁¨": 371, "▁…": 372, "ng": 373, "an": 374, "ing": 375, "ang": 376, "al": 377, "ak": 378, "▁ka": 379, "▁at": 380, "▁king": 381, "in": 382, "ung": 383, "at": 384, "▁ing": 385, "am": 386, "▁ke": 387, "ab": 388, "as": 389, "ag": 390, "ul": 391, "▁na": 392, "ap": 393, "▁ning": 394, "it": 395, "ar": 396, "il": 397, "ay": 398, "▁me": 399, "▁ding": 400, "▁kar": 401, "▁kek": 402, "▁ku": 403, "▁ya": 404, "ad": 405, "un": 406, "us": 407, "ut": 408, "is": 409, "uk": 410, "▁nang": 411, "▁mi": 412, "▁mu": 413, "▁al": 414, "▁mak": 415, "el": 416, "▁man": 417, "▁an": 418, "ti": 419, "▁karing": 420, "en": 421, "ik": 422, "ib": 423, "anu": 424, "▁la": 425, "ug": 426, "os": 427, "▁bal": 428, "tung": 429, "▁ne": 430, "aw": 431, "▁kap": 432, "▁kan": 433, "▁da": 434, "inu": 435, "abi": 436, "▁in": 437, "▁pam": 438, "ig": 439, "▁keang": 440, "ip": 441, "▁kekang": 442, "▁ul": 443, "ong": 444, "▁metung": 445, "▁yang": 446, "▁kak": 447, "ala": 448, "▁di": 449, "um": 450, "▁nung": 451, "▁mag": 452, "ur": 453, "ud": 454, "▁de": 455, "ub": 456, "▁kay": 457, "▁sin": 458, "anan": 459, "im": 460, "er": 461, "▁kang": 462, "pa": 463, "▁mal": 464, "▁dios": 465, "on": 466, "▁uling": 467, "▁ng": 468, "angan": 469, "ta": 470, "▁mat": 471, "▁pe": 472, "▁kung": 473, "uan": 474, "aman": 475, "▁ang": 476, "▁kal": 477, "tang": 478, "ian": 479, "▁dap": 480, "alan": 481, "alak": 482, "▁ik": 483, "▁je": 484, "▁ib": 485, "ayan": 486, "▁ban": 487, "▁ginu": 488, "▁karel": 489, "ho": 490, "▁anak": 491, "ir": 492, "▁lab": 493, "▁pan": 494, "au": 495, "▁angg": 496, "hov": 497, "do": 498, "▁jehov": 499, "iu": 500, "ili": 501, "es": 502, "▁jehova": 503, "alang": 504, "▁kakung": 505, "▁anti": 506, "▁kab": 507, "▁mang": 508, "▁kanak": 509, "▁pang": 510, "ya": 511, "▁ak": 512, "ayu": 513, "▁keka": 514, "▁mar": 515, "amat": 516, "▁sinabi": 517, "▁lang": 518, "▁as": 519, "ra": 520, "ua": 521, "▁pa": 522, "ie": 523, "▁mung": 524, "ot": 525, "atan": 526, "▁am": 527, "▁bab": 528, "id": 529, "▁is": 530, "eng": 531, "▁kas": 532, "aya": 533, "▁ra": 534, "uad": 535, "ula": 536, "▁ar": 537, "apan": 538, "▁labuad": 539, "akit": 540, "▁karin": 541, "▁aldo": 542, "yu": 543, "ari": 544, "ita": 545, "▁dak": 546, "▁mas": 547, "▁ag": 548, "amu": 549, "▁lalak": 550, "iw": 551, "▁ab": 552, "▁ring": 553, "▁mo": 554, "▁dapot": 555, "▁iti": 556, "la": 557, "▁alang": 558, "▁karelang": 559, "tan": 560, "▁bin": 561, "▁ngen": 562, "▁kam": 563, "▁kea": 564, "asan": 565, "▁kat": 566, "▁pas": 567, "▁ko": 568, "▁anggang": 569, "▁min": 570, "yang": 571, "▁pin": 572, "▁din": 573, "akan": 574, "ibat": 575, "ulan": 576, "awa": 577, "▁kekong": 578, "▁neng": 579, "▁tal": 580, "▁mab": 581, "▁no": 582, "▁gamat": 583, "anua": 584, "▁keng": 585, "up": 586, "ia": 587, "▁pak": 588, "▁ap": 589, "▁tau": 590, "▁lalaki": 591, "atang": 592, "usu": 593, "wan": 594, "▁may": 595, "yan": 596, "lang": 597, "apat": 598, "▁sal": 599, "▁yu": 600, "▁mil": 601, "▁tin": 602, "amp": 603, "▁oh": 604, "to": 605, "ara": 606, "▁dal": 607, "awan": 608, "▁mib": 609, "▁mis": 610, "▁bang": 611, "▁banua": 612, "▁mik": 613, "▁pat": 614, "▁mam": 615, "▁mit": 616, "▁ta": 617, "▁kanaku": 618, "▁pag": 619, "du": 620, "ana": 621, "ilan": 622, "▁mig": 623, "te": 624, "▁makan": 625, "▁mip": 626, "aka": 627, "▁naman": 628, "▁sab": 629, "wa": 630, "▁mek": 631, "▁kanakung": 632, "▁pusu": 633, "▁pep": 634, "and": 635, "sa": 636, "▁bale": 637, "▁ngeni": 638, "abe": 639, "tas": 640, "▁pab": 641, "▁karela": 642, "agul": 643, "▁ala": 644, "▁nanu": 645, "▁map": 646, "▁ika": 647, "▁lib": 648, "ali": 649, "'t": 650, "amd": 651, "▁men": 652, "pan": 653, "amb": 654, "▁kaku": 655, "▁sas": 656, "▁lal": 657, "▁balayan": 658, "ting": 659, "ulu": 660, "▁atiu": 661, "▁bag": 662, "▁lin": 663, "▁maging": 664, "ac": 665, "ako": 666, "int": 667, "rael": 668, "▁israel": 669, "uku": 670, "▁dalan": 671, "upa": 672, "or": 673, "▁pek": 674, "▁lag": 675, "ukn": 676, "und": 677, "▁inya": 678, "▁baba": 679, "▁dar": 680, "▁paman": 681, "▁kapat": 682, "ulung": 683, "▁ibpa": 684, "▁kanita": 685, "abian": 686, "▁angga": 687, "usan": 688, "agan": 689, "▁ip": 690, "ilug": 691, "om": 692, "▁ken": 693, "▁dapat": 694, "alik": 695, "▁meng": 696, "▁dik": 697, "▁atin": 698, "▁itang": 699, "▁ma": 700, "▁pal": 701, "▁par": 702, "akal": 703, "▁makap": 704, "utan": 705, "▁lug": 706, "ata": 707, "▁dang": 708, "▁uli": 709, "▁arapan": 710, "▁gin": 711, "▁kapatad": 712, "▁balang": 713, "asa": 714, "unt": 715, "▁amanu": 716, "▁bat": 717, "unan": 718, "▁pamag": 719, "▁ba": 720, "▁lub": 721, "▁babai": 722, "▁kapilan": 723, "▁mayap": 724, "las": 725, "▁si": 726, "aga": 727, "▁bie": 728, "▁il": 729, "▁sa": 730, "alu": 731, "▁aku": 732, "▁ni": 733, "▁mabilug": 734, "man": 735, "▁kin": 736, "▁mata": 737, "kul": 738, "▁makanian": 739, "▁mong": 740, "uknangan": 741, "▁ating": 742, "et": 743, "pang": 744, "uran": 745, "uri": 746, "▁bage": 747, "▁nak": 748, "▁dakal": 749, "▁po": 750, "alakad": 751, "me": 752, "iang": 753, "▁ninu": 754, "▁re": 755, "aran": 756, "mal": 757, "▁san": 758, "▁kayabe": 759, "▁meg": 760, "urian": 761, "▁dikil": 762, "▁kalad": 763, "▁kekayu": 764, "▁lagiu": 765, "▁bay": 766, "▁kanit": 767, "unduk": 768, "▁danu": 769, "▁ita": 770, "▁sablang": 771, "ustan": 772, "▁dalit": 773, "yari": 774, "▁le": 775, "▁tut": 776, "itan": 777, "nan": 778, "▁ibat": 779, "awak": 780, "▁es": 781, "ye": 782, "▁balu": 783, "amdaman": 784, "ma": 785, "▁kayu": 786, "▁nala": 787, "▁kaya": 788, "ini": 789, "ipan": 790, "▁pil": 791, "▁ikit": 792, "ami": 793, "▁babo": 794, "▁sik": 795, "▁ari": 796, "▁makat": 797, "▁sar": 798, "▁ye": 799, "▁muku": 800, "▁kayang": 801, "re": 802, "▁aliw": 803, "na": 804, "▁manibat": 805, "▁inyang": 806, "aun": 807, "▁salang": 808, "▁tat": 809, "ale": 810, "▁kabang": 811, "le": 812, "inan": 813, "ulid": 814, "▁pabustan": 815, "akob": 816, "igtas": 817, "▁mir": 818, "▁bis": 819, "▁gab": 820, "▁jakob": 821, "aring": 822, "be": 823, "▁sabian": 824, "akas": 825, "▁ketang": 826, "▁maki": 827, "▁it": 828, "iran": 829, "▁asawa": 830, "▁kong": 831, "▁lugud": 832, "▁pis": 833, "mu": 834, "▁kaladua": 835, "anung": 836, "io": 837, "▁ngan": 838, "▁oini": 839, "lung": 840, "▁gabun": 841, "▁kil": 842, "▁ngening": 843, "mang": 844, "▁sum": 845, "onom": 846, "▁pap": 847, "▁tamu": 848, "akut": 849, "ampangan": 850, "▁ad": 851, "▁mula": 852, "anuanan": 853, "ka": 854, "▁bunduk": 855, "▁marawak": 856, "udad": 857, "▁eg": 858, "▁sis": 859, "alung": 860, "uc": 861, "▁balen": 862, "▁detang": 863, "▁kul": 864, "▁nong": 865, "eronom": 866, "ose": 867, "ukan": 868, "une": 869, "uteronom": 870, "▁deuteronom": 871, "▁siudad": 872, "utad": 873, "▁mika": 874, "▁nu": 875, "▁pit": 876, "▁tang": 877, "▁karinan": 878, "▁makas": 879, "▁pen": 880, "▁panaun": 881, "aba": 882, "▁meging": 883, "sin": 884, "▁egip": 885, "▁libutad": 886, "ald": 887, "▁buri": 888, "alig": 889, "uyu": 890, "▁beng": 891, "▁danum": 892, "▁sang": 893, "▁jose": 894, "eb": 895, "ela": 896, "isan": 897, "▁egipto": 898, "▁kapampangan": 899, "ilala": 900, "ukl": 901, "▁lupa": 902, "▁sarili": 903, "ayat": 904, "▁bansa": 905, "alas": 906, "▁ilang": 907, "abie": 908, "iping": 909, "▁matulid": 910, "▁ume": 911, "ila": 912, "tu": 913, "▁kasalang": 914, "▁gag": 915, "▁ila": 916, "li": 917, "uli": 918, "▁pamam": 919, "ilang": 920, "▁maragul": 921, "▁ngana": 922, "ayang": 923, "dan": 924, "ikan": 925, "iwala": 926, "aku": 927, "akad": 928, "alanan": 929, "lu": 930, "ati": 931, "una": 932, "▁agpang": 933, "kut": 934, "uki": 935, "utus": 936, "▁deti": 937, "▁dew": 938, "▁kekeng": 939, "▁binie": 940, "utung": 941, "▁band": 942, "▁dewakan": 943, "▁ibie": 944, "▁keti": 945, "▁mags": 946, "bug": 947, "ulat": 948, "▁deng": 949, "▁meb": 950, "aling": 951, "uluan": 952, "▁dim": 953, "kan": 954, "▁bung": 955, "▁dep": 956, "▁manuknangan": 957, "▁tum": 958, "atu": 959, "yo": 960, "▁nit": 961, "▁pasib": 962, "▁wari": 963, "amdam": 964, "pak": 965, "▁akit": 966, "apit": 967, "ro": 968, "▁mangat": 969, "▁pib": 970, "-b": 971, "agu": 972, "imb": 973, "▁bit": 974, "▁kabud": 975, "▁yung": 976, "arin": 977, "kas": 978, "si": 979, "▁kare": 980, "▁lum": 981, "▁pasb": 982, "apun": 983, "era": 984, "▁bak": 985, "▁daptan": 986, "▁talas": 987, "anakan": 988, "duang": 989, "▁indu": 990, "▁mel": 991, "▁siwala": 992, "▁taung": 993, "tus": 994, "untuk": 995, "▁aliwang": 996, "▁mani": 997, "das": 998, "ulut": 999, "utu": 1000, "▁bar": 1001, "▁banal": 1002, "▁mete": 1003, "▁sak": 1004, "▁tula": 1005, "amang": 1006, "em": 1007, "ele": 1008, "▁jud": 1009, "▁kekatang": 1010, "▁suk": 1011, "ol": 1012, "▁lig": 1013, "▁lu": 1014, "▁magl": 1015, "ungkul": 1016, "▁amp": 1017, "▁kekami": 1018, "▁marang": 1019, "aban": 1020, "amung": 1021, "dam": 1022, "ham": 1023, "▁peng": 1024, "▁kaibat": 1025, "agm": 1026, "ating": 1027, "iling": 1028, "raham": 1029, "▁aduang": 1030, "▁abraham": 1031, "▁ge": 1032, "▁katul": 1033, "▁kilub": 1034, "▁linu": 1035, "ias": 1036, "uru": 1037, "▁bul": 1038, "▁bengi": 1039, "▁depatan": 1040, "uguran": 1041, "▁ay": 1042, "▁dutung": 1043, "▁ining": 1044, "iman": 1045, "▁buk": 1046, "▁kanitang": 1047, "▁or": 1048, "ran": 1049, "vid": 1050, "ibatan": 1051, "▁david": 1052, "▁kalig": 1053, "su": 1054, "▁agyang": 1055, "▁amanung": 1056, "▁pu": 1057, "▁tune": 1058, "abas": 1059, "anak": 1060, "buk": 1061, "da": 1062, "▁lalam": 1063, "▁muk": 1064, "▁manat": 1065, "▁mine": 1066, "▁purian": 1067, "▁pasibayu": 1068, "▁uk": 1069, "▁wa": 1070, "▁bayung": 1071, "▁keni": 1072, "▁makal": 1073, "aus": 1074, "alangin": 1075, "iramdaman": 1076, "wang": 1077, "▁ginung": 1078, "▁sana": 1079, "▁yan": 1080, "ayap": 1081, "ese": 1082, "ke": 1083, "▁kawan": 1084, "▁utus": 1085, "aming": 1086, "utusan": 1087, "▁kapakal": 1088, "▁magk": 1089, "▁tag": 1090, "awe": 1091, "▁katuliran": 1092, "▁pad": 1093, "▁panga": 1094, "▁se": 1095, "▁sikanan": 1096, "aup": 1097, "ku": 1098, "▁ali": 1099, "▁kag": 1100, "▁mun": 1101, "▁panuanan": 1102, "▁pig": 1103, "bu": 1104, "kal": 1105, "ulang": 1106, "▁dai": 1107, "▁kapakaluluan": 1108, "▁kening": 1109, "▁makab": 1110, "▁mim": 1111, "▁rin": 1112, "▁sala": 1113, "akitan": 1114, "yas": 1115, "▁batu": 1116, "▁daya": 1117, "▁ipus": 1118, "▁pik": 1119, "▁sig": 1120, "▁tungkul": 1121, "ino": 1122, "se": 1123, "▁do": 1124, "▁marangle": 1125, "▁us": 1126, "▁anting": 1127, "▁daka": 1128, "▁kami": 1129, "▁sabla": 1130, "▁yatu": 1131, "araon": 1132, "atag": 1133, "ni": 1134, "▁bitis": 1135, "▁faraon": 1136, "▁laman": 1137, "▁mum": 1138, "ic": 1139, "uban": 1140, "uman": 1141, "▁bayu": 1142, "▁dimdam": 1143, "▁kautusan": 1144, "▁laban": 1145, "▁milyari": 1146, "▁sag": 1147, "▁tik": 1148, "-s": 1149, "ilatan": 1150, "▁asbuk": 1151, "▁atlung": 1152, "▁big": 1153, "▁iniang": 1154, "▁ro": 1155, "▁sam": 1156, "angun": 1157, "tud": 1158, "▁mangal": 1159, "▁pitung": 1160, "agang": 1161, "bat": 1162, "inap": 1163, "tasan": 1164, "▁gewa": 1165, "▁kata": 1166, "▁naku": 1167, "▁pamik": 1168, "▁reng": 1169, "ilangan": 1170, "ina": 1171, "ugan": 1172, "▁gen": 1173, "▁mus": 1174, "▁manatili": 1175, "aram": 1176, "ilis": 1177, "▁ampon": 1178, "▁mate": 1179, "▁mibalik": 1180, "▁talasuyu": 1181, "aliw": 1182, "amban": 1183, "ibe": 1184, "ipam": 1185, "sit": 1186, "▁atyu": 1187, "▁im": 1188, "▁magp": 1189, "▁misan": 1190, "▁siping": 1191, "aragul": 1192, "▁dayat": 1193, "▁dinatang": 1194, "▁katut": 1195, "atamu": 1196, "ga": 1197, "ind": 1198, "yat": 1199, "▁kayanakan": 1200, "▁para": 1201, "▁sus": 1202, "amas": 1203, "atas": 1204, "▁be": 1205, "▁deuteronomio": 1206, "▁deuteronomy": 1207, "▁karetang": 1208, "alamat": 1209, "ising": 1210, "lat": 1211, "▁bulan": 1212, "▁ingatan": 1213, "▁mem": 1214, "▁naka": 1215, "ayung": 1216, "de": 1217, "untunan": 1218, "▁kamat": 1219, "▁kasalanan": 1220, "▁kum": 1221, "▁niti": 1222, "▁tan": 1223, "king": 1224, "ugud": 1225, "ump": 1226, "ungan": 1227, "▁bini": 1228, "▁isa": 1229, "▁kalupa": 1230, "▁kaniti": 1231, "▁kapan": 1232, "▁lak": 1233, "▁makananu": 1234, "▁mua": 1235, "▁panalangin": 1236, "▁tuntunan": 1237, "ait": 1238, "▁api": 1239, "▁binili": 1240, "▁kinu": 1241, "▁kula": 1242, "agmul": 1243, "gal": 1244, "▁bunga": 1245, "▁lul": 1246, "▁namang": 1247, "▁ping": 1248, "▁rang": 1249, "▁ukum": 1250, "abal": 1251, "dal": 1252, "lan": 1253, "malat": 1254, "ura": 1255, "▁isaac": 1256, "▁kapurian": 1257, "▁ligaya": 1258, "▁padre": 1259, "sang": 1260, "ubu": 1261, "unus": 1262, "amate": 1263, "ern": 1264, "itas": 1265, "ling": 1266, "ulis": 1267, "▁ben": 1268, "▁ini": 1269, "▁lik": 1270, "▁ming": 1271, "▁pip": 1272, "▁pr": 1273, "▁pakiramdaman": 1274, "awad": 1275, "dala": 1276, "imal": 1277, "ipamuk": 1278, "lak": 1279, "▁aliwa": 1280, "▁bye": 1281, "▁lar": 1282, "▁matas": 1283, "▁pati": 1284, "inum": 1285, "▁bakit": 1286, "▁esau": 1287, "▁kamatayan": 1288, "▁magb": 1289, "▁per": 1290, "▁pamangan": 1291, "▁sel": 1292, "ob": 1293, "paya": 1294, "umd": 1295, "▁anac": 1296, "▁buntuk": 1297, "▁dit": 1298, "▁dayatmalat": 1299, "▁inia": 1300, "▁kinua": 1301, "▁makapagmul": 1302, "▁miras": 1303, "▁pamang": 1304, "▁tak": 1305, "eni": 1306, "lab": 1307, "ru": 1308, "▁aliu": 1309, "▁iligtas": 1310, "▁inutus": 1311, "▁mes": 1312, "▁tel": 1313, "▁wanan": 1314, "akung": 1315, "ape": 1316, "ipun": 1317, "▁apat": 1318, "▁bub": 1319, "▁balamu": 1320, "▁kaluguran": 1321, "▁labi": 1322, "▁mangan": 1323, "▁mangatua": 1324, "▁nanumang": 1325, "agl": 1326, "amuamu": 1327, "isip": 1328, "lag": 1329, "▁akakit": 1330, "▁dake": 1331, "▁ikong": 1332, "▁kit": 1333, "▁maka": 1334, "▁malyari": 1335, "▁mer": 1336, "▁sim": 1337, "▁tutu": 1338, "▁yo": 1339, "ane": 1340, "aua": 1341, "intu": 1342, "yung": 1343, "yup": 1344, "▁antim": 1345, "▁ati": 1346, "▁bi": 1347, "▁bus": 1348, "▁lung": 1349, "▁pasbul": 1350, "▁pekapun": 1351, "▁salamat": 1352, "esis": 1353, "he": 1354, "ins": 1355, "ris": 1356, "yos": 1357, "▁datang": 1358, "▁esp": 1359, "▁ilug": 1360, "▁katutuan": 1361, "▁mabie": 1362, "▁many": 1363, "▁pus": 1364, "ags": 1365, "ampa": 1366, "igit": 1367, "ika": 1368, "itu": 1369, "jim": 1370, "uknang": 1371, "▁bina": 1372, "▁genesis": 1373, "▁kekatamu": 1374, "▁lalaking": 1375, "▁mini": 1376, "amin": 1377, "anaka": 1378, "ening": 1379, "ilu": 1380, "lo": 1381, "udtud": 1382, "▁ayan": 1383, "▁animal": 1384, "▁bib": 1385, "▁but": 1386, "▁lim": 1387, "▁makanyan": 1388, "▁pung": 1389, "▁pup": 1390, "▁sap": 1391, "▁sib": 1392, "▁salu": 1393, "ake": 1394, "aral": 1395, "asi": 1396, "intun": 1397, "uang": 1398, "ugat": 1399, "▁binang": 1400, "▁mana": 1401, "▁nuk": 1402, "▁samp": 1403, "▁sasabian": 1404, "▁te": 1405, "▁vaka": 1406, "▁ayup": 1407, "▁baket": 1408, "▁dela": 1409, "▁dinan": 1410, "▁ef": 1411, "▁kapitan": 1412, "▁katawan": 1413, "▁tab": 1414, "▁tipan": 1415, "awang": 1416, "kat": 1417, "yaring": 1418, "▁bukud": 1419, "▁dioses": 1420, "▁magkang": 1421, "▁nanung": 1422, "▁nin": 1423, "▁pamamilatan": 1424, "▁tapat": 1425, "▁tupa": 1426, "▁tatakut": 1427, "▁tinape": 1428, "alikut": 1429, "anting": 1430, "ayi": 1431, "han": 1432, "no": 1433, "▁atmu": 1434, "▁kaw": 1435, "▁kaligtasan": 1436, "▁kareng": 1437, "▁kekaming": 1438, "alo": 1439, "aldugan": 1440, "atulan": 1441, "ayapan": 1442, "ule": 1443, "yun": 1444, "▁dur": 1445, "▁ikang": 1446, "▁lil": 1447, "▁linual": 1448, "▁mibangun": 1449, "▁pamak": 1450, "▁poe": 1451, "▁tup": 1452, "abang": 1453, "api": 1454, "ubud": 1455, "uling": 1456, "▁daku": 1457, "▁inaus": 1458, "▁kambe": 1459, "▁maigit": 1460, "▁meko": 1461, "▁nuan": 1462, "▁pasbulan": 1463, "-d": 1464, "-l": 1465, "akap": 1466, "bing": 1467, "kutan": 1468, "tor": 1469, "ukluk": 1470, "▁adua": 1471, "▁masikan": 1472, "▁pun": 1473, "▁piband": 1474, "▁tand": 1475, "▁ten": 1476, "alag": 1477, "alita": 1478, "iko": 1479, "imut": 1480, "ning": 1481, "sing": 1482, "tar": 1483, "ugn": 1484, "▁abak": 1485, "▁benj": 1486, "▁dum": 1487, "▁gawan": 1488, "▁kabaldugan": 1489, "▁lual": 1490, "▁matua": 1491, "▁migl": 1492, "▁nangan": 1493, "▁pekab": 1494, "▁tata": 1495, "abut": 1496, "alam": 1497, "inis": 1498, "inta": 1499, "lasang": 1500, "nang": 1501, "unang": 1502, "▁ej": 1503, "▁kati": 1504, "▁las": 1505, "▁my": 1506, "▁malag": 1507, "▁ngara": 1508, "▁salita": 1509, "▁tr": 1510, "ambut": 1511, "ayun": 1512, "ent": 1513, "ersit": 1514, "gap": 1515, "ile": 1516, "usa": 1517, "▁abe": 1518, "▁dili": 1519, "▁dalaga": 1520, "▁dinalan": 1521, "▁imalan": 1522, "▁ind": 1523, "▁judg": 1524, "▁kapam": 1525, "▁li": 1526, "▁lip": 1527, "▁leg": 1528, "▁mep": 1529, "▁pangan": 1530, "▁pi": 1531, "▁pablasang": 1532, "▁tamung": 1533, "aan": 1534, "ion": 1535, "ibung": 1536, "mon": 1537, "▁abim": 1538, "▁angel": 1539, "▁babie": 1540, "▁ditak": 1541, "▁ejersit": 1542, "▁espir": 1543, "▁ikayu": 1544, "▁kut": 1545, "▁linub": 1546, "▁mali": 1547, "▁miy": 1548, "▁nganang": 1549, "alastas": 1550, "are": 1551, "ba": 1552, "elah": 1553, "nung": 1554, "osa": 1555, "ual": 1556, "utang": 1557, "yen": 1558, "▁abimele": 1559, "▁bel": 1560, "▁judges": 1561, "▁keta": 1562, "▁lubus": 1563, "▁masanting": 1564, "▁miniabi": 1565, "▁nukarin": 1566, "▁pasalamat": 1567, "▁rak": 1568, "▁takut": 1569, "▁tatang": 1570, "▁talapan": 1571, "-p": 1572, "aligan": 1573, "ingat": 1574, "intunan": 1575, "ira": 1576, "ises": 1577, "ok": 1578, "ram": 1579, "tis": 1580, "umdum": 1581, "undu": 1582, "▁akilala": 1583, "▁bur": 1584, "▁by": 1585, "▁babaing": 1586, "▁benjamin": 1587, "▁darapat": 1588, "▁kubu": 1589, "▁lev": 1590, "▁mangaragul": 1591, "▁moises": 1592, "▁paninap": 1593, "▁talakad": 1594, "▁tanaman": 1595, "▁tinalakad": 1596, "▁yng": 1597, "abing": 1598, "amit": 1599, "lagan": 1600, "sintan": 1601, "ulug": 1602, "▁abalu": 1603, "▁alak": 1604, "▁and": 1605, "▁bet": 1606, "▁bandian": 1607, "▁he": 1608, "▁kanaan": 1609, "▁kapayapan": 1610, "▁malyaring": 1611, "▁mekad": 1612, "▁menuknangan": 1613, "▁pamany": 1614, "▁saup": 1615, "▁sug": 1616, "▁waring": 1617, "ain": 1618, "abat": 1619, "agsa": 1620, "awani": 1621, "ch": 1622, "ri": 1623, "uy": 1624, "ugse": 1625, "▁agad": 1626, "▁ayanak": 1627, "▁bilang": 1628, "▁maniabi": 1629, "▁mid": 1630, "▁mie": 1631, "▁sub": 1632, "▁ti": 1633, "adu": 1634, "bus": 1635, "ding": 1636, "eru": 1637, "impan": 1638, "kap": 1639, "malag": 1640, "tabe": 1641, "▁bir": 1642, "▁dala": 1643, "▁don": 1644, "▁juda": 1645, "▁kanu": 1646, "▁kailangan": 1647, "▁kais": 1648, "▁kuanan": 1649, "▁lel": 1650, "▁makapat": 1651, "▁pem": 1652, "▁pepas": 1653, "▁poes": 1654, "▁sul": 1655, "▁tim": 1656, "▁talibung": 1657, "▁tuparan": 1658, "alinguan": 1659, "gan": 1660, "isa": 1661, "ore": 1662, "▁ain": 1663, "▁agiang": 1664, "▁altar": 1665, "▁bisa": 1666, "▁bisang": 1667, "▁damas": 1668, "▁dila": 1669, "▁espiritu": 1670, "▁kasakitan": 1671, "▁lalu": 1672, "▁lungub": 1673, "▁malig": 1674, "▁marayu": 1675, "▁mekibat": 1676, "▁pagamuamu": 1677, "▁pamip": 1678, "▁sinta": 1679, "ablas": 1680, "alus": 1681, "bang": 1682, "iramdam": 1683, "pulung": 1684, "selah": 1685, "son": 1686, "ulus": 1687, "undukan": 1688, "▁damasu": 1689, "▁jes": 1690, "▁kapal": 1691, "▁lagyu": 1692, "▁nune": 1693, "▁pibandian": 1694, "▁salapi": 1695, "▁sangkan": 1696, "adia": 1697, "andit": 1698, "apang": 1699, "asdan": 1700, "ipit": 1701, "yente": 1702, "▁aliua": 1703, "▁babayi": 1704, "▁dikut": 1705, "▁ed": 1706, "▁gintu": 1707, "▁ibili": 1708, "▁mapan": 1709, "▁makapagmulala": 1710, "▁makapatulug": 1711, "▁manakit": 1712, "▁milabas": 1713, "▁oras": 1714, "▁potang": 1715, "▁yula": 1716, "akup": 1717, "ama": 1718, "aptan": 1719, "arra": 1720, "asang": 1721, "eon": 1722, "ordan": 1723, "▁iting": 1724, "▁jordan": 1725, "▁kad": 1726, "▁met": 1727, "▁musiko": 1728, "▁ninumang": 1729, "▁pali": 1730, "▁pangat": 1731, "▁pepa": 1732, "▁sakit": 1733, "▁sil": 1734, "▁uran": 1735, "'ing": 1736, "-g": 1737, "akilala": 1738, "ampang": 1739, "andi": 1740, "anuang": 1741, "asala": 1742, "ilead": 1743, "isn": 1744, "itang": 1745, "kulan": 1746, "pas": 1747, "umpa": 1748, "▁abram": 1749, "▁filis": 1750, "▁isip": 1751, "▁lelangan": 1752, "▁mad": 1753, "▁mako": 1754, "▁malugud": 1755, "▁manaya": 1756, "▁mapilan": 1757, "▁masal": 1758, "▁pala": 1759, "▁pekabuntuk": 1760, "▁penandit": 1761, "▁tit": 1762, "▁tuk": 1763, "▁tanda": 1764, "-t": 1765, "-bundukan": 1766, "esa": 1767, "ipul": 1768, "isi": 1769, "pu": 1770, "san": 1771, "▁angganan": 1772, "▁banwa": 1773, "▁daraptan": 1774, "▁dinapat": 1775, "▁en": 1776, "▁gawa": 1777, "▁jer": 1778, "▁mayu": 1779, "▁ngaku": 1780, "▁on": 1781, "▁pagk": 1782, "▁pangane": 1783, "▁peka": 1784, "▁saka": 1785, "▁sing": 1786, "▁sampaga": 1787, "▁sisuan": 1788, "▁sukat": 1789, "▁tig": 1790, "agd": 1791, "akab": 1792, "aliwang": 1793, "apal": 1794, "arian": 1795, "bag": 1796, "raim": 1797, "sil": 1798, "teos": 1799, "uldas": 1800, "▁banuang": 1801, "▁bayang": 1802, "▁danup": 1803, "▁diwa": 1804, "▁id": 1805, "▁kalam": 1806, "▁kun": 1807, "▁lalakad": 1808, "▁limang": 1809, "▁magm": 1810, "▁menganak": 1811, "▁prins": 1812, "▁pusung": 1813, "▁sulu": 1814, "▁tiagu": 1815, "akang": 1816, "apo": 1817, "eba": 1818, "ulutan": 1819, "▁benging": 1820, "▁bunduk-bundukan": 1821, "▁daralan": 1822, "▁daratang": 1823, "▁dininan": 1824, "▁gan": 1825, "▁ir": 1826, "▁ibarra": 1827, "▁kon": 1828, "▁nig": 1829, "▁nakang": 1830, "▁ob": 1831, "▁pir": 1832, "▁pags": 1833, "▁penganak": 1834, "erdo": 1835, "ise": 1836, "kad": 1837, "pata": 1838, "pun": 1839, "▁ausan": 1840, "▁dening": 1841, "▁filisteos": 1842, "▁gilead": 1843, "▁gug": 1844, "▁ig": 1845, "▁ituru": 1846, "▁lua": 1847, "▁labis": 1848, "▁magd": 1849, "▁manalig": 1850, "▁memal": 1851, "▁mukung": 1852, "▁nanupata": 1853, "▁pagm": 1854, "▁pamani": 1855, "▁parang": 1856, "▁pepat": 1857, "▁sanga": 1858, "▁simpa": 1859, "▁sumpa": 1860, "▁tinu": 1861, "▁tumula": 1862, "▁upaya": 1863, "▁zion": 1864, "akutan": 1865, "aliwa": 1866, "angid": 1867, "apatan": 1868, "arine": 1869, "ate": 1870, "elyo": 1871, "ha": 1872, "ilip": 1873, "lis": 1874, "luban": 1875, "mung": 1876, "ue": 1877, "uka": 1878, "uklukan": 1879, "▁antimong": 1880, "▁bandi": 1881, "▁bayinta": 1882, "▁butul": 1883, "▁damdaman": 1884, "▁dalumdum": 1885, "▁efraim": 1886, "▁ganakan": 1887, "▁kayapan": 1888, "▁ker": 1889, "▁kor": 1890, "▁larawan": 1891, "▁lugal": 1892, "▁mebie": 1893, "▁minuna": 1894, "▁mipak": 1895, "▁munie": 1896, "▁noe": 1897, "▁pamib": 1898, "▁pamagl": 1899, "▁pany": 1900, "▁poeta": 1901, "▁prinsip": 1902, "▁sara": 1903, "▁tala": 1904, "▁talaga": 1905, "▁tenyente": 1906, "-k": 1907, "agal": 1908, "alic": 1909, "amanu": 1910, "asiag": 1911, "eran": 1912, "iku": 1913, "ipag": 1914, "kalub": 1915, "nasan": 1916, "pant": 1917, "tuk": 1918, "ulad": 1919, "utkut": 1920, "ve": 1921, "▁agg": 1922, "▁atilu": 1923, "▁dyos": 1924, "▁gagawan": 1925, "▁kakal": 1926, "▁kanian": 1927, "▁kom": 1928, "▁lun": 1929, "▁lawan": 1930, "▁menibatan": 1931, "▁mibab": 1932, "▁migising": 1933, "▁pampang": 1934, "▁rakel": 1935, "▁samson": 1936, "▁santu": 1937, "▁sinampa": 1938, "agli": 1939, "aguli": 1940, "alpant": 1941, "awi": 1942, "gu": 1943, "iasnan": 1944, "lit": 1945, "lac": 1946, "ras": 1947, "uat": 1948, "wala": 1949, "▁jesus": 1950, "▁kik": 1951, "▁kalal": 1952, "▁kalma": 1953, "▁kapas": 1954, "▁kur": 1955, "▁lot": 1956, "▁libis": 1957, "▁libru": 1958, "▁libu": 1959, "▁magsaya": 1960, "▁makar": 1961, "▁makib": 1962, "▁mapam": 1963, "▁menakit": 1964, "▁mibili": 1965, "▁palak": 1966, "▁panu": 1967, "▁pakibat": 1968, "▁panintunan": 1969, "▁pangal": 1970, "▁sinu": 1971, "▁saserdo": 1972, "▁wakas": 1973, "'na": 1974, "ablab": 1975, "abung": 1976, "aganaka": 1977, "algal": 1978, "ame": 1979, "intuan": 1980, "ko": 1981, "nangan": 1982, "sis": 1983, "ulud": 1984, "uma": 1985, "yalung": 1986, "▁akung": 1987, "▁bulung": 1988, "▁busal": 1989, "▁dane": 1990, "▁del": 1991, "▁gat": 1992, "▁kaban": 1993, "▁kabiasnan": 1994, "▁katapatan": 1995, "▁kinanua": 1996, "▁luklukan": 1997, "▁linapit": 1998, "▁makatua": 1999, "▁malam": 2000, "▁manas": 2001, "▁manen": 2002, "▁memalen": 2003, "▁mibait": 2004, "▁munta": 2005, "▁pangab": 2006, "▁pemalag": 2007, "▁sabi": 2008, "▁sid": 2009, "▁yat": 2010, "apu": 2011, "apulung": 2012, "est": 2013, "gali": 2014, "hi": 2015, "ius": 2016, "ideon": 2017, "muan": 2018, "nya": 2019, "sinta": 2020, "tak": 2021, "unu": 2022, "▁abimelec": 2023, "▁anyu": 2024, "▁arap": 2025, "▁aslagan": 2026, "▁dan": 2027, "▁gideon": 2028, "▁inawa": 2029, "▁ipag": 2030, "▁kand": 2031, "▁kapit": 2032, "▁kukul": 2033, "▁lakad": 2034, "▁leguan": 2035, "▁lijim": 2036, "▁linigtas": 2037, "▁lipulan": 2038, "▁mag-": 2039, "▁magsan": 2040, "▁makay": 2041, "▁makapayan": 2042, "▁malagu": 2043, "▁manintun": 2044, "▁nakung": 2045, "▁ninung": 2046, "▁pabur": 2047, "▁panl": 2048, "▁pangas": 2049, "▁patutu": 2050, "▁pepakit": 2051, "▁roka": 2052, "▁sugatan": 2053, "▁the": 2054, "▁tib": 2055, "▁ting": 2056, "▁tuki": 2057, "'y": 2058, "alto": 2059, "alyari": 2060, "amba": 2061, "arang": 2062, "bung": 2063, "gen": 2064, "iak": 2065, "ilian": 2066, "ilig": 2067, "imbur": 2068, "ment": 2069, "od": 2070, "▁ammon": 2071, "▁apulung": 2072, "▁banang": 2073, "▁batal": 2074, "▁dig": 2075, "▁itas": 2076, "▁kaisipan": 2077, "▁lo": 2078, "▁lulu": 2079, "▁law": 2080, "▁labing": 2081, "▁magsantung": 2082, "▁makapang": 2083, "▁malapit": 2084, "▁maput": 2085, "▁masik": 2086, "▁mitalakad": 2087, "▁moab": 2088, "▁mumuna": 2089, "▁nita": 2090, "▁nitang": 2091, "▁pul": 2092, "▁pamanalastas": 2093, "▁pete": 2094, "▁pilak": 2095, "▁sakdal": 2096, "▁sanang": 2097, "▁takde": 2098, "alakit": 2099, "angk": 2100, "ayad": 2101, "bun": 2102, "enti": 2103, "ilabut": 2104, "intind": 2105, "iru": 2106, "lasan": 2107, "metung": 2108, "panapun": 2109, "rang": 2110, "tin": 2111, "usang": 2112, "yal": 2113, "▁angin": 2114, "▁basan": 2115, "▁bil": 2116, "▁bigla": 2117, "▁daklat": 2118, "▁ginawa": 2119, "▁gino": 2120, "▁ima": 2121, "▁ipan": 2122, "▁kaling": 2123, "▁kutkutan": 2124, "▁ling": 2125, "▁leon": 2126, "▁luguran": 2127, "▁magpak": 2128, "▁masaya": 2129, "▁matibe": 2130, "▁migs": 2131, "▁mitmu": 2132, "▁mukami": 2133, "▁pay": 2134, "▁pagkeran": 2135, "▁pemalagiu": 2136, "▁pepanuanan": 2137, "▁pero": 2138, "▁so": 2139, "▁sund": 2140, "▁ter": 2141, "▁tuknangan": 2142, "'ng": 2143, "agk": 2144, "akalulu": 2145, "amal": 2146, "fa": 2147, "ibala": 2148, "ikab": 2149, "imburisan": 2150, "iri": 2151, "pe": 2152, "ugbug": 2153, "umb": 2154, "umu": 2155, "▁20": 2156, "▁apan": 2157, "▁asno": 2158, "▁asu": 2159, "▁bas": 2160, "▁baling": 2161, "▁buring": 2162, "▁daung": 2163, "▁dakang": 2164, "▁inat": 2165, "▁kw": 2166, "▁kinuldas": 2167, "▁libung": 2168, "▁linto": 2169, "▁makanan": 2170, "▁makiramdam": 2171, "▁makatalakad": 2172, "▁migp": 2173, "▁mipas": 2174, "▁mumunang": 2175, "▁nan": 2176, "▁pro": 2177, "▁pakal": 2178, "▁pami": 2179, "▁patayan": 2180, "▁pes": 2181, "▁pilinan": 2182, "▁sariling": 2183, "▁sinag": 2184, "▁taya": 2185, "▁tip": 2186, "▁tinakas": 2187, "▁ustu": 2188, "adi": 2189, "akul": 2190, "alipit": 2191, "alem": 2192, "apl": 2193, "aras": 2194, "eo": 2195, "ere": 2196, "him": 2197, "ilid": 2198, "lad": 2199, "nu": 2200, "oreos": 2201, "ukul": 2202, "umasdan": 2203, "upad": 2204, "usalem": 2205, "ustis": 2206, "utg": 2207, "yag": 2208, "yon": 2209, "▁alikab": 2210, "▁bungsu": 2211, "▁day": 2212, "▁dalung": 2213, "▁jehovang": 2214, "▁kanuanan": 2215, "▁kaligaligan": 2216, "▁kayarian": 2217, "▁lele": 2218, "▁lulual": 2219, "▁muli": 2220, "▁makis": 2221, "▁malang": 2222, "▁malinis": 2223, "▁maria": 2224, "▁masikanan": 2225, "▁matuang": 2226, "▁matudtud": 2227, "▁milal": 2228, "▁mipap": 2229, "▁miragsa": 2230, "▁pamil": 2231, "▁pane": 2232, "▁pisamban": 2233, "▁saguli": 2234, "▁susu": 2235, "▁sagiw": 2236, "▁tap": 2237, "▁timan": 2238, "▁tinas": 2239, "▁tutung": 2240, "-al": 2241, "abus": 2242, "agat": 2243, "age": 2244, "agus": 2245, "alat": 2246, "alayan": 2247, "aluan": 2248, "amisan": 2249, "ampat": 2250, "dung": 2251, "erung": 2252, "imanman": 2253, "inas": 2254, "lap": 2255, "nub": 2256, "res": 2257, "ubli": 2258, "ubung": 2259, "ulungan": 2260, "▁aganaka": 2261, "▁apatapulung": 2262, "▁balugbug": 2263, "▁bayintau": 2264, "▁dating": 2265, "▁dir": 2266, "▁eku": 2267, "▁el": 2268, "▁kim": 2269, "▁kanan": 2270, "▁kapag": 2271, "▁kuk": 2272, "▁makananung": 2273, "▁manibatan": 2274, "▁maran": 2275, "▁matula": 2276, "▁mipa": 2277, "▁midian": 2278, "▁mist": 2279, "▁nasa": 2280, "▁panimanman": 2281, "▁pekiramdaman": 2282, "▁pilatan": 2283, "▁pinili": 2284, "▁prinsipes": 2285, "▁saya": 2286, "▁subali": 2287, "▁th": 2288, "11": 2289, "akayap": 2290, "alawe": 2291, "alangsang": 2292, "angis": 2293, "apag": 2294, "araman": 2295, "ard": 2296, "asakit": 2297, "ima": 2298, "iuala": 2299, "iwan": 2300, "kang": 2301, "obra": 2302, "rus": 2303, "ukas": 2304, "ulisak": 2305, "usig": 2306, "▁aliuang": 2307, "▁ambun": 2308, "▁anam": 2309, "▁atulan": 2310, "▁bangke": 2311, "▁batung": 2312, "▁dul": 2313, "▁iya": 2314, "▁ja": 2315, "▁jef": 2316, "▁kalalaman": 2317, "▁kamelyo": 2318, "▁ket": 2319, "▁lalto": 2320, "▁maw": 2321, "▁magdala": 2322, "▁maranun": 2323, "▁menibat": 2324, "▁mila": 2325, "▁mipan": 2326, "▁mitagan": 2327, "▁nun": 2328, "▁napun": 2329, "▁paburen": 2330, "▁pamal": 2331, "▁rom": 2332, "▁rebe": 2333, "▁santung": 2334, "▁sinugat": 2335, "ador": 2336, "akaling": 2337, "amalan": 2338, "ambing": 2339, "angg": 2340, "apali": 2341, "asag": 2342, "atin": 2343, "atun": 2344, "aupan": 2345, "dap": 2346, "dom": 2347, "iz": 2348, "ilo": 2349, "isnawa": 2350, "kung": 2351, "lualu": 2352, "nanu": 2353, "pulu": 2354, "tik": 2355, "uking": 2356, "umangid": 2357, "umpe": 2358, "ustisia": 2359, "yus": 2360, "▁alus": 2361, "▁angina": 2362, "▁atlu": 2363, "▁bagya": 2364, "▁baneng": 2365, "▁biasa": 2366, "▁bukas": 2367, "▁cl": 2368, "▁ejersitos": 2369, "▁gatpanapun": 2370, "▁ilako": 2371, "▁jefta": 2372, "▁kalib": 2373, "▁kaladwa": 2374, "▁kambing": 2375, "▁kaniting": 2376, "▁kasangk": 2377, "▁kaybat": 2378, "▁lalung": 2379, "▁laru": 2380, "▁lea": 2381, "▁likuan": 2382, "▁lumakad": 2383, "▁lunto": 2384, "▁mala": 2385, "▁maus": 2386, "▁makapan": 2387, "▁makanianman": 2388, "▁makapagmulalang": 2389, "▁malati": 2390, "▁mayupaya": 2391, "▁o'": 2392, "▁of": 2393, "▁oreni": 2394, "▁pari": 2395, "▁pilan": 2396, "▁puri": 2397, "▁palsintan": 2398, "▁panga-": 2399, "▁paralan": 2400, "▁pisas": 2401, "▁sun": 2402, "▁sup": 2403, "▁sinulat": 2404, "▁telakad": 2405, "▁usuk": 2406, "alangan": 2407, "alen": 2408, "alit": 2409, "ano": 2410, "atasan": 2411, "awat": 2412, "ayapa": 2413, "ben": 2414, "bo": 2415, "danan": 2416, "gapan": 2417, "ienti": 2418, "ilugan": 2419, "irgen": 2420, "ron": 2421, "ukiat": 2422, "uklat": 2423, "ulit": 2424, "yap": 2425, "▁aw": 2426, "▁albug": 2427, "▁alikabuk": 2428, "▁antimo": 2429, "▁bakal": 2430, "▁bik": 2431, "▁bu": 2432, "▁bunt": 2433, "▁biserung": 2434, "▁dalise": 2435, "▁e'": 2436, "▁ejersito": 2437, "▁fran": 2438, "▁jerusalem": 2439, "▁katasan": 2440, "▁kawatasan": 2441, "▁keyang": 2442, "▁kitang": 2443, "▁komment": 2444, "▁ku't": 2445, "▁kuldas": 2446, "▁kule": 2447, "▁lakuan": 2448, "▁mamu": 2449, "▁mga": 2450, "▁makapamisan": 2451, "▁maligaya": 2452, "▁mamangan": 2453, "▁mame": 2454, "▁mangar": 2455, "▁marin": 2456, "▁masalese": 2457, "▁mikak": 2458, "▁mikasala": 2459, "▁mitat": 2460, "▁mitipun": 2461, "▁paw": 2462, "▁pulu": 2463, "▁pago": 2464, "▁pamu": 2465, "▁pamagp": 2466, "▁pansin": 2467, "▁past": 2468, "▁pota": 2469, "▁rebeka": 2470, "▁sad": 2471, "▁sinuyu": 2472, "▁sukulan": 2473, "▁tem": 2474, "▁tinienti": 2475, "▁trig": 2476, "▁tumakut": 2477, "▁virgen": 2478, "▁watas": 2479, "abit": 2480, "abyan": 2481, "ada": 2482, "alian": 2483, "alingwan": 2484, "asanting": 2485, "awaran": 2486, "dak": 2487, "ibut": 2488, "igla": 2489, "imp": 2490, "ipat": 2491, "iwal": 2492, "kailangan": 2493, "pit": 2494, "plo": 2495, "tal": 2496, "tat": 2497, "uknanganan": 2498, "utut": 2499, "utgutan": 2500, "wat": 2501, "▁aggiang": 2502, "▁alipan": 2503, "▁amoreos": 2504, "▁bante": 2505, "▁cris": 2506, "▁daramdaman": 2507, "▁deta": 2508, "▁durul": 2509, "▁espan": 2510, "▁ger": 2511, "▁ibalik": 2512, "▁ikami": 2513, "▁indung": 2514, "▁kalasag": 2515, "▁kaming": 2516, "▁kapamilatan": 2517, "▁kareti": 2518, "▁kasiran": 2519, "▁mut": 2520, "▁malas": 2521, "▁malagung": 2522, "▁mask": 2523, "▁mey": 2524, "▁minaus": 2525, "▁papan": 2526, "▁pain": 2527, "▁pakalulu": 2528, "▁palad": 2529, "▁panayan": 2530, "▁pangatau": 2531, "▁panlalawe": 2532, "▁parati": 2533, "▁pemalagiuwan": 2534, "▁rosa": 2535, "▁suyu": 2536, "▁santungan": 2537, "▁sintang": 2538, "▁sundalus": 2539, "▁taram": 2540, "▁tulid": 2541, "▁tagimpan": 2542, "▁ustung": 2543, "ainawan": 2544, "akalan": 2545, "alut": 2546, "amul": 2547, "apus": 2548, "arap": 2549, "bud": 2550, "go": 2551, "iapat": 2552, "iya": 2553, "iliari": 2554, "isanan": 2555, "jan": 2556, "jimik": 2557, "sam": 2558, "ten": 2559, "tura": 2560, "uac": 2561, "ubi": 2562, "ubluban": 2563, "ubuan": 2564, "unta": 2565, "upus": 2566, "uryan": 2567, "▁asias": 2568, "▁bakas": 2569, "▁bili": 2570, "▁bug": 2571, "▁balat": 2572, "▁beluan": 2573, "▁dom": 2574, "▁darala": 2575, "▁deting": 2576, "▁dinalung": 2577, "▁filip": 2578, "▁fransis": 2579, "▁gale": 2580, "▁gulut": 2581, "▁idala": 2582, "▁justisia": 2583, "▁kalulu": 2584, "▁kapar": 2585, "▁kapup": 2586, "▁katub": 2587, "▁katau": 2588, "▁kutang": 2589, "▁kulkul": 2590, "▁makud": 2591, "▁makasum": 2592, "▁malutu": 2593, "▁manases": 2594, "▁manenaya": 2595, "▁mangas": 2596, "▁mangalati": 2597, "▁masayang": 2598, "▁miligtas": 2599, "▁mimum": 2600, "▁minie": 2601, "▁minta": 2602, "▁nako": 2603, "▁nanan": 2604, "▁oyan": 2605, "▁pakibatan": 2606, "▁silid": 2607, "▁sir": 2608, "▁sale": 2609, "▁sikem": 2610, "▁tara": 2611, "▁tapuk": 2612, "▁tinuki": 2613, "▁ulaga": 2614, "abalu": 2615, "aganakan": 2616, "alad": 2617, "amitan": 2618, "aplala": 2619, "ario": 2620, "asng": 2621, "ayanan": 2622, "dang": 2623, "if": 2624, "ibea": 2625, "ining": 2626, "intang": 2627, "iras": 2628, "payang": 2629, "talan": 2630, "umis": 2631, "umduman": 2632, "util": 2633, "wel": 2634, "ying": 2635, "zar": 2636, "▁asan": 2637, "▁buac": 2638, "▁ba'": 2639, "▁ba't": 2640, "▁babye": 2641, "▁bansang": 2642, "▁buntuc": 2643, "▁ch": 2644, "▁dng": 2645, "▁dong": 2646, "▁daun": 2647, "▁die": 2648, "▁diyos": 2649, "▁durulukan": 2650, "▁edom": 2651, "▁fransisk": 2652, "▁ga": 2653, "▁gibea": 2654, "▁inge": 2655, "▁isipan": 2656, "▁katung": 2657, "▁kabayu": 2658, "▁kaburian": 2659, "▁kanane": 2660, "▁kasalan": 2661, "▁kasing": 2662, "▁kayung": 2663, "▁keting": 2664, "▁keya": 2665, "▁kulang": 2666, "▁let": 2667, "▁lon": 2668, "▁lasip": 2669, "▁levita": 2670, "▁linawe": 2671, "▁lumapit": 2672, "▁minum": 2673, "▁magkailangan": 2674, "▁makag": 2675, "▁maluka": 2676, "▁mengan": 2677, "▁mimua": 2678, "▁mimumua": 2679, "▁minunang": 2680, "▁mipat": 2681, "▁mitas": 2682, "▁myuman": 2683, "▁nand": 2684, "▁nia": 2685, "▁nya": 2686, "▁na't": 2687, "▁obra": 2688, "▁pale": 2689, "▁pamanu": 2690, "▁pangap": 2691, "▁ren": 2692, "▁sagu": 2693, "▁ser": 2694, "▁sinum": 2695, "▁saksi": 2696, "▁sasag": 2697, "▁sigatan": 2698, "▁sulip": 2699, "▁sumuyu": 2700, "▁taw": 2701, "▁to": 2702, "▁tuc": 2703, "▁talagang": 2704, "▁tanggapan": 2705, "▁templo": 2706, "▁yam": 2707, "▁yeng": 2708, "▁yuku": 2709, "▁ya'ing": 2710, "abil": 2711, "absi": 2712, "abu": 2713, "aklan": 2714, "aliu": 2715, "aldug": 2716, "angal": 2717, "aralan": 2718, "cl": 2719, "dul": 2720, "doma": 2721, "ed": 2722, "ernu": 2723, "idad": 2724, "ilyan": 2725, "jag": 2726, "katasan": 2727, "mas": 2728, "ne": 2729, "tig": 2730, "uala": 2731, "ulapo": 2732, "uro": 2733, "utud": 2734, "yasang": 2735, "▁18": 2736, "▁aar": 2737, "▁anino": 2738, "▁asa": 2739, "▁asabi": 2740, "▁atlungpulung": 2741, "▁bon": 2742, "▁bala": 2743, "▁banglu": 2744, "▁batuin": 2745, "▁binye": 2746, "▁dayang": 2747, "▁dulang": 2748, "▁dalagang": 2749, "▁gig": 2750, "▁gun": 2751, "▁gintung": 2752, "▁inuman": 2753, "▁kagutgutan": 2754, "▁kakalinguan": 2755, "▁katubale": 2756, "▁katungkulan": 2757, "▁kayatulan": 2758, "▁kayup": 2759, "▁keraklan": 2760, "▁kura": 2761, "▁kusa": 2762, "▁legwan": 2763, "▁likwan": 2764, "▁makak": 2765, "▁makalukluk": 2766, "▁makalunus": 2767, "▁makapangilabut": 2768, "▁malalam": 2769, "▁maliaring": 2770, "▁manga": 2771, "▁mapalyari": 2772, "▁masakit": 2773, "▁miny": 2774, "▁mitubud": 2775, "▁nakayu": 2776, "▁nakong": 2777, "▁ninuman": 2778, "▁pug": 2779, "▁pulut": 2780, "▁paimburisan": 2781, "▁pagl": 2782, "▁pamagb": 2783, "▁pamags": 2784, "▁pangay": 2785, "▁parakalan": 2786, "▁pilubluban": 2787, "▁retang": 2788, "▁sapni": 2789, "▁sodoma": 2790, "▁tua": 2791, "▁ubing": 2792, "▁uv": 2793, "▁yong": 2794, "▁yutus": 2795, "abul": 2796, "agdag": 2797, "aklak": 2798, "alakuan": 2799, "ambat": 2800, "andaman": 2801, "apa": 2802, "apulu": 2803, "apatad": 2804, "ato": 2805, "awal": 2806, "day": 2807, "eno": 2808, "ens": 2809, "engi": 2810, "ero": 2811, "hen": 2812, "hon": 2813, "ingg": 2814, "ipas": 2815, "isabian": 2816, "ista": 2817, "itar": 2818, "kuban": 2819, "kasakit": 2820, "nasa": 2821, "oa": 2822, "pakan": 2823, "sinan": 2824, "ugut": 2825, "ulaga": 2826, "ulangan": 2827, "ungkut": 2828, "va": 2829, "wal": 2830, "was": 2831, "yutus": 2832, "▁ac": 2833, "▁abimelek": 2834, "▁alpa": 2835, "▁alun": 2836, "▁apung": 2837, "▁arapat": 2838, "▁ber": 2839, "▁banwang": 2840, "▁barang": 2841, "▁batis": 2842, "▁biklat": 2843, "▁binutil": 2844, "▁diling": 2845, "▁dis": 2846, "▁dusa": 2847, "▁ganap": 2848, "▁heb": 2849, "▁jo": 2850, "▁juan": 2851, "▁krus": 2852, "▁kabeng": 2853, "▁kabilugan": 2854, "▁kapulungan": 2855, "▁kapalaran": 2856, "▁kayat": 2857, "▁kayupayan": 2858, "▁keling": 2859, "▁kesa": 2860, "▁kekayung": 2861, "▁kenu": 2862, "▁kuma": 2863, "▁lala": 2864, "▁layun": 2865, "▁luk": 2866, "▁mamat": 2867, "▁mabayat": 2868, "▁makasumami": 2869, "▁malating": 2870, "▁maluat": 2871, "▁manan": 2872, "▁mangarawak": 2873, "▁mangatas": 2874, "▁maybug": 2875, "▁militar": 2876, "▁mipakarine": 2877, "▁mirinan": 2878, "▁misas": 2879, "▁mismu": 2880, "▁mu't": 2881, "▁mutya": 2882, "▁papat": 2883, "▁pamintuan": 2884, "▁pamis": 2885, "▁pamanl": 2886, "▁panamdam": 2887, "▁pilip": 2888, "▁pisali": 2889, "▁pitu": 2890, "▁raka": 2891, "▁ses": 2892, "▁siuala": 2893, "▁santa": 2894, "▁seir": 2895, "▁sibul": 2896, "▁sisera": 2897, "▁tam": 2898, "▁tar": 2899, "▁tudtud": 2900, "▁taluk": 2901, "▁talapaniapat": 2902, "▁uari": 2903, "▁usa": 2904, "▁ubingan": 2905, "▁ulilang": 2906, "▁walung": 2907, "▁you": 2908, "-m": 2909, "agnan": 2910, "akuan": 2911, "albag": 2912, "albat": 2913, "alumduman": 2914, "alamatan": 2915, "amant": 2916, "aramdam": 2917, "atamung": 2918, "ayaus": 2919, "enayan": 2920, "hu": 2921, "inabang": 2922, "inup": 2923, "ipa": 2924, "ito": 2925, "les": 2926, "labis": 2927, "mag": 2928, "mo": 2929, "oc": 2930, "po": 2931, "rung": 2932, "tanan": 2933, "ter": 2934, "ugu": 2935, "ulian": 2936, "unga": 2937, "upan": 2938, "ure": 2939, "usuk": 2940, "▁11": 2941, "▁13": 2942, "▁2011": 2943, "▁aptas": 2944, "▁asuk": 2945, "▁bakung": 2946, "▁emu": 2947, "▁fransiskanu": 2948, "▁ikakayap": 2949, "▁inang": 2950, "▁ins": 2951, "▁ipagamuamu": 2952, "▁irug": 2953, "▁kimut": 2954, "▁kabalen": 2955, "▁kakanan": 2956, "▁kakilala": 2957, "▁kapupusan": 2958, "▁karakal": 2959, "▁kopa": 2960, "▁lam": 2961, "▁lah": 2962, "▁lilung": 2963, "▁lulam": 2964, "▁mau": 2965, "▁muna": 2966, "▁makipamuk": 2967, "▁mamun": 2968, "▁mangalating": 2969, "▁marangal": 2970, "▁marinat": 2971, "▁masampat": 2972, "▁mayay": 2973, "▁meto": 2974, "▁melalang": 2975, "▁miabe": 2976, "▁mingat": 2977, "▁nandin": 2978, "▁ngakung": 2979, "▁payat": 2980, "▁pl": 2981, "▁pulung": 2982, "▁pakamalan": 2983, "▁palalu": 2984, "▁pamisip": 2985, "▁pamikapali": 2986, "▁pangisnawa": 2987, "▁pengan": 2988, "▁pengari": 2989, "▁pisasabian": 2990, "▁samban": 2991, "▁sapat": 2992, "▁saupan": 2993, "▁seb": 2994, "▁sem": 2995, "▁sh": 2996, "▁she": 2997, "▁sabyan": 2998, "▁sasamban": 2999, "▁sinumpa": 3000, "▁taim": 3001, "▁trigo": 3002, "▁zo": 3003, "abak": 3004, "abilin": 3005, "ado": 3006, "agas": 3007, "aly": 3008, "arac": 3009, "arinayan": 3010, "asio": 3011, "atmu": 3012, "ataskatasan": 3013, "aying": 3014, "bal": 3015, "bi": 3016, "dis": 3017, "dalit": 3018, "ibie": 3019, "ikap": 3020, "ikdo": 3021, "ilit": 3022, "iniku": 3023, "inuman": 3024, "isabi": 3025, "its": 3026, "itac": 3027, "ji": 3028, "kam": 3029, "lor": 3030, "lakbe": 3031, "mulan": 3032, "so": 3033, "suk": 3034, "tangan": 3035, "tr": 3036, "tur": 3037, "tim": 3038, "ulila": 3039, "upang": 3040, "urut": 3041, "uropa": 3042, "usta": 3043, "utul": 3044, "yam": 3045, "yasnan": 3046, "▁12": 3047, "▁aintind": 3048, "▁aaron": 3049, "▁agus": 3050, "▁akalinguan": 3051, "▁aske": 3052, "▁baka": 3053, "▁bula": 3054, "▁balas": 3055, "▁balita": 3056, "▁balung": 3057, "▁baryu": 3058, "▁beer": 3059, "▁dagat": 3060, "▁dung": 3061, "▁dominiku": 3062, "▁espanol": 3063, "▁go": 3064, "▁ha": 3065, "▁ibye": 3066, "▁ipakit": 3067, "▁isanu": 3068, "▁italakad": 3069, "▁kaba": 3070, "▁kagum": 3071, "▁kakataskatasan": 3072, "▁kakaluguran": 3073, "▁kalaraman": 3074, "▁kalibakan": 3075, "▁kaligayan": 3076, "▁kamarinayan": 3077, "▁kanta": 3078, "▁kanuan": 3079, "▁kapamisanan": 3080, "▁kapasalamatan": 3081, "▁kayald": 3082, "▁kelinguan": 3083, "▁kinagli": 3084, "▁kuta": 3085, "▁lalawan": 3086, "▁lalawe": 3087, "▁linian": 3088, "▁lungkut": 3089, "▁mon": 3090, "▁mababa": 3091, "▁mabilis": 3092, "▁magt": 3093, "▁magligtas": 3094, "▁mamagus": 3095, "▁manoa": 3096, "▁matalik": 3097, "▁mawala": 3098, "▁mikas": 3099, "▁mikawani": 3100, "▁milablab": 3101, "▁misus": 3102, "▁mistula": 3103, "▁mitatag": 3104, "▁mukeng": 3105, "▁musika": 3106, "▁naming": 3107, "▁namu": 3108, "▁nanuman": 3109, "▁pakit": 3110, "▁palang": 3111, "▁pagumasdan": 3112, "▁pamipamuk": 3113, "▁panata": 3114, "▁panatag": 3115, "▁pani": 3116, "▁pare": 3117, "▁pekam": 3118, "▁pengaku": 3119, "▁pikakas": 3120, "▁ros": 3121, "▁sac": 3122, "▁silu": 3123, "▁saken": 3124, "▁sampa": 3125, "▁selese": 3126, "▁sheol": 3127, "▁siam": 3128, "▁tubud": 3129, "▁tulang": 3130, "▁tung": 3131, "▁tabern": 3132, "▁talap": 3133, "▁tinabi": 3134, "▁ug": 3135, "abug": 3136, "abaluan": 3137, "agi": 3138, "agkat": 3139, "agp": 3140, "agum": 3141, "akasan": 3142, "alaya": 3143, "alim": 3144, "alpantaya": 3145, "alpantayanan": 3146, "amana": 3147, "ampatan": 3148, "ante": 3149, "anti": 3150, "asid": 3151, "bakit": 3152, "bin": 3153, "di": 3154, "iawan": 3155, "iac": 3156, "igl": 3157, "ilas": 3158, "imla": 3159, "inang": 3160, "ine": 3161, "inung": 3162, "ingapun": 3163, "isu": 3164, "ja": 3165, "kanta": 3166, "lud": 3167, "lacbe": 3168, "pul": 3169, "ring": 3170, "sintang": 3171, "tigan": 3172, "uel": 3173, "uben": 3174, "ubuk": 3175, "ukit": 3176, "ulisac": 3177, "umung": 3178, "win": 3179, "yasa": 3180, "▁ah": 3181, "▁aun": 3182, "▁agi": 3183, "▁apal": 3184, "▁aral": 3185, "▁aslag": 3186, "▁banong": 3187, "▁batiawan": 3188, "▁bet-": 3189, "▁birhen": 3190, "▁bukal": 3191, "▁dalakit": 3192, "▁das": 3193, "▁dangal": 3194, "▁dangalan": 3195, "▁depat": 3196, "▁diegu": 3197, "▁dinuku": 3198, "▁dona": 3199, "▁eh": 3200, "▁europa": 3201, "▁esk": 3202, "▁ganid": 3203, "▁her": 3204, "▁ipa": 3205, "▁iyang": 3206, "▁ikua": 3207, "▁ikutkut": 3208, "▁inugse": 3209, "▁kib": 3210, "▁kaili": 3211, "▁katang": 3212, "▁kaug": 3213, "▁kagalang": 3214, "▁kaisanu": 3215, "▁kapagnasan": 3216, "▁kapanamdaman": 3217, "▁kapanayan": 3218, "▁karalumduman": 3219, "▁karua": 3220, "▁kasalpantayanan": 3221, "▁kasiping": 3222, "▁kasumangid": 3223, "▁kasangkapan": 3224, "▁kayubuan": 3225, "▁kayaldawan": 3226, "▁kayatinan": 3227, "▁kiniak": 3228, "▁lawe": 3229, "▁liguran": 3230, "▁lubas": 3231, "▁mauli": 3232, "▁makibat": 3233, "▁makimut": 3234, "▁makit": 3235, "▁makatungkul": 3236, "▁maling": 3237, "▁manal": 3238, "▁mangab": 3239, "▁matatag": 3240, "▁mekipamuk": 3241, "▁miya": 3242, "▁mikal": 3243, "▁mikutkut": 3244, "▁niyang": 3245, "▁payapa": 3246, "▁paint": 3247, "▁pauli": 3248, "▁pakakalulu": 3249, "▁pamit": 3250, "▁pamakipamuk": 3251, "▁pamikak": 3252, "▁pampanga": 3253, "▁pangaku": 3254, "▁panugali": 3255, "▁papakit": 3256, "▁pasibayung": 3257, "▁pastul": 3258, "▁paten": 3259, "▁poesia": 3260, "▁reti": 3261, "▁rey": 3262, "▁samb": 3263, "▁samba": 3264, "▁saserdote": 3265, "▁sepu": 3266, "▁sihon": 3267, "▁siguru": 3268, "▁sikan": 3269, "▁susuyu": 3270, "▁talang": 3271, "▁tud": 3272, "▁tauli": 3273, "▁tauling": 3274, "▁tikpan": 3275, "▁tutuking": 3276, "▁upa": 3277, "▁ulit": 3278, "▁yugse": 3279, "▁ya't": 3280, "20": 3281, "aul": 3282, "abel": 3283, "abulon": 3284, "adlad": 3285, "adung": 3286, "aganapan": 3287, "agdagan": 3288, "akar": 3289, "alm": 3290, "angas": 3291, "anup": 3292, "apak": 3293, "apas": 3294, "arug": 3295, "arauan": 3296, "atandanan": 3297, "ayit": 3298, "ayn": 3299, "ayo": 3300, "bas": 3301, "bit": 3302, "dug": 3303, "entu": 3304, "gut": 3305, "iakan": 3306, "igapu": 3307, "inakit": 3308, "iro": 3309, "irug": 3310, "kab": 3311, "kulang": 3312, "mi": 3313, "mul": 3314, "mael": 3315, "pac": 3316, "sian": 3317, "sut": 3318, "tad": 3319, "tug": 3320, "uyung": 3321, "ugun": 3322, "uldu": 3323, "ungkutan": 3324, "usung": 3325, "▁adwa": 3326, "▁agyu": 3327, "▁ako": 3328, "▁bustan": 3329, "▁bakong": 3330, "▁bugtung": 3331, "▁clara": 3332, "▁dakayu": 3333, "▁daralung": 3334, "▁dimla": 3335, "▁ganaka": 3336, "▁gras": 3337, "▁gum": 3338, "▁gagapang": 3339, "▁ham": 3340, "▁inumis": 3341, "▁inatbus": 3342, "▁ismael": 3343, "▁jab": 3344, "▁kris": 3345, "▁kabyasnan": 3346, "▁kake": 3347, "▁kalaganapan": 3348, "▁kalinguan": 3349, "▁kananeos": 3350, "▁kandungan": 3351, "▁kaplas": 3352, "▁karening": 3353, "▁katiwala": 3354, "▁kekata": 3355, "▁kimutan": 3356, "▁kitkut": 3357, "▁lis": 3358, "▁liwal": 3359, "▁la't": 3360, "▁lakwas": 3361, "▁levi": 3362, "▁linakad": 3363, "▁linukluk": 3364, "▁lubid": 3365, "▁magbalik": 3366, "▁maka-": 3367, "▁malda": 3368, "▁maldang": 3369, "▁malungkut": 3370, "▁maliari": 3371, "▁mand": 3372, "▁manim": 3373, "▁mangamate": 3374, "▁mayumu": 3375, "▁mekamate": 3376, "▁mekeni": 3377, "▁miglalang": 3378, "▁milako": 3379, "▁minuli": 3380, "▁mitakutan": 3381, "▁ngamu": 3382, "▁ore": 3383, "▁ot": 3384, "▁pel": 3385, "▁pag-": 3386, "▁pagkalub": 3387, "▁panal": 3388, "▁panamdaman": 3389, "▁papunta": 3390, "▁peg": 3391, "▁pepakilala": 3392, "▁pepal": 3393, "▁pepar": 3394, "▁pibatan": 3395, "▁pilul": 3396, "▁pinat": 3397, "▁poetang": 3398, "▁simb": 3399, "▁salitang": 3400, "▁salut": 3401, "▁sasalikut": 3402, "▁saserdot": 3403, "▁sunis": 3404, "▁tana": 3405, "▁teng": 3406, "▁ts": 3407, "▁tabernakul": 3408, "▁talat": 3409, "▁taliri": 3410, "▁tatas": 3411, "▁teresa": 3412, "▁tinggap": 3413, "▁tumakas": 3414, "▁ugali": 3415, "▁wake": 3416, "▁yanasa": 3417, "▁zabulon": 3418, "-galang": 3419, "14": 3420, "aud": 3421, "abo": 3422, "abiasa": 3423, "agana": 3424, "alako": 3425, "ambis": 3426, "ampan": 3427, "amulala": 3428, "anga": 3429, "anggap": 3430, "arawan": 3431, "aue": 3432, "buc": 3433, "cde": 3434, "dro": 3435, "ft": 3436, "hem": 3437, "ictor": 3438, "igkas": 3439, "isal": 3440, "iti": 3441, "itsit": 3442, "iwalan": 3443, "keng": 3444, "laban": 3445, "los": 3446, "mam": 3447, "mp": 3448, "mus": 3449, "nubayan": 3450, "olo": 3451, "pat": 3452, "punan": 3453, "ry": 3454, "sangan": 3455, "tutu": 3456, "tau": 3457, "ubukan": 3458, "ugnus": 3459, "ukud": 3460, "ukyat": 3461, "ulayan": 3462, "uly": 3463, "umud": 3464, "uni": 3465, "uti": 3466, "yad": 3467, "yayan": 3468, "▁19": 3469, "▁ablas": 3470, "▁adwan": 3471, "▁agawa": 3472, "▁ana": 3473, "▁asul": 3474, "▁barac": 3475, "▁byasang": 3476, "▁baug": 3477, "▁balik": 3478, "▁banda": 3479, "▁batwin": 3480, "▁biglang": 3481, "▁bista": 3482, "▁bulad": 3483, "▁dagul": 3484, "▁ditac": 3485, "▁durung": 3486, "▁ek": 3487, "▁eya": 3488, "▁git": 3489, "▁gob": 3490, "▁gagawa": 3491, "▁genaka": 3492, "▁haran": 3493, "▁ibpang": 3494, "▁ibulus": 3495, "▁ingke": 3496, "▁istor": 3497, "▁isulat": 3498, "▁kain": 3499, "▁kabilian": 3500, "▁kabukas": 3501, "▁kabanalan": 3502, "▁kabengian": 3503, "▁kades": 3504, "▁kagalang-galang": 3505, "▁kaka": 3506, "▁kalungkutan": 3507, "▁kapainawan": 3508, "▁kapalaluan": 3509, "▁kapatagan": 3510, "▁karampatan": 3511, "▁karro": 3512, "▁karuaji": 3513, "▁kasal": 3514, "▁kasi": 3515, "▁kealan": 3516, "▁kukut": 3517, "▁kukuldas": 3518, "▁kultura": 3519, "▁kumabsi": 3520, "▁lunus": 3521, "▁labanan": 3522, "▁lamesa": 3523, "▁luat": 3524, "▁maman": 3525, "▁miliari": 3526, "▁minu": 3527, "▁mah": 3528, "▁makipag": 3529, "▁makule": 3530, "▁makabang": 3531, "▁makasulat": 3532, "▁maki-": 3533, "▁makudta": 3534, "▁malare": 3535, "▁malino": 3536, "▁mantabe": 3537, "▁mangalambut": 3538, "▁maniaman": 3539, "▁mapaling": 3540, "▁marapat": 3541, "▁maroc": 3542, "▁masala": 3543, "▁masias": 3544, "▁maslag": 3545, "▁mayakit": 3546, "▁mela": 3547, "▁melas": 3548, "▁miz": 3549, "▁migit": 3550, "▁mikit": 3551, "▁milalu": 3552, "▁milalablab": 3553, "▁misna": 3554, "▁nakatamu": 3555, "▁pera": 3556, "▁pagsalbat": 3557, "▁paki": 3558, "▁pakib": 3559, "▁paldas": 3560, "▁pamagd": 3561, "▁pamanyampa": 3562, "▁panenayan": 3563, "▁pangaras": 3564, "▁papas": 3565, "▁patak": 3566, "▁patingapun": 3567, "▁pekibatan": 3568, "▁pikakasaman": 3569, "▁pilit": 3570, "▁rala": 3571, "▁roma": 3572, "▁sand": 3573, "▁siran": 3574, "▁sulat": 3575, "▁sagiwa": 3576, "▁sagiwang": 3577, "▁sakali": 3578, "▁sampagang": 3579, "▁sarai": 3580, "▁sasabyan": 3581, "▁sukad": 3582, "▁sumakup": 3583, "▁sumiping": 3584, "▁talan": 3585, "▁tambing": 3586, "▁tet": 3587, "▁timb": 3588, "▁tuknang": 3589, "▁turu": 3590, "▁tatal": 3591, "▁tatalakad": 3592, "▁tinipa": 3593, "▁tinipun": 3594, "▁tutula": 3595, "▁uyat": 3596, "▁ukdu": 3597, "▁victor": 3598, "-dili": 3599, "-seba": 3600, "10": 3601, "15": 3602, "18": 3603, "agkas": 3604, "agumpe": 3605, "aglus": 3606, "akayan": 3607, "aldas": 3608, "alikan": 3609, "aliua": 3610, "almuna": 3611, "an-": 3612, "antabe": 3613, "andam": 3614, "angga": 3615, "apangan": 3616, "arili": 3617, "aru": 3618, "asus": 3619, "ayag": 3620, "ayus": 3621, "ban": 3622, "dawa": 3623, "diman": 3624, "gar": 3625, "ge": 3626, "git": 3627, "ifasio": 3628, "ign": 3629, "ikang": 3630, "iknangan": 3631, "imang": 3632, "isak": 3633, "isian": 3634, "islap": 3635, "isingan": 3636, "kus": 3637, "lam": 3638, "lus": 3639, "ly": 3640, "lehem": 3641, "lungkut": 3642, "mis": 3643, "nong": 3644, "nube": 3645, "pin": 3646, "put": 3647, "sad": 3648, "sik": 3649, "th": 3650, "uglung": 3651, "ukulan": 3652, "uleb": 3653, "uluk": 3654, "ulwan": 3655, "umasid": 3656, "unam": 3657, "unduc": 3658, "wak": 3659, "yla": 3660, "▁agaganaka": 3661, "▁aguman": 3662, "▁aggia": 3663, "▁agiamang": 3664, "▁akas": 3665, "▁aklis": 3666, "▁angeles": 3667, "▁animales": 3668, "▁ayun": 3669, "▁bamung": 3670, "▁bayan": 3671, "▁br": 3672, "▁bet-el": 3673, "▁bonifasio": 3674, "▁bulsa": 3675, "▁dinam": 3676, "▁dirinan": 3677, "▁eka": 3678, "▁ena": 3679, "▁filipinas": 3680, "▁galang": 3681, "▁gatas": 3682, "▁gnu": 3683, "▁gom": 3684, "▁gagalgal": 3685, "▁hor": 3686, "▁ido": 3687, "▁ikutang": 3688, "▁inatulan": 3689, "▁ipasiag": 3690, "▁isabel": 3691, "▁isalikut": 3692, "▁itubud": 3693, "▁kababa": 3694, "▁kabilyan": 3695, "▁kadua": 3696, "▁kalili": 3697, "▁kamalan": 3698, "▁kamulangan": 3699, "▁kaninu": 3700, "▁kanyan": 3701, "▁kasbu": 3702, "▁kaseb": 3703, "▁katas": 3704, "▁katlung": 3705, "▁katauan": 3706, "▁kawakasan": 3707, "▁kel": 3708, "▁kord": 3709, "▁kuer": 3710, "▁labislabis": 3711, "▁lalapit": 3712, "▁lasakan": 3713, "▁leko": 3714, "▁lingap": 3715, "▁love": 3716, "▁lukib": 3717, "▁mwa": 3718, "▁magkanta": 3719, "▁makil": 3720, "▁makip": 3721, "▁makapal": 3722, "▁makibalu": 3723, "▁malangi": 3724, "▁mamasa": 3725, "▁manu": 3726, "▁mangadi": 3727, "▁mangayap": 3728, "▁mangmang": 3729, "▁mapait": 3730, "▁mapamakalulu": 3731, "▁maputi": 3732, "▁marip": 3733, "▁matuling": 3734, "▁mewala": 3735, "▁mengal": 3736, "▁merapat": 3737, "▁miabeabe": 3738, "▁mibalic": 3739, "▁mibabangun": 3740, "▁migk": 3741, "▁milub": 3742, "▁mipag": 3743, "▁mipam": 3744, "▁mipanuanan": 3745, "▁mismung": 3746, "▁misumpa": 3747, "▁nwan": 3748, "▁nyo": 3749, "▁neman": 3750, "▁niting": 3751, "▁og": 3752, "▁panan": 3753, "▁pakakal": 3754, "▁pamagt": 3755, "▁pamamuri": 3756, "▁pamilya": 3757, "▁pantas": 3758, "▁pangakab": 3759, "▁paralaya": 3760, "▁patse": 3761, "▁pepabal": 3762, "▁pepak": 3763, "▁pepalakuan": 3764, "▁piblasan": 3765, "▁pilipinas": 3766, "▁pista": 3767, "▁pitat": 3768, "▁poesya": 3769, "▁pungul": 3770, "▁rugu": 3771, "▁set": 3772, "▁sasabi": 3773, "▁seli": 3774, "▁sibyla": 3775, "▁siku": 3776, "▁sinira": 3777, "▁singsing": 3778, "▁taba": 3779, "▁til": 3780, "▁tao": 3781, "▁taldawa": 3782, "▁taluktuk": 3783, "▁tawling": 3784, "▁telan": 3785, "▁tenam": 3786, "▁tikdo": 3787, "▁tinuknang": 3788, "▁uma": 3789, "▁uyung": 3790, "▁wagas": 3791, "▁yatung": 3792, "▁yuyutus": 3793, "▁zalmuna": 3794, "▁zeba": 3795, "-pan": 3796, "abusu": 3797, "adya": 3798, "agn": 3799, "agulan": 3800, "agsac": 3801, "akak": 3802, "alugud": 3803, "alumdum": 3804, "alagua": 3805, "alakitan": 3806, "aldak": 3807, "amanuan": 3808, "ardin": 3809, "asngas": 3810, "awpan": 3811, "bayan": 3812, "cnang": 3813, "daman": 3814, "ez": 3815, "fr": 3816, "fael": 3817, "ftali": 3818, "hel": 3819, "iag": 3820, "ianan": 3821, "ibayu": 3822, "ibul": 3823, "iglang": 3824, "ikas": 3825, "ikit": 3826, "ilab": 3827, "ilag": 3828, "ilalang": 3829, "ilung": 3830, "imi": 3831, "ingan": 3832, "ingsing": 3833, "intulut": 3834, "irait": 3835, "irang": 3836, "irapal": 3837, "ite": 3838, "ming": 3839, "mut": 3840, "nag": 3841, "ork": 3842, "orra": 3843, "pad": 3844, "por": 3845, "sura": 3846, "sic": 3847, "uba": 3848, "ubungan": 3849, "uge": 3850, "ukuan": 3851, "umpak": 3852, "unut": 3853, "ungut": 3854, "untun": 3855, "walan": 3856, "wanan": 3857, "zareno": 3858, "▁alf": 3859, "▁amer": 3860, "▁apak": 3861, "▁apangan": 3862, "▁apalsintan": 3863, "▁asal": 3864, "▁asung": 3865, "▁bamban": 3866, "▁bau": 3867, "▁bud": 3868, "▁babaying": 3869, "▁balitang": 3870, "▁beer-seba": 3871, "▁beth": 3872, "▁biga": 3873, "▁bigu": 3874, "▁bistat": 3875, "▁bitasang": 3876, "▁bubulad": 3877, "▁bulkan": 3878, "▁deni": 3879, "▁daptanan": 3880, "▁dinukit": 3881, "▁dumalan": 3882, "▁dumpa": 3883, "▁ela": 3884, "▁eran": 3885, "▁for": 3886, "▁fra": 3887, "▁gaga": 3888, "▁gal": 3889, "▁gil": 3890, "▁gr": 3891, "▁gagalangan": 3892, "▁gagalo": 3893, "▁gagamitan": 3894, "▁idalit": 3895, "▁iyan": 3896, "▁idolos": 3897, "▁ikayung": 3898, "▁ilual": 3899, "▁int": 3900, "▁inuma": 3901, "▁indiu": 3902, "▁ipap": 3903, "▁isubli": 3904, "▁ital": 3905, "▁itulut": 3906, "▁ka't": 3907, "▁kabig": 3908, "▁kababainan": 3909, "▁kagiwan": 3910, "▁kapara": 3911, "▁kapising": 3912, "▁katmuan": 3913, "▁katuki": 3914, "▁kawani": 3915, "▁kayo": 3916, "▁kegan": 3917, "▁ketasan": 3918, "▁kekaban": 3919, "▁kekatamung": 3920, "▁kibkuban": 3921, "▁kildap": 3922, "▁kinaul": 3923, "▁kinulisak": 3924, "▁kore": 3925, "▁kuerdas": 3926, "▁kundiman": 3927, "▁lakbang": 3928, "▁lep": 3929, "▁luban": 3930, "▁maili": 3931, "▁maina": 3932, "▁mabibie": 3933, "▁magari": 3934, "▁makaba": 3935, "▁makaramdam": 3936, "▁makasalanan": 3937, "▁makasalikut": 3938, "▁malat": 3939, "▁malipul": 3940, "▁mamaus": 3941, "▁manuk": 3942, "▁manula": 3943, "▁mangap": 3944, "▁manganak": 3945, "▁manyawad": 3946, "▁mapali": 3947, "▁maralas": 3948, "▁masuk": 3949, "▁matang": 3950, "▁matul": 3951, "▁mayubu": 3952, "▁mayayakit": 3953, "▁mayupayang": 3954, "▁melungkut": 3955, "▁menalig": 3956, "▁menila": 3957, "▁meninap": 3958, "▁migdala": 3959, "▁migm": 3960, "▁minukiat": 3961, "▁mipal": 3962, "▁mipasakitan": 3963, "▁mirar": 3964, "▁naya": 3965, "▁ngang": 3966, "▁nign": 3967, "▁paintung": 3968, "▁pakab": 3969, "▁pakakak": 3970, "▁pakinabang": 3971, "▁palp": 3972, "▁palakuan": 3973, "▁pamig": 3974, "▁pamanalangsang": 3975, "▁pamikasala": 3976, "▁panas": 3977, "▁pangak": 3978, "▁pangamate": 3979, "▁papag": 3980, "▁parusa": 3981, "▁piluluban": 3982, "▁pintalan": 3983, "▁pinatubu": 3984, "▁prob": 3985, "▁rafael": 3986, "▁sakaling": 3987, "▁sese": 3988, "▁sy": 3989, "▁sagipan": 3990, "▁santo": 3991, "▁sibukan": 3992, "▁sidia": 3993, "▁silbag": 3994, "▁sumangid": 3995, "▁tia": 3996, "▁tiru": 3997, "▁tajimik": 3998, "▁tagalan": 3999, "▁tali": 4000, "▁tatakas": 4001, "▁telanan": 4002, "▁tutuki": 4003, "▁tuturu": 4004, "▁ur": 4005, "▁wali": 4006, "▁yuk": 4007, "-j": 4008, "24": 4009, "ah": 4010, "abandi": 4011, "agimpan": 4012, "agulele": 4013, "akpan": 4014, "akwan": 4015, "alakaran": 4016, "aldan": 4017, "amle": 4018, "anat": 4019, "angalan": 4020, "apac": 4021, "apate": 4022, "arakal": 4023, "art": 4024, "asawa": 4025, "atna": 4026, "atanam": 4027, "auad": 4028, "awayan": 4029, "bon": 4030, "busan": 4031, "chem": 4032, "duan": 4033, "elang": 4034, "eli": 4035, "ener": 4036, "ers": 4037, "estro": 4038, "ganan": 4039, "hant": 4040, "i-": 4041, "iba": 4042, "ibu": 4043, "ikilala": 4044, "ilya": 4045, "ilia": 4046, "inyag": 4047, "ipitan": 4048, "istor": 4049, "itin": 4050, "iup": 4051, "iwalas": 4052, "jo": 4053, "kakung": 4054, "kado": 4055, "lakan": 4056, "laud": 4057, "makap": 4058, "nanan": 4059, "ninu": 4060, "ngan": 4061, "ngi": 4062, "op": 4063, "ona": 4064, "osue": 4065, "reo": 4066, "suan": 4067, "sung": 4068, "sy": 4069, "sina": 4070, "tong": 4071, "ts": 4072, "tun": 4073, "tusan": 4074, "tingan": 4075, "ubus": 4076, "ucl": 4077, "ulalan": 4078, "ulkul": 4079, "unayan": 4080, "ungkulan": 4081, "upas": 4082, "usanan": 4083, "usigan": 4084, "uta": 4085, "uyad": 4086, "we": 4087, "wil": 4088, "yak": 4089, "yangu": 4090, "zen": 4091, "▁16": 4092, "▁21": 4093, "▁32": 4094, "▁adwang": 4095, "▁aintindian": 4096, "▁akua": 4097, "▁alalayan": 4098, "▁alang-": 4099, "▁albugan": 4100, "▁ampong": 4101, "▁apag": 4102, "▁aser": 4103, "▁atlungpulu": 4104, "▁bam": 4105, "▁bias": 4106, "▁bunduc": 4107, "▁baal": 4108, "▁bai": 4109, "▁bagius": 4110, "▁banga": 4111, "▁bey": 4112, "▁bibie": 4113, "▁bibu": 4114, "▁bulaklak": 4115, "▁bulus": 4116, "▁byasa": 4117, "▁dalakitan": 4118, "▁dara": 4119, "▁duku": 4120, "▁dusang": 4121, "▁daing": 4122, "▁dakong": 4123, "▁dasnan": 4124, "▁did": 4125, "▁dimut": 4126, "▁dintang": 4127, "▁eno": 4128, "▁era": 4129, "▁efron": 4130, "▁gas": 4131, "▁glor": 4132, "▁gol": 4133, "▁gub": 4134, "▁gule": 4135, "▁gagauan": 4136, "▁ginulut": 4137, "▁gomorra": 4138, "▁har": 4139, "▁het": 4140, "▁hil": 4141, "▁heber": 4142, "▁inal": 4143, "▁ipakilala": 4144, "▁ipat": 4145, "▁josue": 4146, "▁jehovah": 4147, "▁kaduang": 4148, "▁kababan": 4149, "▁kakugn": 4150, "▁kalayan": 4151, "▁kalub": 4152, "▁kanini": 4153, "▁kandila": 4154, "▁kasaman": 4155, "▁kast": 4156, "▁katipunan": 4157, "▁keying": 4158, "▁ketuan": 4159, "▁kile": 4160, "▁kitnan": 4161, "▁kuku": 4162, "▁kukutang": 4163, "▁land": 4164, "▁larauan": 4165, "▁les": 4166, "▁lid": 4167, "▁lwa": 4168, "▁lalon": 4169, "▁letr": 4170, "▁lihim": 4171, "▁liligtas": 4172, "▁limangpulung": 4173, "▁linabas": 4174, "▁linaue": 4175, "▁lulub": 4176, "▁lulugud": 4177, "▁luluguran": 4178, "▁lumbug": 4179, "▁mabyasa": 4180, "▁maglu": 4181, "▁magpa": 4182, "▁magbili": 4183, "▁makipan": 4184, "▁malale": 4185, "▁malanging": 4186, "▁manaliwang": 4187, "▁manibala": 4188, "▁maninap": 4189, "▁mangga": 4190, "▁mapagal": 4191, "▁maputing": 4192, "▁marok": 4193, "▁masa": 4194, "▁maskil": 4195, "▁matning": 4196, "▁med": 4197, "▁meyangu": 4198, "▁mebalu": 4199, "▁mekat": 4200, "▁menalakad": 4201, "▁merakal": 4202, "▁merkado": 4203, "▁miamas": 4204, "▁miw": 4205, "▁migsakab": 4206, "▁mimingat": 4207, "▁mimisip": 4208, "▁minyabi": 4209, "▁mipabal": 4210, "▁mipala": 4211, "▁mipar": 4212, "▁misadia": 4213, "▁misaplala": 4214, "▁misis": 4215, "▁mital": 4216, "▁mizpa": 4217, "▁muri": 4218, "▁nab": 4219, "▁obrang": 4220, "▁puad": 4221, "▁paganaka": 4222, "▁pagmaragul": 4223, "▁pamana": 4224, "▁pamanakit": 4225, "▁pamaniapat": 4226, "▁pamikalugud": 4227, "▁panin": 4228, "▁panganib": 4229, "▁papalto": 4230, "▁paslagan": 4231, "▁patawaran": 4232, "▁patio": 4233, "▁patugut": 4234, "▁pawas": 4235, "▁pekabandi": 4236, "▁pibandyan": 4237, "▁pigl": 4238, "▁pikas": 4239, "▁pisngi": 4240, "▁pluma": 4241, "▁rong": 4242, "▁reb": 4243, "▁reyna": 4244, "▁sip": 4245, "▁sugat": 4246, "▁sacris": 4247, "▁sapin": 4248, "▁saserdotes": 4249, "▁selita": 4250, "▁sichem": 4251, "▁simeon": 4252, "▁siniping": 4253, "▁sukot": 4254, "▁susulapo": 4255, "▁susulud": 4256, "▁tul": 4257, "▁tegal": 4258, "▁tinubu": 4259, "▁tinucnang": 4260, "▁tipunan": 4261, "▁titig": 4262, "▁tukud": 4263, "▁un": 4264, "▁uvasan": 4265, "▁yampang": 4266, "'ning": 4267, "-ulit": 4268, "-aldo": 4269, "12": 4270, "aa": 4271, "abasan": 4272, "ablasan": 4273, "adiang": 4274, "adon": 4275, "agt": 4276, "aglit": 4277, "agsalita": 4278, "agsik": 4279, "akbe": 4280, "akua": 4281, "akalinguan": 4282, "alta": 4283, "alug": 4284, "alac": 4285, "alangsangan": 4286, "amech": 4287, "anac": 4288, "anuan": 4289, "apin": 4290, "arul": 4291, "aryan": 4292, "aryu": 4293, "asuk": 4294, "asngasan": 4295, "atili": 4296, "atung": 4297, "ataulian": 4298, "awun": 4299, "ayas": 4300, "ayantabe": 4301, "bul": 4302, "cluc": 4303, "dus": 4304, "eos": 4305, "ep": 4306, "ena": 4307, "ensia": 4308, "erez": 4309, "esta": 4310, "fet": 4311, "gas": 4312, "gul": 4313, "gulan": 4314, "hanty": 4315, "ios": 4316, "iblas": 4317, "ikal": 4318, "ikut": 4319, "ilitan": 4320, "ilon": 4321, "iligan": 4322, "indo": 4323, "indu": 4324, "inisan": 4325, "intindi": 4326, "ipi": 4327, "iria": 4328, "irut": 4329, "isang": 4330, "ist": 4331, "itak": 4332, "kom": 4333, "kait": 4334, "kapampangan": 4335, "kasian": 4336, "kekang": 4337, "lasak": 4338, "lungan": 4339, "mak": 4340, "mura": 4341, "malun": 4342, "malagua": 4343, "ner": 4344, "ondu": 4345, "pm": 4346, "saman": 4347, "sel": 4348, "sul": 4349, "ton": 4350, "tuan": 4351, "teo": 4352, "terio": 4353, "ubaal": 4354, "uda": 4355, "ulagang": 4356, "ulio": 4357, "ulebule": 4358, "umpisal": 4359, "unusan": 4360, "undangan": 4361, "untalan": 4362, "uparan": 4363, "upung": 4364, "urung": 4365, "urus": 4366, "usukan": 4367, "utas": 4368, "utla": 4369, "vi": 4370, "wani": 4371, "yabe": 4372, "yalungan": 4373, "za": 4374, "zadon": 4375, "▁10": 4376, "▁22": 4377, "▁28": 4378, "▁aingat": 4379, "▁aus": 4380, "▁abac": 4381, "▁abu": 4382, "▁abug": 4383, "▁adle": 4384, "▁aduan": 4385, "▁akalingwan": 4386, "▁alaya": 4387, "▁alang-alang": 4388, "▁alferez": 4389, "▁ampo": 4390, "▁anya": 4391, "▁aring": 4392, "▁arung": 4393, "▁asaua": 4394, "▁asbuc": 4395, "▁asaf": 4396, "▁ayta": 4397, "▁babi": 4398, "▁bing": 4399, "▁bo": 4400, "▁banakang": 4401, "▁banayad": 4402, "▁bantug": 4403, "▁barakang": 4404, "▁bayintaung": 4405, "▁begut": 4406, "▁bijag": 4407, "▁biru": 4408, "▁dam": 4409, "▁danupan": 4410, "▁debo": 4411, "▁degulan": 4412, "▁dina": 4413, "▁dinayu": 4414, "▁disnan": 4415, "▁doc": 4416, "▁dulum": 4417, "▁durungutan": 4418, "▁eden": 4419, "▁esku": 4420, "▁fraile": 4421, "▁galo": 4422, "▁gi": 4423, "▁gulis": 4424, "▁geua": 4425, "▁ginalgal": 4426, "▁ginamit": 4427, "▁gozen": 4428, "▁grasia": 4429, "▁gugulutan": 4430, "▁gunawan": 4431, "▁hes": 4432, "▁hos": 4433, "▁heteo": 4434, "▁horeb": 4435, "▁iy": 4436, "▁ibawi": 4437, "▁ikawani": 4438, "▁ipaintulut": 4439, "▁isakar": 4440, "▁isundu": 4441, "▁jafet": 4442, "▁jerubaal": 4443, "▁judas": 4444, "▁ki": 4445, "▁kalaban": 4446, "▁kalingasngasan": 4447, "▁kanung": 4448, "▁kapak": 4449, "▁kape": 4450, "▁kapalsintan": 4451, "▁kapilanman": 4452, "▁kapitangan": 4453, "▁karas": 4454, "▁kasangkanan": 4455, "▁katataulian": 4456, "▁katim": 4457, "▁katutwan": 4458, "▁keb": 4459, "▁keg": 4460, "▁kordero": 4461, "▁kupas": 4462, "▁kus": 4463, "▁kump": 4464, "▁kurry": 4465, "▁kwayan": 4466, "▁lamech": 4467, "▁lilis": 4468, "▁lit": 4469, "▁laue": 4470, "▁lahar": 4471, "▁lakwan": 4472, "▁lalako": 4473, "▁libano": 4474, "▁linipat": 4475, "▁linipul": 4476, "▁lipat": 4477, "▁lumbe": 4478, "▁mul": 4479, "▁maulaga": 4480, "▁magaral": 4481, "▁magkasakit": 4482, "▁magkamit": 4483, "▁maglakad": 4484, "▁maglakbe": 4485, "▁makayat": 4486, "▁makir": 4487, "▁makuyad": 4488, "▁makabili": 4489, "▁makapangan": 4490, "▁makatakut": 4491, "▁malil": 4492, "▁malunus": 4493, "▁malut": 4494, "▁malaso": 4495, "▁manalangin": 4496, "▁manalo": 4497, "▁mangulila": 4498, "▁manimuna": 4499, "▁manuyang": 4500, "▁manyad": 4501, "▁manyaman": 4502, "▁mapda": 4503, "▁mapinu": 4504, "▁mariposa": 4505, "▁masas": 4506, "▁mataba": 4507, "▁matapang": 4508, "▁matni": 4509, "▁mayumung": 4510, "▁megaral": 4511, "▁mibaba": 4512, "▁mibata": 4513, "▁migb": 4514, "▁milual": 4515, "▁mipnu": 4516, "▁miraras": 4517, "▁misaldak": 4518, "▁mitmung": 4519, "▁mitut": 4520, "▁miyaliwang": 4521, "▁muke": 4522, "▁myaliwang": 4523, "▁nazareno": 4524, "▁oy": 4525, "▁paingg": 4526, "▁painuman": 4527, "▁pagnasan": 4528, "▁pakamal": 4529, "▁pakilala": 4530, "▁palage": 4531, "▁pamamat": 4532, "▁pamat": 4533, "▁pamung": 4534, "▁pamangal": 4535, "▁panuknanganan": 4536, "▁panulu": 4537, "▁pangad": 4538, "▁pangaibat": 4539, "▁papil": 4540, "▁pasiknangan": 4541, "▁patawad": 4542, "▁patip": 4543, "▁patutut": 4544, "▁pesit": 4545, "▁pekamana": 4546, "▁pekas": 4547, "▁penintun": 4548, "▁pepab": 4549, "▁peparala": 4550, "▁pepasibayu": 4551, "▁piblas": 4552, "▁pigmulan": 4553, "▁pignasan": 4554, "▁pikabaluan": 4555, "▁prutas": 4556, "▁prog": 4557, "▁ran": 4558, "▁ri": 4559, "▁rima": 4560, "▁renato": 4561, "▁robin": 4562, "▁sayang": 4563, "▁saglit": 4564, "▁sake": 4565, "▁salterio": 4566, "▁santuario": 4567, "▁sapa": 4568, "▁sasakup": 4569, "▁sic": 4570, "▁siswan": 4571, "▁supling": 4572, "▁suyuwan": 4573, "▁taga": 4574, "▁tare": 4575, "▁tor": 4576, "▁tagle": 4577, "▁tagumpe": 4578, "▁taimtim": 4579, "▁talik": 4580, "▁talapanibala": 4581, "▁tete": 4582, "▁tiki": 4583, "▁tinikdo": 4584, "▁tuksu": 4585, "▁tutul": 4586, "▁uri": 4587, "▁uvas": 4588, "▁yain": 4589, "'ta": 4590, "-lehem": 4591, "-tau": 4592, "-ti": 4593, "-bale": 4594, "16": 4595, "17": 4596, "26": 4597, "ai": 4598, "aj": 4599, "abante": 4600, "adkad": 4601, "agad": 4602, "agip": 4603, "agka": 4604, "akpak": 4605, "aksi": 4606, "ales": 4607, "alsa": 4608, "alage": 4609, "alakal": 4610, "alake": 4611, "alangi": 4612, "alungkut": 4613, "alungs": 4614, "alungsungan": 4615, "amantala": 4616, "ambitan": 4617, "ambul": 4618, "ampus": 4619, "anam": 4620, "an-aram": 4621, "anakang": 4622, "anandaman": 4623, "andian": 4624, "anganak": 4625, "apung": 4626, "arati": 4627, "aril": 4628, "arit": 4629, "asu": 4630, "atak": 4631, "atmuan": 4632, "atauan": 4633, "atagun": 4634, "ation": 4635, "awili": 4636, "bale": 4637, "but": 4638, "bugan": 4639, "ct": 4640, "eldo": 4641, "elihi": 4642, "esti": 4643, "estu": 4644, "estra": 4645, "gota": 4646, "ht": 4647, "himik": 4648, "hor": 4649, "iung": 4650, "ibak": 4651, "ibata": 4652, "icdo": 4653, "igalig": 4654, "igan": 4655, "igid": 4656, "ikid": 4657, "ikil": 4658, "ili-dili": 4659, "imba": 4660, "inidad": 4661, "intas": 4662, "ingil": 4663, "ingo": 4664, "iruan": 4665, "iso": 4666, "isnaua": 4667, "iwa": 4668, "iwas": 4669, "kaman": 4670, "kamali": 4671, "lian": 4672, "meng": 4673, "mun": 4674, "nasang": 4675, "oy": 4676, "obrang": 4677, "onu": 4678, "otam": 4679, "pi": 4680, "pis": 4681, "polo": 4682, "rin": 4683, "sas": 4684, "ser": 4685, "tit": 4686, "ualan": 4687, "uen": 4688, "uani": 4689, "udtan": 4690, "ugak": 4691, "ulatan": 4692, "umam": 4693, "umpisa": 4694, "ungang": 4695, "upil": 4696, "urun": 4697, "uting": 4698, "utula": 4699, "uyut": 4700, "wela": 4701, "wer": 4702, "wangis": 4703, "yab": 4704, "yabas": 4705, "yut": 4706, "▁17": 4707, "▁adam": 4708, "▁aduangpulung": 4709, "▁akikilala": 4710, "▁alan": 4711, "▁alimb": 4712, "▁alis": 4713, "▁alzadon": 4714, "▁aldo-aldo": 4715, "▁amen": 4716, "▁andres": 4717, "▁antipolo": 4718, "▁apu": 4719, "▁apansinan": 4720, "▁asahan": 4721, "▁atalastas": 4722, "▁atatandanan": 4723, "▁atian": 4724, "▁atiyu": 4725, "▁bos": 4726, "▁bun": 4727, "▁bait": 4728, "▁babing": 4729, "▁bagiu": 4730, "▁bakeng": 4731, "▁balac": 4732, "▁banding": 4733, "▁barku": 4734, "▁bate": 4735, "▁bayani": 4736, "▁bendis": 4737, "▁betuel": 4738, "▁beth-lehem": 4739, "▁biye": 4740, "▁binit": 4741, "▁bingut": 4742, "▁buis": 4743, "▁bubulus": 4744, "▁bubungan": 4745, "▁bulac": 4746, "▁burak": 4747, "▁chinu": 4748, "▁dad": 4749, "▁dayu": 4750, "▁den": 4751, "▁dud": 4752, "▁dakung": 4753, "▁danuman": 4754, "▁daptananan": 4755, "▁daralit": 4756, "▁dayuan": 4757, "▁demon": 4758, "▁debora": 4759, "▁dinat": 4760, "▁dindam": 4761, "▁duldul": 4762, "▁eb": 4763, "▁er": 4764, "▁et": 4765, "▁eva": 4766, "▁e'ra": 4767, "▁efr": 4768, "▁enoc": 4769, "▁eskuela": 4770, "▁gad": 4771, "▁gamitan": 4772, "▁gawang": 4773, "▁gigisingan": 4774, "▁gloria": 4775, "▁golgota": 4776, "▁hener": 4777, "▁hesbon": 4778, "▁igit": 4779, "▁indat": 4780, "▁iningat": 4781, "▁ipagkalub": 4782, "▁ipapasiag": 4783, "▁ituki": 4784, "▁jebus": 4785, "▁kaipas": 4786, "▁kaul": 4787, "▁kamaganakan": 4788, "▁kanawan": 4789, "▁kanining": 4790, "▁kapags": 4791, "▁kapanandaman": 4792, "▁kapitna": 4793, "▁kareting": 4794, "▁kasalungsungan": 4795, "▁kasayan": 4796, "▁katni": 4797, "▁katimawan": 4798, "▁katulad": 4799, "▁kewani": 4800, "▁kinawani": 4801, "▁kusang": 4802, "▁kulisak": 4803, "▁lasa": 4804, "▁lucl": 4805, "▁lukluk": 4806, "▁lupang": 4807, "▁labaud": 4808, "▁lakaran": 4809, "▁lumabung": 4810, "▁mac": 4811, "▁mabang": 4812, "▁madalas": 4813, "▁magkulang": 4814, "▁magbante": 4815, "▁maglaram": 4816, "▁magpakas": 4817, "▁magpat": 4818, "▁makad": 4819, "▁makakit": 4820, "▁makasan": 4821, "▁makaun": 4822, "▁makilala": 4823, "▁makatagan": 4824, "▁makatiman": 4825, "▁malabung": 4826, "▁malambut": 4827, "▁malaram": 4828, "▁malsinta": 4829, "▁malagwa": 4830, "▁malutub": 4831, "▁mamako": 4832, "▁mamale": 4833, "▁mamintu": 4834, "▁mamius": 4835, "▁manig": 4836, "▁maniwala": 4837, "▁manene": 4838, "▁mangutang": 4839, "▁mangalagu": 4840, "▁mapup": 4841, "▁marimla": 4842, "▁masipit": 4843, "▁matind": 4844, "▁matwa": 4845, "▁mayna": 4846, "▁mekapan": 4847, "▁mekip": 4848, "▁mekiramdam": 4849, "▁melakuan": 4850, "▁melipul": 4851, "▁melaus": 4852, "▁memun": 4853, "▁menatili": 4854, "▁mengap": 4855, "▁mengari": 4856, "▁mengat": 4857, "▁mepalyari": 4858, "▁mepupus": 4859, "▁mesugat": 4860, "▁miagum": 4861, "▁mibie": 4862, "▁mibubu": 4863, "▁mibabalik": 4864, "▁migari": 4865, "▁miglakbe": 4866, "▁migpak": 4867, "▁mikaka": 4868, "▁mike": 4869, "▁mikasbu": 4870, "▁miminum": 4871, "▁mipamulala": 4872, "▁mipapak": 4873, "▁mipatudtud": 4874, "▁misundu": 4875, "▁more": 4876, "▁mulahan": 4877, "▁nasi": 4878, "▁nugn": 4879, "▁naftali": 4880, "▁nabengi": 4881, "▁nining": 4882, "▁oli": 4883, "▁plan": 4884, "▁pyalung": 4885, "▁pait": 4886, "▁padan-aram": 4887, "▁pagal": 4888, "▁pagp": 4889, "▁paintulutan": 4890, "▁pakisabian": 4891, "▁paksa": 4892, "▁pakundangan": 4893, "▁pakabsian": 4894, "▁pakakalale": 4895, "▁pals": 4896, "▁pamanan": 4897, "▁pamaglacbe": 4898, "▁pamaki": 4899, "▁pamalsinta": 4900, "▁pamanlakad": 4901, "▁pamikakatauan": 4902, "▁pamipat": 4903, "▁pamitipun": 4904, "▁panirug": 4905, "▁panalala": 4906, "▁pangapala": 4907, "▁papal": 4908, "▁paparam": 4909, "▁parusan": 4910, "▁pasayan": 4911, "▁pasip": 4912, "▁pastulan": 4913, "▁patnubayan": 4914, "▁patipati": 4915, "▁pekibat": 4916, "▁pekisabian": 4917, "▁pepakan": 4918, "▁peparagul": 4919, "▁pepaimburisan": 4920, "▁piy": 4921, "▁pibale": 4922, "▁pigkalub": 4923, "▁pinggan": 4924, "▁pipag": 4925, "▁pipainawan": 4926, "▁piraya": 4927, "▁poesiya": 4928, "▁pres": 4929, "▁pulubi": 4930, "▁punlas": 4931, "▁pupul": 4932, "▁pupusanan": 4933, "▁rose": 4934, "▁ruben": 4935, "▁sadia": 4936, "▁sari": 4937, "▁saw": 4938, "▁siw": 4939, "▁swel": 4940, "▁saingsing": 4941, "▁sacristan": 4942, "▁sadiang": 4943, "▁sadya": 4944, "▁sali": 4945, "▁santis": 4946, "▁santus": 4947, "▁sandata": 4948, "▁sebianan": 4949, "▁selubungan": 4950, "▁sesen": 4951, "▁siduan": 4952, "▁sikluban": 4953, "▁sindu": 4954, "▁siria": 4955, "▁sumulat": 4956, "▁teb": 4957, "▁tro": 4958, "▁tugak": 4959, "▁tacde": 4960, "▁tabernakulo": 4961, "▁takpan": 4962, "▁talad": 4963, "▁talanan": 4964, "▁talapag": 4965, "▁talindo": 4966, "▁talasulat": 4967, "▁talaturu": 4968, "▁tangke": 4969, "▁tangsu": 4970, "▁tatalan": 4971, "▁tatalnan": 4972, "▁tiktik": 4973, "▁timna": 4974, "▁tiparan": 4975, "▁trinidad": 4976, "▁tsong": 4977, "▁ua": 4978, "▁uaring": 4979, "▁upayang": 4980, "▁ulap": 4981, "▁vakang": 4982, "▁yay": 4983, "▁ze": 4984, "'lan": 4985, "-ling": 4986, "-alsa": 4987, "-bage": 4988, "-juda": 4989, "13": 4990, "21": 4991, "22": 4992, "29": 4993, "abac": 4994, "abag": 4995, "abata": 4996, "abatan": 4997, "abaya": 4998, "abulad": 4999, "adala": 5000, "adsad": 5001, "adura": 5002, "agsak": 5003, "aguling": 5004, "akg": 5005, "akmul": 5006, "akun": 5007, "akgak": 5008, "alasan": 5009, "aldo": 5010, "alili": 5011, "alitan": 5012, "alsinta": 5013, "alaus": 5014, "alanging": 5015, "alangkas": 5016, "alimus": 5017, "aliuang": 5018, "alucluc": 5019, "amun": 5020, "ambun": 5021, "ampakan": 5022, "ampalasan": 5023, "amuyut": 5024, "ani": 5025, "anaunan": 5026, "anganan": 5027, "angat": 5028, "aps": 5029, "apatlud": 5030, "arapat": 5031, "ariu": 5032, "asal": 5033, "asalamat": 5034, "aso": 5035, "aspang": 5036, "asiun": 5037, "atagan": 5038, "atbus": 5039, "ater": 5040, "atanas": 5041, "bila": 5042, "bis": 5043, "dalan": 5044, "ea": 5045, "eleg": 5046, "erak": 5047, "ered": 5048, "ernador": 5049, "esean": 5050, "estiv": 5051, "estival": 5052, "guni": 5053, "helyo": 5054, "hol": 5055, "ialung": 5056, "iaman": 5057, "ii": 5058, "iban": 5059, "ibas": 5060, "iclo": 5061, "iclod": 5062, "ilim": 5063, "imu": 5064, "imbag": 5065, "imbang": 5066, "inawa": 5067, "inge": 5068, "inggu": 5069, "ingning": 5070, "intau": 5071, "inuan": 5072, "iraya": 5073, "itlan": 5074, "izal": 5075, "kar": 5076, "ki": 5077, "kil": 5078, "ks": 5079, "kada": 5080, "langan": 5081, "luk": 5082, "lasi": 5083, "mab": 5084, "mata": 5085, "mig": 5086, "min": 5087, "muk": 5088, "malasakit": 5089, "nat": 5090, "nuk": 5091, "nukan": 5092, "nus": 5093, "ola": 5094, "osto": 5095, "pital": 5096, "pultur": 5097, "pultureru": 5098, "ril": 5099, "ros": 5100, "redus": 5101, "santung": 5102, "tab": 5103, "taman": 5104, "tul": 5105, "tut": 5106, "tanam": 5107, "tia": 5108, "ubiernu": 5109, "ugalian": 5110, "ugtu": 5111, "ukasan": 5112, "ulap": 5113, "ulupa": 5114, "umamian": 5115, "undun": 5116, "urang": 5117, "using": 5118, "uywan": 5119, "wad": 5120, "wangan": 5121, "yernu": 5122, "yong": 5123, "yaul": 5124, "yasawa": 5125, "yatyat": 5126, "zer": 5127, "zon": 5128, "▁15": 5129, "▁23": 5130, "▁aba": 5131, "▁abel": 5132, "▁ada": 5133, "▁aduangpulu": 5134, "▁agar": 5135, "▁agya": 5136, "▁akal": 5137, "▁akam": 5138, "▁akwa": 5139, "▁alala": 5140, "▁alangalang": 5141, "▁ann": 5142, "▁anyang": 5143, "▁angang": 5144, "▁apl": 5145, "▁apansin": 5146, "▁araba": 5147, "▁are": 5148, "▁ata": 5149, "▁atalan": 5150, "▁atanggap": 5151, "▁atbusan": 5152, "▁atul": 5153, "▁awing": 5154, "▁ayni": 5155, "▁babasan": 5156, "▁bakang": 5157, "▁balikan": 5158, "▁bandang": 5159, "▁bandera": 5160, "▁batas": 5161, "▁batik": 5162, "▁bayaran": 5163, "▁beth-lehem-juda": 5164, "▁biyabas": 5165, "▁bilha": 5166, "▁bining": 5167, "▁binondu": 5168, "▁biseru": 5169, "▁bisyu": 5170, "▁bitasa": 5171, "▁bulakan": 5172, "▁bulik": 5173, "▁bulaclac": 5174, "▁dag": 5175, "▁dil": 5176, "▁dakap": 5177, "▁dalawan": 5178, "▁dalpakan": 5179, "▁delanan": 5180, "▁demonius": 5181, "▁diku": 5182, "▁ehud": 5183, "▁ekonom": 5184, "▁ensina": 5185, "▁espana": 5186, "▁festival": 5187, "▁fr": 5188, "▁gaganakan": 5189, "▁galgal": 5190, "▁gu": 5191, "▁gubiernu": 5192, "▁ginulis": 5193, "▁gobernador": 5194, "▁hamor": 5195, "▁hospital": 5196, "▁iyas": 5197, "▁ibabie": 5198, "▁ibatan": 5199, "▁ikat": 5200, "▁iki": 5201, "▁ilub": 5202, "▁inda": 5203, "▁inisip": 5204, "▁inatyat": 5205, "▁ipabandi": 5206, "▁ipal": 5207, "▁ipalto": 5208, "▁isp": 5209, "▁istorya": 5210, "▁itali": 5211, "▁itatag": 5212, "▁jabin": 5213, "▁kislap": 5214, "▁kng": 5215, "▁kadal": 5216, "▁kau": 5217, "▁kabab": 5218, "▁kabsi": 5219, "▁kakawani": 5220, "▁kakaluluan": 5221, "▁kakeuan": 5222, "▁kalibe": 5223, "▁kalulung": 5224, "▁kaladuang": 5225, "▁kalalangan": 5226, "▁kalibudtan": 5227, "▁kama": 5228, "▁kamal": 5229, "▁kamalayan": 5230, "▁kamam": 5231, "▁kamkaman": 5232, "▁kampu": 5233, "▁kamu": 5234, "▁kantang": 5235, "▁kanyang": 5236, "▁kap'lan": 5237, "▁kapagm": 5238, "▁kapanaunan": 5239, "▁kapagalan": 5240, "▁kaparis": 5241, "▁karagul": 5242, "▁karit": 5243, "▁kasabi": 5244, "▁kasampat": 5245, "▁kasuyu": 5246, "▁kasebian": 5247, "▁katal": 5248, "▁kaugtuan": 5249, "▁keganagana": 5250, "▁kekng": 5251, "▁kimtan": 5252, "▁konse": 5253, "▁korona": 5254, "▁kristo": 5255, "▁kub": 5256, "▁kuld": 5257, "▁laya": 5258, "▁lira": 5259, "▁lol": 5260, "▁lauen": 5261, "▁labwad": 5262, "▁lagyung": 5263, "▁lalabas": 5264, "▁lawen": 5265, "▁lepitan": 5266, "▁levadura": 5267, "▁levitas": 5268, "▁lilipas": 5269, "▁lima": 5270, "▁linisan": 5271, "▁lugma": 5272, "▁lumabas": 5273, "▁lumawe": 5274, "▁mita": 5275, "▁maestro": 5276, "▁maintun": 5277, "▁mabangis": 5278, "▁magaspang": 5279, "▁magobra": 5280, "▁magumasid": 5281, "▁magw": 5282, "▁magbayu": 5283, "▁magdalang": 5284, "▁magdusa": 5285, "▁magpakarakal": 5286, "▁magsal": 5287, "▁magsalita": 5288, "▁mahal": 5289, "▁makamate": 5290, "▁makabukud": 5291, "▁makalangan": 5292, "▁makaparati": 5293, "▁makasukul": 5294, "▁makasulud": 5295, "▁makilaban": 5296, "▁makisabi": 5297, "▁makudtang": 5298, "▁malal": 5299, "▁malambis": 5300, "▁malap": 5301, "▁maliliari": 5302, "▁malit": 5303, "▁maliwalas": 5304, "▁malu": 5305, "▁maliap": 5306, "▁maligayang": 5307, "▁mamal": 5308, "▁mamalagua": 5309, "▁mamamate": 5310, "▁mamili": 5311, "▁mamre": 5312, "▁mamatul": 5313, "▁manangis": 5314, "▁manl": 5315, "▁mangailangan": 5316, "▁mangatmu": 5317, "▁mapagl": 5318, "▁maramdam": 5319, "▁maratun": 5320, "▁marayung": 5321, "▁masipag": 5322, "▁masis": 5323, "▁masalusu": 5324, "▁masuksuk": 5325, "▁matalic": 5326, "▁matapat": 5327, "▁matwang": 5328, "▁melang": 5329, "▁mepan": 5330, "▁mekap": 5331, "▁melunus": 5332, "▁menabu": 5333, "▁menaliwa": 5334, "▁menaya": 5335, "▁meragul": 5336, "▁meriba": 5337, "▁mesabing": 5338, "▁metula": 5339, "▁miabie": 5340, "▁miuman": 5341, "▁midianitas": 5342, "▁migsantung": 5343, "▁miglakad": 5344, "▁milalung": 5345, "▁milapit": 5346, "▁milai": 5347, "▁mininum": 5348, "▁mirarapal": 5349, "▁misa": 5350, "▁misulat": 5351, "▁misasabi": 5352, "▁mister": 5353, "▁mitabi": 5354, "▁mitakas": 5355, "▁mitda": 5356, "▁mitdas": 5357, "▁mitumpak": 5358, "▁mor": 5359, "▁muring": 5360, "▁nam": 5361, "▁nula": 5362, "▁naing": 5363, "▁nay": 5364, "▁nayun": 5365, "▁nakor": 5366, "▁opu": 5367, "▁pau": 5368, "▁pili": 5369, "▁por": 5370, "▁pac": 5371, "▁pabanua": 5372, "▁paginakit": 5373, "▁paka": 5374, "▁pakanan": 5375, "▁pakik": 5376, "▁pakipamuk": 5377, "▁pakir": 5378, "▁pamag-": 5379, "▁pamagaral": 5380, "▁pamamie": 5381, "▁pamamigla": 5382, "▁pamamatawad": 5383, "▁pamanabusu": 5384, "▁pamanalig": 5385, "▁panabilin": 5386, "▁panawun": 5387, "▁pand": 5388, "▁pangapan": 5389, "▁pangimut": 5390, "▁pangaligtas": 5391, "▁panyatang": 5392, "▁panyulat": 5393, "▁papanuknanganan": 5394, "▁parasan": 5395, "▁pasku": 5396, "▁pata": 5397, "▁patdan": 5398, "▁pesil": 5399, "▁penako": 5400, "▁peniwalan": 5401, "▁pepabalu": 5402, "▁pepasakitan": 5403, "▁perez": 5404, "▁person": 5405, "▁pibulayan": 5406, "▁pinsinan": 5407, "▁poesiang": 5408, "▁puge": 5409, "▁pupula": 5410, "▁rako": 5411, "▁raku": 5412, "▁res": 5413, "▁rizal": 5414, "▁reta": 5415, "▁reuben": 5416, "▁sto": 5417, "▁sutla": 5418, "▁sa't": 5419, "▁saul": 5420, "▁sabo": 5421, "▁saldak": 5422, "▁salung": 5423, "▁sambitlan": 5424, "▁santisima": 5425, "▁sedro": 5426, "▁sepultureru": 5427, "▁sigla": 5428, "▁sigur": 5429, "▁sinabing": 5430, "▁sinabit": 5431, "▁sinalangsang": 5432, "▁sipingan": 5433, "▁sisisi": 5434, "▁subukan": 5435, "▁sulyap": 5436, "▁sumaup": 5437, "▁sumpang": 5438, "▁sumulung": 5439, "▁sybila": 5440, "▁tagulele": 5441, "▁tera": 5442, "▁tid": 5443, "▁tulus": 5444, "▁tun": 5445, "▁tundun": 5446, "▁tagalug": 5447, "▁taimic": 5448, "▁talampakan": 5449, "▁talasaup": 5450, "▁talastasan": 5451, "▁tamad": 5452, "▁tarlac": 5453, "▁tatanggap": 5454, "▁tetagan": 5455, "▁tiglung": 5456, "▁tigtigan": 5457, "▁timp": 5458, "▁timpak": 5459, "▁tinud": 5460, "▁titigtigan": 5461, "▁tucnang": 5462, "▁tucnangan": 5463, "▁tutubu": 5464, "▁tutupad": 5465, "▁ukul": 5466, "▁up": 5467, "▁utak": 5468, "▁utang": 5469, "▁ulit-ulit": 5470, "▁usisan": 5471, "▁yka": 5472, "'yng": 5473, "-h": 5474, "-ng": 5475, "-tung": 5476, "-tunggal": 5477, "00": 5478, "19": 5479, "adua": 5480, "ago": 5481, "agtal": 5482, "aguan": 5483, "agligtas": 5484, "akbung": 5485, "akman": 5486, "akong": 5487, "akaili": 5488, "akananu": 5489, "akunuan": 5490, "alben": 5491, "alipan": 5492, "alubung": 5493, "alaue": 5494, "alakat": 5495, "alaso": 5496, "alual": 5497, "alusad": 5498, "amayap": 5499, "amnan": 5500, "amsam": 5501, "amua": 5502, "amut": 5503, "amantalang": 5504, "ambal": 5505, "ambayan": 5506, "ametung": 5507, "ampu": 5508, "andal": 5509, "angane": 5510, "anggi": 5511, "anualan": 5512, "anum": 5513, "apara": 5514, "apse": 5515, "apuan": 5516, "arak": 5517, "areta": 5518, "asangguni": 5519, "asion": 5520, "asusian": 5521, "atad": 5522, "atalastas": 5523, "ats": 5524, "atsa": 5525, "atunan": 5526, "auang": 5527, "ayaran": 5528, "ayunu": 5529, "cbang": 5530, "dac": 5531, "din": 5532, "don": 5533, "dor": 5534, "eman": 5535, "ente": 5536, "ento": 5537, "erkul": 5538, "erkules": 5539, "esayan": 5540, "eth": 5541, "far": 5542, "faim": 5543, "faz": 5544, "gal-tunggal": 5545, "gardo": 5546, "hala": 5547, "hin": 5548, "iam": 5549, "ies": 5550, "ibalan": 5551, "ibangun": 5552, "ibayan": 5553, "ibi": 5554, "ibule": 5555, "ibye": 5556, "ibeon": 5557, "ida": 5558, "iglip": 5559, "iktik": 5560, "ilad": 5561, "ilangang": 5562, "ilonia": 5563, "imic": 5564, "inag": 5565, "inal": 5566, "inip": 5567, "inlang": 5568, "indi": 5569, "intasan": 5570, "ipunan": 5571, "isnawang": 5572, "istoria": 5573, "itung": 5574, "iua": 5575, "iupan": 5576, "kak": 5577, "kald": 5578, "kong": 5579, "kup": 5580, "kalam": 5581, "kalupa": 5582, "lim": 5583, "lon": 5584, "lyan": 5585, "less": 5586, "lifaz": 5587, "nia": 5588, "non": 5589, "nyang": 5590, "ngeni": 5591, "nukarin": 5592, "okan": 5593, "ostomo": 5594, "para": 5595, "per": 5596, "ral": 5597, "rac": 5598, "ree": 5599, "ruz": 5600, "sagan": 5601, "sak": 5602, "sub": 5603, "tara": 5604, "tac": 5605, "tajimik": 5606, "taksil": 5607, "tanganan": 5608, "tudtud": 5609, "ubin": 5610, "ubo": 5611, "uburan": 5612, "uclat": 5613, "ucnangan": 5614, "ugus": 5615, "ukal": 5616, "ukang": 5617, "uksu": 5618, "ukuyan": 5619, "ulag": 5620, "ulam": 5621, "ulayi": 5622, "ulangul": 5623, "uluc": 5624, "uminggu": 5625, "undag": 5626, "upul": 5627, "uput": 5628, "upajan": 5629, "urin": 5630, "uring": 5631, "usad": 5632, "usg": 5633, "uskus": 5634, "wag": 5635, "wasan": 5636, "wis": 5637, "▁14": 5638, "▁awang": 5639, "▁abit": 5640, "▁abyas": 5641, "▁abugadu": 5642, "▁adan": 5643, "▁agnan": 5644, "▁agyung": 5645, "▁akay": 5646, "▁alas": 5647, "▁alayu": 5648, "▁alben": 5649, "▁alig": 5650, "▁alan'": 5651, "▁amale": 5652, "▁aman": 5653, "▁amana": 5654, "▁among": 5655, "▁ania": 5656, "▁any": 5657, "▁anghel": 5658, "▁antimurin": 5659, "▁apulu": 5660, "▁apunan": 5661, "▁arakap": 5662, "▁arte": 5663, "▁atab": 5664, "▁atatalastas": 5665, "▁atme": 5666, "▁atupad": 5667, "▁atyan": 5668, "▁awsan": 5669, "▁batang": 5670, "▁bela": 5671, "▁bes": 5672, "▁bro": 5673, "▁baintau": 5674, "▁bababa": 5675, "▁babilonia": 5676, "▁bagyang": 5677, "▁bage-bage": 5678, "▁bakud": 5679, "▁balabal": 5680, "▁balag": 5681, "▁balak": 5682, "▁bany": 5683, "▁bandyan": 5684, "▁bareng": 5685, "▁barkung": 5686, "▁barug": 5687, "▁bayat": 5688, "▁beater": 5689, "▁bebe": 5690, "▁belita": 5691, "▁bendisyon": 5692, "▁bibili": 5693, "▁bibit": 5694, "▁bigang": 5695, "▁bonus": 5696, "▁bubug": 5697, "▁budni": 5698, "▁bulbul": 5699, "▁bungang": 5700, "▁bungu": 5701, "▁busbus": 5702, "▁byuk": 5703, "▁crisostomo": 5704, "▁dagdagan": 5705, "▁dandaman": 5706, "▁dasan": 5707, "▁diligan": 5708, "▁disip": 5709, "▁dro": 5710, "▁dun": 5711, "▁dut": 5712, "▁dakila": 5713, "▁dayus": 5714, "▁dinagul": 5715, "▁doctor": 5716, "▁dulapan": 5717, "▁durun": 5718, "▁eke": 5719, "▁elifaz": 5720, "▁em": 5721, "▁emp": 5722, "▁edgardo": 5723, "▁efrata": 5724, "▁enos": 5725, "▁fam": 5726, "▁gating": 5727, "▁gay": 5728, "▁gulisak": 5729, "▁gauan": 5730, "▁gaza": 5731, "▁gagkas": 5732, "▁gitara": 5733, "▁gugulisac": 5734, "▁hardin": 5735, "▁hel": 5736, "▁hig": 5737, "▁hilario": 5738, "▁itanam": 5739, "▁ibugnus": 5740, "▁idaun": 5741, "▁idng": 5742, "▁ikabus": 5743, "▁ike": 5744, "▁ikiling": 5745, "▁imbut": 5746, "▁inablasan": 5747, "▁inta": 5748, "▁ipatawad": 5749, "▁iragsa": 5750, "▁ismaelitas": 5751, "▁itabi": 5752, "▁itamu": 5753, "▁itsura": 5754, "▁july": 5755, "▁jael": 5756, "▁kala": 5757, "▁kawangis": 5758, "▁kabas": 5759, "▁kabyayan": 5760, "▁kadwang": 5761, "▁kaguluan": 5762, "▁kakau": 5763, "▁kakuanan": 5764, "▁kalabing": 5765, "▁kalik": 5766, "▁kalino": 5767, "▁kalok": 5768, "▁kalukan": 5769, "▁kalupang": 5770, "▁kalubasan": 5771, "▁kamag": 5772, "▁kamalian": 5773, "▁kamalig": 5774, "▁kan't": 5775, "▁kaparang": 5776, "▁kapintasan": 5777, "▁kapagsubukan": 5778, "▁kaparalanan": 5779, "▁karen": 5780, "▁kari": 5781, "▁katak": 5782, "▁katibayan": 5783, "▁katutubu": 5784, "▁kayantabe": 5785, "▁kayay": 5786, "▁kem": 5787, "▁key": 5788, "▁kegana": 5789, "▁kena": 5790, "▁kerubin": 5791, "▁kilungan": 5792, "▁kinatmu": 5793, "▁kinawat": 5794, "▁kiniakan": 5795, "▁kingkekang": 5796, "▁kingua": 5797, "▁konner": 5798, "▁kuad": 5799, "▁kubo": 5800, "▁kup": 5801, "▁kumaba": 5802, "▁kurus": 5803, "▁kutnan": 5804, "▁lamu": 5805, "▁lan": 5806, "▁langan": 5807, "▁lap": 5808, "▁lili": 5809, "▁lir": 5810, "▁lus": 5811, "▁lahi": 5812, "▁lablab": 5813, "▁lalaw": 5814, "▁lesakan": 5815, "▁letratu": 5816, "▁libe": 5817, "▁librung": 5818, "▁lider": 5819, "▁ligayang": 5820, "▁lilisia": 5821, "▁limbug": 5822, "▁lino": 5823, "▁linsut": 5824, "▁lingunan": 5825, "▁lov": 5826, "▁luid": 5827, "▁luclukan": 5828, "▁lugod": 5829, "▁lumang": 5830, "▁mabiasa": 5831, "▁mayaus": 5832, "▁mulang": 5833, "▁maingat": 5834, "▁mabab": 5835, "▁mabalakat": 5836, "▁mabaldug": 5837, "▁mablas": 5838, "▁madalumdum": 5839, "▁maganaka": 5840, "▁maglasak": 5841, "▁magmay": 5842, "▁magpalimus": 5843, "▁magpas": 5844, "▁magsil": 5845, "▁makutud": 5846, "▁makabuklat": 5847, "▁makakera": 5848, "▁makarayu": 5849, "▁makasand": 5850, "▁makatud": 5851, "▁makatuki": 5852, "▁makauna": 5853, "▁makayama": 5854, "▁makipanuknangan": 5855, "▁malab": 5856, "▁malakuan": 5857, "▁malalaso": 5858, "▁malan": 5859, "▁malili": 5860, "▁maminyag": 5861, "▁mamirapal": 5862, "▁mamiru": 5863, "▁mamulang": 5864, "▁mamusan": 5865, "▁mamantabe": 5866, "▁mamatawad": 5867, "▁manayang": 5868, "▁maningat": 5869, "▁maningning": 5870, "▁manlualu": 5871, "▁manuala": 5872, "▁manalbe": 5873, "▁mananaman": 5874, "▁mangasanting": 5875, "▁mangawang": 5876, "▁mangisnawa": 5877, "▁mangaslak": 5878, "▁maniabing": 5879, "▁mapalad": 5880, "▁maples": 5881, "▁mapanlaban": 5882, "▁marap": 5883, "▁mararamdam": 5884, "▁marim": 5885, "▁marine": 5886, "▁masabal": 5887, "▁masama": 5888, "▁maski": 5889, "▁maskup": 5890, "▁matbud": 5891, "▁matilo": 5892, "▁matsin": 5893, "▁matutula": 5894, "▁matinding": 5895, "▁mayli": 5896, "▁maymut": 5897, "▁meman": 5898, "▁mebating": 5899, "▁megumpisa": 5900, "▁mekabulad": 5901, "▁mekas": 5902, "▁mengab": 5903, "▁mengangas": 5904, "▁meyakit": 5905, "▁mi-": 5906, "▁miawat": 5907, "▁mich": 5908, "▁mierkules": 5909, "▁miamasamas": 5910, "▁mibagsac": 5911, "▁mibub": 5912, "▁mibule": 5913, "▁mignasa": 5914, "▁migkamit": 5915, "▁mikalat": 5916, "▁mikakapatad": 5917, "▁milul": 5918, "▁minagus": 5919, "▁minantabe": 5920, "▁minarap": 5921, "▁minsan": 5922, "▁minutu": 5923, "▁minyaul": 5924, "▁mipda": 5925, "▁misasangguni": 5926, "▁mitit": 5927, "▁miwaglit": 5928, "▁miyay": 5929, "▁moniko": 5930, "▁murin": 5931, "▁munang": 5932, "▁musa": 5933, "▁nana": 5934, "▁natin": 5935, "▁nino": 5936, "▁na'": 5937, "▁nahor": 5938, "▁naning": 5939, "▁neg": 5940, "▁ngarang": 5941, "▁nganing": 5942, "▁ningning": 5943, "▁nuing": 5944, "▁nuya": 5945, "▁nuka": 5946, "▁opis": 5947, "▁o'bat": 5948, "▁oliv": 5949, "▁oneng": 5950, "▁only": 5951, "▁ork": 5952, "▁oreb": 5953, "▁pinu": 5954, "▁pos": 5955, "▁pur": 5956, "▁pusan": 5957, "▁pw": 5958, "▁paud": 5959, "▁pabang": 5960, "▁pabulung": 5961, "▁padurut": 5962, "▁pagaralan": 5963, "▁pagasa": 5964, "▁pag-asa": 5965, "▁painawa": 5966, "▁painggulut": 5967, "▁paintungulan": 5968, "▁palto": 5969, "▁palakpak": 5970, "▁palsimi": 5971, "▁pamim": 5972, "▁pamipan": 5973, "▁pamuntuk": 5974, "▁pamag-alsa": 5975, "▁pamagkasakit": 5976, "▁pamaglakbe": 5977, "▁pamagpaldas": 5978, "▁pamagtapat": 5979, "▁pamakip": 5980, "▁pamanablas": 5981, "▁pamangalalu": 5982, "▁pamaniakup": 5983, "▁pamibabata": 5984, "▁pamikas": 5985, "▁pamilaban": 5986, "▁pamipanuan": 5987, "▁panig": 5988, "▁pante": 5989, "▁panyu": 5990, "▁pang-": 5991, "▁pangabaluan": 5992, "▁pangabi": 5993, "▁pangadi": 5994, "▁pangakung": 5995, "▁pangar": 5996, "▁pangil": 5997, "▁pangakabla": 5998, "▁pangapangane": 5999, "▁pangapanlualu": 6000, "▁paninapan": 6001, "▁panualan": 6002, "▁paring": 6003, "▁parn": 6004, "▁paruminggu": 6005, "▁paraisa": 6006, "▁parehu": 6007, "▁pasari": 6008, "▁pasi": 6009, "▁pasil": 6010, "▁paslit": 6011, "▁patubuan": 6012, "▁ped": 6013, "▁pedro": 6014, "▁pekamasanting": 6015, "▁pepay": 6016, "▁pepainum": 6017, "▁piamanuan": 6018, "▁pikatulan": 6019, "▁pikasaman": 6020, "▁pinusung": 6021, "▁pirakayan": 6022, "▁pisan": 6023, "▁pisiag": 6024, "▁pitatalakaran": 6025, "▁probins": 6026, "▁pugad": 6027, "▁punla": 6028, "▁punyal": 6029, "▁pupurian": 6030, "▁pupulai": 6031, "▁rening": 6032, "▁rakang": 6033, "▁rakayu": 6034, "▁refaim": 6035, "▁rosas": 6036, "▁saguling": 6037, "▁samantalang": 6038, "▁satanas": 6039, "▁sela": 6040, "▁sen": 6041, "▁sent": 6042, "▁sobrang": 6043, "▁sukl": 6044, "▁sabik": 6045, "▁sadyang": 6046, "▁saling": 6047, "▁salubung": 6048, "▁salvi": 6049, "▁samut": 6050, "▁samyu": 6051, "▁santi": 6052, "▁santing": 6053, "▁sangang": 6054, "▁sari-s": 6055, "▁sasalpantaya": 6056, "▁saslag": 6057, "▁sesar": 6058, "▁sias": 6059, "▁sicl": 6060, "▁sidon": 6061, "▁sigl": 6062, "▁sikang": 6063, "▁sinake": 6064, "▁sinalikut": 6065, "▁sindak": 6066, "▁sinisi": 6067, "▁sintangan": 6068, "▁sinukuan": 6069, "▁sisitsit": 6070, "▁sisyan": 6071, "▁stop": 6072, "▁sugal": 6073, "▁sukal": 6074, "▁suluk": 6075, "▁susumpa": 6076, "▁tahimik": 6077, "▁tairan": 6078, "▁tabalu": 6079, "▁tabor": 6080, "▁tabernakulos": 6081, "▁taksil": 6082, "▁talag": 6083, "▁talnan": 6084, "▁tatangis": 6085, "▁teg": 6086, "▁telaga": 6087, "▁tengalan": 6088, "▁teraf": 6089, "▁tibuan": 6090, "▁tigre": 6091, "▁tigtig": 6092, "▁timawa": 6093, "▁tinalan": 6094, "▁tinatag": 6095, "▁tsonggu": 6096, "▁tumuru": 6097, "▁tupang": 6098, "▁ubud": 6099, "▁um": 6100, "▁utusan": 6101, "▁ven": 6102, "▁victorina": 6103, "▁waga": 6104, "▁wasan": 6105, "▁yata": 6106, "▁ya'y": 6107, "▁yantuk": 6108, "▁yatna": 6109, "▁yukung": 6110, "▁zeb": 6111, "▁zibeon": 6112, "▁zeeb": 6113, "▁zoar": 6114, "▁zora": 6115, "'man": 6116, "-agnan": 6117, "-ka": 6118, "-kal": 6119, "-na": 6120, "-bye": 6121, "-kaba": 6122, "-siping": 6123, "23": 6124, "25": 6125, "abad": 6126, "abisabi": 6127, "abait": 6128, "abig": 6129, "acg": 6130, "aduang": 6131, "agap": 6132, "agor": 6133, "agyang": 6134, "agyu": 6135, "aganang": 6136, "aganap": 6137, "agkil": 6138, "agkilan": 6139, "agoras": 6140, "agulu": 6141, "ajala": 6142, "akibat": 6143, "aking": 6144, "aklung": 6145, "akanian": 6146, "akuil": 6147, "alagang": 6148, "alng": 6149, "alud": 6150, "alasak": 6151, "alesitas": 6152, "aliksik": 6153, "alikutan": 6154, "aliwas": 6155, "alys": 6156, "amali": 6157, "ampulu": 6158, "amulag": 6159, "amungang": 6160, "anang": 6161, "anda": 6162, "andayu": 6163, "angad": 6164, "angm": 6165, "angmangan": 6166, "aniuan": 6167, "anud": 6168, "anupaya": 6169, "aping": 6170, "aptas": 6171, "apsap": 6172, "arinan": 6173, "arangal": 6174, "asas": 6175, "asig": 6176, "asik": 6177, "asyun": 6178, "ator": 6179, "atul": 6180, "ataim": 6181, "atsat": 6182, "atuang": 6183, "awakan": 6184, "awu": 6185, "awakasan": 6186, "ayid": 6187, "aytan": 6188, "ayunan": 6189, "ayangnan": 6190, "bata": 6191, "batan": 6192, "bg": 6193, "bli": 6194, "bye": 6195, "baitan": 6196, "cyat": 6197, "dag": 6198, "dit": 6199, "dtud": 6200, "dut": 6201, "dapot": 6202, "e-ling": 6203, "ean": 6204, "eme": 6205, "elu": 6206, "elihiyun": 6207, "emat": 6208, "end": 6209, "enz": 6210, "enior": 6211, "enora": 6212, "erensia": 6213, "esen": 6214, "fax": 6215, "faxad": 6216, "ginu": 6217, "gn": 6218, "has": 6219, "holib": 6220, "holibama": 6221, "hova": 6222, "iabi": 6223, "iabing": 6224, "iayan": 6225, "iasat": 6226, "ibug": 6227, "idadaran": 6228, "iglo": 6229, "ikad": 6230, "ikakunuan": 6231, "ikasala": 6232, "ikat": 6233, "ikano": 6234, "ikuanan": 6235, "ilat": 6236, "iligtas": 6237, "ilinan": 6238, "ily": 6239, "imon": 6240, "imum": 6241, "imbangan": 6242, "inda": 6243, "inday": 6244, "inggitan": 6245, "inist": 6246, "ipagan": 6247, "irasuan": 6248, "irasung": 6249, "isipan": 6250, "ison": 6251, "isuas": 6252, "iting": 6253, "itla": 6254, "itsura": 6255, "iuang": 6256, "iuwan": 6257, "karan": 6258, "kasan": 6259, "katas": 6260, "kay": 6261, "kanian": 6262, "karelang": 6263, "lako": 6264, "layan": 6265, "lina": 6266, "lut": 6267, "luyun": 6268, "mar": 6269, "mista": 6270, "mit": 6271, "mabilug": 6272, "nuan": 6273, "nauan": 6274, "nanung": 6275, "ota": 6276, "obran": 6277, "orasan": 6278, "oso": 6279, "oth": 6280, "oting": 6281, "pag": 6282, "panan": 6283, "pangan": 6284, "pung": 6285, "pus": 6286, "ragoras": 6287, "rim": 6288, "rosa": 6289, "raclan": 6290, "rasya": 6291, "ress": 6292, "sal": 6293, "sala": 6294, "shanty": 6295, "silan": 6296, "supan": 6297, "syan": 6298, "sion": 6299, "takan": 6300, "tam": 6301, "tapat": 6302, "tel": 6303, "turan": 6304, "tenyente": 6305, "thday": 6306, "tibayan": 6307, "tonio": 6308, "ufr": 6309, "ualta": 6310, "ubsub": 6311, "ucnang": 6312, "ucris": 6313, "ugmuk": 6314, "ugung": 6315, "ukadkad": 6316, "ukian": 6317, "uktuk": 6318, "uklud": 6319, "ulagan": 6320, "ulandung": 6321, "ulyut": 6322, "umulan": 6323, "unla": 6324, "unung": 6325, "undagan": 6326, "ungkasian": 6327, "upsupan": 6328, "upu": 6329, "urit": 6330, "urul": 6331, "usi": 6332, "ust": 6333, "utkutan": 6334, "utungan": 6335, "uyud": 6336, "veo": 6337, "way": 6338, "yaman": 6339, "yuan": 6340, "yac": 6341, "yalben": 6342, "yuyu": 6343, "▁29": 6344, "▁39": 6345, "▁aholibama": 6346, "▁aita": 6347, "▁aya": 6348, "▁ayari": 6349, "▁abalitan": 6350, "▁abat": 6351, "▁abilang": 6352, "▁aburi": 6353, "▁abut": 6354, "▁abitasa": 6355, "▁aclis": 6356, "▁agusan": 6357, "▁aintindyan": 6358, "▁akayantabe": 6359, "▁alilan": 6360, "▁alipul": 6361, "▁alkald": 6362, "▁aly": 6363, "▁amalesitas": 6364, "▁ampang": 6365, "▁amung": 6366, "▁amanuan": 6367, "▁ampangan": 6368, "▁antonio": 6369, "▁anga": 6370, "▁apibule": 6371, "▁apili": 6372, "▁aping": 6373, "▁apatapulu": 6374, "▁aplaya": 6375, "▁aram": 6376, "▁arfaxad": 6377, "▁artis": 6378, "▁asikan": 6379, "▁atbu": 6380, "▁atna": 6381, "▁atsu": 6382, "▁ayus": 6383, "▁bapu": 6384, "▁bawal": 6385, "▁bern": 6386, "▁binggitan": 6387, "▁buku": 6388, "▁babala": 6389, "▁babalik": 6390, "▁babalikan": 6391, "▁babat": 6392, "▁baga": 6393, "▁bagyu": 6394, "▁balakang": 6395, "▁balangkas": 6396, "▁bameng": 6397, "▁banakong": 6398, "▁banakung": 6399, "▁basura": 6400, "▁bayad": 6401, "▁beateriu": 6402, "▁berdug": 6403, "▁besibas": 6404, "▁bibitayan": 6405, "▁bignus": 6406, "▁binalik": 6407, "▁birthday": 6408, "▁bisita": 6409, "▁bisni": 6410, "▁bistaman": 6411, "▁bista't": 6412, "▁bukut": 6413, "▁busten": 6414, "▁butil": 6415, "▁crus": 6416, "▁cruz": 6417, "▁damdam": 6418, "▁disan": 6419, "▁dr": 6420, "▁dug": 6421, "▁dakilang": 6422, "▁danggut": 6423, "▁daragul": 6424, "▁daralanan": 6425, "▁darandaman": 6426, "▁dase": 6427, "▁delang": 6428, "▁delila": 6429, "▁diego": 6430, "▁digpa": 6431, "▁dinalakit": 6432, "▁dinaun": 6433, "▁dit'man": 6434, "▁ditman": 6435, "▁droga": 6436, "▁dumayu": 6437, "▁dungis": 6438, "▁ebang": 6439, "▁eko": 6440, "▁eng": 6441, "▁eufr": 6442, "▁ex": 6443, "▁eglon": 6444, "▁emper": 6445, "▁ene": 6446, "▁eskwela": 6447, "▁espiritung": 6448, "▁flor": 6449, "▁filipinu": 6450, "▁gain": 6451, "▁gamit": 6452, "▁gaua": 6453, "▁gilis": 6454, "▁gmetung": 6455, "▁gran": 6456, "▁gulisac": 6457, "▁gasgas": 6458, "▁gerar": 6459, "▁grasya": 6460, "▁gubyernu": 6461, "▁had": 6462, "▁horeos": 6463, "▁hav": 6464, "▁heneral": 6465, "▁ibib": 6466, "▁ibuklat": 6467, "▁igalang": 6468, "▁ikeng": 6469, "▁ikwa": 6470, "▁ikwang": 6471, "▁iladlad": 6472, "▁ilipat": 6473, "▁inablas": 6474, "▁inain": 6475, "▁inutusan": 6476, "▁inatna": 6477, "▁indredus": 6478, "▁ingkeang": 6479, "▁intern": 6480, "▁ipam": 6481, "▁ipang": 6482, "▁ipanganak": 6483, "▁isadia": 6484, "▁isalita": 6485, "▁isaplala": 6486, "▁isumpa": 6487, "▁ispya": 6488, "▁itat": 6489, "▁itu": 6490, "▁jardin": 6491, "▁jun": 6492, "▁jesucris": 6493, "▁joas": 6494, "▁kulungan": 6495, "▁ka-": 6496, "▁kailangang": 6497, "▁kaing": 6498, "▁kaj": 6499, "▁kaorasan": 6500, "▁kaulan": 6501, "▁kabayan": 6502, "▁kabang-kaba": 6503, "▁kabangal": 6504, "▁kabengyan": 6505, "▁kabiguan": 6506, "▁kabigwan": 6507, "▁kakas": 6508, "▁kakalulwan": 6509, "▁kakewan": 6510, "▁kalagu": 6511, "▁kalimang": 6512, "▁kalinisan": 6513, "▁kaluat": 6514, "▁kalul": 6515, "▁kaluskus": 6516, "▁kamand": 6517, "▁kamangmangan": 6518, "▁kamulalan": 6519, "▁kamumulan": 6520, "▁kamamalu": 6521, "▁kananeo": 6522, "▁kapa": 6523, "▁kapad": 6524, "▁kapangan": 6525, "▁kapanualan": 6526, "▁kapayan": 6527, "▁kapiblas": 6528, "▁kapikakunuan": 6529, "▁kapila": 6530, "▁kapilas": 6531, "▁kapuryan": 6532, "▁kapanalangsangan": 6533, "▁kapanaligan": 6534, "▁kapanusigan": 6535, "▁kapasnauan": 6536, "▁kapatawaran": 6537, "▁kapitung": 6538, "▁karaniuan": 6539, "▁karar": 6540, "▁karug": 6541, "▁kareta": 6542, "▁karitun": 6543, "▁kasak": 6544, "▁kasakit": 6545, "▁kasawpan": 6546, "▁kasipagan": 6547, "▁kasuyung": 6548, "▁kasiping-siping": 6549, "▁kastila": 6550, "▁katula": 6551, "▁kawawakasan": 6552, "▁kayab": 6553, "▁kayumu": 6554, "▁kebaitan": 6555, "▁kep": 6556, "▁keraclan": 6557, "▁kekaldan": 6558, "▁kekat": 6559, "▁ketawan": 6560, "▁keynan": 6561, "▁kikiak": 6562, "▁kikiakan": 6563, "▁kikimut": 6564, "▁kilala": 6565, "▁kilung": 6566, "▁kinulkul": 6567, "▁kitmuan": 6568, "▁kol": 6569, "▁kop": 6570, "▁koya": 6571, "▁kontr": 6572, "▁koral": 6573, "▁kualta": 6574, "▁kuayan": 6575, "▁kuch": 6576, "▁kubkuban": 6577, "▁lambat": 6578, "▁lito": 6579, "▁lagu": 6580, "▁lahat": 6581, "▁lalabung": 6582, "▁lalawigan": 6583, "▁landas": 6584, "▁laruja": 6585, "▁leb": 6586, "▁lienz": 6587, "▁libakan": 6588, "▁libu-l": 6589, "▁ligaligan": 6590, "▁linundag": 6591, "▁liryo": 6592, "▁lisya": 6593, "▁lokal": 6594, "▁loving": 6595, "▁luang": 6596, "▁luz": 6597, "▁lulanan": 6598, "▁mabi": 6599, "▁mapatlud": 6600, "▁maya": 6601, "▁mayan": 6602, "▁mr": 6603, "▁mukiat": 6604, "▁mye": 6605, "▁mae-ling": 6606, "▁mainge": 6607, "▁maulagang": 6608, "▁mababang": 6609, "▁mabag": 6610, "▁mabagsik": 6611, "▁mabandi": 6612, "▁mabe": 6613, "▁maglacbe": 6614, "▁magnasa": 6615, "▁magtajimik": 6616, "▁magti": 6617, "▁magdatun": 6618, "▁magkamali": 6619, "▁magluat": 6620, "▁magpar": 6621, "▁magpakasikan": 6622, "▁makabie": 6623, "▁makakal": 6624, "▁makakalinguan": 6625, "▁makakilala": 6626, "▁makakul": 6627, "▁makakut": 6628, "▁makalucluc": 6629, "▁makalungkut": 6630, "▁makam": 6631, "▁makualta": 6632, "▁makagising": 6633, "▁makalbug": 6634, "▁makapag": 6635, "▁makapanuknangan": 6636, "▁makasake": 6637, "▁makatalan": 6638, "▁makayamang": 6639, "▁makayatyat": 6640, "▁makiabe": 6641, "▁makiasawa": 6642, "▁makibandi": 6643, "▁malambat": 6644, "▁malik": 6645, "▁malul": 6646, "▁malumud": 6647, "▁malagad": 6648, "▁malagua": 6649, "▁malapad": 6650, "▁malasing": 6651, "▁malualas": 6652, "▁mamabat": 6653, "▁mamabut": 6654, "▁mamag": 6655, "▁mamajala": 6656, "▁mamung": 6657, "▁mamunga": 6658, "▁mamut": 6659, "▁manaral": 6660, "▁manna": 6661, "▁manuc": 6662, "▁manatad": 6663, "▁manatiling": 6664, "▁mandragoras": 6665, "▁mangul": 6666, "▁maniawad": 6667, "▁mapagk": 6668, "▁maplas": 6669, "▁mapuri": 6670, "▁mapupupus": 6671, "▁maputla": 6672, "▁marakap": 6673, "▁maratna": 6674, "▁masam": 6675, "▁masapsap": 6676, "▁masiglang": 6677, "▁masyas": 6678, "▁matat": 6679, "▁matda": 6680, "▁matig": 6681, "▁matim": 6682, "▁mausta": 6683, "▁maybe": 6684, "▁maygit": 6685, "▁meakua": 6686, "▁meari": 6687, "▁meaus": 6688, "▁metudtud": 6689, "▁meuala": 6690, "▁meyari": 6691, "▁mebaldug": 6692, "▁mebalung": 6693, "▁mebinang": 6694, "▁mebung": 6695, "▁mekakit": 6696, "▁meki": 6697, "▁melikid": 6698, "▁melaun": 6699, "▁melasing": 6700, "▁melaso": 6701, "▁menintun": 6702, "▁mengamanu": 6703, "▁mengamate": 6704, "▁mesabi": 6705, "▁metak": 6706, "▁metuli": 6707, "▁meto-": 6708, "▁miatulan": 6709, "▁midala": 6710, "▁miugse": 6711, "▁mibal": 6712, "▁miban": 6713, "▁mibayu": 6714, "▁mig-": 6715, "▁migag": 6716, "▁migale": 6717, "▁migd": 6718, "▁migtaksil": 6719, "▁migunam": 6720, "▁migmula": 6721, "▁migsalita": 6722, "▁mikakal": 6723, "▁mikib": 6724, "▁mika-": 6725, "▁mikaluku": 6726, "▁milag": 6727, "▁milalako": 6728, "▁milalam": 6729, "▁milulupa": 6730, "▁milyaring": 6731, "▁minamayap": 6732, "▁minist": 6733, "▁minutus": 6734, "▁minuan": 6735, "▁mipalad": 6736, "▁mipang": 6737, "▁mipasiag": 6738, "▁mipacde": 6739, "▁mipaiglip": 6740, "▁mipakde": 6741, "▁mipanik": 6742, "▁miparusan": 6743, "▁misip": 6744, "▁misubli": 6745, "▁misusumangid": 6746, "▁mitatas": 6747, "▁mitim": 6748, "▁mitnube": 6749, "▁mititipun": 6750, "▁miyaliuang": 6751, "▁miyaliwa": 6752, "▁moabitas": 6753, "▁mumu": 6754, "▁mukyat": 6755, "▁mulajan": 6756, "▁mumutus": 6757, "▁munye": 6758, "▁myaliwa": 6759, "▁n'": 6760, "▁nag": 6761, "▁nalang": 6762, "▁nas": 6763, "▁nim": 6764, "▁nyang": 6765, "▁negos": 6766, "▁nga": 6767, "▁ngulangul": 6768, "▁onan": 6769, "▁ortel": 6770, "▁orkestra": 6771, "▁oyni": 6772, "▁palan": 6773, "▁pasanting": 6774, "▁pawa": 6775, "▁peleg": 6776, "▁pidadaran": 6777, "▁put": 6778, "▁paim": 6779, "▁pacpac": 6780, "▁paintungul": 6781, "▁pakas": 6782, "▁pakis": 6783, "▁pakibaluan": 6784, "▁palab": 6785, "▁palas": 6786, "▁palig": 6787, "▁palma": 6788, "▁palual": 6789, "▁palpikasala": 6790, "▁pamalac": 6791, "▁pamar": 6792, "▁pamatulan": 6793, "▁pamagm": 6794, "▁pamagbayu": 6795, "▁pamagdili-dili": 6796, "▁pamagligtas": 6797, "▁pamagtagumpe": 6798, "▁pamalsing": 6799, "▁pamalsintang": 6800, "▁pamanalipit": 6801, "▁pamanigapu": 6802, "▁pamangulila": 6803, "▁pamanyumpa": 6804, "▁pamibule": 6805, "▁pamibulebule": 6806, "▁pamigaganaka": 6807, "▁pamikit": 6808, "▁pamipasalamat": 6809, "▁pamipatutu": 6810, "▁panagimpan": 6811, "▁panagkas": 6812, "▁panaligan": 6813, "▁panigapu": 6814, "▁panandam": 6815, "▁pangag": 6816, "▁pangabilian": 6817, "▁pangabijag": 6818, "▁pangalbug": 6819, "▁pangayalipan": 6820, "▁pangayaliua": 6821, "▁panyulung": 6822, "▁papam": 6823, "▁parapara": 6824, "▁parulang": 6825, "▁parusang": 6826, "▁pasak": 6827, "▁pasakitan": 6828, "▁pasalikut": 6829, "▁pasig": 6830, "▁paskual": 6831, "▁patag": 6832, "▁patas": 6833, "▁patti": 6834, "▁patulan": 6835, "▁pawaga": 6836, "▁pegumasdan": 6837, "▁pemungkasian": 6838, "▁penaya": 6839, "▁peninap": 6840, "▁pengaring": 6841, "▁pepayaus": 6842, "▁perd": 6843, "▁perlas": 6844, "▁personang": 6845, "▁pibale-bale": 6846, "▁pigp": 6847, "▁pigs": 6848, "▁pikab": 6849, "▁pikutkutan": 6850, "▁pilac": 6851, "▁piling": 6852, "▁pinaud": 6853, "▁pinilit": 6854, "▁pipanganan": 6855, "▁pipat": 6856, "▁pipiling": 6857, "▁pirait": 6858, "▁pirake": 6859, "▁pisabian": 6860, "▁pisak": 6861, "▁pisanan": 6862, "▁pisumamian": 6863, "▁pitakutan": 6864, "▁pitnubayan": 6865, "▁pitutul": 6866, "▁poti": 6867, "▁poema": 6868, "▁presid": 6869, "▁prinsipe": 6870, "▁probinsia": 6871, "▁progres": 6872, "▁ram": 6873, "▁reberensia": 6874, "▁sc": 6875, "▁selah": 6876, "▁sit": 6877, "▁siwal": 6878, "▁sol": 6879, "▁st": 6880, "▁suli": 6881, "▁sulung": 6882, "▁sabung": 6883, "▁sagakgak": 6884, "▁sakung": 6885, "▁sakup": 6886, "▁salesean": 6887, "▁salikap": 6888, "▁salmista": 6889, "▁salunan": 6890, "▁samsaman": 6891, "▁sangla": 6892, "▁sarang": 6893, "▁sasake": 6894, "▁sasampa": 6895, "▁sasarian": 6896, "▁sasakupan": 6897, "▁sea": 6898, "▁seganan": 6899, "▁selabat": 6900, "▁sermun": 6901, "▁siasatan": 6902, "▁siclong": 6903, "▁sigaril": 6904, "▁sige": 6905, "▁siglong": 6906, "▁silab": 6907, "▁sinaguli": 6908, "▁sinai": 6909, "▁sinaka": 6910, "▁sinalpantaya": 6911, "▁sininup": 6912, "▁sinulad": 6913, "▁sisimba": 6914, "▁sisiran": 6915, "▁sisisian": 6916, "▁siwalang": 6917, "▁subli": 6918, "▁sukdan": 6919, "▁suksuk": 6920, "▁sulapo": 6921, "▁sumisi": 6922, "▁susulat": 6923, "▁sweldu": 6924, "▁tayang": 6925, "▁tic": 6926, "▁tong": 6927, "▁tonu": 6928, "▁tulian": 6929, "▁tur": 6930, "▁tacbang": 6931, "▁taglus": 6932, "▁takutan": 6933, "▁talukab": 6934, "▁tandanan": 6935, "▁tandang": 6936, "▁tanggap": 6937, "▁tangis": 6938, "▁tatag": 6939, "▁tatagkilan": 6940, "▁tatalangan": 6941, "▁tatangisan": 6942, "▁term": 6943, "▁tibuk": 6944, "▁tikal": 6945, "▁tiktak": 6946, "▁timbang": 6947, "▁tina": 6948, "▁tinag": 6949, "▁tiniman": 6950, "▁tinola": 6951, "▁tipa": 6952, "▁titipunan": 6953, "▁tsinu": 6954, "▁tukian": 6955, "▁tumubu": 6956, "▁tunggal-tunggal": 6957, "▁uman": 6958, "▁ulign": 6959, "▁uliran": 6960, "▁victory": 6961, "▁yakung": 6962, "▁yamu": 6963, "▁york": 6964, "▁yumu": 6965, "▁yaduan": 6966, "▁yamut": 6967, "▁year": 6968, "-abe": 6969, "-amas": 6970, "-ing": 6971, "-labis": 6972, "-mal": 6973, "-malat": 6974, "-r": 6975, "-ban": 6976, "-dios": 6977, "-gana": 6978, "-gilead": 6979, "-lub": 6980, "-lunus": 6981, "-mni": 6982, "-palad": 6983, "-pe": 6984, "-sal": 6985, "-sape": 6986, "-sus": 6987, "-susun": 6988, "-takut": 6989, "a'na": 6990, "aili": 6991, "aut": 6992, "abayan": 6993, "abis": 6994, "abuc": 6995, "abustan": 6996, "abye": 6997, "abyus": 6998, "abiayan": 6999, "abid": 7000, "abusta": 7001, "adam": 7002, "aduanan": 7003, "aduangan": 7004, "agpang": 7005, "agyag": 7006, "agatpanapun": 7007, "agiung": 7008, "agmana": 7009, "agmit": 7010, "akdal": 7011, "aki": 7012, "akid": 7013, "akli": 7014, "aksing": 7015, "aktak": 7016, "akanyan": 7017, "akasakit": 7018, "akuyad": 7019, "alab": 7020, "alel": 7021, "alis": 7022, "alaad": 7023, "alagiuwan": 7024, "alaku": 7025, "alamanu": 7026, "alasanan": 7027, "alasing": 7028, "aldac": 7029, "aliari": 7030, "amaran": 7031, "amnanan": 7032, "amo": 7033, "ambula": 7034, "ampalasanan": 7035, "ampas": 7036, "ampi": 7037, "ampun": 7038, "amunga": 7039, "animal": 7040, "anong": 7041, "anding": 7042, "angu": 7043, "angganan": 7044, "anggang": 7045, "anggit": 7046, "angguni": 7047, "aplit": 7048, "apunan": 7049, "apusan": 7050, "apwak": 7051, "apaslan": 7052, "apastanganan": 7053, "arim": 7054, "arusa": 7055, "arya": 7056, "aralampu": 7057, "arangalan": 7058, "aria": 7059, "artel": 7060, "asuc": 7061, "asanmetung": 7062, "atau": 7063, "atlu": 7064, "atyu": 7065, "atanda": 7066, "awala": 7067, "awas": 7068, "awul": 7069, "ayangan": 7070, "ayari": 7071, "ayum": 7072, "ayaninag": 7073, "ayapang": 7074, "aynawa": 7075, "ayunanan": 7076, "bak": 7077, "balu": 7078, "bayu": 7079, "bilan": 7080, "br": 7081, "bunan": 7082, "ba't": 7083, "bath": 7084, "beep": 7085, "bisyu": 7086, "brador": 7087, "bukas": 7088, "dad": 7089, "dern": 7090, "dian": 7091, "dungan": 7092, "dyos": 7093, "dayug": 7094, "dok": 7095, "dorla": 7096, "dorlaom": 7097, "dorlaomer": 7098, "e-sape": 7099, "ek": 7100, "elan": 7101, "emania": 7102, "enat": 7103, "enta": 7104, "entung": 7105, "enging": 7106, "eral": 7107, "erbisyu": 7108, "erong": 7109, "erno": 7110, "es-gilead": 7111, "esday": 7112, "fe": 7113, "fo": 7114, "gf": 7115, "gi": 7116, "good": 7117, "hag": 7118, "hang": 7119, "hat": 7120, "heth": 7121, "hheth": 7122, "hn": 7123, "himikan": 7124, "iasawa": 7125, "ibabatan": 7126, "ibandian": 7127, "ich": 7128, "idatu": 7129, "ids": 7130, "ieve": 7131, "iglan": 7132, "igo": 7133, "igpit": 7134, "igpo": 7135, "iklaud": 7136, "ikong": 7137, "ilar": 7138, "ilib": 7139, "iluan": 7140, "ilanganan": 7141, "imalan": 7142, "imikan": 7143, "imbentu": 7144, "imbutan": 7145, "impis": 7146, "inagan": 7147, "inting": 7148, "indac": 7149, "inistilan": 7150, "inoam": 7151, "intulid": 7152, "intulutan": 7153, "iring": 7154, "isk": 7155, "isti": 7156, "isud": 7157, "iswas": 7158, "isyun": 7159, "itng": 7160, "itngit": 7161, "iualan": 7162, "je": 7163, "jel": 7164, "jing": 7165, "jimikan": 7166, "karin": 7167, "karing": 7168, "kol": 7169, "kabud": 7170, "kaluban": 7171, "kaluguran": 7172, "kant": 7173, "kekeng": 7174, "kultura": 7175, "lig": 7176, "limang": 7177, "lin": 7178, "luan": 7179, "lub": 7180, "lugud": 7181, "lasing": 7182, "lasiun": 7183, "lual": 7184, "may": 7185, "mayap": 7186, "mg": 7187, "mip": 7188, "mega": 7189, "nganang": 7190, "oim": 7191, "olu": 7192, "ora": 7193, "omon": 7194, "oria": 7195, "oreo": 7196, "osang": 7197, "oses": 7198, "osu": 7199, "otu": 7200, "otamia": 7201, "pela": 7202, "ps": 7203, "puk": 7204, "pusu": 7205, "pusung": 7206, "py": 7207, "pek": 7208, "peta": 7209, "rid": 7210, "rita": 7211, "rama": 7212, "read": 7213, "rek": 7214, "risataim": 7215, "sab": 7216, "sag": 7217, "ses": 7218, "sig": 7219, "sikan": 7220, "silyo": 7221, "solasiun": 7222, "tos": 7223, "tra": 7224, "taol": 7225, "tandanan": 7226, "tarot": 7227, "tashheth": 7228, "tikan": 7229, "timore": 7230, "turang": 7231, "u't": 7232, "ubal": 7233, "ubuslan": 7234, "udta": 7235, "udturan": 7236, "ugl": 7237, "ugo": 7238, "uklas": 7239, "ukpuk": 7240, "uktut": 7241, "ukub": 7242, "ukung": 7243, "ukyan": 7244, "ulak": 7245, "uliran": 7246, "uluran": 7247, "ulyo": 7248, "ulait": 7249, "ulingid": 7250, "umang": 7251, "umbe": 7252, "umbu": 7253, "umeme": 7254, "umeru": 7255, "umbayan": 7256, "umpisan": 7257, "un-susun": 7258, "uno": 7259, "undung": 7260, "unggal": 7261, "ungge": 7262, "untukan": 7263, "upig": 7264, "upit": 7265, "uranan": 7266, "urup": 7267, "ureado": 7268, "us-palad": 7269, "uslus": 7270, "usni": 7271, "usungan": 7272, "usyo": 7273, "usgus": 7274, "usuc": 7275, "utuk": 7276, "utgut": 7277, "uyuan": 7278, "valys": 7279, "varra": 7280, "ver": 7281, "walas": 7282, "wa'na": 7283, "yalan": 7284, "yanan": 7285, "yug": 7286, "yahi": 7287, "▁31": 7288, "▁35": 7289, "▁36": 7290, "▁adu": 7291, "▁aili": 7292, "▁aisip": 7293, "▁au": 7294, "▁abad": 7295, "▁abandi": 7296, "▁abinoam": 7297, "▁aburianan": 7298, "▁adinan": 7299, "▁adma": 7300, "▁agaua": 7301, "▁agila": 7302, "▁agkat": 7303, "▁agnan-agnan": 7304, "▁akbung": 7305, "▁akino": 7306, "▁akmulan": 7307, "▁akwang": 7308, "▁akasaman": 7309, "▁alaga": 7310, "▁alako": 7311, "▁alawe": 7312, "▁albin": 7313, "▁ald": 7314, "▁alemania": 7315, "▁alipitan": 7316, "▁alp": 7317, "▁alimbawa": 7318, "▁alisus": 7319, "▁amlat": 7320, "▁amyam": 7321, "▁amerika": 7322, "▁amerikano": 7323, "▁aniu": 7324, "▁anamapulu": 7325, "▁angjel": 7326, "▁anggiang": 7327, "▁apagm": 7328, "▁apar": 7329, "▁apas": 7330, "▁apil": 7331, "▁aplit": 7332, "▁april": 7333, "▁apaninap": 7334, "▁apialas": 7335, "▁arg": 7336, "▁arnon": 7337, "▁aro": 7338, "▁artista": 7339, "▁asagka": 7340, "▁ash": 7341, "▁asilip": 7342, "▁asin": 7343, "▁asintang": 7344, "▁asnong": 7345, "▁atangalan": 7346, "▁atipun": 7347, "▁atsi": 7348, "▁bami": 7349, "▁bida": 7350, "▁bless": 7351, "▁buyut": 7352, "▁bwak": 7353, "▁baalim": 7354, "▁bagumbayan": 7355, "▁bagyus": 7356, "▁bagahi": 7357, "▁balng": 7358, "▁baltimore": 7359, "▁balikdan": 7360, "▁balikid": 7361, "▁bandila": 7362, "▁bangsa": 7363, "▁banyagang": 7364, "▁baril": 7365, "▁barilan": 7366, "▁barkada": 7367, "▁barong": 7368, "▁baru": 7369, "▁barung": 7370, "▁basemat": 7371, "▁baying": 7372, "▁bayaning": 7373, "▁beit": 7374, "▁beitan": 7375, "▁bek": 7376, "▁belik": 7377, "▁benjam": 7378, "▁berding": 7379, "▁bernard": 7380, "▁betel": 7381, "▁beytan": 7382, "▁biasang": 7383, "▁bilin": 7384, "▁bilus": 7385, "▁binulus": 7386, "▁binangal": 7387, "▁bitbit": 7388, "▁boti": 7389, "▁buak": 7390, "▁bubulung": 7391, "▁bunbunan": 7392, "▁bundok": 7393, "▁busil": 7394, "▁buslu": 7395, "▁butang": 7396, "▁cristo": 7397, "▁dagdag": 7398, "▁damp": 7399, "▁damulag": 7400, "▁dayi": 7401, "▁dilag": 7402, "▁dpa": 7403, "▁du": 7404, "▁dungan": 7405, "▁dy": 7406, "▁dyan": 7407, "▁daig": 7408, "▁dakata": 7409, "▁dakpan": 7410, "▁dalan-d": 7411, "▁daranup": 7412, "▁darayu": 7413, "▁deang": 7414, "▁dekap": 7415, "▁denas": 7416, "▁diwang": 7417, "▁digdag": 7418, "▁digma": 7419, "▁digsu": 7420, "▁dimpa": 7421, "▁dimput": 7422, "▁dinalo": 7423, "▁dine": 7424, "▁dinwang": 7425, "▁disiplina": 7426, "▁dito": 7427, "▁domingo": 7428, "▁dumalagang": 7429, "▁dumitak": 7430, "▁eta": 7431, "▁e'ku": 7432, "▁e'ne": 7433, "▁efod": 7434, "▁ekonomiya": 7435, "▁elon": 7436, "▁ely": 7437, "▁est": 7438, "▁estaol": 7439, "▁eskol": 7440, "▁filib": 7441, "▁familia": 7442, "▁filistia": 7443, "▁galaad": 7444, "▁galing": 7445, "▁gera": 7446, "▁gf": 7447, "▁ging": 7448, "▁gulu": 7449, "▁gaal": 7450, "▁gagato": 7451, "▁gaglas": 7452, "▁gevarra": 7453, "▁general": 7454, "▁giunu": 7455, "▁gilisac": 7456, "▁ginabak": 7457, "▁ginalo": 7458, "▁grupu": 7459, "▁gubat": 7460, "▁gugulatan": 7461, "▁gugulisak": 7462, "▁hap": 7463, "▁him": 7464, "▁hus": 7465, "▁hehova": 7466, "▁heveo": 7467, "▁hebreo": 7468, "▁herm": 7469, "▁hermon": 7470, "▁higera": 7471, "▁hily": 7472, "▁iwasan": 7473, "▁ibigkas": 7474, "▁idagdag": 7475, "▁ikalat": 7476, "▁ika'ng": 7477, "▁ilarawan": 7478, "▁ilig": 7479, "▁inampang": 7480, "▁inawad": 7481, "▁inayan": 7482, "▁inyo": 7483, "▁ingkung": 7484, "▁inglis": 7485, "▁insamang": 7486, "▁insp": 7487, "▁intsic": 7488, "▁isk": 7489, "▁istoria": 7490, "▁itumpak": 7491, "▁italaga": 7492, "▁iyampang": 7493, "▁jok": 7494, "▁jotam": 7495, "▁jr": 7496, "▁jabes-gilead": 7497, "▁jebuseos": 7498, "▁jeriko": 7499, "▁kig": 7500, "▁kirut": 7501, "▁kot": 7502, "▁kainan": 7503, "▁kaisip": 7504, "▁katandanan": 7505, "▁kaulaga": 7506, "▁kauli": 7507, "▁kauran": 7508, "▁kausukan": 7509, "▁kabag": 7510, "▁kabat": 7511, "▁kabel": 7512, "▁kabis": 7513, "▁kabubuslan": 7514, "▁kabukasan": 7515, "▁kababayangnan": 7516, "▁kadwa": 7517, "▁kadalagnan": 7518, "▁kaisanuman": 7519, "▁kaisanumang": 7520, "▁kakablas": 7521, "▁kakalingwan": 7522, "▁kakarinan": 7523, "▁kakatmuan": 7524, "▁kakubo": 7525, "▁kakulangan": 7526, "▁kalarawan": 7527, "▁kaleb": 7528, "▁kalmin": 7529, "▁kalutu": 7530, "▁kalikasan": 7531, "▁kalingwan": 7532, "▁kalokuan": 7533, "▁kamau": 7534, "▁kambilan": 7535, "▁kamel": 7536, "▁kaministilan": 7537, "▁kamua": 7538, "▁kamuting": 7539, "▁kamandag": 7540, "▁kaniang": 7541, "▁kaniglan": 7542, "▁kantu": 7543, "▁kanwan": 7544, "▁kanga": 7545, "▁kapait": 7546, "▁kapibabatan": 7547, "▁kapil": 7548, "▁kapirasung": 7549, "▁kapulung": 7550, "▁kapus-palad": 7551, "▁kapanintunan": 7552, "▁kapantasan": 7553, "▁kaparusan": 7554, "▁kaparang-tau": 7555, "▁kapitnang": 7556, "▁karagulan": 7557, "▁karangal": 7558, "▁karangalan": 7559, "▁karapat": 7560, "▁karatunan": 7561, "▁karutungan": 7562, "▁kasaup": 7563, "▁kasaya": 7564, "▁kase": 7565, "▁kasulatan": 7566, "▁kasuywan": 7567, "▁kasw": 7568, "▁kasalesayan": 7569, "▁kasebyan": 7570, "▁katat": 7571, "▁katunayan": 7572, "▁katahimikan": 7573, "▁kataimikan": 7574, "▁katiwalan": 7575, "▁katiwangan": 7576, "▁kawal": 7577, "▁kawlan": 7578, "▁kayaryan": 7579, "▁kayabakan": 7580, "▁kayangganan": 7581, "▁kebat": 7582, "▁kedorlaomer": 7583, "▁keinan": 7584, "▁kemuan": 7585, "▁keganaganang": 7586, "▁kegana-gana": 7587, "▁keliwan": 7588, "▁kelso": 7589, "▁kenaz": 7590, "▁kilalanan": 7591, "▁kilkul": 7592, "▁kinablas": 7593, "▁kinati": 7594, "▁kineo": 7595, "▁kinutud": 7596, "▁kobrador": 7597, "▁konsolasiun": 7598, "▁konsep": 7599, "▁kuartel": 7600, "▁kuna": 7601, "▁kunan": 7602, "▁kusan": 7603, "▁kuadrung": 7604, "▁kukupas": 7605, "▁kukusad": 7606, "▁kukulisak": 7607, "▁kukulkulan": 7608, "▁kulturang": 7609, "▁kulumbu": 7610, "▁kuldun": 7611, "▁kumagli": 7612, "▁kumatmu": 7613, "▁kumiac": 7614, "▁kumusta": 7615, "▁kune": 7616, "▁kwalta": 7617, "▁kwar": 7618, "▁lakan": 7619, "▁lalang": 7620, "▁lambing": 7621, "▁lambis": 7622, "▁lana": 7623, "▁late": 7624, "▁lati": 7625, "▁lisa": 7626, "▁labing-": 7627, "▁labingaduang": 7628, "▁labis-labis": 7629, "▁lagio": 7630, "▁laklakan": 7631, "▁lalapo": 7632, "▁lalbug": 7633, "▁laluna": 7634, "▁lande": 7635, "▁langi": 7636, "▁lasun": 7637, "▁lehi": 7638, "▁lesak": 7639, "▁letra": 7640, "▁letratung": 7641, "▁lidlad": 7642, "▁lienzo": 7643, "▁likas": 7644, "▁liklak": 7645, "▁likluk": 7646, "▁liliwan": 7647, "▁linalang": 7648, "▁lindayug": 7649, "▁line": 7650, "▁lining": 7651, "▁linis": 7652, "▁linutu": 7653, "▁lingapan": 7654, "▁litid": 7655, "▁lotan": 7656, "▁lumwal": 7657, "▁lunas": 7658, "▁main": 7659, "▁maitsura": 7660, "▁mabating": 7661, "▁mabilang": 7662, "▁mabsi": 7663, "▁mabu": 7664, "▁mabub": 7665, "▁mabye": 7666, "▁mabanglung": 7667, "▁macpela": 7668, "▁madrid": 7669, "▁maginakit": 7670, "▁magma": 7671, "▁magmalun": 7672, "▁magnasang": 7673, "▁mag-ari": 7674, "▁magbabo": 7675, "▁magbalic": 7676, "▁magdulap": 7677, "▁maglame": 7678, "▁maglapo": 7679, "▁maglati": 7680, "▁maglayag": 7681, "▁magmana": 7682, "▁magmayabang": 7683, "▁magpaldas": 7684, "▁magpun": 7685, "▁magpakat": 7686, "▁magpatawe": 7687, "▁magsadia": 7688, "▁magsadya": 7689, "▁magwagi": 7690, "▁mahalalel": 7691, "▁makabante": 7692, "▁makalasing": 7693, "▁makalinguan": 7694, "▁makamal": 7695, "▁makamat": 7696, "▁makaw": 7697, "▁makawili": 7698, "▁makayantabe": 7699, "▁makik": 7700, "▁maklak": 7701, "▁makabalut": 7702, "▁makabat": 7703, "▁makaburul": 7704, "▁makadangat": 7705, "▁makakulurun": 7706, "▁makakuta": 7707, "▁makalto": 7708, "▁makalub": 7709, "▁makamulang": 7710, "▁makapad": 7711, "▁makapas": 7712, "▁makasaup": 7713, "▁makatula": 7714, "▁makayaliua": 7715, "▁makibale": 7716, "▁makipagl": 7717, "▁makitid": 7718, "▁malakwan": 7719, "▁malalag": 7720, "▁malamang": 7721, "▁malambing": 7722, "▁malsintang": 7723, "▁malukang": 7724, "▁malyap": 7725, "▁malagawa": 7726, "▁malamarine": 7727, "▁malamlam": 7728, "▁maligaga": 7729, "▁malikmata": 7730, "▁malingasngas": 7731, "▁mamang": 7732, "▁mamit": 7733, "▁mamum": 7734, "▁mamunag": 7735, "▁manabu": 7736, "▁managkat": 7737, "▁manayun": 7738, "▁maniuala": 7739, "▁manalese": 7740, "▁manasik": 7741, "▁mandilu": 7742, "▁mangalakal": 7743, "▁mangamanu": 7744, "▁mangari": 7745, "▁mangay": 7746, "▁mangg": 7747, "▁mangilabut": 7748, "▁mangisnaua": 7749, "▁mangumpisal": 7750, "▁mangaina": 7751, "▁mangaintulid": 7752, "▁mangataba": 7753, "▁mangataram": 7754, "▁manialita": 7755, "▁mapupus": 7756, "▁mapaglaban": 7757, "▁mapamiglang": 7758, "▁marimlang": 7759, "▁masintang": 7760, "▁maslam": 7761, "▁masolu": 7762, "▁masus": 7763, "▁masalpak": 7764, "▁masamyu": 7765, "▁matalas": 7766, "▁matamle": 7767, "▁maten": 7768, "▁matuli": 7769, "▁matusalem": 7770, "▁mawawala": 7771, "▁mayari": 7772, "▁mayubung": 7773, "▁mayayalipit": 7774, "▁meakit": 7775, "▁metang": 7776, "▁mebi": 7777, "▁mebisa": 7778, "▁megi": 7779, "▁megisan": 7780, "▁meka": 7781, "▁mekisabi": 7782, "▁mekit": 7783, "▁mekulung": 7784, "▁melakwan": 7785, "▁melisuas": 7786, "▁memintu": 7787, "▁menalangin": 7788, "▁menaliwang": 7789, "▁menic": 7790, "▁meniwala": 7791, "▁mengapali": 7792, "▁mengas": 7793, "▁mepatad": 7794, "▁mepili": 7795, "▁mepanako": 7796, "▁meramdam": 7797, "▁mesambut": 7798, "▁miamas-amas": 7799, "▁mibablas": 7800, "▁mibagsak": 7801, "▁mibayit": 7802, "▁mibib": 7803, "▁mibilang": 7804, "▁mibuclat": 7805, "▁mibuklat": 7806, "▁mibulebule": 7807, "▁michtam": 7808, "▁midalakit": 7809, "▁migaganaka": 7810, "▁migt": 7811, "▁migpabusta": 7812, "▁migpat": 7813, "▁mikabus": 7814, "▁mikam": 7815, "▁mikan": 7816, "▁mikatagun": 7817, "▁mikaanak": 7818, "▁miladlad": 7819, "▁milan": 7820, "▁milaya": 7821, "▁milka": 7822, "▁milalalu": 7823, "▁milulupung": 7824, "▁mimwa": 7825, "▁mind": 7826, "▁minisip": 7827, "▁minlungan": 7828, "▁minye": 7829, "▁miniawad": 7830, "▁mipakilala": 7831, "▁mipnung": 7832, "▁mipuk": 7833, "▁mipunta": 7834, "▁mipaind": 7835, "▁mipakayap": 7836, "▁mipaltutu": 7837, "▁mipamintuan": 7838, "▁mipatiman": 7839, "▁miragdag": 7840, "▁miragdagan": 7841, "▁miralan": 7842, "▁misabi": 7843, "▁misalbag": 7844, "▁misump": 7845, "▁mitakpan": 7846, "▁mitalusad": 7847, "▁mitanam": 7848, "▁mitisud": 7849, "▁mitsa": 7850, "▁mituldu": 7851, "▁mituran": 7852, "▁mituru": 7853, "▁mitalaga": 7854, "▁mitatagan": 7855, "▁mitatakutan": 7856, "▁mitimawa": 7857, "▁miwale": 7858, "▁miyabe": 7859, "▁mortal": 7860, "▁mupin": 7861, "▁mupul": 7862, "▁mura": 7863, "▁mulaan": 7864, "▁mumuran": 7865, "▁musmus": 7866, "▁nieve": 7867, "▁nini": 7868, "▁nng": 7869, "▁nakatang": 7870, "▁nanay": 7871, "▁nano": 7872, "▁ngungut": 7873, "▁ninoy": 7874, "▁nungninu": 7875, "▁obat": 7876, "▁oita": 7877, "▁omega": 7878, "▁ong": 7879, "▁over": 7880, "▁ofra": 7881, "▁olivo": 7882, "▁orian": 7883, "▁oreti": 7884, "▁oyta": 7885, "▁pia": 7886, "▁pipam": 7887, "▁puntalan": 7888, "▁pure": 7889, "▁py": 7890, "▁pa't": 7891, "▁paing": 7892, "▁paintunan": 7893, "▁pabulan": 7894, "▁pabanglu": 7895, "▁paburean": 7896, "▁pagano": 7897, "▁pagd": 7898, "▁pagimbutan": 7899, "▁paglako": 7900, "▁pagmulalan": 7901, "▁pagmulan": 7902, "▁pagsubuk": 7903, "▁painaua": 7904, "▁pakayapan": 7905, "▁pakpak": 7906, "▁pakikitan": 7907, "▁palap": 7908, "▁palasio": 7909, "▁palit": 7910, "▁palk": 7911, "▁pamb": 7912, "▁pamid": 7913, "▁pamilia": 7914, "▁pamisan": 7915, "▁pamitan": 7916, "▁pamukulan": 7917, "▁pamun": 7918, "▁pamagalsa": 7919, "▁pamagkamali": 7920, "▁pamagnasa": 7921, "▁pamaglakad": 7922, "▁pamaglame": 7923, "▁pamagpal": 7924, "▁pamamasa": 7925, "▁pamamirait": 7926, "▁pamanamdam": 7927, "▁pamanuki": 7928, "▁pamanungkulan": 7929, "▁pamanudtud": 7930, "▁pamanumis": 7931, "▁pamanupad": 7932, "▁pamanyalit": 7933, "▁pamanyulat": 7934, "▁pamibalik": 7935, "▁pamigunam": 7936, "▁pamikakunu": 7937, "▁pamimirasuan": 7938, "▁pamipante": 7939, "▁pana": 7940, "▁panakit": 7941, "▁panibalan": 7942, "▁pandareta": 7943, "▁pangabait": 7944, "▁pangagatpanapun": 7945, "▁pangalako": 7946, "▁pangamanu": 7947, "▁pangapat": 7948, "▁panginuan": 7949, "▁pangisnaua": 7950, "▁pangaabak": 7951, "▁panga-animal": 7952, "▁pangabili": 7953, "▁pangalabas": 7954, "▁pangatudtud": 7955, "▁pangayari": 7956, "▁paniulung": 7957, "▁panuan": 7958, "▁papasiag": 7959, "▁papel": 7960, "▁papiglo": 7961, "▁papagtibayan": 7962, "▁papatak": 7963, "▁papaten": 7964, "▁parada": 7965, "▁paragulan": 7966, "▁parating": 7967, "▁parul": 7968, "▁paslu": 7969, "▁pasyalan": 7970, "▁pasakdalan": 7971, "▁pasalamatan": 7972, "▁pataram": 7973, "▁pate": 7974, "▁patna": 7975, "▁patubu": 7976, "▁patune": 7977, "▁patupad": 7978, "▁pawing": 7979, "▁payul": 7980, "▁pemal": 7981, "▁pesi": 7982, "▁pedrung": 7983, "▁pegumpisan": 7984, "▁pekamal": 7985, "▁pekaman": 7986, "▁pekat": 7987, "▁pekatanda": 7988, "▁peki": 7989, "▁pelalung": 7990, "▁pemutut": 7991, "▁pena": 7992, "▁penabilin": 7993, "▁penaral": 7994, "▁penins": 7995, "▁penuel": 7996, "▁penuknanganan": 7997, "▁pepadala": 7998, "▁pepalino": 7999, "▁pepasikan": 8000, "▁perang": 8001, "▁perdiz": 8002, "▁pesip": 8003, "▁pesipam": 8004, "▁pesus": 8005, "▁pesitalakad": 8006, "▁pigkait": 8007, "▁pilmi": 8008, "▁pilming": 8009, "▁pinusu": 8010, "▁pipapaslan": 8011, "▁pisga": 8012, "▁pitatakutan": 8013, "▁pitungpulu": 8014, "▁pitutuliran": 8015, "▁piyesta": 8016, "▁potifar": 8017, "▁presidenti": 8018, "▁propeta": 8019, "▁puestu": 8020, "▁pugayan": 8021, "▁pulit": 8022, "▁pusad": 8023, "▁pusanan": 8024, "▁pusuku": 8025, "▁pusu't": 8026, "▁rad": 8027, "▁raya": 8028, "▁rel": 8029, "▁rimon": 8030, "▁reu": 8031, "▁rene": 8032, "▁reyes": 8033, "▁rosario": 8034, "▁seba": 8035, "▁senior": 8036, "▁senora": 8037, "▁sera": 8038, "▁shanty": 8039, "▁sira": 8040, "▁sua": 8041, "▁suala": 8042, "▁sunu": 8043, "▁swe": 8044, "▁syam": 8045, "▁saug": 8046, "▁sabbath": 8047, "▁sabing": 8048, "▁sagr": 8049, "▁salamin": 8050, "▁salilung": 8051, "▁salukuyan": 8052, "▁salun": 8053, "▁sale-mni": 8054, "▁sambitan": 8055, "▁santos": 8056, "▁sangkap": 8057, "▁sasab": 8058, "▁sasala": 8059, "▁sasyo": 8060, "▁saserdoti": 8061, "▁saserdoteng": 8062, "▁sawil": 8063, "▁seda": 8064, "▁seg": 8065, "▁sek": 8066, "▁selikut": 8067, "▁serya": 8068, "▁setro": 8069, "▁ship": 8070, "▁sion": 8071, "▁sibli": 8072, "▁sigalut": 8073, "▁sigmit": 8074, "▁sikapulu": 8075, "▁sikasu": 8076, "▁sikwil": 8077, "▁sikuil": 8078, "▁silaban": 8079, "▁silo": 8080, "▁siluan": 8081, "▁simsam": 8082, "▁simban": 8083, "▁sinalake": 8084, "▁sinalangi": 8085, "▁sinamba": 8086, "▁sinaup": 8087, "▁sinintang": 8088, "▁siniro": 8089, "▁sinuku": 8090, "▁sinulapo": 8091, "▁sinulud": 8092, "▁sipin": 8093, "▁sisi": 8094, "▁sisibul": 8095, "▁sisilim": 8096, "▁sity": 8097, "▁solomon": 8098, "▁subic": 8099, "▁suklati": 8100, "▁suluc": 8101, "▁sumawa": 8102, "▁sunlag": 8103, "▁sunde-sape": 8104, "▁suput": 8105, "▁susubukan": 8106, "▁susuku": 8107, "▁tom": 8108, "▁tot": 8109, "▁tubu": 8110, "▁taiktik": 8111, "▁tabing": 8112, "▁tabure": 8113, "▁takalan": 8114, "▁takap": 8115, "▁talabante": 8116, "▁talian": 8117, "▁talino": 8118, "▁talus": 8119, "▁taladalit": 8120, "▁tanam": 8121, "▁tane": 8122, "▁tataglus": 8123, "▁tawli": 8124, "▁teman": 8125, "▁tenakan": 8126, "▁terak": 8127, "▁terafim": 8128, "▁terminung": 8129, "▁teterak": 8130, "▁them": 8131, "▁this": 8132, "▁thread": 8133, "▁tibubus": 8134, "▁tiburan": 8135, "▁tikian": 8136, "▁tikusan": 8137, "▁timyas": 8138, "▁tinda": 8139, "▁tinuglung": 8140, "▁tinulu": 8141, "▁tinung": 8142, "▁tinutul": 8143, "▁tinubud": 8144, "▁tipanan": 8145, "▁titiman": 8146, "▁trigu": 8147, "▁troy": 8148, "▁tukyan": 8149, "▁tulisan": 8150, "▁tula't": 8151, "▁tuma": 8152, "▁tumiman": 8153, "▁tupad": 8154, "▁uanan": 8155, "▁ubas": 8156, "▁unan": 8157, "▁ung": 8158, "▁ulam": 8159, "▁ulila": 8160, "▁ulina": 8161, "▁upon": 8162, "▁ururan": 8163, "▁wala": 8164, "▁wawa": 8165, "▁wari't": 8166, "▁yabe": 8167, "▁yaman": 8168, "▁yapa": 8169, "▁yapse": 8170, "▁yausan": 8171, "▁yawat": 8172, "▁yatyat": 8173, "▁zoilo": 8174, "'nang": 8175, "'ne": 8176, "'no": 8177, "'nong": 8178, "'s": 8179, "'wala": 8180, "-a": 8181, "-ari": 8182, "-at": 8183, "-de": 8184, "-katasan": 8185, "-sa": 8186, "-tashheth": 8187, "-ul": 8188, "-und": 8189, "-banua": 8190, "-dapat": 8191, "-diling": 8192, "-durut": 8193, "-diosan": 8194, "-kamalan": 8195, "-lakad": 8196, "-lating": 8197, "-pag": 8198, "-pam": 8199, "-pil": 8200, "-pante": 8201, "-peor": 8202, "-sak": 8203, "-tabug": 8204, "-tam": 8205, "-tid": 8206, "-tidua": 8207, "38": 8208, "a't": 8209, "augalian": 8210, "ababang": 8211, "abkab": 8212, "abun": 8213, "abalisa": 8214, "abangnan": 8215, "abighan": 8216, "acgac": 8217, "adang": 8218, "aganan": 8219, "agpak": 8220, "agtas": 8221, "agung": 8222, "agwa": 8223, "aganitu": 8224, "agkeran": 8225, "aglawe": 8226, "agpuan": 8227, "agsil": 8228, "aguanta": 8229, "ahas": 8230, "ainawa": 8231, "ajalan": 8232, "akamal": 8233, "akbang": 8234, "aken": 8235, "akle": 8236, "aklut": 8237, "aktangan": 8238, "akac": 8239, "akalingwan": 8240, "akapkap": 8241, "akasala": 8242, "akek": 8243, "akitanan": 8244, "akutkut": 8245, "alalayan": 8246, "alale": 8247, "alapac": 8248, "alata": 8249, "albatan": 8250, "albugan": 8251, "alil": 8252, "alimb": 8253, "alino": 8254, "alip": 8255, "alipitan": 8256, "alpak": 8257, "altalan": 8258, "alub": 8259, "alwan": 8260, "alyaring": 8261, "alacsing": 8262, "alakan": 8263, "alaki": 8264, "alanat": 8265, "alansan": 8266, "aldanan": 8267, "aligaligan": 8268, "aligid": 8269, "aligit": 8270, "aligo": 8271, "aligtad": 8272, "alikabuc": 8273, "aluc": 8274, "alungat": 8275, "alungkutan": 8276, "alyarian": 8277, "amak": 8278, "amen": 8279, "amg": 8280, "amie": 8281, "amus": 8282, "amwan": 8283, "amal-kamalan": 8284, "ambang": 8285, "ambulan": 8286, "ambutan": 8287, "ampagang": 8288, "ampanan": 8289, "ampon": 8290, "ampulung": 8291, "ampangang": 8292, "ampulu't": 8293, "amungan": 8294, "anal": 8295, "anap": 8296, "anari": 8297, "anasan": 8298, "ando": 8299, "andu": 8300, "anta": 8301, "anten": 8302, "anaun": 8303, "andalan": 8304, "andanan": 8305, "andiluan": 8306, "anggan": 8307, "angkan": 8308, "angkas": 8309, "angalugud": 8310, "anuman": 8311, "apam": 8312, "aplak": 8313, "apn": 8314, "apakibat": 8315, "apalyari": 8316, "apitung": 8317, "aplalan": 8318, "aragulan": 8319, "ariling": 8320, "ark": 8321, "arok": 8322, "aruan": 8323, "aranunan": 8324, "araptanan": 8325, "ardia": 8326, "ared": 8327, "ariot": 8328, "ariote": 8329, "asabal": 8330, "aserdo": 8331, "asyal": 8332, "asah": 8333, "aserdote": 8334, "asusyan": 8335, "atanan": 8336, "atba": 8337, "atbat": 8338, "ates": 8339, "atiu": 8340, "atnat": 8341, "aton": 8342, "atur": 8343, "ataung": 8344, "atangal": 8345, "atiawan": 8346, "atic": 8347, "atoriu": 8348, "aual": 8349, "auangis": 8350, "auas": 8351, "awaga": 8352, "awanan": 8353, "awangan": 8354, "awli": 8355, "awlyan": 8356, "awup": 8357, "awus": 8358, "ayabut": 8359, "ayawan": 8360, "ayli": 8361, "ayng": 8362, "ayac": 8363, "ayain": 8364, "ayanakan": 8365, "ayndung": 8366, "ayup": 8367, "bian": 8368, "bid": 8369, "bor": 8370, "botu": 8371, "bre": 8372, "bulan": 8373, "buri": 8374, "byan": 8375, "basnan": 8376, "ck": 8377, "cpan": 8378, "cr": 8379, "dakal": 8380, "dapat": 8381, "dar": 8382, "dera": 8383, "dalpak": 8384, "dernung": 8385, "dios": 8386, "ebun": 8387, "elangan": 8388, "elas": 8389, "enas": 8390, "ensya": 8391, "enter": 8392, "erac": 8393, "erang": 8394, "erawan": 8395, "eres": 8396, "eria": 8397, "ernan": 8398, "erto": 8399, "eseo": 8400, "fas": 8401, "gag": 8402, "galang": 8403, "galing": 8404, "galu": 8405, "gitan": 8406, "galo": 8407, "hab": 8408, "hay": 8409, "hich": 8410, "hilan": 8411, "hung": 8412, "hed": 8413, "hokol": 8414, "home": 8415, "hokolati": 8416, "ijim": 8417, "iauan": 8418, "ianib": 8419, "iasatan": 8420, "ibang": 8421, "ibing": 8422, "iblasan": 8423, "ibub": 8424, "ibuc": 8425, "ibulan": 8426, "ibutad": 8427, "iclat": 8428, "iclaud": 8429, "ieti": 8430, "iez": 8431, "ifer": 8432, "igapuan": 8433, "igasig": 8434, "igil": 8435, "igtad": 8436, "igu": 8437, "iglon": 8438, "ikala": 8439, "ikanu": 8440, "ikapan": 8441, "ikwanan": 8442, "ikaluguran": 8443, "ildis": 8444, "iles": 8445, "ilyu": 8446, "ilion": 8447, "ilidili": 8448, "imir": 8449, "imirapal": 8450, "imlim": 8451, "imua": 8452, "imunan": 8453, "imalad": 8454, "imbun": 8455, "impi": 8456, "imutla": 8457, "inatnat": 8458, "inaua": 8459, "iniang": 8460, "inlag": 8461, "insin": 8462, "inya": 8463, "inyang": 8464, "indak": 8465, "indang": 8466, "indat": 8467, "indayugan": 8468, "ingal": 8469, "intaban": 8470, "intwan": 8471, "intindian": 8472, "ipnuan": 8473, "ipo": 8474, "iragli": 8475, "irayang": 8476, "irian": 8477, "irasu": 8478, "irasyon": 8479, "isial": 8480, "istorya": 8481, "itis": 8482, "itubud": 8483, "itaul": 8484, "itsitan": 8485, "iupa": 8486, "iupil": 8487, "iwaran": 8488, "iwata": 8489, "izim": 8490, "izo": 8491, "jala": 8492, "kaba": 8493, "kapan": 8494, "kare": 8495, "kaya": 8496, "ken": 8497, "kera": 8498, "kilan": 8499, "kin": 8500, "kua": 8501, "kub": 8502, "kanyan": 8503, "kapamu": 8504, "kapilan": 8505, "kasala": 8506, "kulangan": 8507, "kule": 8508, "ladu": 8509, "lalam": 8510, "lasa": 8511, "lip": 8512, "lump": 8513, "lupa": 8514, "luran": 8515, "laus": 8516, "laklak": 8517, "leg": 8518, "lema": 8519, "luanan": 8520, "lumpulu": 8521, "mac": 8522, "madam": 8523, "makananu": 8524, "malan": 8525, "maliari": 8526, "mel": 8527, "men": 8528, "mim": 8529, "minta": 8530, "mula": 8531, "mail": 8532, "magn": 8533, "malagawa": 8534, "mamun": 8535, "mani": 8536, "manggi": 8537, "mekad": 8538, "mengari": 8539, "nawan": 8540, "nd": 8541, "neng": 8542, "nian": 8543, "nwan": 8544, "ngakung": 8545, "ngal": 8546, "ngana": 8547, "now": 8548, "oan": 8549, "og": 8550, "oo": 8551, "oba": 8552, "okrasya": 8553, "olus": 8554, "oly": 8555, "oma": 8556, "omb": 8557, "onang": 8558, "onata": 8559, "one": 8560, "onia": 8561, "opotamia": 8562, "orreo": 8563, "oset": 8564, "osi": 8565, "otel": 8566, "palage": 8567, "pero": 8568, "ph": 8569, "piku": 8570, "pos": 8571, "putan": 8572, "paitan": 8573, "padre": 8574, "pakumb": 8575, "pasasa": 8576, "peto": 8577, "pota": 8578, "port": 8579, "portan": 8580, "puntan": 8581, "qng": 8582, "rio": 8583, "rit": 8584, "rong": 8585, "rei": 8586, "reeding": 8587, "riminal": 8588, "ronu": 8589, "sabyan": 8590, "salanan": 8591, "sday": 8592, "sera": 8593, "sid": 8594, "sim": 8595, "sug": 8596, "sanas": 8597, "seas": 8598, "selino": 8599, "siasan": 8600, "sios": 8601, "silbing": 8602, "sisti": 8603, "tiles": 8604, "tukan": 8605, "twan": 8606, "tangas": 8607, "ths": 8608, "timan": 8609, "tipun": 8610, "tiun": 8611, "tith": 8612, "trum": 8613, "u-p": 8614, "uanan": 8615, "uaran": 8616, "ua-tidua": 8617, "ubkub": 8618, "uck": 8619, "uglap": 8620, "ugulu": 8621, "uglugan": 8622, "ukad": 8623, "ukalan": 8624, "ukup": 8625, "uklam": 8626, "uklatan": 8627, "uklip": 8628, "uklu": 8629, "ulakan": 8630, "ular": 8631, "uldul": 8632, "uldung": 8633, "ulig": 8634, "ulkan": 8635, "ulubi": 8636, "ulate": 8637, "ulebulayan": 8638, "ulutun": 8639, "umparit": 8640, "umpas": 8641, "umpisang": 8642, "unaman": 8643, "unis": 8644, "unpunan": 8645, "untan": 8646, "unud": 8647, "unahan": 8648, "unduan": 8649, "unggul": 8650, "unggalit": 8651, "upaya": 8652, "urakan": 8653, "ursday": 8654, "uruc": 8655, "urud": 8656, "urunut": 8657, "uri-p": 8658, "usal": 8659, "usbus": 8660, "use": 8661, "usisa": 8662, "usub": 8663, "usignan": 8664, "usteru": 8665, "ustisya": 8666, "ute": 8667, "utian": 8668, "utulan": 8669, "utun": 8670, "utuwan": 8671, "vent": 8672, "vilion": 8673, "walu": 8674, "wid": 8675, "wing": 8676, "work": 8677, "wac": 8678, "ways": 8679, "welu": 8680, "werti": 8681, "yagan": 8682, "yatan": 8683, "yaya": 8684, "yeru": 8685, "yira": 8686, "yaclung": 8687, "yatulan": 8688, "zan": 8689, "▁199": 8690, "▁33": 8691, "▁43": 8692, "▁44": 8693, "▁aibie": 8694, "▁aibye": 8695, "▁aini": 8696, "▁air": 8697, "▁abasa": 8698, "▁abau": 8699, "▁abiez": 8700, "▁abili": 8701, "▁ablasan": 8702, "▁abril": 8703, "▁ablasanan": 8704, "▁adala": 8705, "▁adalanan": 8706, "▁agamit": 8707, "▁agta": 8708, "▁agud": 8709, "▁akad": 8710, "▁akalag": 8711, "▁akap": 8712, "▁akarapat": 8713, "▁akaugalian": 8714, "▁aket": 8715, "▁aklat": 8716, "▁akamtan": 8717, "▁akasabi": 8718, "▁akayabe": 8719, "▁alagad": 8720, "▁alalan": 8721, "▁alan-": 8722, "▁aling": 8723, "▁alkus": 8724, "▁also": 8725, "▁alub": 8726, "▁alac": 8727, "▁alan'anggan": 8728, "▁aldo't": 8729, "▁aligwat": 8730, "▁alikabuc": 8731, "▁alimbaua": 8732, "▁alisyan": 8733, "▁alkaldi": 8734, "▁alpomb": 8735, "▁altares": 8736, "▁amatan": 8737, "▁amoreo": 8738, "▁amorreo": 8739, "▁amu": 8740, "▁amunan": 8741, "▁amalec": 8742, "▁amalek": 8743, "▁anang": 8744, "▁aniang": 8745, "▁animu": 8746, "▁anggan": 8747, "▁apagk": 8748, "▁apagl": 8749, "▁apapag": 8750, "▁apapan": 8751, "▁apikas": 8752, "▁apis": 8753, "▁apusan": 8754, "▁apagmasdan": 8755, "▁apakaba": 8756, "▁apansing": 8757, "▁ark": 8758, "▁argob": 8759, "▁aroer": 8760, "▁asalikut": 8761, "▁asang": 8762, "▁asas": 8763, "▁asawang": 8764, "▁asenat": 8765, "▁asera": 8766, "▁asiria": 8767, "▁asis": 8768, "▁ask": 8769, "▁asna": 8770, "▁astarot": 8771, "▁asubuk": 8772, "▁asalese": 8773, "▁ashera": 8774, "▁atagal": 8775, "▁atagpuan": 8776, "▁atal": 8777, "▁atba": 8778, "▁atlumpulu": 8779, "▁atmo": 8780, "▁atukl": 8781, "▁atabili": 8782, "▁awak": 8783, "▁ayabut": 8784, "▁ayakmul": 8785, "▁ayas": 8786, "▁ayusan": 8787, "▁baku": 8788, "▁bara": 8789, "▁basa": 8790, "▁biclat": 8791, "▁bilangan": 8792, "▁bilis": 8793, "▁bilugan": 8794, "▁breeding": 8795, "▁bugnus": 8796, "▁byahi": 8797, "▁bahala": 8798, "▁bailon": 8799, "▁baung": 8800, "▁ba'ra": 8801, "▁ba'yang": 8802, "▁babangun": 8803, "▁babasa": 8804, "▁babawal": 8805, "▁babayaran": 8806, "▁baging": 8807, "▁bagutan": 8808, "▁bagyung": 8809, "▁bakugn": 8810, "▁balbas": 8811, "▁balint": 8812, "▁baliti": 8813, "▁balsam": 8814, "▁balus": 8815, "▁balikat": 8816, "▁bamong": 8817, "▁bamiyang": 8818, "▁banku": 8819, "▁bant": 8820, "▁banten": 8821, "▁bangal": 8822, "▁banua-banua": 8823, "▁bastun": 8824, "▁batbat": 8825, "▁bayugn": 8826, "▁beg": 8827, "▁bekuran": 8828, "▁belangkas": 8829, "▁belaus": 8830, "▁belikdan": 8831, "▁bengisan": 8832, "▁bethlehem": 8833, "▁beyaran": 8834, "▁bibigkas": 8835, "▁bibilug": 8836, "▁bibiru": 8837, "▁bibiruan": 8838, "▁bibyung": 8839, "▁bigbugan": 8840, "▁bildug": 8841, "▁binasa": 8842, "▁binatak": 8843, "▁binawi": 8844, "▁bindian": 8845, "▁binilang": 8846, "▁birian": 8847, "▁bolang": 8848, "▁bros": 8849, "▁buwis": 8850, "▁bubukal": 8851, "▁budning": 8852, "▁bugasuc": 8853, "▁bugasuk": 8854, "▁bulag": 8855, "▁bulalag": 8856, "▁bulang": 8857, "▁bulig": 8858, "▁bungsung": 8859, "▁butit": 8860, "▁che": 8861, "▁chokolati": 8862, "▁clark": 8863, "▁cline": 8864, "▁cristong": 8865, "▁dami": 8866, "▁dat": 8867, "▁dilang": 8868, "▁dip": 8869, "▁dulung": 8870, "▁da't": 8871, "▁dacpan": 8872, "▁daka'": 8873, "▁dalanan": 8874, "▁dalo": 8875, "▁dalusungan": 8876, "▁dalitanan": 8877, "▁damayan": 8878, "▁damputan": 8879, "▁danilo": 8880, "▁daragdagan": 8881, "▁daramdam": 8882, "▁darasan": 8883, "▁daraya": 8884, "▁darling": 8885, "▁daraun": 8886, "▁dayat-malat": 8887, "▁debotu": 8888, "▁dedan": 8889, "▁des": 8890, "▁detan": 8891, "▁delub": 8892, "▁diua": 8893, "▁diw": 8894, "▁dizon": 8895, "▁dikit": 8896, "▁dilukan": 8897, "▁dili-dili": 8898, "▁dili-diling": 8899, "▁dinilat": 8900, "▁dinug": 8901, "▁dinulung": 8902, "▁dingkekeng": 8903, "▁dios-diosan": 8904, "▁diria": 8905, "▁dumalo": 8906, "▁dunutan": 8907, "▁dungut": 8908, "▁durug": 8909, "▁durut": 8910, "▁dutong": 8911, "▁ebal": 8912, "▁ebun": 8913, "▁eda": 8914, "▁ele": 8915, "▁eme": 8916, "▁ev": 8917, "▁edad": 8918, "▁edmon": 8919, "▁edrei": 8920, "▁egan": 8921, "▁egipsios": 8922, "▁elam": 8923, "▁emperyo": 8924, "▁entab": 8925, "▁eskariote": 8926, "▁espanyo": 8927, "▁eufrates": 8928, "▁fe": 8929, "▁fernan": 8930, "▁fo": 8931, "▁free": 8932, "▁filibusteru": 8933, "▁filipina": 8934, "▁floring": 8935, "▁fray": 8936, "▁fransiskanung": 8937, "▁galamanu": 8938, "▁gapus": 8939, "▁gapusan": 8940, "▁gar": 8941, "▁gauang": 8942, "▁gawi": 8943, "▁gayndung": 8944, "▁ges": 8945, "▁get": 8946, "▁gilas": 8947, "▁gisan": 8948, "▁gisingan": 8949, "▁gkakung": 8950, "▁god": 8951, "▁gud": 8952, "▁gulat": 8953, "▁guluan": 8954, "▁gulung": 8955, "▁gabung": 8956, "▁gaditas": 8957, "▁gagalang": 8958, "▁gaindu": 8959, "▁galying": 8960, "▁gastus": 8961, "▁gayak": 8962, "▁gewang": 8963, "▁gentiles": 8964, "▁gerang": 8965, "▁gererong": 8966, "▁gerizim": 8967, "▁giginuan": 8968, "▁giluan": 8969, "▁gilutan": 8970, "▁gileadita": 8971, "▁ginapus": 8972, "▁ginaua": 8973, "▁ginintuan": 8974, "▁ginulisak": 8975, "▁gingkas": 8976, "▁gittith": 8977, "▁grupung": 8978, "▁granizo": 8979, "▁guardia": 8980, "▁gugulut": 8981, "▁gunting": 8982, "▁hid": 8983, "▁hilig": 8984, "▁historia": 8985, "▁haz": 8986, "▁haroset": 8987, "▁havila": 8988, "▁hez": 8989, "▁hebron": 8990, "▁helen": 8991, "▁iing": 8992, "▁ite": 8993, "▁iwa": 8994, "▁ibab": 8995, "▁ibalaus": 8996, "▁ibusni": 8997, "▁idad": 8998, "▁idulung": 8999, "▁ikamate": 9000, "▁ikatang": 9001, "▁iking": 9002, "▁iko": 9003, "▁ikuldas": 9004, "▁ikatula": 9005, "▁ikayu'ing": 9006, "▁ilarauan": 9007, "▁ilut": 9008, "▁imig": 9009, "▁importan": 9010, "▁impun": 9011, "▁inakmul": 9012, "▁inalipit": 9013, "▁inarap": 9014, "▁inari": 9015, "▁inas": 9016, "▁inaua": 9017, "▁inf": 9018, "▁iniligtas": 9019, "▁inimbentu": 9020, "▁inirug": 9021, "▁inukul": 9022, "▁inupajan": 9023, "▁inyong": 9024, "▁ingat": 9025, "▁ingsil": 9026, "▁ingkekang": 9027, "▁instit": 9028, "▁ipabalu": 9029, "▁ipagl": 9030, "▁ipakpak": 9031, "▁ipanupaya": 9032, "▁iparamdam": 9033, "▁ipangiling": 9034, "▁irap": 9035, "▁irugan": 9036, "▁isara": 9037, "▁isingil": 9038, "▁isis": 9039, "▁isl": 9040, "▁isubu": 9041, "▁isuku": 9042, "▁isulud": 9043, "▁isuyu": 9044, "▁isanuman": 9045, "▁isanumang": 9046, "▁italia": 9047, "▁jared": 9048, "▁job": 9049, "▁jul": 9050, "▁jebuseo": 9051, "▁jesurun": 9052, "▁john": 9053, "▁joy": 9054, "▁judea": 9055, "▁kipnuan": 9056, "▁kir": 9057, "▁kiri": 9058, "▁kison": 9059, "▁kaupajan": 9060, "▁ka-kapampangan": 9061, "▁kabiayan": 9062, "▁kabilangan": 9063, "▁kabiruan": 9064, "▁kablas": 9065, "▁kabundukan": 9066, "▁kaburi": 9067, "▁kabaung": 9068, "▁kabagayan": 9069, "▁kabalenan": 9070, "▁kabayanyan": 9071, "▁kagyu": 9072, "▁kakamal-kamalan": 9073, "▁kakampi": 9074, "▁kakat": 9075, "▁kakaw": 9076, "▁kakawe": 9077, "▁kaklis": 9078, "▁kakua": 9079, "▁kakug": 9080, "▁kakuang": 9081, "▁kalabas": 9082, "▁kalako": 9083, "▁kalasa": 9084, "▁kalat": 9085, "▁kalb": 9086, "▁kalbit": 9087, "▁kalde": 9088, "▁kaleldo": 9089, "▁kalin": 9090, "▁kalmang": 9091, "▁kalukluk": 9092, "▁kalunusan": 9093, "▁kaladwang": 9094, "▁kalamidad": 9095, "▁kalamnan": 9096, "▁kalulunusan": 9097, "▁kamtan": 9098, "▁kamag-": 9099, "▁kamalyan": 9100, "▁kanam": 9101, "▁kanawangan": 9102, "▁kaniaman": 9103, "▁kanako": 9104, "▁kandidatu": 9105, "▁kapaldanan": 9106, "▁kapali": 9107, "▁kapampangang": 9108, "▁kapamu": 9109, "▁kapilis": 9110, "▁kapitu": 9111, "▁kapun": 9112, "▁kapuri-p": 9113, "▁kapurit": 9114, "▁kapagmasusian": 9115, "▁kapaitpaitan": 9116, "▁kapakibat": 9117, "▁kapamir": 9118, "▁kapasnawan": 9119, "▁kapatak": 9120, "▁kapila'na": 9121, "▁kararaptanan": 9122, "▁karawakan": 9123, "▁karayum": 9124, "▁karding": 9125, "▁karga": 9126, "▁kasaplalan": 9127, "▁kasapung": 9128, "▁kasikan": 9129, "▁kaskal": 9130, "▁kasu": 9131, "▁kasulu": 9132, "▁kasuyuan": 9133, "▁kasakmal": 9134, "▁kasinglalam": 9135, "▁kaswapangan": 9136, "▁katamaran": 9137, "▁katamle": 9138, "▁katamu": 9139, "▁katapangan": 9140, "▁katlu": 9141, "▁katulan": 9142, "▁katumb": 9143, "▁katuparan": 9144, "▁kataksilan": 9145, "▁katalaruan": 9146, "▁katangian": 9147, "▁katas-katasan": 9148, "▁katutula": 9149, "▁kaugalian": 9150, "▁kayaduanan": 9151, "▁kayagnan": 9152, "▁kayanakang": 9153, "▁kayari": 9154, "▁kayi": 9155, "▁kayabeabe": 9156, "▁kean": 9157, "▁kebukas": 9158, "▁kelab": 9159, "▁kepuntan": 9160, "▁kesiasan": 9161, "▁kebaluan": 9162, "▁kekaba": 9163, "▁kenag": 9164, "▁kenig": 9165, "▁kenign": 9166, "▁keririan": 9167, "▁ketiking": 9168, "▁kikislap": 9169, "▁kilayan": 9170, "▁kildas": 9171, "▁kinalat": 9172, "▁kinang": 9173, "▁kinawul": 9174, "▁kiniling": 9175, "▁kinupas": 9176, "▁kitmung": 9177, "▁kola": 9178, "▁komanggi": 9179, "▁komusta": 9180, "▁konsepsion": 9181, "▁kotsi": 9182, "▁kuentu": 9183, "▁kuke": 9184, "▁kuking": 9185, "▁kunang": 9186, "▁kutu": 9187, "▁kukulait": 9188, "▁kukulate": 9189, "▁kulayu": 9190, "▁kuli": 9191, "▁kulio": 9192, "▁kulub": 9193, "▁kulut": 9194, "▁kulait": 9195, "▁kuldasan": 9196, "▁kumabie": 9197, "▁kumayap": 9198, "▁kumit": 9199, "▁kumulio": 9200, "▁kumupas": 9201, "▁kumparing": 9202, "▁kurang": 9203, "▁kurbata": 9204, "▁kutnanan": 9205, "▁kutug": 9206, "▁kwartu": 9207, "▁lamung": 9208, "▁lapo": 9209, "▁lata": 9210, "▁layas": 9211, "▁lerawan": 9212, "▁ligtas": 9213, "▁liling": 9214, "▁liri": 9215, "▁lor": 9216, "▁lundagan": 9217, "▁lutu": 9218, "▁laureado": 9219, "▁labahas": 9220, "▁labasas": 9221, "▁labinglimang": 9222, "▁labingmetung": 9223, "▁lagiung": 9224, "▁lagnat": 9225, "▁lahing": 9226, "▁lalsut": 9227, "▁lalaue": 9228, "▁lalakaran": 9229, "▁lalakwan": 9230, "▁lalu't": 9231, "▁langitngit": 9232, "▁lasing": 9233, "▁lati-lating": 9234, "▁lebasnan": 9235, "▁lepas": 9236, "▁lebasan": 9237, "▁liban": 9238, "▁libu-libung": 9239, "▁ligalig": 9240, "▁likupan": 9241, "▁lilibut": 9242, "▁liligalig": 9243, "▁linaban": 9244, "▁linele": 9245, "▁linibut": 9246, "▁linusub": 9247, "▁lingkas": 9248, "▁lipa": 9249, "▁lisangan": 9250, "▁log": 9251, "▁luis": 9252, "▁luyus": 9253, "▁lubusan": 9254, "▁lugmang": 9255, "▁luluksu": 9256, "▁lumunus": 9257, "▁lunusan": 9258, "▁lusifer": 9259, "▁mulat": 9260, "▁mutus": 9261, "▁ma'": 9262, "▁ma-": 9263, "▁maestra": 9264, "▁maibug": 9265, "▁maigpit": 9266, "▁mailig": 9267, "▁mainang": 9268, "▁maintang": 9269, "▁maugtu": 9270, "▁maung": 9271, "▁mabibye": 9272, "▁mabunga": 9273, "▁mabura": 9274, "▁mababaldug": 9275, "▁macmac": 9276, "▁madal": 9277, "▁madam": 9278, "▁madiwa": 9279, "▁magalang": 9280, "▁magaling": 9281, "▁maganakang": 9282, "▁maginu": 9283, "▁maglualu": 9284, "▁magmalagua": 9285, "▁magmalasakit": 9286, "▁magpang": 9287, "▁magugulu": 9288, "▁magulu": 9289, "▁mag-istoria": 9290, "▁mag-istorya": 9291, "▁mag-obra": 9292, "▁magdili-dili": 9293, "▁magdilidili": 9294, "▁magkakasakit": 9295, "▁magkera": 9296, "▁maglala": 9297, "▁maglayunan": 9298, "▁maglua": 9299, "▁magluid": 9300, "▁magmaragul": 9301, "▁magmasid": 9302, "▁magmat": 9303, "▁magmul": 9304, "▁magmula": 9305, "▁magpab": 9306, "▁magpayapa": 9307, "▁magpuge": 9308, "▁magpa-": 9309, "▁magpakilala": 9310, "▁magpakatatag": 9311, "▁magparayo": 9312, "▁magsalbat": 9313, "▁magsandal": 9314, "▁magsarili": 9315, "▁magsas": 9316, "▁magsilbing": 9317, "▁magtapat": 9318, "▁magtindang": 9319, "▁makabighan": 9320, "▁makaganaka": 9321, "▁makalan": 9322, "▁makalik": 9323, "▁makaling": 9324, "▁makalingwan": 9325, "▁makarine": 9326, "▁makatanam": 9327, "▁makig": 9328, "▁makinabang": 9329, "▁makipam": 9330, "▁maku": 9331, "▁makyabe": 9332, "▁maka-d": 9333, "▁makaimalan": 9334, "▁makaintindi": 9335, "▁makababat": 9336, "▁makabau": 9337, "▁makagapus": 9338, "▁makagiu": 9339, "▁makalaman": 9340, "▁makalapit": 9341, "▁makalunus-lunus": 9342, "▁makapagal": 9343, "▁makapagligtas": 9344, "▁makapags": 9345, "▁makapampan": 9346, "▁makapibangun": 9347, "▁makapiblas": 9348, "▁makaptas": 9349, "▁makapadurut": 9350, "▁makapalino": 9351, "▁makapasno": 9352, "▁makarapat": 9353, "▁makasabit": 9354, "▁makasadiang": 9355, "▁makasal": 9356, "▁makasiping": 9357, "▁makaslag": 9358, "▁makasubsub": 9359, "▁makasandatang": 9360, "▁makatakap": 9361, "▁makatal": 9362, "▁makatali": 9363, "▁makatapitung": 9364, "▁makatat": 9365, "▁makatuldung": 9366, "▁makayablas": 9367, "▁makaying": 9368, "▁maki-l": 9369, "▁makialam": 9370, "▁makibir": 9371, "▁makipaglindayugan": 9372, "▁makisal": 9373, "▁makislap": 9374, "▁makitua": 9375, "▁malalang": 9376, "▁malayo": 9377, "▁maliling": 9378, "▁malinatnat": 9379, "▁maliswas": 9380, "▁malmura": 9381, "▁malulut": 9382, "▁malumeme": 9383, "▁malaus": 9384, "▁malaut": 9385, "▁malabab": 9386, "▁malasya": 9387, "▁malilili": 9388, "▁malingun": 9389, "▁malulunus": 9390, "▁mamaman": 9391, "▁mamasyal": 9392, "▁mamialung": 9393, "▁mamilatan": 9394, "▁mamin": 9395, "▁mamuku": 9396, "▁mamungang": 9397, "▁mamyus": 9398, "▁mamaltang": 9399, "▁mamuc": 9400, "▁mamumulang": 9401, "▁mamuty": 9402, "▁managumpe": 9403, "▁managyag": 9404, "▁manalipit": 9405, "▁manaliwa": 9406, "▁manamdam": 9407, "▁manamdaman": 9408, "▁manamuyut": 9409, "▁manandam": 9410, "▁mananu": 9411, "▁manasan": 9412, "▁manawang": 9413, "▁manib": 9414, "▁manintunan": 9415, "▁manipun": 9416, "▁manok": 9417, "▁mansanas": 9418, "▁mantun": 9419, "▁manulang": 9420, "▁manulu": 9421, "▁manung": 9422, "▁manungkulan": 9423, "▁manusig": 9424, "▁manyaclung": 9425, "▁manasakit": 9426, "▁manenayang": 9427, "▁mangangas": 9428, "▁mangatuang": 9429, "▁mangil": 9430, "▁mangilag": 9431, "▁mangut": 9432, "▁mangutkut": 9433, "▁mangababa": 9434, "▁mangabayat": 9435, "▁mangalaram": 9436, "▁mangasikan": 9437, "▁mangaskad": 9438, "▁mangatapang": 9439, "▁maniabat": 9440, "▁maniambut": 9441, "▁maniauad": 9442, "▁maniuluk": 9443, "▁manyabi": 9444, "▁manyira": 9445, "▁manyumpa": 9446, "▁mapag": 9447, "▁mapamungang": 9448, "▁mapang": 9449, "▁mapangal": 9450, "▁mapinung": 9451, "▁mapula": 9452, "▁mapaliaring": 9453, "▁mapamirait": 9454, "▁mapamirayang": 9455, "▁marakal": 9456, "▁maranup": 9457, "▁marapal": 9458, "▁mariang": 9459, "▁mark": 9460, "▁marselino": 9461, "▁marurunut": 9462, "▁mariposang": 9463, "▁masigasig": 9464, "▁masigla": 9465, "▁masinsin": 9466, "▁masira": 9467, "▁maspak": 9468, "▁masukul": 9469, "▁masuyu": 9470, "▁masisira": 9471, "▁matabang": 9472, "▁matal": 9473, "▁matar": 9474, "▁mataram": 9475, "▁matinung": 9476, "▁matutus": 9477, "▁matatampus": 9478, "▁matigik": 9479, "▁mayala": 9480, "▁mayayaus": 9481, "▁mayn": 9482, "▁mayo": 9483, "▁mayor": 9484, "▁me'ing": 9485, "▁mearan": 9486, "▁meili": 9487, "▁memang": 9488, "▁mepak": 9489, "▁mesa": 9490, "▁mesintang": 9491, "▁meya": 9492, "▁mebanggit": 9493, "▁mebilang": 9494, "▁mebye": 9495, "▁megawa": 9496, "▁mekabalu": 9497, "▁mekapag": 9498, "▁mekapakibat": 9499, "▁mekapate": 9500, "▁mekib": 9501, "▁mekipag": 9502, "▁mekulkul": 9503, "▁mekitua": 9504, "▁melabug": 9505, "▁melagpak": 9506, "▁melambat": 9507, "▁melap": 9508, "▁melili": 9509, "▁melino": 9510, "▁melugus": 9511, "▁meluslus": 9512, "▁melange": 9513, "▁melangi": 9514, "▁memat": 9515, "▁memialung": 9516, "▁memie": 9517, "▁memimirapal": 9518, "▁memiru": 9519, "▁memunga": 9520, "▁menan": 9521, "▁menasik": 9522, "▁mengabus": 9523, "▁mengadi": 9524, "▁mengatmu": 9525, "▁mengilabut": 9526, "▁mengalabas": 9527, "▁mengapaliari": 9528, "▁mengatakutan": 9529, "▁mengatmung": 9530, "▁mepagal": 9531, "▁mepuri": 9532, "▁mepanat": 9533, "▁mesamsam": 9534, "▁mesikan": 9535, "▁mesopotamia": 9536, "▁mesyas": 9537, "▁metng": 9538, "▁metwa": 9539, "▁metungge": 9540, "▁meyli": 9541, "▁mia": 9542, "▁miain": 9543, "▁miangganan": 9544, "▁miay": 9545, "▁midalit": 9546, "▁miyatyat": 9547, "▁mibiling": 9548, "▁miblas": 9549, "▁mibukadkad": 9550, "▁mibulus": 9551, "▁mibabaya": 9552, "▁mibansagan": 9553, "▁midaun": 9554, "▁migapus": 9555, "▁migel": 9556, "▁migkamali": 9557, "▁migkas": 9558, "▁migkulang": 9559, "▁migpa": 9560, "▁migsu": 9561, "▁migtangas": 9562, "▁migtas": 9563, "▁migugun": 9564, "▁migw": 9565, "▁migdatun": 9566, "▁miglayag": 9567, "▁migligo": 9568, "▁migsarya": 9569, "▁mikabat": 9570, "▁mikakan": 9571, "▁mikakasala": 9572, "▁mikapatad": 9573, "▁mikatmuan": 9574, "▁mikelangan": 9575, "▁miki": 9576, "▁mikilala": 9577, "▁mikakunung": 9578, "▁mikakauani": 9579, "▁mikanl": 9580, "▁mikasal": 9581, "▁mikasundu": 9582, "▁mikibandi": 9583, "▁milabasan": 9584, "▁milamnan": 9585, "▁milang": 9586, "▁milsinta": 9587, "▁milusuk": 9588, "▁milyo": 9589, "▁milalawayan": 9590, "▁mimin": 9591, "▁mina": 9592, "▁minatna": 9593, "▁minawa": 9594, "▁minili": 9595, "▁mindilu": 9596, "▁mingatba": 9597, "▁miniambut": 9598, "▁ministro": 9599, "▁minuran": 9600, "▁minyabing": 9601, "▁minyaklung": 9602, "▁mipabustan": 9603, "▁mipagl": 9604, "▁mipagp": 9605, "▁mipakanian": 9606, "▁mipaku": 9607, "▁mipand": 9608, "▁mipapat": 9609, "▁mipapate": 9610, "▁mipatulan": 9611, "▁mipayapa": 9612, "▁mipaynawa": 9613, "▁mipunla": 9614, "▁mipagkalub": 9615, "▁mipaindatun": 9616, "▁mipapakarine": 9617, "▁mipase": 9618, "▁mipasno": 9619, "▁mipasubu": 9620, "▁mirayu": 9621, "▁miraragdag": 9622, "▁misadsad": 9623, "▁misakab": 9624, "▁misake": 9625, "▁misakitan": 9626, "▁misalikut": 9627, "▁misang": 9628, "▁misapwak": 9629, "▁misara": 9630, "▁misulud": 9631, "▁misumangid": 9632, "▁mitakid": 9633, "▁mitamb": 9634, "▁mitang": 9635, "▁mitau": 9636, "▁mitig": 9637, "▁mituburan": 9638, "▁mituki": 9639, "▁mitais": 9640, "▁mitauli": 9641, "▁mitatau": 9642, "▁miyukyat": 9643, "▁mona": 9644, "▁months": 9645, "▁mrs": 9646, "▁multu": 9647, "▁mumuli": 9648, "▁munag": 9649, "▁museo": 9650, "▁musikang": 9651, "▁mutyang": 9652, "▁nabangnan": 9653, "▁niu": 9654, "▁n'ya": 9655, "▁na'ng": 9656, "▁nap": 9657, "▁nar": 9658, "▁nav": 9659, "▁nakami": 9660, "▁nakata": 9661, "▁nakatamung": 9662, "▁namna": 9663, "▁nanding": 9664, "▁nangp": 9665, "▁nemang": 9666, "▁new": 9667, "▁ngayu": 9668, "▁niang": 9669, "▁noben": 9670, "▁nok": 9671, "▁nota": 9672, "▁nue": 9673, "▁obandu": 9674, "▁ofw": 9675, "▁opisina": 9676, "▁opisyal": 9677, "▁ortelano": 9678, "▁palakad": 9679, "▁patan": 9680, "▁payapang": 9681, "▁payung": 9682, "▁pibata": 9683, "▁pid": 9684, "▁pinup": 9685, "▁piping": 9686, "▁pong": 9687, "▁pulis": 9688, "▁putung": 9689, "▁pyalben": 9690, "▁paeng": 9691, "▁paukiat": 9692, "▁paukyat": 9693, "▁pavilion": 9694, "▁pabakle": 9695, "▁pabalu": 9696, "▁paganong": 9697, "▁pagas": 9698, "▁pagkaluban": 9699, "▁pagkasala": 9700, "▁pagmal": 9701, "▁pagmalun": 9702, "▁pagkit": 9703, "▁pagmasdan": 9704, "▁pagmasusian": 9705, "▁pagparangalan": 9706, "▁pagsalbatan": 9707, "▁pagsisian": 9708, "▁paimalanan": 9709, "▁painggulutan": 9710, "▁paintulut": 9711, "▁painturu": 9712, "▁pakabat": 9713, "▁pakap": 9714, "▁pakatandanan": 9715, "▁pakil": 9716, "▁pakintaban": 9717, "▁pakisabi": 9718, "▁paku": 9719, "▁pakakalulung": 9720, "▁pakibalak": 9721, "▁pakisabyan": 9722, "▁pakitanan": 9723, "▁palalung": 9724, "▁palam": 9725, "▁palayan": 9726, "▁paligid": 9727, "▁palis": 9728, "▁paliwas": 9729, "▁palm": 9730, "▁palmura": 9731, "▁palpit": 9732, "▁paluka": 9733, "▁palyasa": 9734, "▁palablaban": 9735, "▁palakpakan": 9736, "▁palakul": 9737, "▁palanakan": 9738, "▁paligayan": 9739, "▁palkara": 9740, "▁pamaganitu": 9741, "▁pamajalan": 9742, "▁pamakit": 9743, "▁pamald": 9744, "▁pamalita": 9745, "▁pamaman": 9746, "▁pamamu": 9747, "▁pamandayu": 9748, "▁pamukpuk": 9749, "▁pamagamuamu": 9750, "▁pamagmas": 9751, "▁pamag-ayunu": 9752, "▁pamagbalik": 9753, "▁pamagbayung": 9754, "▁pamaglaram": 9755, "▁pamagparalampu": 9756, "▁pamagsalita": 9757, "▁pamaklian": 9758, "▁pamakyabe": 9759, "▁pamakipagsalita": 9760, "▁pamaluka": 9761, "▁pamamalut": 9762, "▁pamamintu": 9763, "▁pamamiraya": 9764, "▁pamanakbung": 9765, "▁pamanang": 9766, "▁pamananggap": 9767, "▁pamanangis": 9768, "▁pamanatul": 9769, "▁pamanaya": 9770, "▁pamaningat": 9771, "▁pamanaimic": 9772, "▁pamananaman": 9773, "▁pamanantabe": 9774, "▁pamangamit": 9775, "▁pamangiak": 9776, "▁pamangand": 9777, "▁pamaniabi": 9778, "▁pamaniatang": 9779, "▁pamanlibak": 9780, "▁pamanyambitan": 9781, "▁pamanyaup": 9782, "▁pamanyirang": 9783, "▁pamiisip": 9784, "▁pamibasa": 9785, "▁pamikatagun": 9786, "▁pamikawani": 9787, "▁pamipalsinta": 9788, "▁pamipate": 9789, "▁pamipulung": 9790, "▁pamisas": 9791, "▁pamisanmetung": 9792, "▁panagkat": 9793, "▁panakitan": 9794, "▁panaplak": 9795, "▁pandal": 9796, "▁panipa": 9797, "▁paniwalan": 9798, "▁pant": 9799, "▁pantiun": 9800, "▁panulung": 9801, "▁pangalasak": 9802, "▁pangamat": 9803, "▁pangayat": 9804, "▁pangg": 9805, "▁pangkat": 9806, "▁pango": 9807, "▁pangutang": 9808, "▁pangabengi": 9809, "▁pangabilyan": 9810, "▁pangakablang": 9811, "▁pangaslag": 9812, "▁pangasubli": 9813, "▁pangilagan": 9814, "▁paniatang": 9815, "▁paninasan": 9816, "▁panlasa": 9817, "▁pante-pante": 9818, "▁panugaling": 9819, "▁panyawad": 9820, "▁papak": 9821, "▁papakpak": 9822, "▁papalual": 9823, "▁papamungan": 9824, "▁papang": 9825, "▁papay": 9826, "▁papuri": 9827, "▁papanuknangan": 9828, "▁papaspas": 9829, "▁papasyag": 9830, "▁papatayan": 9831, "▁papelis": 9832, "▁paran": 9833, "▁parikil": 9834, "▁paraiso": 9835, "▁parang-tau": 9836, "▁parangal": 9837, "▁parangalan": 9838, "▁parnaso": 9839, "▁pasaya": 9840, "▁pasis": 9841, "▁paskua": 9842, "▁pasiasan": 9843, "▁pasigalgal": 9844, "▁patatu": 9845, "▁patsy": 9846, "▁payn": 9847, "▁pays": 9848, "▁pegaralan": 9849, "▁pekamas": 9850, "▁peka-": 9851, "▁pekamayap": 9852, "▁pekamaniaman": 9853, "▁pemutian": 9854, "▁penata": 9855, "▁peni": 9856, "▁penibala": 9857, "▁pengagli": 9858, "▁pepag": 9859, "▁pepakuyad": 9860, "▁pepalto": 9861, "▁pepan": 9862, "▁pepatulan": 9863, "▁pepainawa": 9864, "▁pepaitas": 9865, "▁pepalabung": 9866, "▁pepatugut": 9867, "▁pepatuknang": 9868, "▁pepatunayan": 9869, "▁perla": 9870, "▁pesilako": 9871, "▁pesilapit": 9872, "▁pesipamuge": 9873, "▁pialung": 9874, "▁piyalung": 9875, "▁pibulebulayan": 9876, "▁pibalebale": 9877, "▁pigaganakan": 9878, "▁pigilan": 9879, "▁pigk": 9880, "▁piglas": 9881, "▁pigtapat": 9882, "▁pikarine": 9883, "▁pikabsyan": 9884, "▁piloso": 9885, "▁pilipinu": 9886, "▁pilming-pil": 9887, "▁pinanari": 9888, "▁pintan": 9889, "▁pinutut": 9890, "▁pinuri": 9891, "▁pipandiluan": 9892, "▁pipilinan": 9893, "▁pipit": 9894, "▁pipunpunan": 9895, "▁pipatsian": 9896, "▁piraton": 9897, "▁pisabi": 9898, "▁pisac": 9899, "▁pisawili": 9900, "▁pisni": 9901, "▁pisus": 9902, "▁pitagan": 9903, "▁pitamnanan": 9904, "▁pitungpulung": 9905, "▁pol": 9906, "▁power": 9907, "▁poesyang": 9908, "▁prise": 9909, "▁prinsesa": 9910, "▁puente": 9911, "▁pulitika": 9912, "▁puntan": 9913, "▁pupulan": 9914, "▁pupuntalan": 9915, "▁purg": 9916, "▁pusta": 9917, "▁pwestu": 9918, "▁qn": 9919, "▁relihiyun": 9920, "▁rimang": 9921, "▁rugung": 9922, "▁rek": 9923, "▁rewel": 9924, "▁respeto": 9925, "▁reubenitas": 9926, "▁roman": 9927, "▁romang": 9928, "▁rosariu": 9929, "▁s'wala": 9930, "▁sakitan": 9931, "▁salak": 9932, "▁sanu": 9933, "▁sau": 9934, "▁sayad": 9935, "▁sch": 9936, "▁senayan": 9937, "▁sho": 9938, "▁sipag": 9939, "▁sitsit": 9940, "▁sobra": 9941, "▁sonata": 9942, "▁su": 9943, "▁suywan": 9944, "▁savalys": 9945, "▁sabug": 9946, "▁saganan": 9947, "▁sagin": 9948, "▁salamb": 9949, "▁salatan": 9950, "▁salim": 9951, "▁salisi": 9952, "▁salazar": 9953, "▁samasan": 9954, "▁samsam": 9955, "▁sankan": 9956, "▁santang": 9957, "▁santiagu": 9958, "▁sapatus": 9959, "▁saresa": 9960, "▁sarul": 9961, "▁sasalita": 9962, "▁sasangguni": 9963, "▁sasap": 9964, "▁sasarul": 9965, "▁sasaryan": 9966, "▁sasaup": 9967, "▁sasawang": 9968, "▁sasawpan": 9969, "▁sasagese": 9970, "▁sep": 9971, "▁sebu": 9972, "▁sementer": 9973, "▁senor": 9974, "▁sentral": 9975, "▁seria": 9976, "▁serug": 9977, "▁shaly": 9978, "▁shur": 9979, "▁sibal": 9980, "▁sicluban": 9981, "▁sidim": 9982, "▁siglu": 9983, "▁sigarilyu": 9984, "▁siguradung": 9985, "▁sikat": 9986, "▁siklaud": 9987, "▁simen": 9988, "▁simbitla": 9989, "▁sinakup": 9990, "▁sinaling": 9991, "▁sinane": 9992, "▁sinar": 9993, "▁sind": 9994, "▁sinese": 9995, "▁siniasat": 9996, "▁siniclod": 9997, "▁sinimpan": 9998, "▁sintingan": 9999, "▁singap": 10000, "▁singo": 10001, "▁sinubli": 10002, "▁sipagan": 10003, "▁sisian": 10004, "▁sisikan": 10005, "▁sisil": 10006, "▁sising": 10007, "▁sisiro": 10008, "▁sisisi't": 10009, "▁siwang": 10010, "▁sopan": 10011, "▁sour": 10012, "▁sukab": 10013, "▁sukle": 10014, "▁sumala": 10015, "▁sumiro": 10016, "▁sundang": 10017, "▁supil": 10018, "▁susul": 10019, "▁susunga": 10020, "▁susup": 10021, "▁syudad": 10022, "▁tampalasan": 10023, "▁tapang": 10024, "▁tatanam": 10025, "▁tawad": 10026, "▁tho": 10027, "▁tiupan": 10028, "▁tiwala": 10029, "▁tol": 10030, "▁tore": 10031, "▁tubal": 10032, "▁tulandung": 10033, "▁tuli": 10034, "▁tulutan": 10035, "▁ty": 10036, "▁tabac": 10037, "▁tabak": 10038, "▁tabling": 10039, "▁tagil": 10040, "▁tagkilan": 10041, "▁tagku": 10042, "▁take": 10043, "▁talulut": 10044, "▁talaingat": 10045, "▁talagale": 10046, "▁talapagl": 10047, "▁talapagligtas": 10048, "▁talapagmana": 10049, "▁talapanaral": 10050, "▁talatuki": 10051, "▁talikala": 10052, "▁talikalang": 10053, "▁tamar": 10054, "▁tanke": 10055, "▁tandus": 10056, "▁tangere": 10057, "▁tangisan": 10058, "▁tatakap": 10059, "▁tatakpan": 10060, "▁tatampalasanan": 10061, "▁tatanud": 10062, "▁tataid": 10063, "▁tatagalan": 10064, "▁tatangalan": 10065, "▁tatanggapan": 10066, "▁tekasan": 10067, "▁tepangan": 10068, "▁tebugan": 10069, "▁teguryan": 10070, "▁telatau": 10071, "▁that": 10072, "▁thursday": 10073, "▁thy": 10074, "▁tibuc": 10075, "▁tibwan": 10076, "▁tidua-tidua": 10077, "▁tikla": 10078, "▁tikman": 10079, "▁tilad": 10080, "▁time": 10081, "▁timn": 10082, "▁tinaglus": 10083, "▁tinanam": 10084, "▁tinando": 10085, "▁tinanggi": 10086, "▁tindera": 10087, "▁tinibe": 10088, "▁tinicdo": 10089, "▁tiniup": 10090, "▁tindahan": 10091, "▁tingga": 10092, "▁tingiran": 10093, "▁tinuru": 10094, "▁titibuc": 10095, "▁titigtig": 10096, "▁toro": 10097, "▁trio": 10098, "▁tuki-t": 10099, "▁tumwa": 10100, "▁tumaila": 10101, "▁tunika": 10102, "▁tungatung": 10103, "▁tutuk": 10104, "▁tutuknang": 10105, "▁tutuldu": 10106, "▁tutulu": 10107, "▁tutuparan": 10108, "▁tututul": 10109, "▁uc": 10110, "▁ump": 10111, "▁una": 10112, "▁uni": 10113, "▁uz": 10114, "▁ugaling": 10115, "▁ugun": 10116, "▁ulin": 10117, "▁ulitan": 10118, "▁umisan": 10119, "▁unto": 10120, "▁ver": 10121, "▁vis": 10122, "▁venus": 10123, "▁ward": 10124, "▁we": 10125, "▁which": 10126, "▁walungpulu": 10127, "▁yablas": 10128, "▁yagkat": 10129, "▁yakek": 10130, "▁yaku": 10131, "▁yamung": 10132, "▁yapin": 10133, "▁yarin": 10134, "▁yaring": 10135, "▁yatang": 10136, "▁yayain": 10137, "▁yeru": 10138, "▁ynya": 10139, "▁ya'ng": 10140, "▁yanapin": 10141, "▁yatad": 10142, "▁yato": 10143, "▁your": 10144, "▁yuang": 10145, "▁zera": 10146, "▁zered": 10147, "▁zilya": 10148, "▁zeboim": 10149, "▁zebul": 10150, "'k": 10151, "'ku": 10152, "'nya": 10153, "'ra": 10154, "'tin": 10155, "-ab": 10156, "-ag": 10157, "-agad": 10158, "-amit": 10159, "-ang": 10160, "-anting": 10161, "-aptas": 10162, "-asa": 10163, "-e": 10164, "-ingat": 10165, "-ja": 10166, "-kanian": 10167, "-kap": 10168, "-la": 10169, "-lung": 10170, "-luyun": 10171, "-risataim": 10172, "-tang": 10173, "-uk": 10174, "-um": 10175, "-wa": 10176, "-alipan": 10177, "-alsang": 10178, "-anghel": 10179, "-bal": 10180, "-balat": 10181, "-balayan": 10182, "-balikan": 10183, "-bar": 10184, "-bayu": 10185, "-bengi": 10186, "-bigla": 10187, "-bisu": 10188, "-bitin": 10189, "-bukas": 10190, "-bule": 10191, "-bulung": 10192, "-bungge": 10193, "-banalan": 10194, "-barne": 10195, "-barnea": 10196, "-dagul": 10197, "-dangal": 10198, "-dangalan": 10199, "-ditak": 10200, "-de-anghel": 10201, "-gabun": 10202, "-je": 10203, "-jair": 10204, "-jearim": 10205, "-karug": 10206, "-kain": 10207, "-kauani": 10208, "-kalale": 10209, "-lare": 10210, "-laue": 10211, "-ligid": 10212, "-lito": 10213, "-laha": 10214, "-lahai-": 10215, "-lahai-ro": 10216, "-lahai-roi": 10217, "-lubid": 10218, "-lungub": 10219, "-maragul": 10220, "-misan": 10221, "-male": 10222, "-nazareno": 10223, "-paligid": 10224, "-pulu": 10225, "-pamuk": 10226, "-panic": 10227, "-panilan": 10228, "-ray": 10229, "-sab": 10230, "-sabi": 10231, "-salake": 10232, "-samut": 10233, "-sangkan": 10234, "-sapin": 10235, "-saup": 10236, "-sem": 10237, "-sibi": 10238, "-sil": 10239, "-sundu": 10240, "-sakali": 10241, "-salabat": 10242, "-semes": 10243, "-tata": 10244, "-tilad": 10245, "-tit": 10246, "-tamar": 10247, "-timan": 10248, "-ulitan": 10249, "-undap": 10250, "000": 10251, "28": 10252, "30": 10253, "33": 10254, "35": 10255, "37": 10256, "40": 10257, "95": 10258, "ael": 10259, "ailian": 10260, "aimic": 10261, "aingsing": 10262, "ao": 10263, "aung": 10264, "ababa": 10265, "abala": 10266, "abayung": 10267, "abikan": 10268, "ablo": 10269, "abukas": 10270, "abulan": 10271, "abutan": 10272, "abai": 10273, "abaian": 10274, "abalen": 10275, "abanal": 10276, "abangal": 10277, "abi-sabi": 10278, "abim": 10279, "abiran": 10280, "abigla": 10281, "abilinan": 10282, "abitasan": 10283, "ach": 10284, "aclit": 10285, "acman": 10286, "acpan": 10287, "acgakan": 10288, "adan": 10289, "adana": 10290, "adtu": 10291, "aduan": 10292, "advent": 10293, "adventure": 10294, "agaling": 10295, "agasan": 10296, "agawa": 10297, "agid": 10298, "aginakit": 10299, "agiu": 10300, "agkul": 10301, "agpu": 10302, "agsang": 10303, "agusan": 10304, "agut": 10305, "agaula": 10306, "aganas": 10307, "aganac": 10308, "agato": 10309, "agdalan": 10310, "agipus": 10311, "agkamua": 10312, "aglaban": 10313, "aglo": 10314, "agmaragul": 10315, "agmasakit": 10316, "agmatas": 10317, "agmuan": 10318, "agmulala": 10319, "agmultan": 10320, "agpabaya": 10321, "agsadia": 10322, "agsag": 10323, "agsaya": 10324, "agsilbian": 10325, "aguang": 10326, "aguyo": 10327, "aguantang": 10328, "agulutan": 10329, "ak-p": 10330, "akdak": 10331, "akeng": 10332, "akes": 10333, "aket": 10334, "akiramdam": 10335, "akisipan": 10336, "akling": 10337, "aklo": 10338, "aklu": 10339, "akmus": 10340, "akng": 10341, "akum": 10342, "akwil": 10343, "akaul": 10344, "akabsi": 10345, "akadem": 10346, "akalunus": 10347, "akanti": 10348, "akapal": 10349, "akapilan": 10350, "akaroc": 10351, "akarok": 10352, "akasal": 10353, "akasyun": 10354, "akespe": 10355, "akespeare": 10356, "akuas": 10357, "akue": 10358, "akuos": 10359, "akulkul": 10360, "akupad": 10361, "akut-takut": 10362, "alabu": 10363, "alala": 10364, "alaman": 10365, "alawa": 10366, "alayun": 10367, "albe": 10368, "albug": 10369, "alilig": 10370, "alor": 10371, "alt": 10372, "altang": 10373, "aluk": 10374, "alund": 10375, "alupsupan": 10376, "alabalan": 10377, "alagala": 10378, "alagen": 10379, "alagyuan": 10380, "alakab": 10381, "alakanaran": 10382, "alanta": 10383, "alanga": 10384, "alasac": 10385, "alataya": 10386, "aldasan": 10387, "ale-male": 10388, "aligaya": 10389, "aligiran": 10390, "alikid": 10391, "alikp": 10392, "alikpik": 10393, "aliligalig": 10394, "alimbawa": 10395, "alingatan": 10396, "alngal": 10397, "alog": 10398, "aloti": 10399, "alpantayang": 10400, "aluct": 10401, "aluctuc": 10402, "alugsug": 10403, "alukaluan": 10404, "alundalan": 10405, "alustus": 10406, "alusung": 10407, "amela": 10408, "amkam": 10409, "amn": 10410, "amsaman": 10411, "amsik": 10412, "amuan": 10413, "amutan": 10414, "ama'na": 10415, "ama't": 10416, "amaulagang": 10417, "amalian": 10418, "amanti": 10419, "amasamas": 10420, "amasdan": 10421, "amatan": 10422, "amatayan": 10423, "ambak": 10424, "ambana": 10425, "ambangan": 10426, "ambitla": 10427, "ambug": 10428, "ambulat": 10429, "amgam": 10430, "amingwa": 10431, "ampagan": 10432, "ampalataya": 10433, "ampiso": 10434, "ampusan": 10435, "amput": 10436, "amsamanan": 10437, "amuanan": 10438, "amuel": 10439, "amuja": 10440, "anem": 10441, "anp": 10442, "andama'na": 10443, "andez": 10444, "andus": 10445, "andauan": 10446, "anemik": 10447, "angatan": 10448, "angel": 10449, "angit": 10450, "angnan": 10451, "angadian": 10452, "angasu": 10453, "angkamin": 10454, "anuala": 10455, "anuari": 10456, "anuasan": 10457, "apasan": 10458, "apawi": 10459, "apil": 10460, "apis": 10461, "apsu": 10462, "aptasan": 10463, "apakpak": 10464, "apalabas": 10465, "apanasakit": 10466, "apanic": 10467, "apangutang": 10468, "apastangan": 10469, "apatnube": 10470, "apatula": 10471, "apitu-p": 10472, "apitu-pitu": 10473, "aplus": 10474, "apsal": 10475, "apuapuan": 10476, "aradang": 10477, "ardo": 10478, "arga": 10479, "arkada": 10480, "arlayan": 10481, "arn": 10482, "arro": 10483, "arulan": 10484, "arungan": 10485, "aryo": 10486, "arangle": 10487, "ardito": 10488, "areu": 10489, "ariung": 10490, "aringm": 10491, "asad": 10492, "asak": 10493, "asalan": 10494, "ase": 10495, "asgas": 10496, "aslag": 10497, "asong": 10498, "aspas": 10499, "ast": 10500, "asta": 10501, "astus": 10502, "asyon": 10503, "asaul": 10504, "asaheru": 10505, "asantung": 10506, "asangap": 10507, "asukle": 10508, "at-jearim": 10509, "atawan": 10510, "atbang": 10511, "atr": 10512, "atsang": 10513, "atula": 10514, "ata-tata": 10515, "ataji": 10516, "atajiikan": 10517, "atanggap": 10518, "atangu": 10519, "atiat": 10520, "aticdo": 10521, "atrikal": 10522, "auc": 10523, "aua-kauani": 10524, "aup-saup": 10525, "ausukan": 10526, "awagan": 10527, "awasan": 10528, "awing": 10529, "awiw": 10530, "awakawani": 10531, "awaning": 10532, "ayalben": 10533, "ayaring": 10534, "ayatan": 10535, "ayon": 10536, "ayos": 10537, "aysa": 10538, "ayud": 10539, "ayug": 10540, "aywan": 10541, "aya't": 10542, "ayapag": 10543, "aynawan": 10544, "aynt": 10545, "ayung-bye": 10546, "bait": 10547, "bala": 10548, "bante": 10549, "ber": 10550, "bet": 10551, "bilang": 10552, "bitan": 10553, "bling": 10554, "bri": 10555, "bur": 10556, "by": 10557, "ba-t": 10558, "bagal": 10559, "balamu": 10560, "bangnan": 10561, "batikan": 10562, "batis": 10563, "bea": 10564, "bed": 10565, "bi't": 10566, "bukud": 10567, "burisan": 10568, "cho": 10569, "cks": 10570, "cma": 10571, "cris": 10572, "ctor": 10573, "cher": 10574, "dado": 10575, "dagan": 10576, "dake": 10577, "danum": 10578, "daya": 10579, "dayang": 10580, "dayu": 10581, "dem": 10582, "der": 10583, "dili": 10584, "diwata": 10585, "dless": 10586, "dosa": 10587, "ds": 10588, "dta": 10589, "duk": 10590, "dula": 10591, "danse": 10592, "dap-undap": 10593, "dec": 10594, "detang": 10595, "dinapat": 10596, "doctor": 10597, "dome": 10598, "domeo": 10599, "duagan": 10600, "duardito": 10601, "duyan": 10602, "dulapan": 10603, "duluk": 10604, "dutun": 10605, "e-": 10606, "eas": 10607, "ede": 10608, "eg": 10609, "ehe": 10610, "ej": 10611, "ejo": 10612, "emu": 10613, "epe": 10614, "euang": 10615, "ebatan": 10616, "eden": 10617, "edn": 10618, "ednesday": 10619, "elio": 10620, "elegrama": 10621, "eneas": 10622, "enno": 10623, "ensu": 10624, "entang": 10625, "enga": 10626, "enge": 10627, "enggu": 10628, "engwa": 10629, "engwahi": 10630, "ennox": 10631, "enteng": 10632, "entino": 10633, "entista": 10634, "eparan": 10635, "epen": 10636, "eragul": 10637, "erat": 10638, "erba": 10639, "erday": 10640, "erera": 10641, "erme": 10642, "eros": 10643, "erte": 10644, "ertu": 10645, "ereta": 10646, "ernandez": 10647, "ernis": 10648, "esk": 10649, "esep": 10650, "esepuan": 10651, "eskwela": 10652, "esterday": 10653, "ets": 10654, "etsan": 10655, "etsu": 10656, "fel": 10657, "for": 10658, "fre": 10659, "fradia": 10660, "from": 10661, "gang": 10662, "gawan": 10663, "geseo": 10664, "get": 10665, "giang": 10666, "gil": 10667, "giu": 10668, "grasya": 10669, "guk": 10670, "gukan": 10671, "gung": 10672, "gutan": 10673, "gutgutan": 10674, "gyang": 10675, "galamanu": 10676, "ganid": 10677, "gapus": 10678, "ge-bungge": 10679, "goda": 10680, "goodbye": 10681, "had": 10682, "hagi": 10683, "hal": 10684, "har": 10685, "hil": 10686, "hilip": 10687, "hit": 10688, "hm": 10689, "hr": 10690, "husa": 10691, "hv": 10692, "haaa": 10693, "haz": 10694, "hehe": 10695, "himagsik": 10696, "hinyeru": 10697, "hob": 10698, "hoo": 10699, "hool": 10700, "holar": 10701, "homework": 10702, "hort": 10703, "hren": 10704, "huja": 10705, "hujael": 10706, "husael": 10707, "hvoa": 10708, "ial": 10709, "iatan": 10710, "iel": 10711, "ielu": 10712, "iernu": 10713, "iimp": 10714, "ij": 10715, "iuan": 10716, "iusan": 10717, "iaus": 10718, "iazar": 10719, "iaclung": 10720, "iagis": 10721, "ianitas": 10722, "iano": 10723, "ianung": 10724, "ibad": 10725, "ibalic": 10726, "ibian": 10727, "ibpa": 10728, "ibutan": 10729, "ibantan": 10730, "ibatang": 10731, "ibutl": 10732, "ibutlibut": 10733, "icmata": 10734, "id-ligid": 10735, "idbid": 10736, "idel": 10737, "idon": 10738, "idua": 10739, "idwan": 10740, "iestan": 10741, "iestang": 10742, "iga": 10743, "igaganaka": 10744, "igaganakan": 10745, "igang": 10746, "igi": 10747, "igtig": 10748, "igut": 10749, "iglapan": 10750, "iglulu": 10751, "ikapulu": 10752, "ikayu": 10753, "iki": 10754, "ikilan": 10755, "ikitan": 10756, "iklab": 10757, "ikol": 10758, "ikua": 10759, "ikual": 10760, "ikudta": 10761, "ikum": 10762, "ikwa": 10763, "ilap": 10764, "ilili": 10765, "ilk": 10766, "ilpa": 10767, "ilungan": 10768, "ilus": 10769, "ilauk": 10770, "ilabutan": 10771, "iliang": 10772, "ilianti": 10773, "ilisya": 10774, "img": 10775, "imid": 10776, "imie": 10777, "imung": 10778, "imyas": 10779, "imbing": 10780, "imbul": 10781, "imbut": 10782, "imirusang": 10783, "impad": 10784, "impo": 10785, "impung": 10786, "imumuan": 10787, "in-bitin": 10788, "inalan": 10789, "inasang": 10790, "indan": 10791, "inia": 10792, "inpin": 10793, "insi": 10794, "inauan": 10795, "inape": 10796, "indagul": 10797, "indik": 10798, "indredus": 10799, "indyan": 10800, "indayug": 10801, "ingaya": 10802, "ingid": 10803, "ingu": 10804, "ingwa": 10805, "ingalma": 10806, "inggun": 10807, "iningning": 10808, "insala": 10809, "insan": 10810, "intab": 10811, "intal": 10812, "intangan": 10813, "inturan": 10814, "inturang": 10815, "inubud": 10816, "inupan": 10817, "inur": 10818, "ionan": 10819, "ipang": 10820, "ipate": 10821, "iper": 10822, "ipid": 10823, "ipis": 10824, "ipor": 10825, "ipus": 10826, "ipusta": 10827, "ipagdala": 10828, "ipantuk": 10829, "ipitung": 10830, "iral": 10831, "iram": 10832, "irame": 10833, "irandam": 10834, "irap": 10835, "irasion": 10836, "ire": 10837, "irku": 10838, "irn": 10839, "iraitnan": 10840, "isabit": 10841, "isadiang": 10842, "isali": 10843, "isaring": 10844, "isbis": 10845, "isia": 10846, "ismo": 10847, "isng": 10848, "isya": 10849, "isyan": 10850, "isalamuja": 10851, "iskis": 10852, "iskur": 10853, "iskursu": 10854, "isngis": 10855, "itagan": 10856, "itanan": 10857, "itasan": 10858, "ith": 10859, "itik": 10860, "itinape": 10861, "itingapun": 10862, "ition": 10863, "itna": 10864, "itasang": 10865, "itek": 10866, "itsera": 10867, "itsuran": 10868, "iu-de-anghel": 10869, "iuyu": 10870, "iupilan": 10871, "iwang": 10872, "iwalasan": 10873, "iyac": 10874, "izop": 10875, "izophren": 10876, "janan": 10877, "jas": 10878, "jilig": 10879, "jn": 10880, "jumpa": 10881, "jagi": 10882, "jimic": 10883, "kaku": 10884, "kala": 10885, "kaligaligan": 10886, "kapatad": 10887, "karine": 10888, "kayanakan": 10889, "kayu": 10890, "kdo": 10891, "keni": 10892, "kilya": 10893, "kit": 10894, "kitan": 10895, "kon": 10896, "kug": 10897, "kula": 10898, "kulung": 10899, "kahit": 10900, "kabyayan": 10901, "kakug": 10902, "kaladua": 10903, "kalagu": 10904, "kalulu": 10905, "kanakung": 10906, "kaninu": 10907, "kanita": 10908, "kano": 10909, "kantador": 10910, "kapait": 10911, "kapayapan": 10912, "kapulwan": 10913, "karaniwan": 10914, "karetang": 10915, "kasi": 10916, "katak": 10917, "katatagan": 10918, "katawan": 10919, "kaybat": 10920, "keti": 10921, "kinitan": 10922, "kome": 10923, "kutkut": 10924, "lamu": 10925, "lawayan": 10926, "lawe": 10927, "leng": 10928, "lia": 10929, "libak": 10930, "lika": 10931, "ls": 10932, "luluan": 10933, "lusan": 10934, "laza": 10935, "labuad": 10936, "lagas": 10937, "lakwan": 10938, "lasag": 10939, "lasar": 10940, "late": 10941, "leo": 10942, "lish": 10943, "loage": 10944, "lobe": 10945, "logan": 10946, "lora": 10947, "luid": 10948, "luyun-luyun": 10949, "makanian": 10950, "mand": 10951, "manuala": 10952, "map": 10953, "maragul": 10954, "marangle": 10955, "masdan": 10956, "mburisan": 10957, "mib": 10958, "mita": 10959, "mitas": 10960, "mokrasya": 10961, "mol": 10962, "muna": 10963, "maestro": 10964, "mairing": 10965, "mauan": 10966, "mag-": 10967, "maging": 10968, "magkano": 10969, "makapagmulala": 10970, "makapayan": 10971, "malapit": 10972, "male": 10973, "malino": 10974, "malungkut": 10975, "malunus": 10976, "mamili": 10977, "mant": 10978, "manung": 10979, "manyaman": 10980, "mangakamal": 10981, "masid": 10982, "maybug": 10983, "meyari": 10984, "ments": 10985, "miy": 10986, "mimwa": 10987, "mipakananu": 10988, "mist": 10989, "muc": 10990, "muel": 10991, "munag": 10992, "naua": 10993, "nen": 10994, "nig": 10995, "nino": 10996, "ns": 10997, "nul": 10998, "ney": 10999, "ngamo": 11000, "ngawan": 11001, "ngalalang": 11002, "nganing": 11003, "nown": 11004, "oga": 11005, "ogo": 11006, "oh": 11007, "oku": 11008, "opan": 11009, "ou": 11010, "ouse": 11011, "oyan": 11012, "obal": 11013, "olf": 11014, "olor": 11015, "olusion": 11016, "ome": 11017, "ones": 11018, "onis": 11019, "ono": 11020, "onung": 11021, "opiya": 11022, "orbe": 11023, "orsi": 11024, "oreti": 11025, "osopiya": 11026, "ot-jair": 11027, "otas": 11028, "other": 11029, "pale": 11030, "pam": 11031, "paralan": 11032, "pasaheru": 11033, "pasan": 11034, "petsan": 11035, "pilan": 11036, "pitu": 11037, "pl": 11038, "pr": 11039, "pub": 11040, "puc": 11041, "pud": 11042, "pusan": 11043, "pakumbaban": 11044, "panali": 11045, "pany": 11046, "pasensya": 11047, "pasti": 11048, "pastipas": 11049, "patda": 11050, "patugut": 11051, "peor": 11052, "pekapun": 11053, "peryo": 11054, "pitung": 11055, "porasiun": 11056, "pst": 11057, "pues": 11058, "publika": 11059, "ramang": 11060, "ratu": 11061, "relihi": 11062, "relihiyun": 11063, "rika": 11064, "ripis": 11065, "rite": 11066, "rafel": 11067, "rain": 11068, "raz": 11069, "ralia": 11070, "rans": 11071, "razy": 11072, "red": 11073, "rey": 11074, "riel": 11075, "ries": 11076, "rimen": 11077, "risto": 11078, "rob": 11079, "rod": 11080, "rol": 11081, "ruit": 11082, "s-": 11083, "sakan": 11084, "salamat": 11085, "salang": 11086, "samu": 11087, "sana": 11088, "sanan": 11089, "santing": 11090, "sarili": 11091, "sen": 11092, "seru": 11093, "serung": 11094, "sia": 11095, "sibul": 11096, "sinu": 11097, "sot": 11098, "suc": 11099, "sud": 11100, "syon": 11101, "sabik": 11102, "sad-k": 11103, "sanayan": 11104, "sasalpantaya": 11105, "sec": 11106, "semani": 11107, "seras": 11108, "serve": 11109, "sess": 11110, "sias": 11111, "siya": 11112, "sicle": 11113, "sidens": 11114, "sige": 11115, "silbi": 11116, "singan": 11117, "syerto": 11118, "tama't": 11119, "taran": 11120, "tawagan": 11121, "tawan": 11122, "tili": 11123, "tn": 11124, "tras": 11125, "tries": 11126, "tru": 11127, "tugan": 11128, "tuki": 11129, "tulan": 11130, "tuma": 11131, "tuna": 11132, "tunan": 11133, "tutung": 11134, "tv": 11135, "tahimik": 11136, "tacsilan": 11137, "takaran": 11138, "tananan": 11139, "tatagan": 11140, "tatwa": 11141, "teban": 11142, "tet": 11143, "tendanse": 11144, "tiano": 11145, "tidu": 11146, "tika": 11147, "tir": 11148, "tigtig": 11149, "tikum": 11150, "tinang": 11151, "tinda": 11152, "tinikdo": 11153, "tisung": 11154, "trina": 11155, "try": 11156, "trumentu": 11157, "tudies": 11158, "turyal": 11159, "uage": 11160, "uas": 11161, "uata": 11162, "uesday": 11163, "uyas": 11164, "uyat": 11165, "uajagi": 11166, "ualuan": 11167, "uantan": 11168, "uangis": 11169, "uatasan": 11170, "ubak": 11171, "ubali": 11172, "ubas": 11173, "ubg": 11174, "ubie": 11175, "ubing": 11176, "ubkuban": 11177, "ubug": 11178, "ubukadkad": 11179, "uclud": 11180, "ucnul": 11181, "uckoth": 11182, "udas": 11183, "udpud": 11184, "udu": 11185, "ueldu": 11186, "ug-tabug": 11187, "uga": 11188, "ugalan": 11189, "ugatan": 11190, "ugkasian": 11191, "ugkug": 11192, "ugma": 11193, "ugs": 11194, "ugsi": 11195, "ugtug": 11196, "ugul": 11197, "ugbugan": 11198, "ugunaman": 11199, "ukanan": 11200, "ukaring": 11201, "ukduk": 11202, "ukdul": 11203, "ukristo": 11204, "uksa": 11205, "ukuban": 11206, "ukut": 11207, "ukas-bukas": 11208, "ukiutan": 11209, "uklulkan": 11210, "uknan": 11211, "uknuk": 11212, "uknanga": 11213, "ukulam": 11214, "ukulyus": 11215, "ulaklak": 11216, "ulalag": 11217, "ulma": 11218, "ulmul": 11219, "ulpit": 11220, "ultu": 11221, "ulul": 11222, "ulunan": 11223, "ulyan": 11224, "ulac": 11225, "ulamita": 11226, "ulisita": 11227, "ulugi": 11228, "ulugian": 11229, "umab": 11230, "umba": 11231, "umento": 11232, "umi": 11233, "umikap": 11234, "umpan": 11235, "umun": 11236, "umbaba": 11237, "umbalik": 11238, "umben": 11239, "umbira": 11240, "umpawi": 11241, "umpunan": 11242, "umpac": 11243, "unb": 11244, "uning": 11245, "unkulan": 11246, "unl": 11247, "unlad": 11248, "untang": 11249, "unying": 11250, "undat": 11251, "undiman": 11252, "undu-sundu": 11253, "uneta": 11254, "ungalian": 11255, "ungdung": 11256, "unggen": 11257, "ungisan": 11258, "ungle": 11259, "ungsu": 11260, "ungyung": 11261, "upalu": 11262, "upo": 11263, "upri": 11264, "upiter": 11265, "urak": 11266, "urap": 11267, "urayit": 11268, "uren": 11269, "uritan": 11270, "uruk": 11271, "urahin": 11272, "usac": 11273, "usia": 11274, "usingan": 11275, "usot": 11276, "uspetsan": 11277, "ustang": 11278, "ustu": 11279, "usturyal": 11280, "usyun": 11281, "usukad": 11282, "utasan": 11283, "utnan": 11284, "utuan": 11285, "utanang": 11286, "uyag": 11287, "uyak": 11288, "uyaran": 11289, "van": 11290, "vera": 11291, "via": 11292, "wakas": 11293, "walang": 11294, "walung": 11295, "waran": 11296, "wari": 11297, "wenta": 11298, "wha": 11299, "wi": 11300, "wit": 11301, "wls": 11302, "walta": 11303, "wangit": 11304, "weda": 11305, "welkome": 11306, "yangan": 11307, "yar": 11308, "yatu": 11309, "yaup": 11310, "yawan": 11311, "yenteng": 11312, "yern": 11313, "yets": 11314, "yikad": 11315, "yl": 11316, "ypa": 11317, "yub": 11318, "yusan": 11319, "yaang": 11320, "yahoo": 11321, "yamut": 11322, "yapa": 11323, "yaptasan": 11324, "yasat": 11325, "yatna": 11326, "ye-bye": 11327, "yenti": 11328, "yo-": 11329, "yok": 11330, "yota": 11331, "you": 11332, "yuwan": 11333, "yungyung": 11334, "zre": 11335, "▁122": 11336, "▁130": 11337, "▁24": 11338, "▁26": 11339, "▁2010": 11340, "▁30": 11341, "▁38": 11342, "▁45": 11343, "▁48": 11344, "▁5000": 11345, "▁a-": 11346, "▁a-t": 11347, "▁aaa": 11348, "▁afr": 11349, "▁aha": 11350, "▁ais": 11351, "▁ait": 11352, "▁auang": 11353, "▁aur": 11354, "▁av": 11355, "▁az": 11356, "▁aarong": 11357, "▁ababalu": 11358, "▁ababat": 11359, "▁abala": 11360, "▁abalan": 11361, "▁abalanan": 11362, "▁aban": 11363, "▁abatan": 11364, "▁abatas": 11365, "▁abatiawan": 11366, "▁abdon": 11367, "▁abias": 11368, "▁abiram": 11369, "▁abitan": 11370, "▁abitasang": 11371, "▁abli": 11372, "▁abou": 11373, "▁abung": 11374, "▁abatiauan": 11375, "▁abe-abe": 11376, "▁abiezrita": 11377, "▁abugadung": 11378, "▁abutin": 11379, "▁acdac": 11380, "▁acmulan": 11381, "▁acsidens": 11382, "▁add": 11383, "▁adm": 11384, "▁adulamita": 11385, "▁adw": 11386, "▁aduampulung": 11387, "▁aduang-pulu": 11388, "▁again": 11389, "▁agapus": 11390, "▁agga": 11391, "▁agilang": 11392, "▁agilar": 11393, "▁agin": 11394, "▁agiu": 11395, "▁agtalan": 11396, "▁aguantan": 11397, "▁agad-agad": 11398, "▁agiung": 11399, "▁akab": 11400, "▁akabangal": 11401, "▁akag": 11402, "▁akakal": 11403, "▁akakua": 11404, "▁akalingatan": 11405, "▁akamit": 11406, "▁akatajiikan": 11407, "▁akgutgutan": 11408, "▁akumpe": 11409, "▁akadem": 11410, "▁akalaban": 11411, "▁akalaru": 11412, "▁akapmuan": 11413, "▁akayarap": 11414, "▁aku'y": 11415, "▁akuang": 11416, "▁al-tashheth": 11417, "▁alalang": 11418, "▁alale": 11419, "▁alalu": 11420, "▁alam": 11421, "▁alamat": 11422, "▁alasa": 11423, "▁alayang": 11424, "▁alba": 11425, "▁aligtas": 11426, "▁alm": 11427, "▁alng": 11428, "▁alo": 11429, "▁alput": 11430, "▁alug": 11431, "▁aluguran": 11432, "▁aluk": 11433, "▁alukluk": 11434, "▁always": 11435, "▁alahas": 11436, "▁alalajanan": 11437, "▁alan-angga": 11438, "▁aldong": 11439, "▁aldukan": 11440, "▁aldo'": 11441, "▁alkalde": 11442, "▁alpombra": 11443, "▁amanan": 11444, "▁amiam": 11445, "▁aminan": 11446, "▁amrafel": 11447, "▁amanwan": 11448, "▁amanuang": 11449, "▁amerikanu": 11450, "▁ampanganan": 11451, "▁ampo'ning": 11452, "▁ananang": 11453, "▁anin": 11454, "▁aninagan": 11455, "▁anloage": 11456, "▁ant": 11457, "▁ante": 11458, "▁anakeo": 11459, "▁andaman": 11460, "▁angangan": 11461, "▁angen": 11462, "▁angyang": 11463, "▁angyu": 11464, "▁anti'y": 11465, "▁apagsilbian": 11466, "▁apakilala": 11467, "▁apalakuan": 11468, "▁apasanting": 11469, "▁apasiag": 11470, "▁apibata": 11471, "▁apiling": 11472, "▁apipi": 11473, "▁aplakan": 11474, "▁aplus": 11475, "▁apupul": 11476, "▁apagaralan": 11477, "▁apagumasdan": 11478, "▁apagkamalian": 11479, "▁apakaban": 11480, "▁apakinabang": 11481, "▁apanusigan": 11482, "▁aparalanan": 11483, "▁apate": 11484, "▁apatibayan": 11485, "▁apikasunduan": 11486, "▁apilasa": 11487, "▁aramdaman": 11488, "▁aran": 11489, "▁arar": 11490, "▁ararapat": 11491, "▁arenas": 11492, "▁arkang": 11493, "▁arl": 11494, "▁art": 11495, "▁arts": 11496, "▁aru": 11497, "▁ariok": 11498, "▁arkitek": 11499, "▁asagip": 11500, "▁asali": 11501, "▁asana": 11502, "▁asasangap": 11503, "▁asingil": 11504, "▁asiwas": 11505, "▁asnang": 11506, "▁asne": 11507, "▁asp": 11508, "▁asupri": 11509, "▁asur": 11510, "▁asusu": 11511, "▁asuyu": 11512, "▁asyas": 11513, "▁asalubung": 11514, "▁asangap": 11515, "▁asasabi": 11516, "▁asufre": 11517, "▁asukal": 11518, "▁atabi": 11519, "▁atad": 11520, "▁atagkil": 11521, "▁atagmuan": 11522, "▁atakman": 11523, "▁atang": 11524, "▁atbung": 11525, "▁atdanan": 11526, "▁atdu": 11527, "▁ate": 11528, "▁atiglapan": 11529, "▁atiku": 11530, "▁atis": 11531, "▁atni": 11532, "▁atuklas": 11533, "▁atukyan": 11534, "▁atulad": 11535, "▁atuldu": 11536, "▁atunggen": 11537, "▁atuparan": 11538, "▁atabnuan": 11539, "▁atalinting": 11540, "▁atiung": 11541, "▁atuklasan": 11542, "▁awus": 11543, "▁awusan": 11544, "▁ayag": 11545, "▁ayagkas": 11546, "▁ayalata": 11547, "▁ayampang": 11548, "▁ayayaninag": 11549, "▁ayos": 11550, "▁ayaus": 11551, "▁banu": 11552, "▁bapang": 11553, "▁baya": 11554, "▁beba": 11555, "▁bebatan": 11556, "▁bimie": 11557, "▁binubud": 11558, "▁bor": 11559, "▁botas": 11560, "▁boting": 11561, "▁buan": 11562, "▁buklud": 11563, "▁buran": 11564, "▁bwangis": 11565, "▁baidbid": 11566, "▁baj": 11567, "▁ba'keng": 11568, "▁baal-peor": 11569, "▁babagiu": 11570, "▁babal": 11571, "▁babalabalan": 11572, "▁babalangkas": 11573, "▁babanten": 11574, "▁babarug": 11575, "▁babel": 11576, "▁babai't": 11577, "▁babatio": 11578, "▁bagiusan": 11579, "▁bakalan": 11580, "▁balakan": 11581, "▁balaku": 11582, "▁balbal": 11583, "▁baldosa": 11584, "▁baleng": 11585, "▁balgn": 11586, "▁balisa": 11587, "▁balisang": 11588, "▁baltangan": 11589, "▁balugn": 11590, "▁balyan": 11591, "▁balagtas": 11592, "▁balakusa": 11593, "▁balakusang": 11594, "▁balayanl": 11595, "▁bale-k": 11596, "▁balik-balikan": 11597, "▁balingkinitan": 11598, "▁balintawak": 11599, "▁balsamo": 11600, "▁bana": 11601, "▁bansut": 11602, "▁bangbang": 11603, "▁banggitan": 11604, "▁bangka": 11605, "▁bangku": 11606, "▁banglung": 11607, "▁bangketa": 11608, "▁bantayug": 11609, "▁banyaga": 11610, "▁barkas": 11611, "▁baraha": 11612, "▁base": 11613, "▁basti": 11614, "▁basu": 11615, "▁basyu": 11616, "▁batamung": 11617, "▁batbatan": 11618, "▁bathala": 11619, "▁batwing": 11620, "▁batalya": 11621, "▁batikbatikan": 11622, "▁bayong": 11623, "▁beor": 11624, "▁betingan": 11625, "▁beer-lahai-roi": 11626, "▁beging": 11627, "▁belabag": 11628, "▁beligtad": 11629, "▁belikan": 11630, "▁ben-": 11631, "▁bendisyun": 11632, "▁bengit": 11633, "▁bengi-bengi": 11634, "▁benjamita": 11635, "▁benjamitas": 11636, "▁berdi": 11637, "▁beria": 11638, "▁bersu": 11639, "▁berdugos": 11640, "▁bet-semes": 11641, "▁betpeor": 11642, "▁bet-anat": 11643, "▁beyatan": 11644, "▁bialng": 11645, "▁biayan": 11646, "▁biernis": 11647, "▁bihag": 11648, "▁biyasang": 11649, "▁biasing": 11650, "▁bibi": 11651, "▁bibilang": 11652, "▁biblia": 11653, "▁bigsu": 11654, "▁bikas": 11655, "▁binalut": 11656, "▁binawal": 11657, "▁binayu": 11658, "▁biniang": 11659, "▁bininyag": 11660, "▁birtud": 11661, "▁biruan": 11662, "▁bisbusan": 11663, "▁bisitas": 11664, "▁bistama't": 11665, "▁bistidu": 11666, "▁bitin-bitin": 11667, "▁boses": 11668, "▁bosis": 11669, "▁boss": 11670, "▁brilianti": 11671, "▁brilyan": 11672, "▁bruno": 11673, "▁bububud": 11674, "▁bubung": 11675, "▁bubungang": 11676, "▁bubusuk": 11677, "▁bubut": 11678, "▁bubugnan": 11679, "▁bugnusanan": 11680, "▁bulak": 11681, "▁bulas": 11682, "▁buldit": 11683, "▁bulugn": 11684, "▁bulung-bulung": 11685, "▁bunduc-bundukan": 11686, "▁bungbung": 11687, "▁bungge-bungge": 11688, "▁bungil": 11689, "▁bungisngis": 11690, "▁buntun": 11691, "▁burac": 11692, "▁burik": 11693, "▁buryan": 11694, "▁buri't": 11695, "▁busnian": 11696, "▁bustang": 11697, "▁busilac": 11698, "▁busilak": 11699, "▁butcher": 11700, "▁buti": 11701, "▁butulan": 11702, "▁butyl": 11703, "▁butul-balat": 11704, "▁byabas": 11705, "▁criminal": 11706, "▁china": 11707, "▁chinung": 11708, "▁chris": 11709, "▁chev": 11710, "▁cristal": 11711, "▁cristu": 11712, "▁daman": 11713, "▁damba": 11714, "▁dawak": 11715, "▁dayung": 11716, "▁dilo": 11717, "▁dlit": 11718, "▁dor": 11719, "▁dugu": 11720, "▁dus": 11721, "▁dwa": 11722, "▁dahilan": 11723, "▁dages": 11724, "▁dagis": 11725, "▁dakatang": 11726, "▁dako": 11727, "▁dakug": 11728, "▁daka'lang": 11729, "▁dale": 11730, "▁dalpak": 11731, "▁dalum": 11732, "▁dalun": 11733, "▁dalan-dalan": 11734, "▁dalan-danum": 11735, "▁danasan": 11736, "▁danitas": 11737, "▁dangka": 11738, "▁danupa": 11739, "▁dapug": 11740, "▁darakpan": 11741, "▁daral": 11742, "▁daralakit": 11743, "▁daralo": 11744, "▁daranasan": 11745, "▁dayrit": 11746, "▁daywan": 11747, "▁de't": 11748, "▁demokrasya": 11749, "▁desyerto": 11750, "▁deyu": 11751, "▁delakitan": 11752, "▁delit": 11753, "▁delubyu": 11754, "▁dia": 11755, "▁diablo": 11756, "▁diamanti": 11757, "▁dicma": 11758, "▁diuata": 11759, "▁didiligan": 11760, "▁didinan": 11761, "▁didiria": 11762, "▁digdug": 11763, "▁digsa": 11764, "▁dilidili": 11765, "▁dimas": 11766, "▁dinakal": 11767, "▁dinakap": 11768, "▁dinalit": 11769, "▁dinalpak": 11770, "▁dinikil": 11771, "▁dink": 11772, "▁dinungdung": 11773, "▁dinunut": 11774, "▁dinyan": 11775, "▁diosdado": 11776, "▁diptan": 11777, "▁dirimla": 11778, "▁diritak": 11779, "▁diryan": 11780, "▁disgrasya": 11781, "▁ditak-ditak": 11782, "▁diwata": 11783, "▁diyosa": 11784, "▁doctrina": 11785, "▁donsel": 11786, "▁dpaot": 11787, "▁dues": 11788, "▁dudwang": 11789, "▁dugpa": 11790, "▁dulukan": 11791, "▁dumalung": 11792, "▁dumanup": 11793, "▁dumine": 11794, "▁dungdung": 11795, "▁dungdungan": 11796, "▁dungus": 11797, "▁duruku": 11798, "▁durukulan": 11799, "▁durugang": 11800, "▁durungdung": 11801, "▁durut-durut": 11802, "▁each": 11803, "▁eba": 11804, "▁ebed": 11805, "▁edomeo": 11806, "▁eduardito": 11807, "▁elasar": 11808, "▁emo": 11809, "▁ere": 11810, "▁etan": 11811, "▁eyu": 11812, "▁ez": 11813, "▁ezer": 11814, "▁e're": 11815, "▁ebaling": 11816, "▁eber": 11817, "▁ebanghelyo": 11818, "▁efrain": 11819, "▁efren": 11820, "▁eganagana": 11821, "▁ehip": 11822, "▁eje": 11823, "▁ejersitu": 11824, "▁ekonomia": 11825, "▁eliazar": 11826, "▁elilan": 11827, "▁emita": 11828, "▁emperador": 11829, "▁endless": 11830, "▁enjo": 11831, "▁enkantador": 11832, "▁entries": 11833, "▁engkant": 11834, "▁english": 11835, "▁entabladu": 11836, "▁ermita": 11837, "▁escr": 11838, "▁estatwa": 11839, "▁esteban": 11840, "▁eskolta": 11841, "▁espada": 11842, "▁espadana": 11843, "▁espanyang": 11844, "▁espanyola": 11845, "▁espiritual": 11846, "▁estilung": 11847, "▁etala": 11848, "▁etam": 11849, "▁etc": 11850, "▁feneas": 11851, "▁fernandez": 11852, "▁fiestang": 11853, "▁fikol": 11854, "▁flora": 11855, "▁fruit": 11856, "▁familiang": 11857, "▁fech": 11858, "▁fernando": 11859, "▁fortuna": 11860, "▁from": 11861, "▁gabi": 11862, "▁gakisipan": 11863, "▁galagala": 11864, "▁galus": 11865, "▁gambulan": 11866, "▁gana": 11867, "▁gandus": 11868, "▁garing": 11869, "▁gayac": 11870, "▁gel": 11871, "▁ginggun": 11872, "▁gipit": 11873, "▁gisanan": 11874, "▁globe": 11875, "▁gm": 11876, "▁gn": 11877, "▁gpanali": 11878, "▁gsarili": 11879, "▁gul": 11880, "▁gulutan": 11881, "▁guy": 11882, "▁gabriel": 11883, "▁gagale": 11884, "▁gagawang": 11885, "▁galnag": 11886, "▁galtung": 11887, "▁ganang": 11888, "▁gastusan": 11889, "▁gates": 11890, "▁gayut": 11891, "▁geindu": 11892, "▁gepusan": 11893, "▁gezer": 11894, "▁genakan": 11895, "▁gergeseo": 11896, "▁gerilya": 11897, "▁gestas": 11898, "▁getsemani": 11899, "▁gigising": 11900, "▁gilgal": 11901, "▁ginalang": 11902, "▁ginalapac": 11903, "▁ginawang": 11904, "▁ginkas": 11905, "▁ginuno": 11906, "▁ginwan": 11907, "▁gitgutan": 11908, "▁goi": 11909, "▁good": 11910, "▁gobiernu": 11911, "▁gomer": 11912, "▁gradu": 11913, "▁gudgoda": 11914, "▁guguluan": 11915, "▁gugulyut": 11916, "▁gumala": 11917, "▁gumamela": 11918, "▁gumamit": 11919, "▁gumera": 11920, "▁gumulut": 11921, "▁gunam": 11922, "▁gunkas": 11923, "▁hada": 11924, "▁hapi": 11925, "▁hari": 11926, "▁helyo": 11927, "▁hen": 11928, "▁hindi": 11929, "▁hon": 11930, "▁hotel": 11931, "▁house": 11932, "▁hustisia": 11933, "▁hustisya": 11934, "▁hadas": 11935, "▁hapon": 11936, "▁happy": 11937, "▁harana": 11938, "▁havot-jair": 11939, "▁hazor": 11940, "▁hehehe": 11941, "▁heteos": 11942, "▁henerasyun": 11943, "▁heneralitu": 11944, "▁heres": 11945, "▁hermnon": 11946, "▁hezron": 11947, "▁hilyel": 11948, "▁husam": 11949, "▁idalpak": 11950, "▁igapus": 11951, "▁ii": 11952, "▁iii": 11953, "▁iota": 11954, "▁iri": 11955, "▁itung": 11956, "▁iuti": 11957, "▁iw": 11958, "▁iyatyat": 11959, "▁iyu": 11960, "▁iyutus": 11961, "▁iba't": 11962, "▁ibaba": 11963, "▁ibalic": 11964, "▁ibang": 11965, "▁ibaual": 11966, "▁ibitin": 11967, "▁ibuntun": 11968, "▁ibzan": 11969, "▁ibibilang": 11970, "▁ibibili": 11971, "▁idalang": 11972, "▁idalangin": 11973, "▁idayu": 11974, "▁igale": 11975, "▁igkas": 11976, "▁igug": 11977, "▁igulis": 11978, "▁igulisac": 11979, "▁igulu": 11980, "▁ikabat": 11981, "▁ikak": 11982, "▁ikakaroc": 11983, "▁ikapanasakit": 11984, "▁ikas": 11985, "▁ikata": 11986, "▁iku": 11987, "▁ikuang": 11988, "▁ikulung": 11989, "▁ikatakut": 11990, "▁ilakad": 11991, "▁ilalang": 11992, "▁ilawe": 11993, "▁ilijim": 11994, "▁ilili": 11995, "▁ilisu": 11996, "▁ilo": 11997, "▁ilukas": 11998, "▁ilulan": 11999, "▁ilulupa": 12000, "▁ilumud": 12001, "▁ilutu": 12002, "▁iligtras": 12003, "▁imb": 12004, "▁imik": 12005, "▁imperyo": 12006, "▁inagkat": 12007, "▁inapag": 12008, "▁inaru": 12009, "▁inauad": 12010, "▁inaun": 12011, "▁ine": 12012, "▁ines": 12013, "▁inig": 12014, "▁ininum": 12015, "▁inkung": 12016, "▁ino": 12017, "▁inuli": 12018, "▁inumang": 12019, "▁inalal": 12020, "▁inalilan": 12021, "▁inalipusta": 12022, "▁inaspac": 12023, "▁indul": 12024, "▁ingamanu": 12025, "▁ingkakung": 12026, "▁ingkan": 12027, "▁ingkarelang": 12028, "▁ingl": 12029, "▁ingkeka": 12030, "▁insanung": 12031, "▁inspirasion": 12032, "▁institusyun": 12033, "▁internet": 12034, "▁ipabal": 12035, "▁ipagmaragul": 12036, "▁ipamana": 12037, "▁ipapanic": 12038, "▁ipas": 12039, "▁ipawaga": 12040, "▁ipayabut": 12041, "▁ipaynt": 12042, "▁ipagkait": 12043, "▁ipaglibe": 12044, "▁ipalino": 12045, "▁ipalkas": 12046, "▁ipamalita": 12047, "▁ipanabilin": 12048, "▁ipanalangin": 12049, "▁ipanlualu": 12050, "▁ipanpan": 12051, "▁ipangadi": 12052, "▁ipapabal": 12053, "▁irad": 12054, "▁irang": 12055, "▁isadya": 12056, "▁isali": 12057, "▁isiklaud": 12058, "▁isinup": 12059, "▁isarael": 12060, "▁isipanan": 12061, "▁island": 12062, "▁ispir": 12063, "▁itakas": 12064, "▁itamung": 12065, "▁itatas": 12066, "▁itulid": 12067, "▁itais": 12068, "▁italbug": 12069, "▁jalam": 12070, "▁jangad": 12071, "▁japan": 12072, "▁jielu": 12073, "▁jilig": 12074, "▁ju": 12075, "▁jue": 12076, "▁june": 12077, "▁jupiter": 12078, "▁jah": 12079, "▁jahaz": 12080, "▁jair": 12081, "▁jaboc": 12082, "▁jedutun": 12083, "▁jehvoa": 12084, "▁jesu": 12085, "▁jeus": 12086, "▁jerehe": 12087, "▁jesukristo": 12088, "▁jesucristong": 12089, "▁jesucristu": 12090, "▁jesus-nazareno": 12091, "▁joe": 12092, "▁joksan": 12093, "▁joktan": 12094, "▁joseph": 12095, "▁judyu": 12096, "▁judah": 12097, "▁kalacsing": 12098, "▁kiakan": 12099, "▁kis": 12100, "▁km": 12101, "▁knig": 12102, "▁kp": 12103, "▁kr": 12104, "▁krimen": 12105, "▁kring": 12106, "▁kwang": 12107, "▁kaakung": 12108, "▁kade": 12109, "▁kaduagan": 12110, "▁kaf": 12111, "▁kailian": 12112, "▁kailing": 12113, "▁kaingat": 12114, "▁kauatasan": 12115, "▁kaustan": 12116, "▁kautus": 12117, "▁kabalitan": 12118, "▁kabaryu": 12119, "▁kabayat": 12120, "▁kabayung": 12121, "▁kabid": 12122, "▁kabilang": 12123, "▁kabug": 12124, "▁kabuklat": 12125, "▁kaburyan": 12126, "▁kabatuan": 12127, "▁kabeliu-de-anghel": 12128, "▁kabeluan": 12129, "▁kadalumduman": 12130, "▁kades-barnea": 12131, "▁kaganaka": 12132, "▁kagat": 12133, "▁kagipitan": 12134, "▁kagising": 12135, "▁kagpa": 12136, "▁kagulutan": 12137, "▁kaisipang": 12138, "▁kajun": 12139, "▁kakaba": 12140, "▁kakakung": 12141, "▁kakambal": 12142, "▁kakametung": 12143, "▁kakaming": 12144, "▁kakand": 12145, "▁kakanta": 12146, "▁kakap": 12147, "▁kakarug": 12148, "▁kakatmu": 12149, "▁kakawal": 12150, "▁kakilalang": 12151, "▁kaking": 12152, "▁kakong": 12153, "▁kakyatulan": 12154, "▁kakailanganan": 12155, "▁kakaug": 12156, "▁kakaulan": 12157, "▁kakaung": 12158, "▁kakasnukan": 12159, "▁kakasundu": 12160, "▁kakeuang": 12161, "▁kakuyad": 12162, "▁kalab": 12163, "▁kalabung": 12164, "▁kalag": 12165, "▁kalaksing": 12166, "▁kalang": 12167, "▁kalayawan": 12168, "▁kalele": 12169, "▁kalima": 12170, "▁kalis": 12171, "▁kaliskis": 12172, "▁kaliwalasan": 12173, "▁kaloy": 12174, "▁kalual": 12175, "▁kaluku": 12176, "▁kalukup": 12177, "▁kalumparit": 12178, "▁kalup": 12179, "▁kalv": 12180, "▁kala-kalale": 12181, "▁kalame": 12182, "▁kaldeo": 12183, "▁kalinawan": 12184, "▁kalokoan": 12185, "▁kamaganac": 12186, "▁kamale-male": 12187, "▁kambal": 12188, "▁kambang": 12189, "▁kame": 12190, "▁kamkam": 12191, "▁kamusta": 12192,
[...]
