{
  "version": "1.0",
  "truncation": null,
  "padding": null,
  "added_tokens": [
    {
      "id": 0,
      "content": "<pad>",
      "single_word": false,
      "lstrip": false,
      "rstrip": false,
      "normalized": false,
      "special": true
    },
    {
      "id": 1,
      "content": "<unk>",
      "single_word": false,
      "lstrip": false,
      "rstrip": false,
      "normalized": false,
      "special": true
    },
    {
      "id": 2,
      "content": "<s>",
      "single_word": false,
      "lstrip": false,
      "rstrip": false,
      "normalized": false,
      "special": true
    },
    {
      "id": 3,
      "content": "</s>",
      "single_word": false,
      "lstrip": false,
      "rstrip": false,
      "normalized": false,
      "special": true
    }
  ],
  "normalizer": null,
  "pre_tokenizer": null,
  "post_processor": null,
  "decoder": null,
  "model": {
    "type": "Unigram",
    "unk_id": 1,
    "vocab": [
      [
        "<pad>",
        0.0
      ],
      [
        "<unk>",
        0.0
      ],
      [
        "<s>",
        0.0
      ],
      [
        "</s>",
        0.0
      ],
      [
        " ",
        -1.0815815815938077
      ],
      [
        ",",
        -3.815338837211044
      ],
      [
        "a",
        -3.899661525784566
      ],
      [
        ".",
        -4.001078873679095
      ],
      [
        "\n",
        -4.158129893388709
      ],
      [
        "ng",
        -4.3887997347576935
      ],
      [
        "ing",
        -4.402396433626809
      ],
      [
        "king",
        -4.437947766030321
      ],
      [
        "ning",
        -4.644768922532164
      ],
      [
        "s",
        -4.740213496418869
      ],
      [
        "na",
        -4.814119866957032
      ],
      [
        "at",
        -4.8515487581717345
      ],
      [
        "ya",
        -4.972900358657993
      ],
      [
        "an",
        -5.100995295211453
      ],
      [
        "e",
        -5.14435521964279
      ],
      [
        "la",
        -5.226550656929161
      ],
      [
        "i",
        -5.236257189591912
      ],
      [
        "o",
        -5.236940204775436
      ],
      [
        "(",
        -5.357100716828681
      ],
      [
        ")",
        -5.360479449639842
      ],
      [
        "yang",
        -5.393433165822071
      ],
      [
        "g",
        -5.487711123403894
      ],
      [
        ":",
        -5.505039272737045
      ],
      [
        "-",
        -5.513185614427615
      ],
      [
        "da",
        -5.523667912941823
      ],
      [
        "ka",
        -5.599097709876764
      ],
      [
        "ku",
        -5.654643977884044
      ],
      [
        "d",
        -5.661345480984785
      ],
      [
        "Ing",
        -5.743356312543298
      ],
      [
        "mu",
        -5.77243730170442
      ],
      [
        "ma",
        -5.817708610631705
      ],
      [
        "m",
        -5.824505721555592
      ],
      [
        "pa",
        -5.872096900391961
      ],
      [
        "y",
        -5.886017779208808
      ],
      [
        "u",
        -5.933331734413372
      ],
      [
        "n",
        -5.947722587953628
      ],
      [
        "t",
        -5.9533766369069525
      ],
      [
        "mi",
        -6.0043324149028585
      ],
      [
        "k",
        -6.019028903410325
      ],
      [
        "ding",
        -6.029639281126768
      ],
      [
        "nang",
        -6.038359892850194
      ],
      [
        "metung",
        -6.042233480705454
      ],
      [
        "A",
        -6.085643256318102
      ],
      [
        "I",
        -6.104195506603864
      ],
      [
        "ne",
        -6.156713430953779
      ],
      [
        ";",
        -6.163042229305592
      ],
      [
        "in",
        -6.239294917952401
      ],
      [
        "me",
        -6.296427232430004
      ],
      [
        "c",
        -6.318629912960798
      ],
      [
        "al",
        -6.375481579204772
      ],
      [
        "ra",
        -6.399750865662231
      ],
      [
        "of",
        -6.414684432906176
      ],
      [
        "keng",
        -6.430847247119214
      ],
      [
        "ta",
        -6.451641267015699
      ],
      [
        "man",
        -6.4551079806297285
      ],
      [
        "ca",
        -6.45942366135165
      ],
      [
        "At",
        -6.4599190141516605
      ],
      [
        "p",
        -6.476260756648232
      ],
      [
        "E",
        -6.4804509243270125
      ],
      [
        "de",
        -6.52318794405295
      ],
      [
        "kareng",
        -6.525195402625338
      ],
      [
        "lang",
        -6.556684299024756
      ],
      [
        "nung",
        -6.5602452424795334
      ],
      [
        "P",
        -6.56328868763849
      ],
      [
        "re",
        -6.583844849558227
      ],
      [
        "\"",
        -6.604313612583185
      ],
      [
        "reng",
        -6.668336924405711
      ],
      [
        "S",
        -6.69495006907535
      ],
      [
        "C",
        -6.698626718279083
      ],
      [
        "karing",
        -6.699307131782518
      ],
      [
        "on",
        -6.707120066252164
      ],
      [
        "sa",
        -6.710768677313499
      ],
      [
        "yu",
        -6.712330681129165
      ],
      [
        "l",
        -6.753330803179308
      ],
      [
        "Pa",
        -6.803381195566535
      ],
      [
        "1",
        -6.814199119671352
      ],
      [
        "atin",
        -6.815746235012309
      ],
      [
        "the",
        -6.823700738668824
      ],
      [
        "ampong",
        -6.84123953510557
      ],
      [
        "ba",
        -6.854047328969916
      ],
      [
        "le",
        -6.877854440308379
      ],
      [
        "O",
        -6.896960929452435
      ],
      [
        "ring",
        -6.909653505383874
      ],
      [
        "li",
        -6.932642510102497
      ],
      [
        "?",
        -6.93829639971719
      ],
      [
        "deng",
        -6.9612591017845595
      ],
      [
        "ke",
        -6.981369168414911
      ],
      [
        "Ka",
        -6.982460843535902
      ],
      [
        "r",
        -6.9984808090238015
      ],
      [
        "maka",
        -6.999085918629419
      ],
      [
        "to",
        -7.001663210261597
      ],
      [
        "pi",
        -7.0161018923189005
      ],
      [
        "Ma",
        -7.056662189480642
      ],
      [
        "pang",
        -7.072944500768628
      ],
      [
        "/",
        -7.09381430531864
      ],
      [
        "b",
        -7.105166648519475
      ],
      [
        "nu",
        -7.106491886043218
      ],
      [
        "iti",
        -7.10910521338284
      ],
      [
        "K",
        -7.110689996351782
      ],
      [
        "and",
        -7.110791126556979
      ],
      [
        "ti",
        -7.114582024006284
      ],
      [
        "!",
        -7.1206936297926795
      ],
      [
        "cu",
        -7.1258469941375395
      ],
      [
        "di",
        -7.127308317452924
      ],
      [
        "G",
        -7.127330166364194
      ],
      [
        "no",
        -7.134512216437397
      ],
      [
        "Dios",
        -7.152770936309018
      ],
      [
        "h",
        -7.167776115765344
      ],
      [
        "2",
        -7.179193574062348
      ],
      [
        "D",
        -7.181647141919706
      ],
      [
        "San",
        -7.1830499849736285
      ],
      [
        "si",
        -7.18557541970735
      ],
      [
        "w",
        -7.190704617751342
      ],
      [
        "kung",
        -7.201510926253809
      ],
      [
        "19",
        -7.2053329218511255
      ],
      [
        "balen",
        -7.209033050044585
      ],
      [
        "it",
        -7.214134888833758
      ],
      [
        "is",
        -7.215054579065091
      ],
      [
        "mag",
        -7.225969957452252
      ],
      [
        "F",
        -7.228308679412823
      ],
      [
        "M",
        -7.23391946605634
      ],
      [
        "te",
        -7.234085622219957
      ],
      [
        "T",
        -7.257411154044922
      ],
      [
        "tau",
        -7.25838161053945
      ],
      [
        "Suglu",
        -7.258774970632973
      ],
      [
        "es",
        -7.2589208479599785
      ],
      [
        "kang",
        -7.262771372668238
      ],
      [
        "en",
        -7.26300303837209
      ],
      [
        "|",
        -7.270992194299076
      ],
      [
        "B",
        -7.275663599957536
      ],
      [
        "para",
        -7.2772530381910565
      ],
      [
        "3",
        -7.284273544176307
      ],
      [
        "King",
        -7.2869895109499945
      ],
      [
        "pin",
        -7.293807449381448
      ],
      [
        "ri",
        -7.320340249788346
      ],
      [
        "or",
        -7.327850361365772
      ],
      [
        "neng",
        -7.353908005805066
      ],
      [
        "kayang",
        -7.364290453176465
      ],
      [
        "f",
        -7.369675872144814
      ],
      [
        "“",
        -7.371575707279104
      ],
      [
        "ban",
        -7.376396373427264
      ],
      [
        "”",
        -7.395991174534785
      ],
      [
        "pe",
        -7.40000216475041
      ],
      [
        "7",
        -7.405349277795033
      ],
      [
        "18",
        -7.406988803030075
      ],
      [
        "ni",
        -7.424267278258766
      ],
      [
        "L",
        -7.424721781085956
      ],
      [
        "se",
        -7.430392886363697
      ],
      [
        "mo",
        -7.434651765986896
      ],
      [
        "ro",
        -7.437211804966534
      ],
      [
        "tu",
        -7.442952335276793
      ],
      [
        "lu",
        -7.448432171204794
      ],
      [
        "pu",
        -7.44935279129675
      ],
      [
        "lo",
        -7.453260300399874
      ],
      [
        "La",
        -7.454698155015116
      ],
      [
        "mung",
        -7.461619217538367
      ],
      [
        "us",
        -7.470714945389674
      ],
      [
        "lalawigan",
        -7.472602931738169
      ],
      [
        "Mi",
        -7.477571935296133
      ],
      [
        "su",
        -7.481025010749869
      ],
      [
        "com",
        -7.481823232315495
      ],
      [
        "pan",
        -7.482675159297735
      ],
      [
        "bi",
        -7.492642655222545
      ],
      [
        "4",
        -7.506182372603671
      ],
      [
        "Ca",
        -7.5080016071142435
      ],
      [
        "er",
        -7.510786394296994
      ],
      [
        "U",
        -7.512846109673295
      ],
      [
        "as",
        -7.518433112211355
      ],
      [
        "6",
        -7.5272999836857695
      ],
      [
        "9",
        -7.52803328499258
      ],
      [
        "naman",
        -7.531395244859084
      ],
      [
        "uling",
        -7.532706331357931
      ],
      [
        "ment",
        -7.533775900807053
      ],
      [
        "do",
        -7.536940238542411
      ],
      [
        "Deng",
        -7.544175579849685
      ],
      [
        "’",
        -7.547350332412964
      ],
      [
        "ibat",
        -7.553394320899252
      ],
      [
        "alang",
        -7.568538920453483
      ],
      [
        "anti",
        -7.569373226839898
      ],
      [
        "ko",
        -7.569817522177538
      ],
      [
        "aldo",
        -7.581794968187897
      ],
      [
        "bie",
        -7.5957430531057195
      ],
      [
        "maki",
        -7.602095127292281
      ],
      [
        "tang",
        -7.606889892556711
      ],
      [
        "8",
        -7.619814543569153
      ],
      [
        "ampó",
        -7.62734645380332
      ],
      [
        "ed",
        -7.6306217822947415
      ],
      [
        "bu",
        -7.635549407590638
      ],
      [
        "be",
        -7.64054880266651
      ],
      [
        "Ding",
        -7.64074478491003
      ],
      [
        "bang",
        -7.642877811537645
      ],
      [
        "du",
        -7.644529154135974
      ],
      [
        "un",
        -7.6481967501367585
      ],
      [
        "yan",
        -7.657554935857301
      ],
      [
        "Filipinas",
        -7.662139588115061
      ],
      [
        "–",
        -7.668834706987634
      ],
      [
        "anak",
        -7.6796210596767445
      ],
      [
        "5",
        -7.6840149156169
      ],
      [
        "dang",
        -7.6856406382141005
      ],
      [
        "que",
        -7.6909004869260835
      ],
      [
        "co",
        -7.6963240123690495
      ],
      [
        "ngan",
        -7.704559841497939
      ],
      [
        "sinabi",
        -7.704576116184491
      ],
      [
        "Jesus",
        -7.7140148079617
      ],
      [
        "uli",
        -7.7157511522979485
      ],
      [
        "kanaku",
        -7.717049934121288
      ],
      [
        "Me",
        -7.717172183348202
      ],
      [
        "Nung",
        -7.72062449357245
      ],
      [
        "mang",
        -7.725318472407611
      ],
      [
        "banua",
        -7.728631554847016
      ],
      [
        "Palwal",
        -7.738296748172154
      ],
      [
        "Ba",
        -7.74804423184092
      ],
      [
        "rin",
        -7.752612921665616
      ],
      [
        "balu",
        -7.760875145027162
      ],
      [
        "panga",
        -7.762185279232362
      ],
      [
        "R",
        -7.763124776998703
      ],
      [
        "inyang",
        -7.765837441082329
      ],
      [
        "wa",
        -7.772126467949035
      ],
      [
        "Mar",
        -7.7721489142932505
      ],
      [
        "ru",
        -7.77800782626469
      ],
      [
        "Barangay",
        -7.782991295188372
      ],
      [
        "20",
        -7.803924714010184
      ],
      [
        "N",
        -7.805444339122747
      ],
      [
        "ch",
        -7.808318950784784
      ],
      [
        "ki",
        -7.81662153996585
      ],
      [
        "anggang",
        -7.816835906634113
      ],
      [
        "The",
        -7.817680170174772
      ],
      [
        "métu",
        -7.82199718864153
      ],
      [
        "th",
        -7.832163553543382
      ],
      [
        "tamu",
        -7.837004685067627
      ],
      [
        "Da",
        -7.838243717352512
      ],
      [
        "mas",
        -7.846805575969634
      ],
      [
        "populasyun",
        -7.854811742636262
      ],
      [
        "Agpang",
        -7.861421830802472
      ],
      [
        "il",
        -7.8617262990321874
      ],
      [
        "nan",
        -7.862283460285331
      ],
      [
        "ampo",
        -7.863239876283821
      ],
      [
        "ance",
        -7.863954510750116
      ],
      [
        "itang",
        -7.866507848376552
      ],
      [
        "Philippine",
        -7.892427980738702
      ],
      [
        "wan",
        -7.8977871597801945
      ],
      [
        "á",
        -7.9007501513018425
      ],
      [
        "karela",
        -7.909325189897884
      ],
      [
        "Y",
        -7.913304305473318
      ],
      [
        "tan",
        -7.914313329994163
      ],
      [
        "lan",
        -7.919741904964591
      ],
      [
        "Uling",
        -7.925795073647332
      ],
      [
        "Pob",
        -7.926500424275397
      ],
      [
        "kanita",
        -7.933797238678009
      ],
      [
        "Sa",
        -7.935045430104886
      ],
      [
        "dakal",
        -7.938120544625616
      ],
      [
        "ngeni",
        -7.944481717197998
      ],
      [
        "nibatan",
        -7.946586573084716
      ],
      [
        "pami",
        -7.950223487516074
      ],
      [
        "keka",
        -7.951622172817117
      ],
      [
        "Mat",
        -7.955756387818299
      ],
      [
        "10",
        -7.969952908228142
      ],
      [
        "katau",
        -7.973938857321061
      ],
      [
        "H",
        -7.987198866197492
      ],
      [
        "gan",
        -7.9873867854435465
      ],
      [
        "z",
        -7.988827244141598
      ],
      [
        "ar",
        -7.990120981293055
      ],
      [
        "pamag",
        -7.990152107858518
      ],
      [
        "ala",
        -7.9905523192457695
      ],
      [
        "pot",
        -7.990980612473204
      ],
      [
        "W",
        -7.991600539649767
      ],
      [
        "pag",
        -7.995066073730319
      ],
      [
        "tala",
        -7.995666378084574
      ],
      [
        "Phil",
        -8.002142970034756
      ],
      [
        "q",
        -8.009291299720193
      ],
      [
        "System",
        -8.012982295644505
      ],
      [
        "ensus",
        -8.014181578062349
      ],
      [
        "kekang",
        -8.02250158851231
      ],
      [
        "karin",
        -8.024332851969902
      ],
      [
        "aliwa",
        -8.024955530730296
      ],
      [
        "Manage",
        -8.025664432613429
      ],
      [
        "Ginu",
        -8.026659872578884
      ],
      [
        "15",
        -8.029222443868637
      ],
      [
        "kayu",
        -8.037335783177756
      ],
      [
        "lakanbalen",
        -8.037668991289447
      ],
      [
        "lugud",
        -8.038670774416826
      ],
      [
        "ung",
        -8.042565981255215
      ],
      [
        "el",
        -8.046499981449344
      ],
      [
        "kea",
        -8.049581200962042
      ],
      [
        "ita",
        -8.053041888833725
      ],
      [
        "'",
        -8.056311438113518
      ],
      [
        "Local",
        -8.057651346204043
      ],
      [
        "Govern",
        -8.062267164372381
      ],
      [
        "ul",
        -8.063055995437551
      ],
      [
        "panaun",
        -8.064786832980396
      ],
      [
        "14",
        -8.068018880547594
      ],
      [
        "Na",
        -8.069969017138803
      ],
      [
        "17",
        -8.070767788272502
      ],
      [
        "emale",
        -8.076808003148967
      ],
      [
        "manibat",
        -8.0798454475864
      ],
      [
        "amanu",
        -8.080664365007777
      ],
      [
        "kayabe",
        -8.080854243582412
      ],
      [
        "yatu",
        -8.080920174007776
      ],
      [
        "Ta",
        -8.081048144173437
      ],
      [
        "Code",
        -8.081597871171503
      ],
      [
        "Standard",
        -8.08179050145009
      ],
      [
        "erformance",
        -8.084963651956368
      ],
      [
        "barangay",
        -8.084982297606697
      ],
      [
        "kekayu",
        -8.086557997939789
      ],
      [
        "lub",
        -8.087366501346004
      ],
      [
        "Geographic",
        -8.091333290818763
      ],
      [
        "pamimal",
        -8.095708933596022
      ],
      [
        "Atlas",
        -8.097993839682571
      ],
      [
        "…",
        -8.100161594872135
      ],
      [
        "’t",
        -8.106922325597836
      ],
      [
        "ran",
        -8.107759166068636
      ],
      [
        "Demograpi",
        -8.109882205514797
      ],
      [
        "po",
        -8.111006643127924
      ],
      [
        "hi",
        -8.119450723152655
      ],
      [
        "pun",
        -8.121678900680914
      ],
      [
        "16",
        -8.122535526044562
      ],
      [
        "Bu",
        -8.124419636076698
      ],
      [
        "dake",
        -8.124643658780556
      ],
      [
        "karelang",
        -8.127949484316403
      ],
      [
        "mig",
        -8.129043643541774
      ],
      [
        "ye",
        -8.133925613232334
      ],
      [
        "atiu",
        -8.133982516368569
      ],
      [
        "Re",
        -8.134123946376796
      ],
      [
        "ha",
        -8.138151715221504
      ],
      [
        "v",
        -8.142383403994124
      ],
      [
        "lin",
        -8.147030750192176
      ],
      [
        "Luk",
        -8.151164547798004
      ],
      [
        "kaya",
        -8.152124364831867
      ],
      [
        "keang",
        -8.160291958370777
      ],
      [
        "san",
        -8.16345764504257
      ],
      [
        "Si",
        -8.165018342516348
      ],
      [
        "aliwang",
        -8.172279708254985
      ],
      [
        "Co",
        -8.173367136428144
      ],
      [
        "12",
        -8.17563009002099
      ],
      [
        "st",
        -8.1761708718367
      ],
      [
        "Di",
        -8.179657116274205
      ],
      [
        "13",
        -8.184363229731257
      ],
      [
        "ini",
        -8.188692112805484
      ],
      [
        "mal",
        -8.191094366987826
      ],
      [
        "klasing",
        -8.19522138109338
      ],
      [
        "pusu",
        -8.201210827287838
      ],
      [
        "Act",
        -8.203499457737962
      ],
      [
        "ian",
        -8.204229175165995
      ],
      [
        "for",
        -8.204401714579499
      ],
      [
        "11",
        -8.207036598794982
      ],
      [
        "J",
        -8.208011820552835
      ],
      [
        "ly",
        -8.209494959374073
      ],
      [
        "anyang",
        -8.214815620888853
      ],
      [
        "V",
        -8.21876530278908
      ],
      [
        "dapat",
        -8.220204209334915
      ],
      [
        "angga",
        -8.223171810020844
      ],
      [
        "id",
        -8.2237031776191
      ],
      [
        "bo",
        -8.227842452143822
      ],
      [
        "Lu",
        -8.230733350714118
      ],
      [
        "Lakanbalen",
        -8.23087595278146
      ],
      [
        "bilang",
        -8.232264935570312
      ],
      [
        "sarili",
        -8.233692062327076
      ],
      [
        "Ya",
        -8.24780992098959
      ],
      [
        "nanu",
        -8.253524251611008
      ],
      [
        "ila",
        -8.255678772763101
      ],
      [
        "ketang",
        -8.262114533622103
      ],
      [
        "ve",
        -8.273035976084564
      ],
      [
        "mayap",
        -8.276558842390774
      ],
      [
        "Mu",
        -8.278252362479174
      ],
      [
        "et",
        -8.283120941023155
      ],
      [
        "um",
        -8.283932771797982
      ],
      [
        "kan",
        -8.286757632554677
      ],
      [
        "rang",
        -8.293565459276323
      ],
      [
        "ali",
        -8.294337614456612
      ],
      [
        "án",
        -8.295842643258336
      ],
      [
        "vi",
        -8.296287368648168
      ],
      [
        "balang",
        -8.296927040751033
      ],
      [
        "Li",
        -8.299045138539412
      ],
      [
        "ce",
        -8.299436330291527
      ],
      [
        "sablang",
        -8.303422917571133
      ],
      [
        "ó",
        -8.306923618923147
      ],
      [
        "min",
        -8.307093488714601
      ],
      [
        "dalan",
        -8.31004184023912
      ],
      [
        "Al",
        -8.31004218625344
      ],
      [
        "In",
        -8.311846578519948
      ],
      [
        "ampon",
        -8.313570415285188
      ],
      [
        "labuad",
        -8.315177012027842
      ],
      [
        "manga",
        -8.315781573912709
      ],
      [
        "niti",
        -8.3172380576226
      ],
      [
        "Dapo",
        -8.31733735087493
      ],
      [
        "sin",
        -8.3180593802105
      ],
      [
        "akit",
        -8.322460212886789
      ],
      [
        "va",
        -8.323442948262318
      ],
      [
        "'s",
        -8.326154417735616
      ],
      [
        "paman",
        -8.326937879635079
      ],
      [
        "Pi",
        -8.337289605603482
      ],
      [
        "ut",
        -8.34240344381492
      ],
      [
        "Guinu",
        -8.343615239764588
      ],
      [
        "é",
        -8.345249760008851
      ],
      [
        "tion",
        -8.348308833198889
      ],
      [
        "can",
        -8.3496739739029
      ],
      [
        "ter",
        -8.359534986893326
      ],
      [
        "x",
        -8.359733544438738
      ],
      [
        "ú",
        -8.364465799731413
      ],
      [
        "by",
        -8.367067406046452
      ],
      [
        "karé",
        -8.371786660193642
      ],
      [
        "Bi",
        -8.386108586513632
      ],
      [
        "De",
        -8.38895884308439
      ],
      [
        "cal",
        -8.393957480365213
      ],
      [
        "buri",
        -8.39864236421592
      ],
      [
        "ari",
        -8.400733077813488
      ],
      [
        "21",
        -8.401854978071064
      ],
      [
        "Joh",
        -8.402119599294586
      ],
      [
        "deti",
        -8.403913193070467
      ],
      [
        "lung",
        -8.404450946058091
      ],
      [
        "del",
        -8.406901878685321
      ],
      [
        "taung",
        -8.407608119372057
      ],
      [
        "Ban",
        -8.408527490509854
      ],
      [
        "Kapampangan",
        -8.40948302244865
      ],
      [
        "tung",
        -8.413180580944855
      ],
      [
        "Mag",
        -8.417364410372688
      ],
      [
        "bale",
        -8.420854622889689
      ],
      [
        "uan",
        -8.42485849927959
      ],
      [
        "ur",
        -8.431715731182724
      ],
      [
        "Le",
        -8.433194107551767
      ],
      [
        "‘",
        -8.439540079941276
      ],
      [
        "ngana",
        -8.446371829195986
      ],
      [
        "India",
        -8.448374213114157
      ],
      [
        "peka",
        -8.45028425181448
      ],
      [
        "Atin",
        -8.450285874135531
      ],
      [
        "han",
        -8.461514158131335
      ],
      [
        "tungkul",
        -8.463157802236305
      ],
      [
        "22",
        -8.463881877859667
      ],
      [
        "Poblaci",
        -8.469988297686106
      ],
      [
        "maragul",
        -8.475374862145946
      ],
      [
        "ol",
        -8.487131662004831
      ],
      [
        "ation",
        -8.48806550326123
      ],
      [
        "kakung",
        -8.488987090560869
      ],
      [
        "lagyu",
        -8.492086556035805
      ],
      [
        "Santa",
        -8.497972624331142
      ],
      [
        "he",
        -8.498472264422487
      ],
      [
        "mata",
        -8.49950090060508
      ],
      [
        "bayu",
        -8.501384741790066
      ],
      [
        "tutu",
        -8.50221808438052
      ],
      [
        "bague",
        -8.504553188492297
      ],
      [
        "mipa",
        -8.505135151571116
      ],
      [
        "pepa",
        -8.505563374037592
      ],
      [
        "yo",
        -8.506027074344617
      ],
      [
        "malyari",
        -8.50675777795957
      ],
      [
        "Tu",
        -8.509149867011917
      ],
      [
        "lalam",
        -8.511789646938642
      ],
      [
        "murin",
        -8.513816008382062
      ],
      [
        "ac",
        -8.516570313702553
      ],
      [
        "23",
        -8.517202490089026
      ],
      [
        "mika",
        -8.525476251816396
      ],
      [
        "24",
        -8.525658334809886
      ],
      [
        "res",
        -8.52659291391688
      ],
      [
        "Mo",
        -8.527688590454561
      ],
      [
        "apat",
        -8.532404928467997
      ],
      [
        "os",
        -8.532630394462203
      ],
      [
        "website",
        -8.534467516431292
      ],
      [
        "An",
        -8.5360788587491
      ],
      [
        "commune",
        -8.538267391515834
      ],
      [
        "keti",
        -8.538979945032606
      ],
      [
        "dé",
        -8.540918535174292
      ],
      [
        "tin",
        -8.542107876335358
      ],
      [
        "yung",
        -8.542151858669602
      ],
      [
        "sang",
        -8.556347911669377
      ],
      [
        "gamat",
        -8.556700716367088
      ],
      [
        "kapamilatan",
        -8.558426918232144
      ],
      [
        "obra",
        -8.55849352878574
      ],
      [
        "car",
        -8.561177665793005
      ],
      [
        "25",
        -8.561957529159432
      ],
      [
        "Offici",
        -8.563496617933335
      ],
      [
        "kaniti",
        -8.563603290389295
      ],
      [
        "ll",
        -8.564680406356104
      ],
      [
        "Iti",
        -8.566118845554701
      ],
      [
        "Ar",
        -8.566886755228625
      ],
      [
        "con",
        -8.567256409700946
      ],
      [
        "Su",
        -8.568061358088368
      ],
      [
        "kekami",
        -8.573160946481512
      ],
      [
        "lual",
        -8.573696488577538
      ],
      [
        "ud",
        -8.577634311968875
      ],
      [
        " ",
        -8.577690401434342
      ],
      [
        "men",
        -8.57797270918957
      ],
      [
        "Bo",
        -8.579335855132385
      ],
      [
        "gal",
        -8.584629638517116
      ],
      [
        "up",
        -8.585749184729785
      ],
      [
        "bat",
        -8.587436808216278
      ],
      [
        "Ga",
        -8.589787488751188
      ],
      [
        "ir",
        -8.589873629965634
      ],
      [
        "â",
        -8.592084112676439
      ],
      [
        "bal",
        -8.592583337419626
      ],
      [
        "kal",
        -8.593510278838107
      ],
      [
        "Dalerayan",
        -8.59737609391454
      ],
      [
        "lá",
        -8.599282693811134
      ],
      [
        "tula",
        -8.60073012866657
      ],
      [
        "lalaki",
        -8.600923619565215
      ],
      [
        "ika",
        -8.60403349605682
      ],
      [
        "Cristo",
        -8.604185321727751
      ],
      [
        "ikit",
        -8.60507011073948
      ],
      [
        "pam",
        -8.607998823837983
      ],
      [
        "sasabian",
        -8.61333596752951
      ],
      [
        "palual",
        -8.620137677703966
      ],
      [
        "bage",
        -8.624854183228937
      ],
      [
        "Ti",
        -8.625446558417401
      ],
      [
        "Metung",
        -8.626171003594393
      ],
      [
        "kami",
        -8.62679970634989
      ],
      [
        "tal",
        -8.630806306132113
      ],
      [
        "pal",
        -8.632452779030906
      ],
      [
        "idad",
        -8.633514240789934
      ],
      [
        "kapata",
        -8.636584769286413
      ],
      [
        "ent",
        -8.640145884736945
      ],
      [
        "aduang",
        -8.642939388964336
      ],
      [
        "per",
        -8.64461612165065
      ],
      [
        "uk",
        -8.645178130174493
      ],
      [
        "mala",
        -8.649008568773272
      ],
      [
        "ating",
        -8.653509173466974
      ],
      [
        "Se",
        -8.656207059993802
      ],
      [
        "son",
        -8.658790491034363
      ],
      [
        "lugal",
        -8.660268877382698
      ],
      [
        "ph",
        -8.668674352700304
      ],
      [
        "cung",
        -8.671049678705113
      ],
      [
        "France",
        -8.674752047081876
      ],
      [
        "í",
        -8.676140196082946
      ],
      [
        "ling",
        -8.682478703698862
      ],
      [
        "tic",
        -8.682700984511323
      ],
      [
        "Inya",
        -8.683653388204107
      ],
      [
        "aslagan",
        -8.686105482556195
      ],
      [
        "lis",
        -8.686398640753831
      ],
      [
        "ver",
        -8.688637405073674
      ],
      [
        "ic",
        -8.690996547608407
      ],
      [
        "atlung",
        -8.691955851433356
      ],
      [
        "—",
        -8.696204679727598
      ],
      [
        "ING",
        -8.697046372526392
      ],
      [
        "26",
        -8.70023201147379
      ],
      [
        "pit",
        -8.70504417764976
      ],
      [
        "Ja",
        -8.706790940454091
      ],
      [
        "pro",
        -8.709605706839518
      ],
      [
        "qui",
        -8.710365945143174
      ],
      [
        "30",
        -8.712340340036665
      ],
      [
        "tamung",
        -8.725455857433154
      ],
      [
        "nia",
        -8.727429829105937
      ],
      [
        "Ro",
        -8.728229314643663
      ],
      [
        "Am",
        -8.728874043854958
      ],
      [
        "tas",
        -8.736472764226802
      ],
      [
        "Th",
        -8.73720445414751
      ],
      [
        "bansa",
        -8.737241899258187
      ],
      [
        "bas",
        -8.740348302968322
      ],
      [
        "27",
        -8.740785657785608
      ],
      [
        "asawa",
        -8.75262933157179
      ],
      [
        "sakit",
        -8.754155154549942
      ],
      [
        "28",
        -8.756608011177136
      ],
      [
        "kabang",
        -8.760214654785841
      ],
      [
        "hu",
        -8.761175138419038
      ],
      [
        "wi",
        -8.762153795512774
      ],
      [
        "mate",
        -8.76396264078368
      ],
      [
        "lakad",
        -8.76702528265351
      ],
      [
        "Po",
        -8.76740669364075
      ],
      [
        "ion",
        -8.769140623354527
      ],
      [
        "Sur",
        -8.769367359068838
      ],
      [
        "bá",
        -8.770777786225409
      ],
      [
        "sala",
        -8.772747468904573
      ],
      [
        "lalu",
        -8.777571355456672
      ],
      [
        "tag",
        -8.778186201853014
      ],
      [
        "abe",
        -8.781557101507525
      ],
      [
        "we",
        -8.783635683667153
      ],
      [
        "ja",
        -8.783807922761873
      ],
      [
        "City",
        -8.787097155237054
      ],
      [
        "asan",
        -8.789533454771227
      ],
      [
        "mabilu",
        -8.790212490512939
      ],
      [
        "tanaman",
        -8.791627709194788
      ],
      [
        "uri",
        -8.791906399122153
      ],
      [
        "Be",
        -8.792836267751088
      ],
      [
        "les",
        -8.794036447941776
      ],
      [
        "sh",
        -8.79489912835114
      ],
      [
        "sabi",
        -8.796415164262317
      ],
      [
        "tra",
        -8.797723840862394
      ],
      [
        "za",
        -8.79880092763787
      ],
      [
        "pas",
        -8.799083093813724
      ],
      [
        "Ibpa",
        -8.799486424549388
      ],
      [
        "pung",
        -8.804426028731063
      ],
      [
        "Ngeni",
        -8.809219649501248
      ],
      [
        "babo",
        -8.809525192127381
      ],
      [
        "antimong",
        -8.811465282060894
      ],
      [
        "mar",
        -8.81218827405753
      ],
      [
        "atyu",
        -8.81662024084088
      ],
      [
        "estadu",
        -8.817465767534104
      ],
      [
        "katawan",
        -8.819483732667326
      ],
      [
        "bag",
        -8.821540062102127
      ],
      [
        "Ala",
        -8.824749680436817
      ],
      [
        "Jose",
        -8.825855010549077
      ],
      [
        "Man",
        -8.827658801303691
      ],
      [
        "New",
        -8.827754976065322
      ],
      [
        "maging",
        -8.830176343080893
      ],
      [
        "Lawen",
        -8.832549659807196
      ],
      [
        "Maka",
        -8.834131426063209
      ],
      [
        "namang",
        -8.836566569848586
      ],
      [
        "mit",
        -8.838773829032052
      ],
      [
        "distritu",
        -8.842461816446555
      ],
      [
        "Image",
        -8.842576844960046
      ],
      [
        "Pe",
        -8.842878248268345
      ],
      [
        "sion",
        -8.847246796914675
      ],
      [
        "University",
        -8.847563201320789
      ],
      [
        "ary",
        -8.848910312916793
      ],
      [
        "albugan",
        -8.852433631983406
      ],
      [
        "ninu",
        -8.853173490821051
      ],
      [
        "réng",
        -8.855048693616432
      ],
      [
        "sana",
        -8.856399120260349
      ],
      [
        "Ni",
        -8.8591021467252
      ],
      [
        "aku",
        -8.859151646884232
      ],
      [
        "má",
        -8.859268275957236
      ],
      [
        "ry",
        -8.859570422062639
      ],
      [
        "pasibayu",
        -8.86004001388988
      ],
      [
        "bayung",
        -8.862422905683129
      ],
      [
        "pala",
        -8.864788915986473
      ],
      [
        "isip",
        -8.866911513713909
      ],
      [
        "ho",
        -8.867176815508103
      ],
      [
        "To",
        -8.867763997938262
      ],
      [
        "Ki",
        -8.867847452499959
      ],
      [
        "gabun",
        -8.869866071102866
      ],
      [
        "keraklan",
        -8.872494782573822
      ],
      [
        "kaku",
        -8.873672770326612
      ],
      [
        "lig",
        -8.873778765781239
      ],
      [
        "ting",
        -8.87515510882183
      ],
      [
        "meg",
        -8.875280311723063
      ],
      [
        "detang",
        -8.87700719088516
      ],
      [
        "Nanu",
        -8.87736577066973
      ],
      [
        "Car",
        -8.878055812686267
      ],
      [
        "ex",
        -8.878756916943857
      ],
      [
        "Juan",
        -8.88100563594562
      ],
      [
        "ayan",
        -8.886132086959622
      ],
      [
        "Z",
        -8.888179341688193
      ],
      [
        "Ha",
        -8.892430343603472
      ],
      [
        "babai",
        -8.894911702292061
      ],
      [
        "land",
        -8.895100609098566
      ],
      [
        "pat",
        -8.898748273855563
      ],
      [
        "kin",
        -8.900252894516143
      ],
      [
        "Maria",
        -8.9020371395336
      ],
      [
        "mumunang",
        -8.904641133051078
      ],
      [
        "j",
        -8.913072034664706
      ],
      [
        "Te",
        -8.914620524267665
      ],
      [
        "wari",
        -8.917826420503248
      ],
      [
        "Lo",
        -8.919233727063567
      ],
      [
        "kong",
        -8.921638858994951
      ],
      [
        "[",
        -8.921728479784655
      ],
      [
        "kasalanan",
        -8.923083980176195
      ],
      [
        "danum",
        -8.924293130762635
      ],
      [
        "Anak",
        -8.927667426016562
      ],
      [
        "lag",
        -8.93105605020883
      ],
      [
        "lum",
        -8.932178669525415
      ],
      [
        "der",
        -8.933110450301289
      ],
      [
        "kilub",
        -8.934329202226992
      ],
      [
        "bul",
        -8.9373212889598
      ],
      [
        "mí",
        -8.941294068199365
      ],
      [
        "nong",
        -8.944690837654061
      ],
      [
        "29",
        -8.945058364691135
      ],
      [
        "Ke",
        -8.946552977448661
      ],
      [
        "Ho",
        -8.946639558898429
      ],
      [
        "Gu",
        -8.948406850901641
      ],
      [
        "Espiritu",
        -8.949611335877364
      ],
      [
        "banwa",
        -8.950461377305441
      ],
      [
        "Ra",
        -8.951360627724796
      ],
      [
        "Ag",
        -8.954484316461079
      ],
      [
        "mer",
        -8.955986797676843
      ],
      [
        "palwal",
        -8.956161465758893
      ],
      [
        "datang",
        -8.956841253852279
      ],
      [
        "Anti",
        -8.956940283820895
      ],
      [
        "tungku",
        -8.957550752364654
      ],
      [
        "ty",
        -8.95919647793236
      ],
      [
        "anting",
        -8.959494312509197
      ],
      [
        "pati",
        -8.95968556775525
      ],
      [
        "bengi",
        -8.961363670592648
      ],
      [
        "mete",
        -8.962530050829752
      ],
      [
        "lit",
        -8.964260051187075
      ],
      [
        "iya",
        -8.964322430383927
      ],
      [
        "agad",
        -8.96553918133379
      ],
      [
        "St",
        -8.965746046851436
      ],
      [
        "né",
        -8.966931637484688
      ],
      [
        "dala",
        -8.969267323458734
      ],
      [
        "kap",
        -8.970342032149322
      ],
      [
        "was",
        -8.970376358366199
      ],
      [
        "kapilan",
        -8.970846517983052
      ],
      [
        "bus",
        -8.971144763795923
      ],
      [
        "bangsa",
        -8.973328725379279
      ],
      [
        "kailangan",
        -8.974491300026859
      ],
      [
        "bug",
        -8.974844189509273
      ],
      [
        "lupa",
        -8.975090306580952
      ],
      [
        "tor",
        -8.975627301918198
      ],
      [
        "mibait",
        -8.975872603172801
      ],
      [
        "amanung",
        -8.979687448103329
      ],
      [
        "mong",
        -8.980125104449936
      ],
      [
        "maca",
        -8.980827594591801
      ],
      [
        "Kanita",
        -8.983378475979723
      ],
      [
        "ming",
        -8.989974762543472
      ],
      [
        "ista",
        -8.9951884301579
      ],
      [
        "College",
        -8.995906956440859
      ],
      [
        "gawa",
        -8.996248819730651
      ],
      [
        "Pan",
        -8.99682608831548
      ],
      [
        "mé",
        -8.99752856097652
      ],
      [
        "banal",
        -9.000495429978432
      ],
      [
        "pulu",
        -9.00263162352751
      ],
      [
        "batu",
        -9.003812596082977
      ],
      [
        "à",
        -9.005827652007632
      ],
      [
        "tak",
        -9.005943711833414
      ],
      [
        "sabian",
        -9.00826993305888
      ],
      [
        "reti",
        -9.010194151658553
      ],
      [
        "Balen",
        -9.010790478706406
      ],
      [
        "ser",
        -9.013012189437354
      ],
      [
        "quing",
        -9.013961730763825
      ],
      [
        "syun",
        -9.014223074018076
      ],
      [
        "laban",
        -9.014697616385924
      ],
      [
        "ers",
        -9.0190992162369
      ],
      [
        "tune",
        -9.024397417304664
      ],
      [
        "Q",
        -9.028723624143181
      ],
      [
        "matas",
        -9.029265947577464
      ],
      [
        "He",
        -9.031854040755235
      ],
      [
        "gue",
        -9.031881627046106
      ],
      [
        "adwang",
        -9.032705658217367
      ],
      [
        "gui",
        -9.032802402300337
      ],
      [
        "II",
        -9.033867504521263
      ],
      [
        "bala",
        -9.034513977062364
      ],
      [
        "bin",
        -9.035454057212066
      ],
      [
        "miras",
        -9.036921471334777
      ],
      [
        "ón",
        -9.037266373549212
      ],
      [
        "ragul",
        -9.037357754731218
      ],
      [
        "dis",
        -9.037706920487079
      ],
      [
        "pak",
        -9.037998076246328
      ],
      [
        "Tala",
        -9.04014154104932
      ],
      [
        "Americanu",
        -9.04118042410213
      ],
      [
        "mula",
        -9.041525893325765
      ],
      [
        "IS",
        -9.045378457434033
      ],
      [
        "sulu",
        -9.045563791423664
      ],
      [
        "baba",
        -9.047766174078557
      ],
      [
        "sta",
        -9.048466951429512
      ],
      [
        "iang",
        -9.04890740305924
      ],
      [
        "0",
        -9.049056833605466
      ],
      [
        "mauli",
        -9.04990937395319
      ],
      [
        "upaya",
        -9.052147778912197
      ],
      [
        "X",
        -9.052775032207279
      ],
      [
        "ñg",
        -9.057815983381532
      ],
      [
        "mapilan",
        -9.058701345738132
      ],
      [
        "No",
        -9.059123388498525
      ],
      [
        "sis",
        -9.059444438498177
      ],
      [
        "makananu",
        -9.061003930790335
      ],
      [
        "kas",
        -9.06237556769544
      ],
      [
        "lukluk",
        -9.064788764591079
      ],
      [
        "agpang",
        -9.0649250459931
      ],
      [
        "oc",
        -9.068642942529014
      ],
      [
        "tá",
        -9.071305479930835
      ],
      [
        "from",
        -9.071772618368225
      ],
      [
        "LA",
        -9.072002500088399
      ],
      [
        "sabla",
        -9.07266620723272
      ],
      [
        "pangulu",
        -9.075132527730009
      ],
      [
        "pá",
        -9.075836347788663
      ],
      [
        "ciudad",
        -9.076031910803952
      ],
      [
        "ras",
        -9.076175173655802
      ],
      [
        "Santo",
        -9.07887607371439
      ],
      [
        "Vi",
        -9.083567630966318
      ],
      [
        "Wa",
        -9.084488385939924
      ],
      [
        "alan",
        -9.084849873460335
      ],
      [
        "pama",
        -9.085390688983974
      ],
      [
        "ral",
        -9.08701722166182
      ],
      [
        "minuna",
        -9.089290041923851
      ],
      [
        "inatang",
        -9.090602507521503
      ],
      [
        "Pu",
        -9.090611357905274
      ],
      [
        "ist",
        -9.093698611558434
      ],
      [
        "salita",
        -9.096112008475838
      ],
      [
        "Inyang",
        -9.096309582115143
      ],
      [
        "megi",
        -9.097505173620082
      ],
      [
        "ausan",
        -9.098418433964412
      ],
      [
        "PA",
        -9.09956967879516
      ],
      [
        "rus",
        -9.102474678037336
      ],
      [
        "bel",
        -9.105566950047194
      ],
      [
        "mali",
        -9.105835420817044
      ],
      [
        "bulan",
        -9.107644646257981
      ],
      [
        "Pedro",
        -9.108650447806557
      ],
      [
        "wang",
        -9.111466427900082
      ],
      [
        "Rev",
        -9.112508427511582
      ],
      [
        "ligaya",
        -9.11251325191176
      ],
      [
        "menga",
        -9.112947796992785
      ],
      [
        "gamit",
        -9.116303784527496
      ],
      [
        "ous",
        -9.119351864262974
      ],
      [
        "indu",
        -9.120154722599445
      ],
      [
        "ton",
        -9.12136116926564
      ],
      [
        "ot",
        -9.121998815455376
      ],
      [
        "Du",
        -9.122411403572091
      ],
      [
        "salu",
        -9.126559748917753
      ],
      [
        "my",
        -9.126750684351451
      ],
      [
        "with",
        -9.12730558600127
      ],
      [
        "mon",
        -9.127656125813488
      ],
      [
        "che",
        -9.12772573868174
      ],
      [
        "ab",
        -9.127800851418275
      ],
      [
        "karinan",
        -9.129176466406943
      ],
      [
        "Pampanga",
        -9.131034673046765
      ],
      [
        "ji",
        -9.133823597231162
      ],
      [
        "fe",
        -9.137811205580046
      ],
      [
        "ken",
        -9.138490889995044
      ],
      [
        "may",
        -9.138963193532724
      ],
      [
        "]",
        -9.14007139657328
      ],
      [
        "est",
        -9.1402771760124
      ],
      [
        "bye",
        -9.140545106452965
      ],
      [
        "Can",
        -9.14113451103373
      ],
      [
        "uran",
        -9.145170002992302
      ],
      [
        "Award",
        -9.147427918783606
      ],
      [
        "Ku",
        -9.150905190573093
      ],
      [
        "iting",
        -9.151292555039916
      ],
      [
        "lon",
        -9.157308542676706
      ],
      [
        "oras",
        -9.160563553806163
      ],
      [
        "KA",
        -9.161160524150144
      ],
      [
        "sasa",
        -9.161653932489626
      ],
      [
        "pur",
        -9.16191357716047
      ],
      [
        "tri",
        -9.163492778601952
      ],
      [
        "tik",
        -9.165864888897698
      ],
      [
        "ambut",
        -9.16674370522974
      ],
      [
        "balayan",
        -9.167473473577072
      ],
      [
        "keni",
        -9.167928374852119
      ],
      [
        "sak",
        -9.169527359514811
      ],
      [
        "bung",
        -9.170134529395838
      ],
      [
        "bunga",
        -9.1711687637073
      ],
      [
        "dili",
        -9.17239550240009
      ],
      [
        "jpg",
        -9.172527426683642
      ],
      [
        "Cor",
        -9.174372179451233
      ],
      [
        "Hi",
        -9.174663454686852
      ],
      [
        "Or",
        -9.175443340568922
      ],
      [
        "Ener",
        -9.176630768501827
      ],
      [
        "America",
        -9.177060442123665
      ],
      [
        "Uli",
        -9.18064074995911
      ],
      [
        "art",
        -9.181038038589008
      ],
      [
        "laman",
        -9.181698515920298
      ],
      [
        "bulung",
        -9.182271068859716
      ],
      [
        "lat",
        -9.182880653299732
      ],
      [
        "arapan",
        -9.183286844618959
      ],
      [
        "cell",
        -9.184329107922828
      ],
      [
        "ilang",
        -9.186743842865521
      ],
      [
        "kalupa",
        -9.187586224796835
      ],
      [
        "ap",
        -9.18772671747256
      ],
      [
        "den",
        -9.187881880474436
      ],
      [
        "vo",
        -9.188379223637533
      ],
      [
        "kabud",
        -9.188404271012338
      ],
      [
        "kareti",
        -9.191530637893408
      ],
      [
        "ster",
        -9.191760019087653
      ],
      [
        "ten",
        -9.19368688802157
      ],
      [
        "sal",
        -9.194541864969857
      ],
      [
        "pang-",
        -9.195506223559256
      ],
      [
        "bili",
        -9.19694267751563
      ],
      [
        "Go",
        -9.197075550946398
      ],
      [
        "El",
        -9.202094144500808
      ],
      [
        "her",
        -9.203330105815088
      ],
      [
        "ligtas",
        -9.203546301446224
      ],
      [
        "jo",
        -9.204020980392645
      ],
      [
        "Pablo",
        -9.20606174901407
      ],
      [
        "katutuan",
        -9.206502118268222
      ],
      [
        "pata",
        -9.206556928158257
      ],
      [
        "Con",
        -9.210000069894473
      ],
      [
        "wal",
        -9.210110957058976
      ],
      [
        "dor",
        -9.210799874521195
      ],
      [
        "û",
        -9.210939261088857
      ],
      [
        "but",
        -9.211794883576372
      ],
      [
        "ber",
        -9.211872066025865
      ],
      [
        "Bar",
        -9.213651720652617
      ],
      [
        "31",
        -9.214838254697641
      ],
      [
        "Norte",
        -9.216220748871567
      ],
      [
        "city",
        -9.21653397433839
      ],
      [
        "saup",
        -9.21769043114007
      ],
      [
        "cia",
        -9.218006049445828
      ],
      [
        "gen",
        -9.218019091515057
      ],
      [
        "Para",
        -9.218872661461816
      ],
      [
        "So",
        -9.2207773956026
      ],
      [
        "kilala",
        -9.222234833066766
      ],
      [
        "tata",
        -9.22225349851702
      ],
      [
        "MA",
        -9.223367982415489
      ],
      [
        "sulat",
        -9.225522904467727
      ],
      [
        "Hu",
        -9.226435018797883
      ],
      [
        "din",
        -9.22706178878249
      ],
      [
        "ña",
        -9.227358726026102
      ],
      [
        "aniang",
        -9.229029597718334
      ],
      [
        "ive",
        -9.230313452075222
      ],
      [
        "dung",
        -9.231220762653386
      ],
      [
        "put",
        -9.235547362393296
      ],
      [
        "keya",
        -9.23771318283083
      ],
      [
        "ninuman",
        -9.237726424690393
      ],
      [
        "_",
        -9.238236227283913
      ],
      [
        "artista",
        -9.240702480894612
      ],
      [
        "sik",
        -9.241564892688608
      ],
      [
        "ren",
        -9.244023425700764
      ],
      [
        "alaga",
        -9.247439039912203
      ],
      [
        "kaybat",
        -9.248470468745177
      ],
      [
        "pani",
        -9.248615798387494
      ],
      [
        "sig",
        -9.250850325466034
      ],
      [
        "gas",
        -9.251503372768617
      ],
      [
        "bit",
        -9.253480349992802
      ],
      [
        "kata",
        -9.253677096292497
      ],
      [
        "Dakal",
        -9.256815598080056
      ],
      [
        "misan",
        -9.25716954413101
      ],
      [
        "tur",
        -9.2622075437727
      ],
      [
        "00",
        -9.265752165674726
      ],
      [
        "malapit",
        -9.2658577116049
      ],
      [
        "pang4",
        -9.265984565015346
      ],
      [
        "&",
        -9.266299278127017
      ],
      [
        "Mala",
        -9.266534297285403
      ],
      [
        "Heb",
        -9.269389888289679
      ],
      [
        "ib",
        -9.269391569664506
      ],
      [
        "aga",
        -9.26949895507312
      ],
      [
        "tul",
        -9.27112577456
      ],
      [
        "mama",
        -9.271733793514331
      ],
      [
        "'t",
        -9.272426506039912
      ],
      [
        "fi",
        -9.273395817995773
      ],
      [
        "bunduk",
        -9.274056438672137
      ],
      [
        "Israel",
        -9.27409163893752
      ],
      [
        "alakad",
        -9.277288390358397
      ],
      [
        "Indu",
        -9.277823390189127
      ],
      [
        "limang",
        -9.277865814135556
      ],
      [
        "Ning",
        -9.277909079665262
      ],
      [
        "bisa",
        -9.279353774734485
      ],
      [
        "Ne",
        -9.282288978212945
      ],
      [
        "ria",
        -9.282799771006946
      ],
      [
        "daya",
        -9.283591401269945
      ],
      [
        "you",
        -9.286425057391765
      ],
      [
        "Pag",
        -9.287258862836158
      ],
      [
        "yá",
        -9.287916849149145
      ],
      [
        "wanan",
        -9.289024996668871
      ],
      [
        "inya",
        -9.292913958680309
      ],
      [
        "itan",
        -9.294059044014745
      ],
      [
        "dad",
        -9.297946648084828
      ],
      [
        "talasúlat",
        -9.30055903661592
      ],
      [
        "National",
        -9.300882876874043
      ],
      [
        "ustu",
        -9.302294533054157
      ],
      [
        "département",
        -9.303194087242183
      ],
      [
        "Lon",
        -9.303496836104848
      ],
      [
        "sepu",
        -9.305405061955454
      ],
      [
        "Espanya",
        -9.305883076394275
      ],
      [
        "gar",
        -9.307310426250726
      ],
      [
        "long",
        -9.307459857880431
      ],
      [
        "ume",
        -9.308881700728243
      ],
      [
        "AN",
        -9.309877605918674
      ],
      [
        "kit",
        -9.310795414728606
      ],
      [
        "lar",
        -9.312426861392243
      ],
      [
        "laguiu",
        -9.312812175811487
      ],
      [
        "meng",
        -9.313938252630047
      ],
      [
        "chi",
        -9.315541107573143
      ],
      [
        "amp",
        -9.316067444130692
      ],
      [
        "pen",
        -9.320713926426624
      ],
      [
        "adua",
        -9.32146431028787
      ],
      [
        "French",
        -9.322165260212962
      ],
      [
        "School",
        -9.32216528765029
      ],
      [
        "Min",
        -9.32277770147897
      ],
      [
        "http",
        -9.324904651528628
      ],
      [
        "lip",
        -9.326233852780124
      ],
      [
        "adu",
        -9.32645435295391
      ],
      [
        "sag",
        -9.329461284000118
      ],
      [
        "nala",
        -9.329776736972097
      ],
      [
        "labing",
        -9.331275902825872
      ],
      [
        "Em",
        -9.332141265276269
      ],
      [
        "depat",
        -9.33217695637594
      ],
      [
        "tuk",
        -9.333512073465663
      ],
      [
        "gul",
        -9.333686540999107
      ],
      [
        "ted",
        -9.334391801849286
      ],
      [
        "pulung",
        -9.336611745219248
      ],
      [
        "ub",
        -9.337087104631555
      ],
      [
        "ká",
        -9.337704442396253
      ],
      [
        "Website",
        -9.338748370047881
      ],
      [
        "kamatayan",
        -9.341535085984846
      ],
      [
        "ff",
        -9.341687334329606
      ],
      [
        "Cu",
        -9.342456160378081
      ],
      [
        "ditak",
        -9.342712795660743
      ],
      [
        "ekibat",
        -9.342883251480924
      ],
      [
        "ganap",
        -9.343635685107685
      ],
      [
        "makanian",
        -9.344513661577746
      ],
      [
        "pamuntuk",
        -9.347097153603723
      ],
      [
        "cang",
        -9.348495715354074
      ],
      [
        "lí",
        -9.351895641699354
      ],
      [
        "qu",
        -9.352523517392134
      ],
      [
        "species",
        -9.35281861822812
      ],
      [
        "pil",
        -9.354761512424853
      ],
      [
        "are",
        -9.354951269542141
      ],
      [
        "nita",
        -9.354972416026168
      ],
      [
        "kil",
        -9.355438980194
      ],
      [
        "English",
        -9.35554768519231
      ],
      [
        "arap",
        -9.355986463557093
      ],
      [
        "ping",
        -9.35693655844436
      ],
      [
        "Ch",
        -9.359365702396524
      ],
      [
        "anam",
        -9.360373248334877
      ],
      [
        "port",
        -9.361487382367159
      ],
      [
        "tanggapan",
        -9.362480299945076
      ],
      [
        "dia",
        -9.362795565636478
      ],
      [
        "Asia",
        -9.363507215098064
      ],
      [
        "NA",
        -9.364713976978265
      ],
      [
        "bli",
        -9.365098493076271
      ],
      [
        "Ko",
        -9.36541217437745
      ],
      [
        "tapat",
        -9.365835464248505
      ],
      [
        "pali",
        -9.366737095139248
      ],
      [
        "Kar",
        -9.368487854637554
      ],
      [
        "33",
        -9.37028370856933
      ],
      [
        "kapa",
        -9.370373320624443
      ],
      [
        "ná",
        -9.370626802572165
      ],
      [
        "TA",
        -9.371384704087907
      ],
      [
        "Judio",
        -9.371683053834662
      ],
      [
        "mie",
        -9.373995380256037
      ],
      [
        "Ab",
        -9.374423930654817
      ],
      [
        "Villa",
        -9.375716713392318
      ],
      [
        "lele",
        -9.376278006057841
      ],
      [
        "diling",
        -9.378487102334795
      ],
      [
        "kasakit",
        -9.381373065264963
      ],
      [
        "ram",
        -9.381826181385904
      ],
      [
        "imp",
        -9.382354294050511
      ],
      [
        "35",
        -9.384805429752195
      ],
      [
        "cy",
        -9.384952016741678
      ],
      [
        "par",
        -9.385153286583423
      ],
      [
        "one",
        -9.38551142339989
      ],
      [
        "ké",
        -9.385774776778515
      ],
      [
        "angin",
        -9.387760483241136
      ],
      [
        "tuki",
        -9.388195905967745
      ],
      [
        "sukat",
        -9.38934633810667
      ],
      [
        "kabaldugan",
        -9.390298593975581
      ],
      [
        "Ali",
        -9.391166374108533
      ],
      [
        "lik",
        -9.392158785979504
      ],
      [
        "Gal",
        -9.393070370031399
      ],
      [
        "Jo",
        -9.396414169052015
      ],
      [
        "cas",
        -9.396817391134189
      ],
      [
        "wala",
        -9.397699717398387
      ],
      [
        "én",
        -9.398007940561847
      ],
      [
        "*",
        -9.39890696908908
      ],
      [
        "pol",
        -9.400120977121691
      ],
      [
        "%",
        -9.401865548970736
      ],
      [
        "Ingles",
        -9.402516759153102
      ],
      [
        "bis",
        -9.40366889393889
      ],
      [
        "As",
        -9.403733033812088
      ],
      [
        "har",
        -9.40582052796771
      ],
      [
        "ngara",
        -9.406858489761756
      ],
      [
        "Maki",
        -9.407496318911909
      ],
      [
        "kasalpantayanan",
        -9.407809098602058
      ],
      [
        "mili",
        -9.412560616453089
      ],
      [
        "bandi",
        -9.412979431620828
      ],
      [
        "JEHOVA",
        -9.413788185100293
      ],
      [
        "paralan",
        -9.414433827394925
      ],
      [
        "Ex",
        -9.416180159810134
      ],
      [
        "sangkan",
        -9.417987177732766
      ],
      [
        "ulu",
        -9.41813514173543
      ],
      [
        "kaluguran",
        -9.419878369080205
      ],
      [
        "amba",
        -9.420522905771996
      ],
      [
        "Do",
        -9.421073669728187
      ],
      [
        "antimo",
        -9.422258743413067
      ],
      [
        "Juli",
        -9.422298323342584
      ],
      [
        "daptan",
        -9.422856000877019
      ],
      [
        "nune",
        -9.423695527915157
      ],
      [
        "Ju",
        -9.424724297993386
      ],
      [
        "magpa",
        -9.42560670983686
      ],
      [
        "lili",
        -9.426579541338516
      ],
      [
        "lim",
        -9.429045879320416
      ],
      [
        "fo",
        -9.429623084575795
      ],
      [
        "pus",
        -9.430365162503904
      ],
      [
        "US",
        -9.430528667108296
      ],
      [
        "dikil",
        -9.432874067993737
      ],
      [
        "por",
        -9.432988273640309
      ],
      [
        "day",
        -9.43467450366741
      ],
      [
        "ine",
        -9.434804432141593
      ],
      [
        "all",
        -9.434940958552787
      ],
      [
        "radesh",
        -9.435006877452722
      ],
      [
        "kekatamung",
        -9.436091621220479
      ],
      [
        "binie",
        -9.436419787978185
      ],
      [
        "our",
        -9.4385183621816
      ],
      [
        "ner",
        -9.439937644337702
      ],
      [
        "Sam",
        -9.439997916454997
      ],
      [
        "mauling",
        -9.440350074053857
      ],
      [
        "rio",
        -9.442626983535327
      ],
      [
        "kekatamu",
        -9.442916391432231
      ],
      [
        "Keka",
        -9.443174027634434
      ],
      [
        "50",
        -9.444696709217983
      ],
      [
        "milyari",
        -9.45056456699265
      ],
      [
        "bayan",
        -9.451960482901566
      ],
      [
        "Mas",
        -9.452847553835037
      ],
      [
        "South",
        -9.453506543903254
      ],
      [
        "syon",
        -9.454926928968497
      ],
      [
        "List",
        -9.454972940072597
      ],
      [
        "Unit",
        -9.455049743066077
      ],
      [
        "Anyang",
        -9.45624044012399
      ],
      [
        "ket",
        -9.456517383901435
      ],
      [
        "sen",
        -9.45673394008465
      ],
      [
        "libutad",
        -9.456734765498524
      ],
      [
        "Pang",
        -9.456852303451639
      ],
      [
        "state",
        -9.45872148553078
      ],
      [
        "linis",
        -9.45882208080669
      ],
      [
        "bar",
        -9.45891625484926
      ],
      [
        "mga",
        -9.459308401594996
      ],
      [
        "lalang",
        -9.459770935760371
      ],
      [
        "queca",
        -9.461217179245939
      ],
      [
        "pig",
        -9.461726848578222
      ],
      [
        "Gi",
        -9.462658610139329
      ],
      [
        "Lin",
        -9.46266267472829
      ],
      [
        "2006",
        -9.463316674384165
      ],
      [
        "bun",
        -9.465955258911336
      ],
      [
        "cion",
        -9.468084504815156
      ],
      [
        "miya",
        -9.468256933726487
      ],
      [
        "sub",
        -9.471017981177582
      ],
      [
        "34",
        -9.471112481557686
      ],
      [
        "ww",
        -9.473530985023496
      ],
      [
        "buku",
        -9.47462905444899
      ],
      [
        "salang",
        -9.475419998750397
      ],
      [
        "tí",
        -9.475965608034315
      ],
      [
        "sam",
        -9.47610422053041
      ],
      [
        "mak",
        -9.476325203624839
      ],
      [
        "los",
        -9.478358440242916
      ],
      [
        "Ru",
        -9.479268702869607
      ],
      [
        "partamentu",
        -9.480538861797118
      ],
      [
        "gang",
        -9.480925103336663
      ],
      [
        "milabas",
        -9.48108881167192
      ],
      [
        "mani",
        -9.483484467357407
      ],
      [
        "ec",
        -9.484157336797203
      ],
      [
        "Commune",
        -9.48514174773008
      ],
      [
        "manatili",
        -9.485297267504968
      ],
      [
        "lagiu",
        -9.486402377181935
      ],
      [
        "masanting",
        -9.487849749401562
      ],
      [
        "site",
        -9.488106090488742
      ],
      [
        "maguing",
        -9.489016909849985
      ],
      [
        "ál",
        -9.49104974280976
      ],
      [
        "32",
        -9.491631304414657
      ],
      [
        "tú",
        -9.49374705263671
      ],
      [
        "larawan",
        -9.495276892041389
      ],
      [
        "luk",
        -9.496046438372773
      ],
      [
        "Aku",
        -9.496723928005006
      ],
      [
        "tun",
        -9.49717865115355
      ],
      [
        "Don",
        -9.498023908926628
      ],
      [
        "libru",
        -9.498530125173428
      ],
      [
        "Pro",
        -9.499125503940906
      ],
      [
        "rá",
        -9.499380029222399
      ],
      [
        "ibie",
        -9.499415239893263
      ],
      [
        "lus",
        -9.500136502981503
      ],
      [
        "aus",
        -9.500523103220209
      ],
      [
        "map",
        -9.501040547671106
      ],
      [
        "ron",
        -9.501226094665881
      ],
      [
        "BA",
        -9.502116036241441
      ],
      [
        "masikan",
        -9.502134457405171
      ],
      [
        "000",
        -9.502286051671984
      ],
      [
        "cio",
        -9.502859229379101
      ],
      [
        "ard",
        -9.503538938201737
      ],
      [
        "siping",
        -9.50459914392042
      ],
      [
        "BN",
        -9.50525616303942
      ],
      [
        "37",
        -9.506031348300208
      ],
      [
        "papunta",
        -9.507360485625213
      ],
      [
        "Bay",
        -9.507744017212168
      ],
      [
        "pelicula",
        -9.50804976951676
      ],
      [
        "ity",
        -9.509147085449893
      ],
      [
        "utang",
        -9.509308232257293
      ],
      [
        "lic",
        -9.509633320130613
      ],
      [
        "For",
        -9.510622806769401
      ],
      [
        "Har",
        -9.51075234772265
      ],
      [
        "#",
        -9.511349692268327
      ],
      [
        "Ri",
        -9.512427236919251
      ],
      [
        "Nu",
        -9.513535134740817
      ],
      [
        "Government",
        -9.513640878061402
      ],
      [
        "line",
        -9.514956666996643
      ],
      [
        "mangan",
        -9.515100680533894
      ],
      [
        "Amen",
        -9.515712149081766
      ],
      [
        "AL",
        -9.516981766133142
      ],
      [
        "Tsina",
        -9.518099871140516
      ],
      [
        "pis",
        -9.519574384284777
      ],
      [
        "Center",
        -9.52132358020568
      ],
      [
        "bait",
        -9.522551221404063
      ],
      [
        "lug",
        -9.52374644756881
      ],
      [
        "tive",
        -9.52445728609834
      ],
      [
        "gagamitan",
        -9.525204651742904
      ],
      [
        "Oh",
        -9.526225858886406
      ],
      [
        "ratang",
        -9.52699911432219
      ],
      [
        "lad",
        -9.527088621505163
      ],
      [
        "Ngana",
        -9.52811583242232
      ],
      [
        "bril",
        -9.528579477729014
      ],
      [
        "36",
        -9.528935230390873
      ],
      [
        "log",
        -9.530411985953815
      ],
      [
        "balik",
        -9.53067696699258
      ],
      [
        "ight",
        -9.533347874501043
      ],
      [
        "dá",
        -9.534204964207488
      ],
      [
        "animal",
        -9.534407790748837
      ],
      [
        "dinan",
        -9.536603746189527
      ],
      [
        "malating",
        -9.536791327094258
      ],
      [
        "enti",
        -9.537320900274537
      ],
      [
        "makata",
        -9.538352651436854
      ],
      [
        "North",
        -9.538820254992169
      ],
      [
        "Mé",
        -9.539930723938532
      ],
      [
        "East",
        -9.540022185821119
      ],
      [
        "tanggap",
        -9.54009292666924
      ],
      [
        "gawan",
        -9.541539943878337
      ],
      [
        "ilug",
        -9.542173867999665
      ],
      [
        "lako",
        -9.5451247382523
      ],
      [
        "2005",
        -9.545313006911076
      ],
      [
        "dimdam",
        -9.545424230612173
      ],
      [
        "197",
        -9.546652742871792
      ],
      [
        "úl",
        -9.54667385834389
      ],
      [
        "=",
        -9.548390928934953
      ],
      [
        "District",
        -9.548390990945471
      ],
      [
        "pamany",
        -9.548572084134635
      ],
      [
        "kaba",
        -9.55071070151244
      ],
      [
        "pul",
        -9.551545022158273
      ],
      [
        "III",
        -9.552430734258213
      ],
      [
        "ez",
        -9.553158009465218
      ],
      [
        "sisi",
        -9.553205320485908
      ],
      [
        "ula",
        -9.555397517909991
      ],
      [
        "pre",
        -9.555491162539568
      ],
      [
        "West",
        -9.556171627193379
      ],
      [
        "paki",
        -9.556933061224802
      ],
      [
        "ish",
        -9.558285516124618
      ],
      [
        "level",
        -9.559411229921444
      ],
      [
        "Ika",
        -9.56018542375572
      ],
      [
        "kayari",
        -9.560495996276718
      ],
      [
        "40",
        -9.56138991487316
      ],
      [
        "Sin",
        -9.562016447711562
      ],
      [
        "sá",
        -9.563348859843348
      ],
      [
        "sil",
        -9.563551079993722
      ],
      [
        "cut",
        -9.564020285111532
      ],
      [
        "Sal",
        -9.565901807574598
      ],
      [
        "gum",
        -9.566147923796205
      ],
      [
        "pekamaragul",
        -9.566334207244719
      ],
      [
        "sadya",
        -9.566394320457128
      ],
      [
        "pang5",
        -9.56768534778995
      ],
      [
        "pamani",
        -9.568774879596523
      ],
      [
        "\\",
        -9.569188884802536
      ],
      [
        "dutung",
        -9.570756945202346
      ],
      [
        "kekong",
        -9.571091921607035
      ],
      [
        "iyapin",
        -9.571520893380946
      ],
      [
        "Bal",
        -9.571589484812005
      ],
      [
        "Ati",
        -9.57169716966062
      ],
      [
        "inawa",
        -9.57188674955948
      ],
      [
        "38",
        -9.57225208903374
      ],
      [
        "History",
        -9.572697858387325
      ],
      [
        "paka",
        -9.57285454986312
      ],
      [
        "SA",
        -9.574857035994295
      ],
      [
        "manimuna",
        -9.578516583367255
      ],
      [
        "arawak",
        -9.579378927053643
      ],
      [
        "pamangan",
        -9.579870966656609
      ],
      [
        "lut",
        -9.58015699171572
      ],
      [
        "Alang",
        -9.58184020094426
      ],
      [
        "lubus",
        -9.582713147640014
      ],
      [
        "git",
        -9.584233869807893
      ],
      [
        "mumuna",
        -9.586446352392876
      ],
      [
        "Republika",
        -9.586858292273247
      ],
      [
        "abalu",
        -9.587464232102617
      ],
      [
        "babie",
        -9.589783531095682
      ],
      [
        "age",
        -9.590121671693225
      ],
      [
        "David",
        -9.590442197711809
      ],
      [
        "pitung",
        -9.590523545592593
      ],
      [
        "talan",
        -9.59073314087076
      ],
      [
        "kaladua",
        -9.590787596817087
      ],
      [
        "tad",
        -9.591097150428318
      ],
      [
        "díli",
        -9.594081258356228
      ],
      [
        "Kaybat",
        -9.594113602933106
      ],
      [
        "papa",
        -9.594126433762671
      ],
      [
        "shi",
        -9.595753143354054
      ],
      [
        "maliari",
        -9.595957043880102
      ],
      [
        "nukarin",
        -9.597209374522247
      ],
      [
        "Wikipedia",
        -9.597610020375697
      ],
      [
        "County",
        -9.597610227352165
      ],
      [
        "buntuk",
        -9.597712961339951
      ],
      [
        "dong",
        -9.599060218563753
      ],
      [
        "tig",
        -9.599426637328921
      ],
      [
        "bitis",
        -9.599494362999394
      ],
      [
        "Calv",
        -9.599673336294046
      ],
      [
        "alimbawa",
        -9.601246567277453
      ],
      [
        "Ge",
        -9.601490350068277
      ],
      [
        "mabie",
        -9.602072573558742
      ],
      [
        "kekatang",
        -9.603958853042336
      ],
      [
        "î",
        -9.60484324752282
      ],
      [
        "api",
        -9.605028588947693
      ],
      [
        "siwala",
        -9.606157235408242
      ],
      [
        "makanyan",
        -9.606249737224031
      ],
      [
        "tar",
        -9.607116130664144
      ],
      [
        "kayung",
        -9.608307312434134
      ],
      [
        "Pilipinas",
        -9.608479613679023
      ],
      [
        "buk",
        -9.608857830695278
      ],
      [
        "kasulat",
        -9.610547326819521
      ],
      [
        "39",
        -9.61241501603697
      ],
      [
        "nig",
        -9.615884084999085
      ],
      [
        "2007",
        -9.616215611799387
      ],
      [
        "meka",
        -9.616257357581244
      ],
      [
        "tut",
        -9.616593035336107
      ],
      [
        "mine",
        -9.616704782133402
      ],
      [
        "Maca",
        -9.61681999359176
      ],
      [
        "turu",
        -9.61819169303084
      ],
      [
        "Mal",
        -9.61826767196952
      ],
      [
        "keta",
        -9.618328745293093
      ],
      [
        "mag-",
        -9.61932553175852
      ],
      [
        "gaga",
        -9.619361522038151
      ],
      [
        "langan",
        -9.622839093127784
      ],
      [
        "lú",
        -9.622933794628139
      ],
      [
        "YA",
        -9.62482450749786
      ],
      [
        "bil",
        -9.625085150687603
      ],
      [
        "Del",
        -9.625227914304546
      ],
      [
        "Jeru",
        -9.627547295435352
      ],
      [
        "rug",
        -9.6285795926478
      ],
      [
        "makapa",
        -9.628604479697694
      ],
      [
        "pamana",
        -9.629566926554372
      ],
      [
        "kawani",
        -9.630669839410523
      ],
      [
        "gut",
        -9.630917822422715
      ],
      [
        "Ninu",
        -9.632961575687089
      ],
      [
        "alak",
        -9.636704552313251
      ],
      [
        "labas",
        -9.637245727200892
      ],
      [
        "Bang",
        -9.637385638730787
      ],
      [
        "salem",
        -9.638172465105608
      ],
      [
        "ology",
        -9.640131777317336
      ],
      [
        "Mauling",
        -9.641552351563792
      ],
      [
        "Pamuntu",
        -9.64182223149773
      ],
      [
        "suglung",
        -9.641955327023961
      ],
      [
        "mú",
        -9.64365779251258
      ],
      [
        "Balu",
        -9.645528654191196
      ],
      [
        "Gra",
        -9.646230953590727
      ],
      [
        "One",
        -9.646406926730286
      ],
      [
        "sikan",
        -9.64684641964364
      ],
      [
        "kautusan",
        -9.647074827655075
      ],
      [
        "MI",
        -9.647279125764292
      ],
      [
        "dayatmalat",
        -9.649903081035653
      ],
      [
        "dagul",
        -9.65136186524877
      ],
      [
        "gad",
        -9.652504477853899
      ],
      [
        "kakit",
        -9.65355593661118
      ],
      [
        "cul",
        -9.655340589693978
      ],
      [
        "Val",
        -9.655548076365136
      ],
      [
        "grupu",
        -9.657115782279583
      ],
      [
        "bur",
        -9.65915991356393
      ],
      [
        "ados",
        -9.659230256086559
      ],
      [
        "system",
        -9.6608281773545
      ],
      [
        "dalit",
        -9.6623104161525
      ],
      [
        "carin",
        -9.66258412743434
      ],
      [
        "misa",
        -9.662827220769458
      ],
      [
        "ica",
        -9.663795415777358
      ],
      [
        "kar",
        -9.664288013518409
      ],
      [
        "tulid",
        -9.664544734440604
      ],
      [
        "World",
        -9.66467411788443
      ],
      [
        "espiritu",
        -9.66467431307662
      ],
      [
        "áng",
        -9.665490361864347
      ],
      [
        "yabe",
        -9.66558989076843
      ],
      [
        "ipa",
        -9.665782685247747
      ],
      [
        "bubu",
        -9.66598333658536
      ],
      [
        "siun",
        -9.666728984085157
      ],
      [
        "sia",
        -9.667449230465884
      ],
      [
        "kareta",
        -9.668181251394792
      ],
      [
        "department",
        -9.668535473305106
      ],
      [
        "kon",
        -9.669328716009208
      ],
      [
        "Ari",
        -9.670205309874817
      ],
      [
        "balita",
        -9.672848097508446
      ],
      [
        "tes",
        -9.672855816388665
      ],
      [
        "ual",
        -9.675468474427365
      ],
      [
        "pamu",
        -9.676159077440683
      ],
      [
        "Cruz",
        -9.676305342186279
      ],
      [
        "kapayapan",
        -9.677057878593528
      ],
      [
        "pota",
        -9.67718282306695
      ],
      [
        "abu",
        -9.678104990800405
      ],
      [
        "American",
        -9.678867258145026
      ],
      [
        "don",
        -9.679380434364
      ],
      [
        "agyu",
        -9.68037305263266
      ],
      [
        "departamentu",
        -9.682031397716305
      ],
      [
        "uang",
        -9.682158792842095
      ],
      [
        "bor",
        -9.683981903433663
      ],
      [
        "pilan",
        -9.685169949777837
      ],
      [
        "ramdam",
        -9.688967440322074
      ],
      [
        "yanib",
        -9.689929399442509
      ],
      [
        "era",
        -9.690718580483525
      ],
      [
        "ias",
        -9.691064009426515
      ],
      [
        "State",
        -9.691458861913759
      ],
      [
        "Karin",
        -9.693125054102222
      ],
      [
        "John",
        -9.69367581128831
      ],
      [
        "cor",
        -9.694311853966667
      ],
      [
        "ies",
        -9.69533571681929
      ],
      [
        "pakit",
        -9.696589973397064
      ],
      [
        "pamipa",
        -9.69710873923665
      ],
      [
        "libu",
        -9.69736027890383
      ],
      [
        "Kabang",
        -9.697893700665762
      ],
      [
        "IN",
        -9.698069708637888
      ],
      [
        "ven",
        -9.698896029161487
      ],
      [
        "war",
        -9.699638037052402
      ],
      [
        "May",
        -9.699863190069117
      ],
      [
        "memalen",
        -9.700192355374536
      ],
      [
        "kesa",
        -9.700318015706483
      ],
      [
        "2004",
        -9.700438791418975
      ],
      [
        "Philippines",
        -9.701622498782543
      ],
      [
        "amilatan",
        -9.702679154330077
      ],
      [
        "Bayu",
        -9.704073630515277
      ],
      [
        "manuknanga",
        -9.706099134241514
      ],
      [
        "atlu",
        -9.70622166129603
      ],
      [
        "NG",
        -9.706386936323785
      ],
      [
        "lulu",
        -9.706791019299475
      ],
      [
        "ANG",
        -9.706840094678618
      ],
      [
        "utus",
        -9.707638427664218
      ],
      [
        "45",
        -9.707796019739614
      ],
      [
        "pasbul",
        -9.708677972542677
      ],
      [
        "lunus",
        -9.708952612226053
      ],
      [
        "2000",
        -9.70959032332073
      ],
      [
        "kanu",
        -9.711581726276524
      ],
      [
        "lungkut",
        -9.712263788609263
      ],
      [
        "des",
        -9.715519818276373
      ],
      [
        "yon",
        -9.716900486831571
      ],
      [
        "CA",
        -9.717245474338636
      ],
      [
        "dal",
        -9.71745824303465
      ],
      [
        "dela",
        -9.718103815661564
      ],
      [
        "Aldo",
        -9.718937111652624
      ],
      [
        "Bala",
        -9.719170327192732
      ],
      [
        "Banal",
        -9.71948763148627
      ],
      [
        "til",
        -9.71953970849815
      ],
      [
        "pon",
        -9.720481617324323
      ],
      [
        "gun",
        -9.72095487944895
      ],
      [
        "Isidr",
        -9.724238644187356
      ],
      [
        "pari",
        -9.725466692885323
      ],
      [
        "bout",
        -9.725501085146908
      ],
      [
        "Per",
        -9.72605871638516
      ],
      [
        "Cha",
        -9.728010164451353
      ],
      [
        "tutuki",
        -9.732071361631846
      ],
      [
        "Panga",
        -9.73250787035873
      ],
      [
        "papil",
        -9.734652180043486
      ],
      [
        "ju",
        -9.734798795544862
      ],
      [
        "Septiembr",
        -9.736561237779638
      ],
      [
        "Mayo",
        -9.73662127766718
      ],
      [
        "rit",
        -9.739720346651385
      ],
      [
        "umpisa",
        -9.739887586938902
      ],
      [
        "Science",
        -9.740710626236616
      ],
      [
        "tinggap",
        -9.740713499165102
      ],
      [
        "Men",
        -9.740930214273577
      ],
      [
        "tus",
        -9.741710609600666
      ],
      [
        "ese",
        -9.744737461967723
      ],
      [
        "Information",
        -9.744877343528424
      ],
      [
        "mapa",
        -9.74669633778609
      ],
      [
        "Mig",
        -9.746886984640327
      ],
      [
        "stro",
        -9.748356028322354
      ],
      [
        "tinape",
        -9.749176329222696
      ],
      [
        "page",
        -9.750185781659335
      ],
      [
        "mini",
        -9.751035714277743
      ],
      [
        "kekayung",
        -9.751395786823561
      ],
      [
        "ray",
        -9.751706771068532
      ],
      [
        "Cal",
        -9.753636916644368
      ],
      [
        "dara",
        -9.753792371993425
      ],
      [
        "ros",
        -9.755015020208354
      ],
      [
        "Gui",
        -9.756496489665532
      ],
      [
        "luma",
        -9.756799339172023
      ],
      [
        "miyayaliwa",
        -9.757570970355808
      ],
      [
        "ín",
        -9.758002200494577
      ],
      [
        "gá",
        -9.759118201432576
      ],
      [
        "Ph",
        -9.759554067635017
      ],
      [
        "ganaka",
        -9.759783189068052
      ],
      [
        "Tag",
        -9.760074153061137
      ],
      [
        "lawan",
        -9.760689494347886
      ],
      [
        "California",
        -9.76171976134449
      ],
      [
        "pisamban",
        -9.76229216916734
      ],
      [
        "pansin",
        -9.763175064559722
      ],
      [
        "hal",
        -9.764540771781581
      ],
      [
        "imalan",
        -9.764746872175452
      ],
      [
        "that",
        -9.76533786642944
      ],
      [
        "cá",
        -9.766425508157635
      ],
      [
        "44",
        -9.766447843320204
      ],
      [
        "Art",
        -9.766460032801117
      ],
      [
        "gewa",
        -9.766586113055917
      ],
      [
        "nú",
        -9.766872872392451
      ],
      [
        "pri",
        -9.766928761145024
      ],
      [
        "48",
        -9.768567261472402
      ],
      [
        "47",
        -9.769674585626717
      ],
      [
        "alas",
        -9.770086901431501
      ],
      [
        "mil",
        -9.771308478243657
      ],
      [
        "bú",
        -9.772101853338588
      ],
      [
        "alam",
        -9.772551365776815
      ],
      [
        "sinta",
        -9.772712501777127
      ],
      [
        "Itang",
        -9.77346977414441
      ],
      [
        "sung",
        -9.77400672235462
      ],
      [
        "mara",
        -9.775477710307495
      ],
      [
        "val",
        -9.776962818047975
      ],
      [
        "balamu",
        -9.777439134029834
      ],
      [
        "ikayu",
        -9.779315236283617
      ],
      [
        "puri",
        -9.779670030389015
      ],
      [
        "Day",
        -9.779881375724145
      ],
      [
        "Kayabe",
        -9.780077463750958
      ],
      [
        "tulu",
        -9.781368965074
      ],
      [
        "kalam",
        -9.782741599685055
      ],
      [
        "ric",
        -9.783853416055354
      ],
      [
        "Bas",
        -9.784370425067237
      ],
      [
        "ulaga",
        -9.785496104650946
      ],
      [
        "lalung",
        -9.78591092336588
      ],
      [
        "pay",
        -9.785993008813527
      ],
      [
        "way",
        -9.786827948806096
      ],
      [
        "not",
        -9.788095564832336
      ],
      [
        "ino",
        -9.788510663730479
      ],
      [
        "red",
        -9.789409045341909
      ],
      [
        "und",
        -9.79019201194485
      ],
      [
        "tac",
        -9.791196678666473
      ],
      [
        "kad",
        -9.79270078215368
      ],
      [
        "talaga",
        -9.79308804827062
      ],
      [
        "tatag",
        -9.793312420793216
      ],
      [
        "nayun",
        -9.793650434045272
      ],
      [
        "sap",
        -9.794069247551484
      ],
      [
        "Wi",
        -9.795895250994942
      ],
      [
        "isipan",
        -9.795936127307767
      ],
      [
        "Kaibat",
        -9.796436693080954
      ],
      [
        "ste",
        -9.798601890699128
      ],
      [
        "his",
        -9.798774367412165
      ],
      [
        "Her",
        -9.799429345700094
      ],
      [
        "Cam",
        -9.799923695621175
      ],
      [
        "tinu",
        -9.801492939340921
      ],
      [
        "takut",
        -9.801744766357197
      ],
      [
        "mbi",
        -9.80175437707383
      ],
      [
        "aral",
        -9.801980499080614
      ],
      [
        "wat",
        -9.802189389332241
      ],
      [
        "Bb",
        -9.802297650714472
      ],
      [
        "Mayap",
        -9.803030445972347
      ],
      [
        "bina",
        -9.804251776358093
      ],
      [
        "ory",
        -9.804425412116139
      ],
      [
        "Neng",
        -9.804769132893384
      ],
      [
        "agyang",
        -9.804843897607551
      ],
      [
        "pengari",
        -9.805212667627885
      ],
      [
        "egovi",
        -9.805594302801193
      ],
      [
        "ix",
        -9.809331113855588
      ],
      [
        "Mor",
        -9.809561489519275
      ],
      [
        "Junio",
        -9.809611394996786
      ],
      [
        "dayu",
        -9.809968221821496
      ],
      [
        "adwa",
        -9.81060755757441
      ],
      [
        "lapit",
        -9.810811700290262
      ],
      [
        "bay",
        -9.811748370801428
      ],
      [
        "ence",
        -9.812938470942253
      ],
      [
        "mor",
        -9.812954190727051
      ],
      [
        "imut",
        -9.813065096754553
      ],
      [
        "yun",
        -9.81496114734274
      ],
      [
        "rap",
        -9.816224964004846
      ],
      [
        "Que",
        -9.81675590534186
      ],
      [
        "gay",
        -9.820571913420874
      ],
      [
        "eganagana",
        -9.820573179692431
      ],
      [
        "ura",
        -9.820810728248265
      ],
      [
        "tupad",
        -9.821537205692534
      ],
      [
        "rí",
        -9.822830444166694
      ],
      [
        "lapad",
        -9.824447872029374
      ],
      [
        "uc",
        -9.824990470794884
      ],
      [
        "kadane",
        -9.82550536908296
      ],
      [
        "nasa",
        -9.826145174358656
      ],
      [
        "babaing",
        -9.827294575733706
      ],
      [
        "cap",
        -9.830005665464633
      ],
      [
        "Com",
        -9.831569643419297
      ],
      [
        "meki",
        -9.831612080600173
      ],
      [
        "ker",
        -9.832739243659987
      ],
      [
        "je",
        -9.832907063482006
      ],
      [
        "subli",
        -9.833803093986154
      ],
      [
        "Map",
        -9.835998062781474
      ],
      [
        "arapat",
        -9.836372742198481
      ],
      [
        "municipal",
        -9.836644555473718
      ],
      [
        "York",
        -9.83666306942165
      ],
      [
        "mán",
        -9.83694224154996
      ],
      [
        "abak",
        -9.837321436665498
      ],
      [
        "AT",
        -9.839959532612603
      ],
      [
        "41",
        -9.840878648813668
      ],
      [
        "43",
        -9.841163928051518
      ],
      [
        "Francisco",
        -9.841233785908749
      ],
      [
        "yayaus",
        -9.84165557840647
      ],
      [
        "igit",
        -9.84430681845356
      ],
      [
        "other",
        -9.84468738584306
      ],
      [
        "pilatan",
        -9.845982253998098
      ],
      [
        "zo",
        -9.846203455983272
      ],
      [
        "nuan",
        -9.84673605663667
      ],
      [
        "Malda",
        -9.847061875739659
      ],
      [
        "Ania",
        -9.847159155365713
      ],
      [
        "pauli",
        -9.847637784096875
      ],
      [
        "cer",
        -9.847859684181106
      ],
      [
        "Amanung",
        -9.848210887158256
      ],
      [
        "magagamit",
        -9.848286495293554
      ],
      [
        "pangulung",
        -9.848816318347193
      ],
      [
        "ture",
        -9.85124511114763
      ],
      [
        "Manila",
        -9.851328013358783
      ],
      [
        "ical",
        -9.851432488630017
      ],
      [
        "States",
        -9.851524323764224
      ],
      [
        "punan",
        -9.854175231362898
      ],
      [
        "parti",
        -9.854435996561143
      ],
      [
        "die",
        -9.854437054717426
      ],
      [
        "pámag",
        -9.854648772168584
      ],
      [
        "paran",
        -9.854994929956298
      ],
      [
        "kayanakan",
        -9.85543220255608
      ],
      [
        "sikanan",
        -9.85561901515425
      ],
      [
        "Caba",
        -9.855849631985901
      ],
      [
        "Bag",
        -9.856548841262265
      ],
      [
        "mamu",
        -9.857076675433262
      ],
      [
        "Menila",
        -9.86026790367599
      ],
      [
        "ndhra",
        -9.860329715577183
      ],
      [
        "katuliran",
        -9.86140172515582
      ],
      [
        "mple",
        -9.862102397239841
      ],
      [
        "usan",
        -9.863170348970925
      ],
      [
        "suli",
        -9.86334391355493
      ],
      [
        "sabyan",
        -9.863601884466346
      ],
      [
        "pamaki",
        -9.86392803180955
      ],
      [
        "time",
        -9.864485651912847
      ],
      [
        "row",
        -9.865214523820736
      ],
      [
        "DA",
        -9.865847388283141
      ],
      [
        "42",
        -9.866398687379398
      ],
      [
        "Pol",
        -9.86642049983371
      ],
      [
        "bon",
        -9.868649257013818
      ],
      [
        "biasa",
        -9.86912482933362
      ],
      [
        "talasulat",
        -9.869888046701389
      ],
      [
        "asbuk",
        -9.87017055359361
      ],
      [
        "Roman",
        -9.870660900824195
      ],
      [
        "gamitan",
        -9.871111766340537
      ],
      [
        "col",
        -9.87144802665046
      ],
      [
        "pasalamat",
        -9.871917473102428
      ],
      [
        "rapat",
        -9.872096572876108
      ],
      [
        "89",
        -9.873063347741496
      ],
      [
        "diwa",
        -9.873346733038195
      ],
      [
        "mababa",
        -9.87343785522852
      ],
      [
        "malda",
        -9.873551673365679
      ],
      [
        "kwa",
        -9.874642640205012
      ],
      [
        "Pal",
        -9.876986846831876
      ],
      [
        "tátag",
        -9.87702229452864
      ],
      [
        "cent",
        -9.87724581334093
      ],
      [
        "kanta",
        -9.877911112642835
      ],
      [
        "ipus",
        -9.878019959616932
      ],
      [
        "wá",
        -9.879002421306584
      ],
      [
        "opera",
        -9.879268068971921
      ],
      [
        "General",
        -9.879289734574733
      ],
      [
        "main",
        -9.87963366541116
      ],
      [
        "ger",
        -9.880813135222791
      ],
      [
        "sadia",
        -9.882618418544158
      ],
      [
        "kaming",
        -9.883184012391752
      ],
      [
        "pamilya",
        -9.883478865348415
      ],
      [
        "official",
        -9.883491439024343
      ],
      [
        "familia",
        -9.883492123276074
      ],
      [
        "layan",
        -9.883884458624959
      ],
      [
        "lakuan",
        -9.885292649879673
      ],
      [
        "maniwala",
        -9.886688185743113
      ],
      [
        "ves",
        -9.887547292746184
      ],
      [
        "Academy",
        -9.888299132206553
      ],
      [
        "pampang",
        -9.889311321543719
      ],
      [
        "tibu",
        -9.889722940636231
      ],
      [
        "You",
        -9.889962656251697
      ],
      [
        "ular",
        -9.890370874357068
      ],
      [
        "mitatag",
        -9.890384799523694
      ],
      [
        "gagawan",
        -9.892017079000631
      ],
      [
        "NING",
        -9.8941433402485
      ],
      [
        "alus",
        -9.894496988413504
      ],
      [
        "Manga",
        -9.894663945271962
      ],
      [
        "pera",
        -9.894932512969026
      ],
      [
        "Dm",
        -9.896134549532697
      ],
      [
        "mismu",
        -9.896659134342322
      ],
      [
        "kalulu",
        -9.897419620609666
      ],
      [
        "magsalita",
        -9.897442723066156
      ],
      [
        "60",
        -9.898317485890821
      ],
      [
        "lawe",
        -9.898770601947144
      ],
      [
        "News",
        -9.90003322211721
      ],
      [
        "magdala",
        -9.900452152867697
      ],
      [
        "bak",
        -9.901408425420684
      ],
      [
        "sab",
        -9.901427924844697
      ],
      [
        "tali",
        -9.902657821367864
      ],
      [
        "gawang",
        -9.902968885453184
      ],
      [
        "Cala",
        -9.90297235041562
      ],
      [
        "ler",
        -9.902988406225926
      ],
      [
        "linub",
        -9.90356874358185
      ],
      [
        "mbo",
        -9.903583199448803
      ],
      [
        "Nag",
        -9.90670642615687
      ],
      [
        "Mon",
        -9.906988234315694
      ],
      [
        "laga",
        -9.907199482382671
      ],
      [
        "Republic",
        -9.907906284383419
      ],
      [
        "Wiki",
        -9.907986403695977
      ],
      [
        "aslag",
        -9.908518251924708
      ],
      [
        "arch",
        -9.909164556436608
      ],
      [
        "butul",
        -9.909358013644685
      ],
      [
        "2010",
        -9.910602711431716
      ],
      [
        "pé",
        -9.91125046325227
      ],
      [
        "dila",
        -9.911463867137106
      ],
      [
        "Rizal",
        -9.912693691888386
      ],
      [
        "Chi",
        -9.91310059866384
      ],
      [
        "sali",
        -9.914568726065689
      ],
      [
        "ía",
        -9.915635732059453
      ],
      [
        "ilan",
        -9.915925486021312
      ],
      [
        "ego",
        -9.91919894227582
      ],
      [
        "awad",
        -9.920912752451986
      ],
      [
        "aquit",
        -9.92107479032407
      ],
      [
        "01",
        -9.923316294506286
      ],
      [
        "cad",
        -9.925094325975216
      ],
      [
        "aralas",
        -9.926481134633061
      ],
      [
        "meko",
        -9.9280275850212
      ],
      [
        "Tutu",
        -9.928718456651495
      ],
      [
        "ice",
        -9.929200841968061
      ],
      [
        "zi",
        -9.93074687702341
      ],
      [
        "illa",
        -9.93078326159366
      ],
      [
        "Yang",
        -9.931580266661918
      ],
      [
        "tipun",
        -9.93177182967764
      ],
      [
        "ember",
        -9.931794998797319
      ],
      [
        "say",
        -9.933097027300427
      ],
      [
        "caya",
        -9.93389274947435
      ],
      [
        "Inia",
        -9.937147178329234
      ],
      [
        "Association",
        -9.937691772544472
      ],
      [
        "International",
        -9.937692083143727
      ],
      [
        "Ilug",
        -9.937808653713372
      ],
      [
        "Pri",
        -9.937831427802696
      ],
      [
        "Gm",
        -9.938052943713188
      ],
      [
        "uanan",
        -9.93887121719766
      ],
      [
        "ograph",
        -9.93888122576697
      ],
      [
        "utan",
        -9.93923328945694
      ],
      [
        "your",
        -9.939986786821525
      ],
      [
        "RI",
        -9.94264830423661
      ],
      [
        "pac",
        -9.942713547490236
      ],
      [
        "Tarlac",
        -9.942774594548435
      ],
      [
        "Island",
        -9.942828897653825
      ],
      [
        "Ben",
        -9.942913994928858
      ],
      [
        "Zone",
        -9.943063628141076
      ],
      [
        "Marzo",
        -9.94325332207922
      ],
      [
        "org",
        -9.944249499481009
      ],
      [
        "Angga",
        -9.94455068006027
      ],
      [
        "mág",
        -9.945327248081714
      ],
      [
        "Agost",
        -9.945332879244582
      ],
      [
        "salamat",
        -9.945409252998695
      ],
      [
        "manakit",
        -9.945696344731674
      ],
      [
        "03",
        -9.94638083840479
      ],
      [
        "Antonio",
        -9.947869982203075
      ],
      [
        "pamag-",
        -9.948264849304572
      ],
      [
        "Tin",
        -9.948686901289868
      ],
      [
        "pania",
        -9.949237204881387
      ],
      [
        "gulu",
        -9.949506666989825
      ],
      [
        "RA",
        -9.950045026523956
      ],
      [
        "bong",
        -9.950970363136026
      ],
      [
        "Ating",
        -9.951192949570782
      ],
      [
        "bra",
        -9.951957832774557
      ],
      [
        "anac",
        -9.95253090131637
      ],
      [
        "kuanan",
        -9.95271961083227
      ],
      [
        "Malyari",
        -9.953351525540569
      ],
      [
        "batas",
        -9.953911639785876
      ],
      [
        "lé",
        -9.95471135944932
      ],
      [
        "gulut",
        -9.95532252133438
      ],
      [
        "bre",
        -9.955441748460906
      ],
      [
        "santing",
        -9.955819055044007
      ],
      [
        "panalangin",
        -9.955900985851295
      ],
      [
        "aran",
        -9.957852348183877
      ],
      [
        "manula",
        -9.958280241945566
      ],
      [
        "mayay",
        -9.958630832726415
      ],
      [
        "yari",
        -9.959166458431012
      ],
      [
        "ori",
        -9.960991160842111
      ],
      [
        "pos",
        -9.961150548099749
      ],
      [
        "munta",
        -9.961986045494235
      ],
      [
        "organ",
        -9.962451256488624
      ],
      [
        "And",
        -9.963142044242058
      ],
      [
        "susu",
        -9.963257182133468
      ],
      [
        "Manibat",
        -9.963323880133768
      ],
      [
        "ì",
        -9.963334146941419
      ],
      [
        "²",
        -9.963334146941419
      ],
      [
        "Pun",
        -9.964764277160171
      ],
      [
        "inter",
        -9.965697997461463
      ],
      [
        "tam",
        -9.966821390585107
      ],
      [
        "mila",
        -9.96730808983992
      ],
      [
        "80",
        -9.967824016116506
      ],
      [
        "mitmu",
        -9.968080474781212
      ],
      [
        "daka",
        -9.96813127306324
      ],
      [
        "Institute",
        -9.96854377412648
      ],
      [
        "media",
        -9.970603200669366
      ],
      [
        "Ver",
        -9.971155756626654
      ],
      [
        "ble",
        -9.971486794090264
      ],
      [
        "MU",
        -9.972134150275693
      ],
      [
        "carín",
        -9.97504594334795
      ],
      [
        "UNG",
        -9.97595840377996
      ],
      [
        "nanuman",
        -9.976103852854536
      ],
      [
        "lista",
        -9.977179286538878
      ],
      [
        "cha",
        -9.977420842370005
      ],
      [
        "46",
        -9.977736521223626
      ],
      [
        "sacerdote",
        -9.97904124512301
      ],
      [
        "Vicente",
        -9.979042767456127
      ],
      [
        "Diciembr",
        -9.984332245565405
      ],
      [
        "ño",
        -9.986745463419668
      ],
      [
        "sanga",
        -9.987981130592782
      ],
      [
        "04",
        -9.98905141719705
      ],
      [
        "Aveyron",
        -9.98965151647581
      ],
      [
        "sum",
        -9.99026526662894
      ],
      [
        "bigla",
        -9.990340530288638
      ],
      [
        "06",
        -9.99035070638844
      ],
      [
        "Fu",
        -9.990459943324385
      ],
      [
        "Ketang",
        -9.991123913987991
      ],
      [
        "ley",
        -9.991809168201762
      ],
      [
        "Mari",
        -9.992010314588157
      ],
      [
        "keca",
        -9.994647277131634
      ],
      [
        "Nor",
        -9.994859880642371
      ],
      [
        "War",
        -9.995927009846127
      ],
      [
        "asu",
        -9.998281770872556
      ],
      [
        "luguran",
        -10.000002276290722
      ],
      [
        "rist",
        -10.000515667688736
      ],
      [
        "trans",
        -10.003937880388097
      ],
      [
        "Dr",
        -10.00444820447149
      ],
      [
        "pangulungalbugan",
        -10.005953337424982
      ],
      [
        "Koro",
        -10.00717781428286
      ],
      [
        "ablas",
        -10.007601918763985
      ],
      [
        "ré",
        -10.00948733850419
      ],
      [
        "mira",
        -10.010622769886385
      ],
      [
        "xi",
        -10.010675416241007
      ],
      [
        "ern",
        -10.011759439446141
      ],
      [
        "All",
        -10.012528638243891
      ],
      [
        "kí",
        -10.012776521126845
      ],
      [
        "able",
        -10.013108714048126
      ],
      [
        "matuli",
        -10.01317658727152
      ],
      [
        "Quez",
        -10.013404518358787
      ],
      [
        "Mayor",
        -10.013756923113062
      ],
      [
        "Ber",
        -10.013800436131291
      ],
      [
        "ibpa",
        -10.014789715471213
      ],
      [
        "sakup",
        -10.016158088017571
      ],
      [
        "daraptan",
        -10.016685475736004
      ],
      [
        "sampaga",
        -10.016713443188994
      ],
      [
        "tutung",
        -10.017166989183632
      ],
      [
        "Dis",
        -10.018256527341537
      ],
      [
        "tubud",
        -10.020348035972406
      ],
      [
        "ze",
        -10.020565761270507
      ],
      [
        "Marco",
        -10.021600704085973
      ],
      [
        "Europa",
        -10.02217508981321
      ],
      [
        "sasabi",
        -10.022346123146972
      ],
      [
        "megu",
        -10.022412610715413
      ],
      [
        "angel",
        -10.022883534705821
      ],
      [
        "van",
        -10.023506692310917
      ],
      [
        "prefecture",
        -10.023641521289353
      ],
      [
        "pamama",
        -10.024106483825225
      ],
      [
        "arian",
        -10.025078985272742
      ],
      [
        "Lib",
        -10.02538266081153
      ],
      [
        "magaral",
        -10.026264830430982
      ],
      [
        "populasi",
        -10.026534025891
      ],
      [
        "pisi",
        -10.026656353695248
      ],
      [
        "labi",
        -10.026818763268796
      ],
      [
        "85",
        -10.02765085179426
      ],
      [
        "Pebrer",
        -10.027725213512134
      ],
      [
        "baluan",
        -10.029346288136868
      ],
      [
        "tim",
        -10.029904027294634
      ],
      [
        "stra",
        -10.0306147725118
      ],
      [
        "My",
        -10.030910215998858
      ],
      [
        "Arts",
        -10.033572871839805
      ],
      [
        "Dan",
        -10.034566209491683
      ],
      [
        "has",
        -10.035008240514987
      ],
      [
        "kayábé",
        -10.035574451704981
      ],
      [
        "mesabi",
        -10.035664667757974
      ],
      [
        "KU",
        -10.03592607215135
      ],
      [
        "Má",
        -10.03639335723905
      ],
      [
        "Angele",
        -10.037534296460713
      ],
      [
        "vel",
        -10.037536912998867
      ],
      [
        "Febrer",
        -10.038847960177455
      ],
      [
        "pinili",
        -10.040063743498571
      ],
      [
        "lima",
        -10.040210705620964
      ],
      [
        "2012",
        -10.041482402187324
      ],
      [
        "kule",
        -10.041549809974835
      ],
      [
        "iz",
        -10.042775277432167
      ],
      [
        "sukul",
        -10.043445827495493
      ],
      [
        "Gar",
        -10.043836855130294
      ],
      [
        "sinulat",
        -10.044712431708465
      ],
      [
        "sul",
        -10.044877227153213
      ],
      [
        "tanda",
        -10.045927915159444
      ],
      [
        "baldug",
        -10.046041775775002
      ],
      [
        "Angel",
        -10.046463945863035
      ],
      [
        "Pre",
        -10.046848939225296
      ],
      [
        "ákit",
        -10.046872798818079
      ],
      [
        "65",
        -10.04753324224728
      ],
      [
        "Han",
        -10.047807254443814
      ],
      [
        "tis",
        -10.047827009568932
      ],
      [
        "tz",
        -10.048004280753544
      ],
      [
        "yong",
        -10.048129350461469
      ],
      [
        "kambe",
        -10.048325147827338
      ],
      [
        "ldan",
        -10.048406150571164
      ],
      [
        "tru",
        -10.048976006844288
      ],
      [
        "pany",
        -10.04921511779256
      ],
      [
        "China",
        -10.049699569741687
      ],
      [
        "Foundation",
        -10.050109302302264
      ],
      [
        "manintun",
        -10.050357141706566
      ],
      [
        "ville",
        -10.05316363518321
      ],
      [
        "tum",
        -10.055017825094733
      ],
      [
        "BS",
        -10.05549426348925
      ],
      [
        "Lalawigan",
        -10.055791039480827
      ],
      [
        "iglesia",
        -10.05579109970257
      ],
      [
        "iran",
        -10.056056097538905
      ],
      [
        "atulan",
        -10.056334813579475
      ],
      [
        "2008",
        -10.056392235447479
      ],
      [
        "lagu",
        -10.057219077733329
      ],
      [
        "plas",
        -10.057237072558538
      ],
      [
        "maniabi",
        -10.057282416170365
      ],
      [
        "Octubre",
        -10.05745864376785
      ],
      [
        "pintor",
        -10.057875003055655
      ],
      [
        "kutang",
        -10.060093302305898
      ],
      [
        "sus",
        -10.060323212697396
      ],
      [
        "aguia",
        -10.061242942480114
      ],
      [
        "Distritu",
        -10.061505401608345
      ],
      [
        "antimó",
        -10.061517307464953
      ],
      [
        "bali",
        -10.062890848221526
      ],
      [
        "Keng",
        -10.063081606087382
      ],
      [
        "dig",
        -10.065067828163205
      ],
      [
        "wak",
        -10.06508000045502
      ],
      [
        "tauli",
        -10.065159314233806
      ],
      [
        "masaya",
        -10.065503024371548
      ],
      [
        "lua",
        -10.06594694039736
      ],
      [
        "vis",
        -10.066045228287528
      ],
      [
        "Qu",
        -10.066056708809967
      ],
      [
        "07",
        -10.066559408239211
      ],
      [
        "net",
        -10.066884031539793
      ],
      [
        "bud",
        -10.066948312440164
      ],
      [
        "è",
        -10.066966881990641
      ],
      [
        "Noviembre",
        -10.067252441532993
      ],
      [
        "pakalulu",
        -10.067255592876041
      ],
      [
        "itu",
        -10.06821454369048
      ],
      [
        "ago",
        -10.068934788116911
      ],
      [
        "tuknang",
        -10.06961483624734
      ],
      [
        "UN",
        -10.069812861233737
      ],
      [
        "gagamit",
        -10.070047789251458
      ],
      [
        "TI",
        -10.071543868571386
      ],
      [
        "Che",
        -10.071998871252436
      ],
      [
        "tatang",
        -10.072625774021466
      ],
      [
        "loc",
        -10.072872196006637
      ],
      [
        "video",
        -10.072995377523881
      ],
      [
        "Diyos",
        -10.073050329444865
      ],
      [
        "Pota",
        -10.073179937600775
      ],
      [
        "sic",
        -10.073259706325503
      ],
      [
        "49",
        -10.073997836725859
      ],
      [
        "2011",
        -10.075685250335997
      ],
      [
        "air",
        -10.076616882852614
      ],
      [
        "ME",
        -10.076878070095717
      ],
      [
        "ima",
        -10.077048608031347
      ],
      [
        "55",
        -10.077214187251824
      ],
      [
        "kimut",
        -10.077368203312473
      ],
      [
        "Sh",
        -10.078506955982892
      ],
      [
        "Fernando",
        -10.078846930566762
      ],
      [
        "Pin",
        -10.079107890541565
      ],
      [
        "uel",
        -10.07929501867864
      ],
      [
        "matula",
        -10.07938644388517
      ],
      [
        "pakatukna",
        -10.079528294360347
      ],
      [
        "heim",
        -10.079675068987655
      ],
      [
        "lelangan",
        -10.080766713485012
      ],
      [
        "tuan",
        -10.080778214622901
      ],
      [
        "bes",
        -10.080788134905148
      ],
      [
        "mibalik",
        -10.081497898583002
      ],
      [
        "tud",
        -10.081832071441406
      ],
      [
        "taya",
        -10.082011007151635
      ],
      [
        "ambag",
        -10.08277831246953
      ],
      [
        "Estado",
        -10.083551414129044
      ],
      [
        "Qui",
        -10.083775095971983
      ],
      [
        "karaniwan",
        -10.084701474291098
      ],
      [
        "form",
        -10.084714484430261
      ],
      [
        "makatua",
        -10.085039349204177
      ],
      [
        "tagumpe",
        -10.085790831687596
      ],
      [
        "galal",
        -10.085996460598105
      ],
      [
        "asyun",
        -10.086125713267093
      ],
      [
        "ilapin",
        -10.086413624916377
      ],
      [
        "IV",
        -10.088467498207631
      ],
      [
        "78",
        -10.088835194574202
      ],
      [
        "Ibat",
        -10.089101717781986
      ],
      [
        "Par",
        -10.090398210554703
      ],
      [
        "Makanian",
        -10.090596109661126
      ],
      [
        "Rhin",
        -10.090667448800083
      ],
      [
        "cong",
        -10.091012975547127
      ],
      [
        "Makanyan",
        -10.091130148480428
      ],
      [
        "malati",
        -10.09147204674996
      ],
      [
        "64",
        -10.091512594419598
      ],
      [
        "ayup",
        -10.091524129342044
      ],
      [
        "lipat",
        -10.091758530535735
      ],
      [
        "oini",
        -10.091849448927885
      ],
      [
        "RE",
        -10.09227248723877
      ],
      [
        "ben",
        -10.093381107458026
      ],
      [
        "08",
        -10.093696721089351
      ],
      [
        "pamagaral",
        -10.094121136972866
      ],
      [
        "tuknangan",
        -10.094428092336173
      ],
      [
        "fin",
        -10.094742519700553
      ],
      [
        "Tra",
        -10.095753791969592
      ],
      [
        "bandang",
        -10.096081948393508
      ],
      [
        "zhou",
        -10.096508841318528
      ],
      [
        "kaligtasan",
        -10.096554484068964
      ],
      [
        "pero",
        -10.097032130837967
      ],
      [
        "sol",
        -10.098210871966703
      ],
      [
        "pesu",
        -10.099140646021919
      ],
      [
        "ensi",
        -10.100712922256069
      ],
      [
        "zon",
        -10.101583313821518
      ],
      [
        "out",
        -10.1019140101549
      ],
      [
        "linto",
        -10.102379442623985
      ],
      [
        "Education",
        -10.102446925634059
      ],
      [
        "kabiasnan",
        -10.1024565357731
      ],
      [
        "C7",
        -10.102745519014452
      ],
      [
        "Simon",
        -10.103283100987795
      ],
      [
        "inaus",
        -10.103684101700143
      ],
      [
        "05",
        -10.104001724582854
      ],
      [
        "yampang",
        -10.104787280244786
      ],
      [
        "kuyad",
        -10.104867613443218
      ],
      [
        "Pen",
        -10.105348114090333
      ],
      [
        "saka",
        -10.10601673749377
      ],
      [
        "iniang",
        -10.10790443608725
      ],
      [
        "pamang",
        -10.108036975605117
      ],
      [
        "ugnayan",
        -10.108529582738381
      ],
      [
        "Den",
        -10.108621173674715
      ],
      [
        "Bin",
        -10.10862186703205
      ],
      [
        "director",
        -10.10973578281574
      ],
      [
        "Tom",
        -10.110779447984834
      ],
      [
        "sac",
        -10.11107999354808
      ],
      [
        "pang3",
        -10.111910306147408
      ],
      [
        "dic",
        -10.112006127852291
      ],
      [
        "ham",
        -10.112389335089816
      ],
      [
        "tuturu",
        -10.114072711155005
      ],
      [
        "Lebanon",
        -10.11446326433456
      ],
      [
        "’y",
        -10.114693073922426
      ],
      [
        "fer",
        -10.114718363952914
      ],
      [
        "ces",
        -10.115276443769972
      ],
      [
        "low",
        -10.116366793088677
      ],
      [
        "gene",
        -10.117507720937606
      ],
      [
        "Thi",
        -10.118186748483872
      ],
      [
        "timawa",
        -10.118593265405678
      ],
      [
        "katas",
        -10.119787237812474
      ],
      [
        "Camp",
        -10.120092619902948
      ],
      [
        "Public",
        -10.120521061704878
      ],
      [
        "ulan",
        -10.120780807985351
      ],
      [
        "gkas",
        -10.120999444741896
      ],
      [
        "GUINU",
        -10.122099472354076
      ],
      [
        "Paki",
        -10.12261436935708
      ],
      [
        "canta",
        -10.122627599694393
      ],
      [
        "buc",
        -10.124205605798364
      ],
      [
        "Agyang",
        -10.124289641802141
      ],
      [
        "Central",
        -10.126618397493274
      ],
      [
        "2009",
        -10.127260887386246
      ],
      [
        "lahi",
        -10.1283307065085
      ],
      [
        "vent",
        -10.12920356121682
      ],
      [
        "Frances",
        -10.13198684191567
      ],
      [
        "Vietnam",
        -10.132751887419024
      ],
      [
        "Santiago",
        -10.132753223224334
      ],
      [
        "apostol",
        -10.132761784547494
      ],
      [
        "Unido",
        -10.13276455879786
      ],
      [
        "Sinabi",
        -10.13282789740229
      ],
      [
        "Saint",
        -10.1328362080169
      ],
      [
        "Time",
        -10.13311272675297
      ],
      [
        "linual",
        -10.133297136381021
      ],
      [
        "ft",
        -10.133724462974435
      ],
      [
        "tel",
        -10.134837730399514
      ],
      [
        "old",
        -10.135015198676715
      ],
      [
        "bir",
        -10.13782544122627
      ],
      [
        "AR",
        -10.137972381797693
      ],
      [
        "Tur",
        -10.138676937863988
      ],
      [
        "mabibye",
        -10.138929289431417
      ],
      [
        "ati",
        -10.139492838547454
      ],
      [
        "apulung",
        -10.140419337983548
      ],
      [
        "ries",
        -10.141247478589047
      ],
      [
        "duc",
        -10.141686748721428
      ],
      [
        "menibat",
        -10.1420052823923
      ],
      [
        "Col",
        -10.144756757250578
      ],
      [
        "dikut",
        -10.145338887162964
      ],
      [
        "book",
        -10.1454379298404
      ],
      [
        "LU",
        -10.145456181936563
      ],
      [
        "eraklan",
        -10.145916142196858
      ],
      [
        "malagu",
        -10.147084081390194
      ],
      [
        "bé",
        -10.148251742212139
      ],
      [
        "magsilbi",
        -10.1490143148656
      ],
      [
        "gbug",
        -10.150374452654253
      ],
      [
        "míbay",
        -10.1510636456986
      ],
      [
        "quit",
        -10.151428577126968
      ],
      [
        "bibilug",
        -10.151456898711245
      ],
      [
        "bulalag",
        -10.151819281761645
      ],
      [
        "rine",
        -10.151924443660743
      ],
      [
        "Paul",
        -10.15216295375468
      ],
      [
        "2001",
        -10.15239569928087
      ],
      [
        "agus",
        -10.153327455302936
      ],
      [
        "kasi",
        -10.153598439831338
      ],
      [
        "bri",
        -10.153641576540515
      ],
      [
        "autusan",
        -10.154134012528996
      ],
      [
        "cho",
        -10.154245530391698
      ],
      [
        "nic",
        -10.154773302365367
      ],
      [
        "ics",
        -10.157406958066904
      ],
      [
        "Chinese",
        -10.15767755407268
      ],
      [
        "marangle",
        -10.157715784757812
      ],
      [
        "pres",
        -10.158213767388316
      ],
      [
        "likas",
        -10.158381380663888
      ],
      [
        "hay",
        -10.159221778305652
      ],
      [
        "minta",
        -10.159245748907392
      ],
      [
        "how",
        -10.159523889010469
      ],
      [
        "balat",
        -10.159712153079822
      ],
      [
        "histor",
        -10.159760658920696
      ],
      [
        "dar",
        -10.159853739573121
      ],
      [
        "Bur",
        -10.16213337208041
      ],
      [
        "blast",
        -10.164799940751255
      ],
      [
        "ier",
        -10.166299914927437
      ],
      [
        "tubu",
        -10.170196752574899
      ],
      [
        "natural",
        -10.170488467276876
      ],
      [
        "buring",
        -10.171214578991279
      ],
      [
        "agkat",
        -10.171705543586615
      ],
      [
        "sí",
        -10.172700557556968
      ],
      [
        "ises",
        -10.172790264430532
      ],
      [
        "Mani",
        -10.173723580005971
      ],
      [
        "Buri",
        -10.1753323404825
      ],
      [
        "Za",
        -10.176119379805254
      ],
      [
        "masala",
        -10.177575473391991
      ],
      [
        "pamam",
        -10.179558982481609
      ],
      [
        "mont",
        -10.180116700482499
      ],
      [
        "Balang",
        -10.180700129112054
      ],
      [
        "kasalesayan",
        -10.182303746560834
      ],
      [
        "pamanga",
        -10.182440622395642
      ],
      [
        "Sp",
        -10.182574733873697
      ],
      [
        "akiramdam",
        -10.183539077939177
      ],
      [
        "Mali",
        -10.184299334350914
      ],
      [
        "kanan",
        -10.18466215590104
      ],
      [
        "agnan",
        -10.184769115369479
      ],
      [
        "Law",
        -10.186892153102526
      ],
      [
        "0-",
        -10.189337500677308
      ],
      [
        "Department",
        -10.189729185594617
      ],
      [
        "language",
        -10.189736434696618
      ],
      [
        "66",
        -10.190148855296403
      ],
      [
        "kapampangan",
        -10.190540104560867
      ],
      [
        "pakiramdam",
        -10.191403924406336
      ],
      [
        "sín",
        -10.192061533382581
      ],
      [
        "Yatu",
        -10.19300817809364
      ],
      [
        "saya",
        -10.193107687566913
      ],
      [
        "rakal",
        -10.194215015663172
      ],
      [
        "On",
        -10.194613917988413
      ],
      [
        "palyari",
        -10.19568368902053
      ],
      [
        "09",
        -10.1961372365874
      ],
      [
        "Á",
        -10.196265037413596
      ],
      [
        "Deta",
        -10.19633419099597
      ],
      [
        "hy",
        -10.197291383432809
      ],
      [
        "Sil",
        -10.19824636565303
      ],
      [
        "let",
        -10.198702782900606
      ],
      [
        "Bel",
        -10.19934641022156
      ],
      [
        "win",
        -10.200914880066708
      ],
      [
        "mikaka",
        -10.201054536282943
      ],
      [
        "lán",
        -10.201139722850886
      ],
      [
        "Carlo",
        -10.202850717900331
      ],
      [
        "kaburian",
        -10.203018253909576
      ],
      [
        "salikut",
        -10.203850779997252
      ],
      [
        "dalumdum",
        -10.204224791331335
      ],
      [
        "dinalan",
        -10.206653681931073
      ],
      [
        "Mí",
        -10.206891699862581
      ],
      [
        "kabilugan",
        -10.208572844552751
      ],
      [
        "pagka",
        -10.208703161291282
      ],
      [
        "eneral",
        -10.209054754913694
      ],
      [
        "information",
        -10.209467341049333
      ],
      [
        "Africa",
        -10.209468064198063
      ],
      [
        "Kastila",
        -10.209516033855852
      ],
      [
        "ikimedia",
        -10.209937142032956
      ],
      [
        "59",
        -10.210875007533984
      ],
      [
        "mirinan",
        -10.211091331259349
      ],
      [
        "70",
        -10.21144112421673
      ],
      [
        "akung",
        -10.212570964792558
      ],
      [
        "ilwal",
        -10.212877137755566
      ],
      [
        "luc",
        -10.213300413469598
      ],
      [
        "tter",
        -10.213930379083878
      ],
      [
        "usuk",
        -10.214755363558067
      ],
      [
        "cacung",
        -10.21510046565582
      ],
      [
        "panibalan",
        -10.216129163857756
      ],
      [
        "mangabaldugan",
        -10.216143181980684
      ],
      [
        "carbon",
        -10.216429809890762
      ],
      [
        "poeta",
        -10.216647166776028
      ],
      [
        "BBC",
        -10.216777776960125
      ],
      [
        "talaturu",
        -10.216780668354858
      ],
      [
        "69",
        -10.21725524115893
      ],
      [
        "pakilala",
        -10.21780375023674
      ],
      [
        "bí",
        -10.218702513267402
      ],
      [
        "Paris",
        -10.220302056054601
      ],
      [
        "CO",
        -10.221087711252885
      ],
      [
        "É",
        -10.222844577400952
      ],
      [
        "Australia",
        -10.222844583855863
      ],
      [
        "File",
        -10.223131605747128
      ],
      [
        "panintuna",
        -10.223208597489052
      ],
      [
        "malan",
        -10.223305789537626
      ],
      [
        "ugse",
        -10.223355555289555
      ],
      [
        "kayupaya",
        -10.223377191930886
      ],
      [
        "nik",
        -10.223709715991014
      ],
      [
        "té",
        -10.223852858996871
      ],
      [
        "drama",
        -10.225207672497616
      ],
      [
        "sira",
        -10.225335477882442
      ],
      [
        "anghel",
        -10.225728956381532
      ],
      [
        "layun",
        -10.226412218811804
      ],
      [
        "Paman",
        -10.226824438187528
      ],
      [
        "gulis",
        -10.227200818556305
      ],
      [
        "bukas",
        -10.22855676176156
      ],
      [
        "imba",
        -10.228758637332236
      ],
      [
        "’ng",
        -10.229408130030127
      ],
      [
        "autonom",
        -10.229606654582307
      ],
      [
        "sundalu",
        -10.22969049132892
      ],
      [
        "ní",
        -10.230555059100165
      ],
      [
        "kadwang",
        -10.231134121943631
      ],
      [
        "Post",
        -10.231305622121727
      ],
      [
        "likuan",
        -10.231769254679595
      ],
      [
        "article",
        -10.232105339178016
      ],
      [
        "Japan",
        -10.232262668588154
      ],
      [
        "sur",
        -10.23253112152073
      ],
      [
        "ller",
        -10.232580756500074
      ],
      [
        "Ain",
        -10.232686500433022
      ],
      [
        "Web",
        -10.233254177521024
      ],
      [
        "ball",
        -10.233402798666997
      ],
      [
        "sundu",
        -10.23393402240632
      ],
      [
        "song",
        -10.234344800999573
      ],
      [
        "pusan",
        -10.234527128451703
      ],
      [
        "rong",
        -10.234766234282255
      ],
      [
        "Pero",
        -10.235940490101974
      ],
      [
        "Tourism",
        -10.236404257226926
      ],
      [
        "Library",
        -10.236404576101085
      ],
      [
        "intindi",
        -10.23644918516898
      ],
      [
        "sistema",
        -10.236465395456783
      ],
      [
        "Miguel",
        -10.23648663107787
      ],
      [
        "maulingalbugan",
        -10.236733495524899
      ],
      [
        "alkus",
        -10.237487335674954
      ],
      [
        "samban",
        -10.237718449509703
      ],
      [
        "tini",
        -10.23830200197159
      ],
      [
        "pibandi",
        -10.23846937870742
      ],
      [
        "dios",
        -10.238785542872765
      ],
      [
        "58",
        -10.239742233724538
      ],
      [
        "alilan",
        -10.24032661572889
      ],
      [
        "canacu",
        -10.240508521134164
      ],
      [
        "tuc",
        -10.24230365364378
      ],
      [
        "Region",
        -10.243258837488405
      ],
      [
        "Union",
        -10.243393597502404
      ],
      [
        "taba",
        -10.24366492570262
      ],
      [
        "source",
        -10.243754988408984
      ],
      [
        "obrang",
        -10.245159653594278
      ],
      [
        "Juda",
        -10.246678314783207
      ],
      [
        "Sto",
        -10.247645767488962
      ],
      [
        "edit",
        -10.249743882027802
      ],
      [
        "Site",
        -10.24989530350258
      ],
      [
        "Labuad",
        -10.250150559091189
      ],
      [
        "bantug",
        -10.250223872864794
      ],
      [
        "paburen",
        -10.25040051538457
      ],
      [
        "High",
        -10.25051878540452
      ],
      [
        "masalese",
        -10.251517515821893
      ],
      [
        "Roque",
        -10.252286621234283
      ],
      [
        "páman",
        -10.253036658825101
      ],
      [
        "sugat",
        -10.254515847329378
      ],
      [
        "miyaliwa",
        -10.255440452991314
      ],
      [
        "bini",
        -10.255810931161957
      ],
      [
        "ikua",
        -10.255832761778688
      ],
      [
        "kaduang",
        -10.256132517554832
      ],
      [
        "D7",
        -10.256291373161398
      ],
      [
        "Photo",
        -10.257111227181607
      ],
      [
        "sentru",
        -10.257247429202344
      ],
      [
        "River",
        -10.257728209324291
      ],
      [
        "mangaragul",
        -10.257963717075281
      ],
      [
        "kilála",
        -10.259179271558292
      ],
      [
        "sasabyan",
        -10.260266786593581
      ],
      [
        "Ven",
        -10.260892578145704
      ],
      [
        "libr",
        -10.261007037013357
      ],
      [
        "Ken",
        -10.261505623176141
      ],
      [
        "matuang",
        -10.261628184416246
      ],
      [
        "óbr",
        -10.261656669562605
      ],
      [
        "Aliwa",
        -10.26184753054012
      ],
      [
        "Ini",
        -10.26198960361172
      ],
      [
        "Council",
        -10.264087378601415
      ],
      [
        "Arroyo",
        -10.264088091794049
      ],
      [
        "kalibudtan",
        -10.264088927569732
      ],
      [
        "opisyal",
        -10.264090344740964
      ],
      [
        "Capampangan",
        -10.264519721604557
      ],
      [
        "Malat",
        -10.264541807273654
      ],
      [
        "Aleman",
        -10.26461162042621
      ],
      [
        "53",
        -10.265044839063208
      ],
      [
        "tuntun",
        -10.265051615051
      ],
      [
        "ration",
        -10.265308098296789
      ],
      [
        "Bor",
        -10.267526389935455
      ],
      [
        "Rosa",
        -10.26873119186898
      ],
      [
        "Datang",
        -10.270172544305503
      ],
      [
        "amánu",
        -10.271099820751992
      ],
      [
        "•",
        -10.271129626997352
      ],
      [
        "William",
        -10.27112962797144
      ],
      [
        "Filipino",
        -10.271129628728785
      ],
      [
        "Technolog",
        -10.271129798841484
      ],
      [
        "yer",
        -10.27133594378637
      ],
      [
        "2002",
        -10.27191579632688
      ],
      [
        "end",
        -10.273391289398976
      ],
      [
        "taram",
        -10.274823746073478
      ],
      [
        "saupan",
        -10.27627281351377
      ],
      [
        "88",
        -10.277528367626644
      ],
      [
        "rul",
        -10.277749521787442
      ],
      [
        "patugut",
        -10.278270235484186
      ],
      [
        "Korea",
        -10.279039661729744
      ],
      [
        "President",
        -10.27999473588815
      ],
      [
        "100",
        -10.280477464586461
      ],
      [
        "Pá",
        -10.280555486715006
      ],
      [
        "pipi",
        -10.281868250712893
      ],
      [
        "még",
        -10.283096606840816
      ],
      [
        "Latin",
        -10.283131112413177
      ],
      [
        "90",
        -10.284763762363252
      ],
      [
        "dalaga",
        -10.285565712911179
      ],
      [
        "Alba",
        -10.286136704077297
      ],
      [
        "2003",
        -10.286280043495172
      ],
      [
        "carera",
        -10.286335931283304
      ],
      [
        "walung",
        -10.286466164139814
      ],
      [
        "yaus",
        -10.286534786771824
      ],
      [
        "ukum",
        -10.28689745385373
      ],
      [
        "ngapalyari",
        -10.287509825292112
      ],
      [
        "tudtu",
        -10.288217489221477
      ],
      [
        "awsan",
        -10.288680962665406
      ],
      [
        "pilit",
        -10.28878795135263
      ],
      [
        "burg",
        -10.288843350008904
      ],
      [
        "ugali",
        -10.289044722985043
      ],
      [
        "salukuyan",
        -10.289437871869765
      ],
      [
        "kasundu",
        -10.289451337311114
      ],
      [
        "dagat",
        -10.289482343618022
      ],
      [
        "inum",
        -10.289927881981814
      ],
      [
        "Buku",
        -10.29064054035042
      ],
      [
        "nanung",
        -10.291049040650133
      ],
      [
        "illo",
        -10.291509267178723
      ],
      [
        "bitasa",
        -10.291612679680782
      ],
      [
        "Roma",
        -10.291723245104585
      ],
      [
        "web",
        -10.291871975203577
      ],
      [
        "pasi",
        -10.291981944875651
      ],
      [
        "gubyernu",
        -10.292559051544522
      ],
      [
        "Renato",
        -10.29262605721737
      ],
      [
        "báyu",
        -10.292651244737845
      ],
      [
        "magobra",
        -10.29293881652773
      ],
      [
        "Samar",
        -10.292969324978944
      ],
      [
        "bebe",
        -10.29375873064493
      ],
      [
        "buklat",
        -10.294173256038704
      ],
      [
        "galang",
        -10.295047027298235
      ],
      [
        "rra",
        -10.29512012385354
      ],
      [
        "mako",
        -10.295701188867962
      ],
      [
        "susulat",
        -10.295993619082239
      ],
      [
        "sican",
        -10.297303962112831
      ],
      [
        "MP",
        -10.298522452077403
      ],
      [
        "bro",
        -10.29854882815107
      ],
      [
        "54",
        -10.299109005848909
      ],
      [
        "libung",
        -10.299208319409916
      ],
      [
        "Pangulung",
        -10.299728221382452
      ],
      [
        "dagdag",
        -10.299844307298459
      ],
      [
        "Bas-",
        -10.2998482347299
      ],
      [
        "suc",
        -10.30109754691863
      ],
      [
        "German",
        -10.301198965394963
      ],
      [
        "02",
        -10.30122166687719
      ],
      [
        "vers",
        -10.301905033298205
      ],
      [
        "Tau",
        -10.30259443798122
      ],
      [
        "patutu",
        -10.30269035526064
      ],
      [
        "parati",
        -10.303897824974488
      ],
      [
        "Pani",
        -10.30471512631518
      ],
      [
        "busal",
        -10.306074993912151
      ],
      [
        "Ligaya",
        -10.307141285755627
      ],
      [
        "Bra",
        -10.307217255388403
      ],
      [
        "marayu",
        -10.308065790143552
      ],
      [
        "tawli",
        -10.308300099148893
      ],
      [
        "ful",
        -10.309838748518505
      ],
      [
        "Park",
        -10.310100258328022
      ],
      [
        "pante",
        -10.310286155921762
      ],
      [
        "katayang",
        -10.310851663965542
      ],
      [
        "big",
        -10.311298908122676
      ],
      [
        "Sig",
        -10.31269169929572
      ],
      [
        "key",
        -10.314070265065439
      ],
      [
        "aduan",
        -10.31416892724032
      ],
      [
        "bangun",
        -10.314178315687766
      ],
      [
        "grasya",
        -10.315321955880849
      ],
      [
        "kasalang",
        -10.315333868234115
      ],
      [
        "panga-",
        -10.31558420376927
      ],
      [
        "pakibat",
        -10.316699269552148
      ],
      [
        "malu",
        -10.317445921071094
      ],
      [
        "tanam",
        -10.317755072052307
      ],
      [
        "Mika",
        -10.318079490347813
      ],
      [
        "makatuki",
        -10.318510376560317
      ],
      [
        "kol",
        -10.319391038351299
      ],
      [
        "pete",
        -10.320698164431231
      ],
      [
        "agi",
        -10.321199043758291
      ],
      [
        "Filipinu",
        -10.321864929817256
      ],
      [
        "televisi",
        -10.321865942190545
      ],
      [
        "Cebu",
        -10.32303432178892
      ],
      [
        "zu",
        -10.323384094016047
      ],
      [
        "kapuri",
        -10.323668470849743
      ],
      [
        "79",
        -10.324525103727293
      ],
      [
        "Tri",
        -10.324882136549235
      ],
      [
        "Dava",
        -10.325361692912137
      ],
      [
        "suma",
        -10.325452989919668
      ],
      [
        "yú",
        -10.325796699110871
      ],
      [
        "a’na",
        -10.325823073345504
      ],
      [
        "Kapata",
        -10.32597047801459
      ],
      [
        "aliua",
        -10.327544514202025
      ],
      [
        "Zamboang",
        -10.329327639766566
      ],
      [
        "damdam",
        -10.330293999450872
      ],
      [
        "BC",
        -10.330464273982454
      ],
      [
        "péka",
        -10.330668099005283
      ],
      [
        "baryu",
        -10.33078340818781
      ],
      [
        "wit",
        -10.331291993653226
      ],
      [
        "katutubu",
        -10.332156926860065
      ],
      [
        "cur",
        -10.332207239791641
      ],
      [
        "Miss",
        -10.332321568216466
      ],
      [
        "binang",
        -10.33435292440997
      ],
      [
        "bio",
        -10.335438351408857
      ],
      [
        "pane",
        -10.335886776172233
      ],
      [
        "lála",
        -10.336410835917093
      ],
      [
        "Sar",
        -10.336443377908942
      ],
      [
        "east",
        -10.338711613353764
      ],
      [
        "ero",
        -10.33948004535667
      ],
      [
        "cacu",
        -10.340065700423212
      ],
      [
        "ally",
        -10.340169560546588
      ],
      [
        "list",
        -10.343181488741555
      ],
      [
        "Ngara",
        -10.344455131205411
      ],
      [
        "VI",
        -10.344525558284642
      ],
      [
        "Bus",
        -10.344562321567484
      ],
      [
        "Luzon",
        -10.344820376785993
      ],
      [
        "Los",
        -10.34487363818402
      ],
      [
        "banalan",
        -10.345033386653611
      ],
      [
        "Keba",
        -10.345224941840115
      ],
      [
        "simpan",
        -10.345625228862664
      ],
      [
        "limbag",
        -10.348576896043195
      ],
      [
        "manalangin",
        -10.348745445211367
      ],
      [
        "cayá",
        -10.34884122698348
      ],
      [
        "durut",
        -10.349226468200207
      ],
      [
        "matua",
        -10.349272664999656
      ],
      [
        "deta",
        -10.349498745638858
      ],
      [
        "kapamahalan",
        -10.352056102403916
      ],
      [
        "Russia",
        -10.3520849270759
      ],
      [
        "Nanung",
        -10.352343362439733
      ],
      [
        "jan",
        -10.352441987856606
      ],
      [
        "lambat",
        -10.354657904601579
      ],
      [
        "Guide",
        -10.355063914725463
      ],
      [
        "App",
        -10.355196875154276
      ],
      [
        "2013",
        -10.355647226990643
      ],
      [
        "vin",
        -10.355747603322051
      ],
      [
        "ism",
        -10.357211937626232
      ],
      [
        "guin",
        -10.358375911206306
      ],
      [
        "mebie",
        -10.358568809838712
      ],
      [
        "Societ",
        -10.359748089537732
      ],
      [
        "pipagaralan",
        -10.359756349703556
      ],
      [
        "múmúna",
        -10.359771215547877
      ],
      [
        "Alzad",
        -10.35978106355918
      ],
      [
        "mibaba",
        -10.359782116440286
      ],
      [
        "back",
        -10.360004924851056
      ],
      [
        "1999",
        -10.36014041041899
      ],
      [
        "ON",
        -10.360175640664005
      ],
      [
        "Pepa",
        -10.36094242965118
      ],
      [
        "Basse",
        -10.361513392445852
      ],
      [
        "alun",
        -10.361515792183999
      ],
      [
        "gintu",
        -10.361858643730121
      ],
      [
        "pareu",
        -10.361964386741674
      ],
      [
        "maulagang",
        -10.363819287618185
      ],
      [
        "var",
        -10.365970688958845
      ],
      [
        "fic",
        -10.366330114193012
      ],
      [
        "bulag",
        -10.36691780498198
      ],
      [
        "Shi",
        -10.367076107057088
      ],
      [
        "uryan",
        -10.367258153100494
      ],
      [
        "G7",
        -10.367431420436425
      ],
      [
        "kabilyan",
        -10.367576846229781
      ],
      [
        "ito",
        -10.36805281006145
      ],
      [
        "táu",
        -10.368123409069362
      ],
      [
        "pangaku",
        -10.36888945622108
      ],
      [
        "census",
        -10.370673282101276
      ],
      [
        "ikwa",
        -10.371915850527971
      ],
      [
        "banda",
        -10.372530090298675
      ],
      [
        "56",
        -10.372785763554852
      ],
      [
        "try",
        -10.373536295173466
      ],
      [
        "panaral",
        -10.374105370653865
      ],
      [
        "mayayak",
        -10.37420730997119
      ],
      [
        "UP",
        -10.374413766023924
      ],
      [
        "also",
        -10.375251749164363
      ],
      [
        "mabibie",
        -10.375362414585812
      ],
      [
        "carela",
        -10.375395374611701
      ],
      [
        "Cris",
        -10.375591075960266
      ],
      [
        "talasuyu",
        -10.375625015358246
      ],
      [
        "pabustan",
        -10.375696896562317
      ],
      [
        "Fr",
        -10.376388368368833
      ],
      [
        "dú",
        -10.376846216255254
      ],
      [
        "Leon",
        -10.3771062291305
      ],
      [
        "eniwala",
        -10.378171067064685
      ],
      [
        "into",
        -10.379778589015036
      ],
      [
        "Sol",
        -10.381160830023966
      ],
      [
        "Kapampángan",
        -10.383186517351838
      ],
      [
        "evolution",
        -10.383189524982313
      ],
      [
        "manungkulan",
        -10.383192184783358
      ],
      [
        "1986",
        -10.383192866229063
      ],
      [
        "botu",
        -10.383378163838504
      ],
      [
        "Nuan",
        -10.384493880974443
      ],
      [
        "work",
        -10.384593837676821
      ],
      [
        "kasal",
        -10.38667574008712
      ],
      [
        "ù",
        -10.387124973725829
      ],
      [
        "Capit",
        -10.38773554982648
      ],
      [
        "ta’",
        -10.388140184506952
      ],
      [
        "Ze",
        -10.388305584051636
      ],
      [
        "Tar",
        -10.389196868149142
      ],
      [
        "Espania",
        -10.390055588539273
      ],
      [
        "Alt",
        -10.390229944221922
      ],
      [
        "-Norman",
        -10.390487259780834
      ],
      [
        "Magsaysay",
        -10.391123040500592
      ],
      [
        "British",
        -10.39112345613231
      ],
      [
        "1998",
        -10.391493555528722
      ],
      [
        "stor",
        -10.39157059456852
      ],
      [
        "format",
        -10.393136373788806
      ],
      [
        "antabe",
        -10.394300022799051
      ],
      [
        "than",
        -10.39493298952225
      ],
      [
        "berg",
        -10.395412902308916
      ],
      [
        "west",
        -10.39552414122181
      ],
      [
        "sug",
        -10.397459813361994
      ],
      [
        "inutus",
        -10.397472309285517
      ],
      [
        "get",
        -10.397532379364186
      ],
      [
        "dusa",
        -10.398323572895187
      ],
      [
        "Christ",
        -10.398940992470148
      ],
      [
        "election",
        -10.39931989333439
      ],
      [
        "Hapon",
        -10.399428587380399
      ],
      [
        "Antimo",
        -10.40081026725288
      ],
      [
        "stitut",
        -10.401082347819425
      ],
      [
        "tatakut",
        -10.401669822126166
      ],
      [
        "ches",
        -10.401730996038875
      ],
      [
        "uring",
        -10.401745443795779
      ],
      [
        "marakal",
        -10.403233714718448
      ],
      [
        "ship",
        -10.403451456647684
      ],
      [
        "rate",
        -10.403535209123524
      ],
      [
        "tutuk",
        -10.403867614803424
      ],
      [
        "she",
        -10.404296017560839
      ],
      [
        "app",
        -10.405945687488245
      ],
      [
        "Jehova",
        -10.407187539101097
      ],
      [
        "pelikula",
        -10.407190924706143
      ],
      [
        "Pablasa",
        -10.407277519369266
      ],
      [
        "lutu",
        -10.40781910000166
      ],
      [
        "tribu",
        -10.408318102611396
      ],
      [
        "bati",
        -10.409888649140221
      ],
      [
        "UE",
        -10.409909118108944
      ],
      [
        "ugne",
        -10.41086809232738
      ],
      [
        "gising",
        -10.411690174818016
      ],
      [
        "ness",
        -10.41353115564045
      ],
      [
        "úli",
        -10.41393437888626
      ],
      [
        "MAN",
        -10.414972778244206
      ],
      [
        "president",
        -10.415343814880071
      ],
      [
        "Est",
        -10.415802617212558
      ],
      [
        "Aslagan",
        -10.41591778697262
      ],
      [
        "bié",
        -10.418048783752269
      ],
      [
        "lingap",
        -10.418173898374782
      ],
      [
        "malino",
        -10.41841653317935
      ],
      [
        "plant",
        -10.418670157951972
      ],
      [
        "ize",
        -10.419102416988368
      ],
      [
        "Dayat",
        -10.41913397249315
      ],
      [
        "have",
        -10.421993277814945
      ],
      [
        "Sabla",
        -10.422327349917495
      ],
      [
        "Geografia",
        -10.423514339819054
      ],
      [
        "Oriental",
        -10.423514358829024
      ],
      [
        "Kristo",
        -10.42352226237393
      ],
      [
        "Kemat",
        -10.42375419686177
      ],
      [
        "pulu’t",
        -10.424570932969365
      ],
      [
        "Bri",
        -10.424673673761909
      ],
      [
        "Andre",
        -10.424872558776501
      ],
      [
        "county",
        -10.425872871659646
      ],
      [
        "penand",
        -10.42641771466784
      ],
      [
        "acea",
        -10.428860107685761
      ],
      [
        "muli",
        -10.428967559207244
      ],
      [
        "mangalating",
        -10.429457249098117
      ],
      [
        "siglu",
        -10.429634338056372
      ],
      [
        "ingatan",
        -10.42977001282759
      ],
      [
        "daralan",
        -10.429912990759933
      ],
      [
        "Fer",
        -10.430232807710759
      ],
      [
        "suporta",
        -10.430356492986256
      ],
      [
        "pí",
        -10.43173244679922
      ],
      [
        "Mindanao",
        -10.431779361894542
      ],
      [
        "view",
        -10.431819207113785
      ],
      [
        "miayaliwa",
        -10.431876358140656
      ],
      [
        "Niño",
        -10.432007451891657
      ],
      [
        "pitu",
        -10.432125496888435
      ],
      [
        "panyul",
        -10.43269458733094
      ],
      [
        "guit",
        -10.432926950993528
      ],
      [
        "bagya",
        -10.43342343988554
      ],
      [
        "EN",
        -10.433571666375375
      ],
      [
        "zar",
        -10.434135174128157
      ],
      [
        "Misan",
        -10.434399364283165
      ],
      [
        "Ser",
        -10.436080756421827
      ],
      [
        "Oini",
        -10.436371392392944
      ],
      [
        "akup",
        -10.439555515418792
      ],
      [
        "some",
        -10.439604806987472
      ],
      [
        "vari",
        -10.44049436267888
      ],
      [
        "binyag",
        -10.440515796674887
      ],
      [
        "Great",
        -10.440525796074422
      ],
      [
        "malilyari",
        -10.440851567441435
      ],
      [
        "kapag",
        -10.440901198233242
      ],
      [
        "68",
        -10.441408843641563
      ],
      [
        "kaisipan",
        -10.441425616743029
      ],
      [
        "balangkas",
        -10.442959802789387
      ],
      [
        "klasi",
        -10.444145419198351
      ],
      [
        "Star",
        -10.444325065364414
      ],
      [
        "prefecture-",
        -10.446272722576026
      ],
      [
        "Sun",
        -10.44670904260369
      ],
      [
        "195",
        -10.447533921424123
      ],
      [
        "píkabalu",
        -10.448544805606796
      ],
      [
        "Common",
        -10.448728211322685
      ],
      [
        "record",
        -10.448757571722028
      ],
      [
        "tinubu",
        -10.449066990043486
      ],
      [
        "bulus",
        -10.449229228567335
      ],
      [
        "ign",
        -10.449309361096343
      ],
      [
        "Pulu",
        -10.44965592758432
      ],
      [
        "nder",
        -10.449697144748416
      ],
      [
        "1980",
        -10.449740291519891
      ],
      [
        "amlat",
        -10.450420041707023
      ],
      [
        "side",
        -10.451283932792055
      ],
      [
        "Deti",
        -10.451530532745164
      ],
      [
        "ibili",
        -10.454185736668357
      ],
      [
        "ginu",
        -10.454333126272179
      ],
      [
        "Guin",
        -10.456025334766013
      ],
      [
        "lilan",
        -10.456762735876284
      ],
      [
        "industria",
        -10.456991076403536
      ],
      [
        "Aquino",
        -10.457001107104738
      ],
      [
        "Louis",
        -10.457002086134377
      ],
      [
        "Kayari",
        -10.457316683792415
      ],
      [
        "munie",
        -10.457379779238355
      ],
      [
        "high",
        -10.457533769716012
      ],
      [
        "panamdam",
        -10.457705171197448
      ],
      [
        "timan",
        -10.458322563370395
      ],
      [
        "bante",
        -10.458387437712236
      ],
      [
        "cher",
        -10.45949555501442
      ],
      [
        "who",
        -10.465096201048816
      ],
      [
        "Project",
        -10.465537082868526
      ],
      [
        "Pacific",
        -10.465537099674803
      ],
      [
        "Office",
        -10.465537558735637
      ],
      [
        "planeta",
        -10.465608560861385
      ],
      [
        "James",
        -10.465647917234534
      ],
      [
        "kinua",
        -10.466696228232959
      ],
      [
        "anggap",
        -10.467072307718833
      ],
      [
        "Pamag",
        -10.467192895686203
      ],
      [
        "paniwalan",
        -10.467347706930093
      ],
      [
        "tauling",
        -10.46780248778225
      ],
      [
        "abad",
        -10.468780620132643
      ],
      [
        "bibi",
        -10.46935647158788
      ],
      [
        "75",
        -10.469356788854075
      ],
      [
        "Amanu",
        -10.471088044144672
      ],
      [
        "lino",
        -10.471151989512528
      ],
      [
        "puk",
        -10.471350482359291
      ],
      [
        "Dec",
        -10.471541116842236
      ],
      [
        "lagan",
        -10.472554747601771
      ],
      [
        "milyun",
        -10.47265893443055
      ],
      [
        "Air",
        -10.472807046663842
      ],
      [
        "dewaka",
        -10.47307643107422
      ],
      [
        "headquarter",
        -10.474157772784505
      ],
      [
        "government",
        -10.47415779287052
      ],
      [
        "Abraham",
        -10.474158134499731
      ],
      [
        "Network",
        -10.474158160020892
      ],
      [
        "Galilea",
        -10.47416304621933
      ],
      [
        "capital",
        -10.47419957871147
      ],
      [
        "Salamat",
        -10.474209572818488
      ],
      [
        "talastas",
        -10.474318477529547
      ],
      [
        "labanan",
        -10.474530438841189
      ],
      [
        "tandanan",
        -10.47491920619174
      ],
      [
        "rugu",
        -10.47494173011182
      ],
      [
        "pepakit",
        -10.476192198608498
      ],
      [
        "Reyna",
        -10.477799858332911
      ],
      [
        "gil",
        -10.478069821096689
      ],
      [
        "Megi",
        -10.479286319686892
      ],
      [
        "part",
        -10.479380778026552
      ],
      [
        "púlu",
        -10.479397469276892
      ],
      [
        "mitipun",
        -10.480110770104247
      ],
      [
        "June",
        -10.480300384161406
      ],
      [
        "pamanibala",
        -10.48080288216013
      ],
      [
        "tín",
        -10.481122135296424
      ],
      [
        "tuturing",
        -10.481694404558507
      ],
      [
        "saken",
        -10.482602153611221
      ],
      [
        "People",
        -10.482853515121768
      ],
      [
        "Castila",
        -10.482865002687628
      ],
      [
        "gao",
        -10.483158751045824
      ],
      [
        "minum",
        -10.4837537390813
      ],
      [
        "malutu",
        -10.484302795838413
      ],
      [
        "marok",
        -10.484331396526294
      ],
      [
        "pamintu",
        -10.484858994299671
      ],
      [
        "wag",
        -10.48542273137205
      ],
      [
        "Sabi",
        -10.486024162860598
      ],
      [
        "Sen",
        -10.48612807769787
      ],
      [
        "kapanayan",
        -10.486752609331855
      ],
      [
        "decadang",
        -10.488275761047287
      ],
      [
        "mismung",
        -10.488423277926222
      ],
      [
        "this",
        -10.489443124419461
      ],
      [
        "Garcia",
        -10.489614579479234
      ],
      [
        "tunggal",
        -10.490291836367794
      ],
      [
        "penibatan",
        -10.490669946414954
      ],
      [
        "ompositor",
        -10.491626193796378
      ],
      [
        "Nueva",
        -10.491629300997964
      ],
      [
        "sinuyu",
        -10.491691133897117
      ],
      [
        "tric",
        -10.491704805669492
      ],
      [
        "Rosario",
        -10.491730355681867
      ],
      [
        "Book",
        -10.492162236589582
      ],
      [
        "Dom",
        -10.492565198557735
      ],
      [
        "Kasusu",
        -10.493450324033997
      ],
      [
        "Er",
        -10.493841578610475
      ],
      [
        "mayumu",
        -10.493935342149058
      ],
      [
        "ever",
        -10.494079512940662
      ],
      [
        "patawar",
        -10.494132463798703
      ],
      [
        "agia",
        -10.494581324425102
      ],
      [
        "laram",
        -10.494670578830476
      ],
      [
        "maputi",
        -10.494996376404952
      ],
      [
        "mapalyari",
        -10.495635607373043
      ],
      [
        "kutkutan",
        -10.496450952776726
      ],
      [
        "over",
        -10.498295378938263
      ],
      [
        "See",
        -10.499533116472065
      ],
      [
        "kultura",
        -10.499692877176402
      ],
      [
        "ō",
        -10.500474911300632
      ],
      [
        "people",
        -10.500475208938164
      ],
      [
        "Commerc",
        -10.50048535340898
      ],
      [
        "Kailangan",
        -10.500521408157372
      ],
      [
        "Robert",
        -10.500608842738078
      ],
      [
        "Bali",
        -10.50065884853367
      ],
      [
        "Press",
        -10.500693817450625
      ],
      [
        "uyat",
        -10.500806729832007
      ],
      [
        "Sab",
        -10.502443403724914
      ],
      [
        "Maha",
        -10.503444408474785
      ],
      [
        "kamb",
        -10.504385178134491
      ],
      [
        "tab",
        -10.506901471186818
      ],
      [
        "sakdal",
        -10.507501730608226
      ],
      [
        "wis",
        -10.507703076415423
      ],
      [
        "duru",
        -10.50916941515236
      ],
      [
        "ā",
        -10.509403482729203
      ],
      [
        "Amerika",
        -10.509409957472105
      ],
      [
        "kondadu",
        -10.50941172190323
      ],
      [
        "Franci",
        -10.509446850678174
      ],
      [
        "House",
        -10.509622553936532
      ],
      [
        "commun",
        -10.509851462059391
      ],
      [
        "TV",
        -10.510390800482828
      ],
      [
        "file",
        -10.510758328212361
      ],
      [
        "lawen",
        -10.513055253433649
      ],
      [
        "year",
        -10.513419019453385
      ],
      [
        "watas",
        -10.513977363216977
      ],
      [
        "Bet",
        -10.514267667193504
      ],
      [
        "Ger",
        -10.51452427882348
      ],
      [
        "yábé",
        -10.51480605674967
      ],
      [
        "Ob",
        -10.516460423133893
      ],
      [
        "karas",
        -10.516885286401788
      ],
      [
        "hor",
        -10.518009351418508
      ],
      [
        "57",
        -10.518050706978087
      ],
      [
        "Business",
        -10.518412996647891
      ],
      [
        "album",
        -10.518720007464676
      ],
      [
        "Bataan",
        -10.51874821977516
      ],
      [
        "mangailangan",
        -10.518810455564248
      ],
      [
        "Nukarin",
        -10.519337070695304
      ],
      [
        "1995",
        -10.519501678693882
      ],
      [
        "Santos",
        -10.519640089835926
      ],
      [
        "kuldas",
        -10.520397640050163
      ],
      [
        "lagé",
        -10.520599955383133
      ],
      [
        "bangka",
        -10.52076130693004
      ],
      [
        "manaya",
        -10.52080411314994
      ],
      [
        "pamisan",
        -10.520886248645681
      ],
      [
        "serie",
        -10.52130378062276
      ],
      [
        "libe",
        -10.521320964785389
      ],
      [
        "míba",
        -10.52163727739887
      ],
      [
        "Tomas",
        -10.52205214498149
      ],
      [
        "Gen",
        -10.522327286994962
      ],
      [
        "Intern",
        -10.523240091403931
      ],
      [
        "activ",
        -10.523715887100067
      ],
      [
        "local",
        -10.524147451287476
      ],
      [
        "paten",
        -10.525694720878972
      ],
      [
        "→",
        -10.52750340082912
      ],
      [
        "Gobernador",
        -10.527503401166967
      ],
      [
        "karampatan",
        -10.527503663316791
      ],
      [
        "Museum",
        -10.527505249209842
      ],
      [
        "Manuel",
        -10.527763065288159
      ],
      [
        "char",
        -10.52833863621619
      ],
      [
        "ente",
        -10.5284995256328
      ],
      [
        "1990",
        -10.52864296063513
      ],
      [
        "March",
        -10.528878769651413
      ],
      [
        "kayapan",
        -10.529171087951454
      ],
      [
        "linap",
        -10.530046295291445
      ],
      [
        "Holy",
        -10.531038933660803
      ],
      [
        "Makananu",
        -10.53213197943624
      ],
      [
        "Cho",
        -10.532219774333296
      ],
      [
        "LE",
        -10.53237425318435
      ],
      [
        "panayan",
        -10.532529266652869
      ],
      [
        "Sub",
        -10.533244300755038
      ],
      [
        "angganan",
        -10.533620548379854
      ],
      [
        "bista",
        -10.533797054656993
      ],
      [
        "pagal",
        -10.53434550662087
      ],
      [
        "school",
        -10.536683992677968
      ],
      [
        "pablasa",
        -10.536742887194915
      ],
      [
        "ization",
        -10.53718035046791
      ],
      [
        "Italia",
        -10.538088482177898
      ],
      [
        "like",
        -10.538624310294406
      ],
      [
        "nalangin",
        -10.539587489236109
      ],
      [
        "gagawa",
        -10.540568207938163
      ],
      [
        "mangga",
        -10.540627285918
      ],
      [
        "payung",
        -10.540901553273413
      ],
      [
        "kakaluguran",
        -10.540931740258056
      ],
      [
        "panulu",
        -10.541433863673841
      ],
      [
        "pupul",
        -10.541535445580195
      ],
      [
        "67",
        -10.542520499973609
      ],
      [
        "Arch",
        -10.54465395372603
      ],
      [
        "Alimbawa",
        -10.545937161225321
      ],
      [
        "George",
        -10.545939077194072
      ],
      [
        "region",
        -10.545972109394814
      ],
      [
        "kamaganak",
        -10.546388866350089
      ],
      [
        "hol",
        -10.546621996877494
      ],
      [
        "Menga",
        -10.546813156804644
      ],
      [
        "ough",
        -10.547154102337544
      ],
      [
        "milako",
        -10.54717867272848
      ],
      [
        "aguman",
        -10.547363798665687
      ],
      [
        "suyu",
        -10.547478200712202
      ],
      [
        "Sala",
        -10.547672599848227
      ],
      [
        "Apu",
        -10.547690218757559
      ],
      [
        "altar",
        -10.547979244329532
      ],
      [
        "read",
        -10.548717061658715
      ],
      [
        "cultura",
        -10.548889870960943
      ],
      [
        "play",
        -10.5490951166136
      ],
      [
        "intang",
        -10.549187479810005
      ],
      [
        "clasi",
        -10.549886773647966
      ],
      [
        "matudtu",
        -10.550287082552586
      ],
      [
        "duct",
        -10.550402947617888
      ],
      [
        "ndam",
        -10.550477273676359
      ],
      [
        "Best",
        -10.550698031875442
      ],
      [
        "spir",
        -10.55321190281326
      ],
      [
        "ô",
        -10.55528276569201
      ],
      [
        "Golden",
        -10.555284836663073
      ],
      [
        "Birhen",
        -10.555299634068874
      ],
      [
        "bias",
        -10.555389367379664
      ],
      [
        "Pari",
        -10.557730608199437
      ],
      [
        "lwa",
        -10.558432590485985
      ],
      [
        "Balita",
        -10.558838947639387
      ],
      [
        "post",
        -10.559039736159528
      ],
      [
        "ganakan",
        -10.560249264897905
      ],
      [
        "ext",
        -10.560707039955162
      ],
      [
        "Sch",
        -10.561158732126735
      ],
      [
        "oso",
        -10.564142068596112
      ],
      [
        "panamdaman",
        -10.564341266622108
      ],
      [
        "misulat",
        -10.564570423737418
      ],
      [
        "Charles",
        -10.564843764803332
      ],
      [
        "lunto",
        -10.564903007024242
      ],
      [
        "Grand",
        -10.56585153834164
      ],
      [
        "karapatan",
        -10.566153514738325
      ],
      [
        "paganu",
        -10.5665406729407
      ],
      [
        "Henr",
        -10.567614940489516
      ],
      [
        "1Pe",
        -10.568430495388354
      ],
      [
        "guil",
        -10.569985222238227
      ],
      [
        "Tre",
        -10.570297233669413
      ],
      [
        "inuman",
        -10.571596968112736
      ],
      [
        "bulu",
        -10.572818164813679
      ],
      [
        "more",
        -10.573500194914114
      ],
      [
        "+",
        -10.57424053819547
      ],
      [
        "Jesucristo",
        -10.574240538384387
      ],
      [
        "sinagoga",
        -10.574251295205352
      ],
      [
        "malagung",
        -10.57439880849197
      ],
      [
        "pamulala",
        -10.575379172253392
      ],
      [
        "pang2",
        -10.57572170231796
      ],
      [
        "Jesu-",
        -10.57575395986835
      ],
      [
        "elec",
        -10.575805091866334
      ],
      [
        "menakit",
        -10.57622082434493
      ],
      [
        "personal",
        -10.576790506409182
      ],
      [
        "alalan",
        -10.577863638689845
      ],
      [
        "sikat",
        -10.57812119361815
      ],
      [
        "sumpa",
        -10.579046212173338
      ],
      [
        "TO",
        -10.579343960744957
      ],
      [
        "misna",
        -10.581063912771228
      ],
      [
        "salapi",
        -10.581518668488936
      ],
      [
        "hich",
        -10.58283416705132
      ],
      [
        "niversidad",
        -10.58330773812288
      ],
      [
        "Agustin",
        -10.583857373272444
      ],
      [
        "lulub",
        -10.584146642138585
      ],
      [
        "Mont",
        -10.584460175626486
      ],
      [
        "lakwan",
        -10.584950941797663
      ],
      [
        "Ram",
        -10.585020269407881
      ],
      [
        "wayan",
        -10.587645149852959
      ],
      [
        "Puri",
        -10.58784028724994
      ],
      [
        "scr",
        -10.587951389088454
      ],
      [
        "pangatau",
        -10.588909394265897
      ],
      [
        "basi",
        -10.589665869739038
      ],
      [
        "Inc",
        -10.590187097026554
      ],
      [
        "count",
        -10.590909054327359
      ],
      [
        "order",
        -10.591016409109146
      ],
      [
        "mark",
        -10.592321994869856
      ],
      [
        "ikami",
        -10.592499404685874
      ],
      [
        "bot",
        -10.592884222654515
      ],
      [
        "ा",
        -10.593564660674932
      ],
      [
        "gobernador",
        -10.593564660758428
      ],
      [
        "Director",
        -10.593564665731908
      ],
      [
        "Negro",
        -10.593672522819295
      ],
      [
        "Kabud",
        -10.595262619099945
      ],
      [
        "ramdaman",
        -10.595976362998167
      ],
      [
        "mabilis",
        -10.596572871606643
      ],
      [
        "far",
        -10.597216248393117
      ],
      [
        "belu",
        -10.597366689054885
      ],
      [
        "sasakup",
        -10.59769566401157
      ],
      [
        "babasan",
        -10.59777657215855
      ],
      [
        "hon",
        -10.598499674725497
      ],
      [
        "Mira",
        -10.599774160539791
      ],
      [
        "Bakit",
        -10.602181679013865
      ],
      [
        "agalug",
        -10.602960688298113
      ],
      [
        "múrin",
        -10.603255181713497
      ],
      [
        "Aptas",
        -10.603393132748163
      ],
      [
        "Online",
        -10.603496359987192
      ],
      [
        "dáké",
        -10.60362119174711
      ],
      [
        "-edit",
        -10.603707312472395
      ],
      [
        "Music",
        -10.604275133503087
      ],
      [
        "tuglung",
        -10.604877893135765
      ],
      [
        "alipan",
        -10.60493174657264
      ],
      [
        "Monte",
        -10.60578627976411
      ],
      [
        "campu",
        -10.606069620582339
      ],
      [
        "úlu",
        -10.607269723831914
      ],
      [
        "karen",
        -10.607499911284581
      ],
      [
        "will",
        -10.608068299897091
      ],
      [
        "wakas",
        -10.608956061005088
      ],
      [
        "manibala",
        -10.609241703338359
      ],
      [
        "macá",
        -10.610608533609437
      ],
      [
        "sumangi",
        -10.61149807682866
      ],
      [
        "Anac",
        -10.61186649475037
      ],
      [
        "mayg",
        -10.611890111257932
      ],
      [
        "pilitan",
        -10.61247377732795
      ],
      [
        "takutan",
        -10.61266820526511
      ],
      [
        "Mexico",
        -10.613270237555643
      ],
      [
        "palsintan",
        -10.613356190837544
      ],
      [
        "genetic",
        -10.613556911734792
      ],
      [
        "tatak",
        -10.613574541660697
      ],
      [
        "Bou",
        -10.613621983128308
      ],
      [
        "reni",
        -10.614181380367437
      ],
      [
        "babi",
        -10.614462700640958
      ],
      [
        "bakal",
        -10.614538203739004
      ],
      [
        "kebaluan",
        -10.615070176924519
      ],
      [
        "ux",
        -10.615228126318865
      ],
      [
        "kalingu",
        -10.616501038275878
      ],
      [
        "ound",
        -10.617660771483564
      ],
      [
        "programa",
        -10.617682007874496
      ],
      [
        "keganagana",
        -10.618664413286904
      ],
      [
        "Gregorian",
        -10.618710117270338
      ],
      [
        "test",
        -10.619399988377719
      ],
      [
        "kayi",
        -10.621012338746969
      ],
      [
        "Imp",
        -10.621567601811865
      ],
      [
        "Occidental",
        -10.623269572346617
      ],
      [
        "Gloria",
        -10.623271686782275
      ],
      [
        "Karagdagan",
        -10.623300400336866
      ],
      [
        "ligalig",
        -10.623432655930614
      ],
      [
        "product",
        -10.623635003716581
      ],
      [
        "pánga",
        -10.623752812881342
      ],
      [
        "matibe",
        -10.623984602984258
      ],
      [
        "sukad",
        -10.62410437422183
      ],
      [
        "paligi",
        -10.6249730187843
      ],
      [
        "Note",
        -10.625150598300465
      ],
      [
        "kapitna",
        -10.625960315065871
      ],
      [
        "tutú",
        -10.626194658197154
      ],
      [
        "town",
        -10.627038992720525
      ],
      [
        "eks",
        -10.627508625585435
      ],
      [
        "pikabal",
        -10.627535824698104
      ],
      [
        "aklat",
        -10.629206065833042
      ],
      [
        "makamate",
        -10.629689866549864
      ],
      [
        "kakanan",
        -10.629723389710662
      ],
      [
        "matwa",
        -10.630583586049479
      ],
      [
        "each",
        -10.632427348535417
      ],
      [
        "yalal",
        -10.632956096923868
      ],
      [
        "First",
        -10.633372292857825
      ],
      [
        "Italy",
        -10.633971343340832
      ],
      [
        "peki",
        -10.634280706072767
      ],
      [
        "paninap",
        -10.634491798864318
      ],
      [
        "pú",
        -10.636283867804657
      ],
      [
        "lwal",
        -10.638255407649401
      ],
      [
        "pagnasan",
        -10.640038736546156
      ],
      [
        "ogon",
        -10.640860690764693
      ],
      [
        "kú",
        -10.642354140560208
      ],
      [
        "ukluk",
        -10.642503473837738
      ],
      [
        "public",
        -10.643425276318162
      ],
      [
        "Prefecture",
        -10.64357466410182
      ],
      [
        "Fariseo",
        -10.64357497776837
      ],
      [
        "JPG",
        -10.643587756571904
      ],
      [
        "poesia",
        -10.64360940005947
      ],
      [
        "pamanuru",
        -10.64361263770299
      ],
      [
        "zz",
        -10.643738617423807
      ],
      [
        "pulu't",
        -10.64399380985422
      ],
      [
        "kundi",
        -10.644454184069664
      ],
      [
        "vil",
        -10.644910815976857
      ],
      [
        "1960",
        -10.645166383968522
      ],
      [
        "UK",
        -10.645268046813472
      ],
      [
        "Nav",
        -10.645665677233225
      ],
      [
        "tutubu",
        -10.645717334679762
      ],
      [
        "ogo",
        -10.647557537585612
      ],
      [
        "porma",
        -10.648251008835413
      ],
      [
        "Sir",
        -10.649654889404875
      ],
      [
        "Syn",
        -10.650353272315792
      ],
      [
        "Hall",
        -10.652344656755385
      ],
      [
        "August",
        -10.653883994695448
      ],
      [
        "gina",
        -10.654138160436382
      ],
      [
        "dininan",
        -10.655005703046061
      ],
      [
        "pupunta",
        -10.655007860726759
      ],
      [
        "Life",
        -10.655096582690511
      ],
      [
        "panalig",
        -10.655326658935444
      ],
      [
        "ello",
        -10.655817210031325
      ],
      [
        "Luis",
        -10.656113624569846
      ],
      [
        "mayor",
        -10.656997309443838
      ],
      [
        "maluat",
        -10.657937255895938
      ],
      [
        "Inglis",
        -10.658365560355008
      ],
      [
        "kawal",
        -10.658596221397577
      ],
      [
        "danup",
        -10.658949840161913
      ],
      [
        "Cab",
        -10.659336205155412
      ],
      [
        "Pati",
        -10.660691326928534
      ],
      [
        "ulisak",
        -10.662013530012477
      ],
      [
        "tunan",
        -10.662331581538442
      ],
      [
        "base",
        -10.662620418342279
      ],
      [
        "Centro",
        -10.664310657086048
      ],
      [
        "asuk",
        -10.664319078178169
      ],
      [
        "Hindi",
        -10.664339794444984
      ],
      [
        "Administration",
        -10.664513292271657
      ],
      [
        "Aguinald",
        -10.664553366001245
      ],
      [
        "point",
        -10.664563010183924
      ],
      [
        "migsilbi",
        -10.664565227898292
      ],
      [
        "Pabust",
        -10.664728905203576
      ],
      [
        "ñ",
        -10.66579150479085
      ],
      [
        "Far",
        -10.665931714312272
      ],
      [
        "Media",
        -10.666273980132917
      ],
      [
        "sign",
        -10.66628412541838
      ],
      [
        "mabayat",
        -10.667270625827292
      ],
      [
        "lpantay",
        -10.667872022696207
      ],
      [
        "enus",
        -10.670396714217596
      ],
      [
        "Cabu",
        -10.670446232710166
      ],
      [
        "abac",
        -10.670649482087683
      ],
      [
        "pel",
        -10.670722970640103
      ],
      [
        "Ikit",
        -10.673002817106438
      ],
      [
        "ould",
        -10.673328963127528
      ],
      [
        "níti",
        -10.67376263223171
      ],
      [
        "Cot",
        -10.674070755156766
      ],
      [
        "tinuki",
        -10.674096877070175
      ],
      [
        "Bilang",
        -10.674391488411963
      ],
      [
        "ü",
        -10.67482692488289
      ],
      [
        "Spanish",
        -10.674830612638242
      ],
      [
        "Isabel",
        -10.674887753685606
      ],
      [
        "Albugan",
        -10.674916474796603
      ],
      [
        "kabilian",
        -10.675007466997734
      ],
      [
        "kilometr",
        -10.675065360975502
      ],
      [
        "SAN",
        -10.675117999265737
      ],
      [
        "kalalangan",
        -10.675124238248824
      ],
      [
        "home",
        -10.6764795424419
      ],
      [
        "mandal",
        -10.676731773409767
      ],
      [
        "pagmaragul",
        -10.677002236649056
      ],
      [
        "hayag",
        -10.677643868294528
      ],
      [
        "Pilat",
        -10.677699395243739
      ],
      [
        "planu",
        -10.67841704834157
      ],
      [
        "agkalub",
        -10.679392858886409
      ],
      [
        "Dap",
        -10.679876687126022
      ],
      [
        "maulaga",
        -10.680223311779642
      ],
      [
        "Apri",
        -10.68072285651391
      ],
      [
        "lakaran",
        -10.681038499578426
      ],
      [
        "still",
        -10.681308295604223
      ],
      [
        "Tru",
        -10.682880686841253
      ],
      [
        "ense",
        -10.68315922977727
      ],
      [
        "Bun",
        -10.68493442470751
      ],
      [
        "pilubluban",
        -10.685465287438978
      ],
      [
        "Europe",
        -10.685465332900577
      ],
      [
        "Computer",
        -10.685465709931663
      ],
      [
        "computer",
        -10.685472795934924
      ],
      [
        "panimanman",
        -10.68547649518189
      ],
      [
        "samantala",
        -10.685570283375332
      ],
      [
        "lihim",
        -10.685679996128933
      ],
      [
        "artist",
        -10.687069041166046
      ],
      [
        "sangkap",
        -10.687599385492891
      ],
      [
        "YU",
        -10.687766513534978
      ],
      [
        "irport",
        -10.690838217236287
      ],
      [
        "Hen",
        -10.692218005429028
      ],
      [
        "ugtu",
        -10.69343282739058
      ],
      [
        "capitoli",
        -10.696218138118606
      ],
      [
        "plan",
        -10.696770026165106
      ],
      [
        "militar",
        -10.696851999152667
      ],
      [
        "class",
        -10.69689906516924
      ],
      [
        "mayupaya",
        -10.696916701863845
      ],
      [
        "pangkabilugan",
        -10.697673981363097
      ],
      [
        "199",
        -10.698143862027816
      ],
      [
        "ilia",
        -10.699010000639714
      ],
      [
        "ward",
        -10.699629618778545
      ],
      [
        "Lalu",
        -10.700490640384455
      ],
      [
        "radio",
        -10.700575102660281
      ],
      [
        "strada",
        -10.700653287420376
      ],
      [
        "tikdo",
        -10.701048977286344
      ],
      [
        "doba",
        -10.701213719719604
      ],
      [
        "karapat",
        -10.701876155328277
      ],
      [
        "ukiat",
        -10.702864352725854
      ],
      [
        "music",
        -10.703359686205292
      ],
      [
        "legu",
        -10.706398486593834
      ],
      [
        "Bulan",
        -10.70648589768778
      ],
      [
        "ư",
        -10.707087476144663
      ],
      [
        "Rafael",
        -10.707087501497464
      ],
      [
        "standard",
        -10.707097412839657
      ],
      [
        "siguru",
        -10.707101361895276
      ],
      [
        "Dalit",
        -10.70712108637488
      ],
      [
        "tigtig",
        -10.70745266168652
      ],
      [
        "maranun",
        -10.707785758323332
      ],
      [
        "gisan",
        -10.708910338960234
      ],
      [
        "stre",
        -10.711261255470323
      ],
      [
        "palage",
        -10.71247850804902
      ],
      [
        "talapag",
        -10.714863206837926
      ],
      [
        "rga",
        -10.716972061238124
      ],
      [
        "KORO",
        -10.718077370455969
      ],
      [
        "January",
        -10.718077452101074
      ],
      [
        "kasangkapan",
        -10.71812961224418
      ],
      [
        "film",
        -10.718205718853921
      ],
      [
        "inamit",
        -10.718210464500569
      ],
      [
        "Dizon",
        -10.718615165988783
      ],
      [
        "ified",
        -10.718745368543914
      ],
      [
        "pamisip",
        -10.72089983142282
      ],
      [
        "yátu",
        -10.722122602400734
      ],
      [
        "magumpisa",
        -10.722397467894524
      ],
      [
        "popula",
        -10.72266865944065
      ],
      [
        "utak",
        -10.724058813607972
      ],
      [
        "samut",
        -10.726635412162913
      ],
      [
        "Tab",
        -10.726914972094871
      ],
      [
        "Bir",
        -10.727954737369139
      ],
      [
        "paksa",
        -10.72904830242827
      ],
      [
        "palto",
        -10.729152712962005
      ],
      [
        "Development",
        -10.729187598248107
      ],
      [
        "Cór",
        -10.729200238869481
      ],
      [
        "miniabi",
        -10.72927263231726
      ],
      [
        "Upper",
        -10.729433620114257
      ],
      [
        "Trans",
        -10.72951142601919
      ],
      [
        "Canton",
        -10.730158047436602
      ],
      [
        "payapa",
        -10.73212023092087
      ],
      [
        "right",
        -10.732197162761722
      ],
      [
        "ampang",
        -10.733985170118425
      ],
      [
        "Bisa",
        -10.73540080410779
      ],
      [
        "lupung",
        -10.735772992535757
      ],
      [
        "Chan",
        -10.736031262828885
      ],
      [
        "Medica",
        -10.73752040785795
      ],
      [
        "Engineering",
        -10.74042355448352
      ],
      [
        "Bunduk",
        -10.740426599826684
      ],
      [
        "Pangasinan",
        -10.740429126452025
      ],
      [
        "tropic",
        -10.740433955267019
      ],
      [
        "field",
        -10.740454618343534
      ],
      [
        "ENG",
        -10.740564803078701
      ],
      [
        "megumpisa",
        -10.740825781454728
      ],
      [
        "1992",
        -10.74124256250684
      ],
      [
        "pamagbayu",
        -10.741626039345025
      ],
      [
        "host",
        -10.743473728305649
      ],
      [
        "ñgana",
        -10.74400898616891
      ],
      [
        "kapagnasan",
        -10.744603288477183
      ],
      [
        "Senad",
        -10.745328190775869
      ],
      [
        "pámi",
        -10.746202912481976
      ],
      [
        "Lipat",
        -10.746752969292782
      ],
      [
        "BAN",
        -10.746864256764312
      ],
      [
        "panakit",
        -10.747581134581328
      ],
      [
        "wel",
        -10.74788818703329
      ],
      [
        "phyl",
        -10.748080379863701
      ],
      [
        "image",
        -10.748625496112485
      ],
      [
        "igao",
        -10.749098137922214
      ],
      [
        "guinu",
        -10.750855577264051
      ],
      [
        "metru",
        -10.750865103653151
      ],
      [
        "Administra",
        -10.751555114292394
      ],
      [
        "Banua",
        -10.751625152480901
      ],
      [
        "JPEG",
        -10.751787211998849
      ],
      [
        "Historic",
        -10.751790452066606
      ],
      [
        "Iloco",
        -10.751929608904042
      ],
      [
        "aiguit",
        -10.752059252672943
      ],
      [
        "Lond",
        -10.752264233223944
      ],
      [
        "Japon",
        -10.752405374903763
      ],
      [
        "Amlat",
        -10.752806536870725
      ],
      [
        "banglu",
        -10.75283132305043
      ],
      [
        "salbag",
        -10.753009799356873
      ],
      [
        "pasiag",
        -10.753234641866207
      ],
      [
        "Base",
        -10.753950001885515
      ],
      [
        "guintu",
        -10.754568948922248
      ],
      [
        "pámani",
        -10.754965526319246
      ],
      [
        "1970",
        -10.755674699547814
      ],
      [
        "lablab",
        -10.756316461320942
      ],
      [
        "Gregori",
        -10.756997369207266
      ],
      [
        "Area",
        -10.758899742116913
      ],
      [
        "canita",
        -10.758948142667005
      ],
      [
        "abasa",
        -10.759359197848191
      ],
      [
        "pekapu",
        -10.76118056310758
      ],
      [
        "mekad",
        -10.762312633083669
      ],
      [
        "Bachelor",
        -10.763281447225664
      ],
      [
        "Calendari",
        -10.763281478244354
      ],
      [
        "producer",
        -10.76328186765003
      ],
      [
        "Burgos",
        -10.763283322553178
      ],
      [
        "district",
        -10.763283595067119
      ],
      [
        "escuela",
        -10.76328707138958
      ],
      [
        "propeta",
        -10.76331086774994
      ],
      [
        "Templo",
        -10.763868760270197
      ],
      [
        "Sisuan",
        -10.764444409722467
      ],
      [
        "pilak",
        -10.764843963586255
      ],
      [
        "Huel",
        -10.76548060670721
      ],
      [
        "Garci",
        -10.766284211541382
      ],
      [
        "Home",
        -10.766638813444233
      ],
      [
        "ayus",
        -10.768357257210663
      ],
      [
        "modern",
        -10.768912122218065
      ],
      [
        "Agostu",
        -10.769324480213257
      ],
      [
        "own",
        -10.771616503071215
      ],
      [
        "uge",
        -10.77218013465832
      ],
      [
        "encia",
        -10.773231735616521
      ],
      [
        "umpisan",
        -10.774140307629992
      ],
      [
        "gugul",
        -10.774663315035893
      ],
      [
        "federal",
        -10.774911555598258
      ],
      [
        "Benjami",
        -10.774944081445684
      ],
      [
        "photo",
        -10.77511008823371
      ],
      [
        "katimawan",
        -10.775179130285629
      ],
      [
        "mangatua",
        -10.775198677805616
      ],
      [
        "dalise",
        -10.775277776733539
      ],
      [
        "Rita",
        -10.77569829518917
      ],
      [
        "Maliari",
        -10.775933417682033
      ],
      [
        "Keti",
        -10.776412303818406
      ],
      [
        "maluka",
        -10.776459408988488
      ],
      [
        "teorya",
        -10.777015857301205
      ],
      [
        "She",
        -10.777589863146499
      ],
      [
        "just",
        -10.777762427167172
      ],
      [
        "under",
        -10.779399622838671
      ],
      [
        "Mumuna",
        -10.780021211364184
      ],
      [
        "Presidenti",
        -10.78373375378619
      ],
      [
        "rill",
        -10.784860786645396
      ],
      [
        "Manch",
        -10.785394821551046
      ],
      [
        "vol",
        -10.786205894648475
      ],
      [
        "eyte",
        -10.78644491993352
      ],
      [
        "science",
        -10.786674350225805
      ],
      [
        "Bernard",
        -10.78667579291401
      ],
      [
        "siudad",
        -10.786685375526176
      ],
      [
        "relihi",
        -10.786693755888404
      ],
      [
        "marangal",
        -10.786822873764642
      ],
      [
        "Plant",
        -10.787077634617209
      ],
      [
        "Kapagmasus",
        -10.78756287845717
      ],
      [
        "masabal",
        -10.788062023111912
      ],
      [
        "Herod",
        -10.788316922738316
      ],
      [
        "terminu",
        -10.788321978748973
      ],
      [
        "álung",
        -10.7888363764108
      ],
      [
        "round",
        -10.789225753086658
      ],
      [
        "abato",
        -10.789903492708063
      ],
      [
        "parusan",
        -10.790604339666968
      ],
      [
        "ismo",
        -10.790643778526405
      ],
      [
        "biye",
        -10.790973519651807
      ],
      [
        "daramdaman",
        -10.791749281477383
      ],
      [
        "Victoria",
        -10.792144409842564
      ],
      [
        "NT",
        -10.79350305223717
      ],
      [
        "queti",
        -10.793909722538222
      ],
      [
        "kanyan",
        -10.794034009162974
      ],
      [
        "dekada",
        -10.794455709591267
      ],
      [
        "Wel",
        -10.796116755132866
      ],
      [
        "saguli",
        -10.798462897653799
      ],
      [
        "Đ",
        -10.798578817302023
      ],
      [
        "ា",
        -10.798578817302024
      ],
      [
        "prosesu",
        -10.798591075309403
      ],
      [
        "primera",
        -10.79860012063158
      ],
      [
        "teatro",
        -10.798830292044947
      ],
      [
        "miraras",
        -10.79888638054101
      ],
      [
        "mamintu",
        -10.798912319266858
      ],
      [
        "north",
        -10.798995829773578
      ],
      [
        "sipag",
        -10.800028737691306
      ],
      [
        "Hun",
        -10.80011592948739
      ],
      [
        "migsalita",
        -10.80028552012288
      ],
      [
        "Clark",
        -10.801689616318033
      ],
      [
        "agua",
        -10.802257482860325
      ],
      [
        "pagkalub",
        -10.80374853928382
      ],
      [
        "bawas",
        -10.804117365428429
      ],
      [
        "God",
        -10.80542408638905
      ],
      [
        "wangis",
        -10.8056211046781
      ],
      [
        "garh",
        -10.806115590319742
      ],
      [
        "kadua",
        -10.806178219788254
      ],
      [
        "akikilala",
        -10.80645844648653
      ],
      [
        "pekamaulaga",
        -10.806574552353084
      ],
      [
        "Baba",
        -10.806772485024542
      ],
      [
        "talik",
        -10.807640641589892
      ],
      [
        "silbi",
        -10.808100845055304
      ],
      [
        "bayit",
        -10.808878563359723
      ],
      [
        "vice",
        -10.809384404550926
      ],
      [
        "communit",
        -10.810066807440736
      ],
      [
        "Port",
        -10.810146434804095
      ],
      [
        "quetang",
        -10.810255909856611
      ],
      [
        "mánimúna",
        -10.81062724047738
      ],
      [
        "Britania",
        -10.81063024062934
      ],
      [
        "binil",
        -10.810661897028321
      ],
      [
        "Community",
        -10.810662823718438
      ],
      [
        "kawatasan",
        -10.810667796052876
      ],
      [
        "Company",
        -10.810748042067289
      ],
      [
        "nucle",
        -10.810758602409214
      ],
      [
        "Bagong",
        -10.810845832069791
      ],
      [
        "Bohol",
        -10.81089042672291
      ],
      [
        "mitagan",
        -10.81102439965423
      ],
      [
        "Torre",
        -10.811099342092643
      ],
      [
        "1996",
        -10.811244156603065
      ],
      [
        "1994",
        -10.811261617040952
      ],
      [
        "dinal",
        -10.81177462423708
      ],
      [
        "gatas",
        -10.812240903935162
      ],
      [
        "text",
        -10.813942487382434
      ],
      [
        "talapan",
        -10.81437122774461
      ],
      [
        "babayi",
        -10.814578033291621
      ],
      [
        "kapadurut",
        -10.814745733034663
      ],
      [
        "susuyu",
        -10.815385371576106
      ],
      [
        "raklan",
        -10.815643299688006
      ],
      [
        "Hol",
        -10.81595405762068
      ],
      [
        "santung",
        -10.815996425585606
      ],
      [
        "yawad",
        -10.816622030684801
      ],
      [
        "salanan",
        -10.816636259654256
      ],
      [
        "fact",
        -10.816814974479472
      ],
      [
        "bert",
        -10.818135085632328
      ],
      [
        "most",
        -10.81833466143636
      ],
      [
        "ological",
        -10.818380631486352
      ],
      [
        "ít",
        -10.818476844594311
      ],
      [
        "Nune",
        -10.818734589153252
      ],
      [
        "lonia",
        -10.81903557819599
      ],
      [
        "Low",
        -10.820886151590713
      ],
      [
        "paligayan",
        -10.820963347604444
      ],
      [
        "ternal",
        -10.821680005655306
      ],
      [
        "Concepci",
        -10.822822243007746
      ],
      [
        "Corporation",
        -10.822822280576952
      ],
      [
        "demonio",
        -10.822823590791408
      ],
      [
        "Bureau",
        -10.822824086316043
      ],
      [
        "Bulacan",
        -10.82284288262499
      ],
      [
        "Maestro",
        -10.822845983636402
      ],
      [
        "aldo-aldo",
        -10.822875331749172
      ],
      [
        "nominaci",
        -10.82288653667153
      ],
      [
        "Macapagal",
        -10.822918498257383
      ],
      [
        "pagaral",
        -10.82293178380882
      ],
      [
        "Pineda",
        -10.823029444250057
      ],
      [
        "Poeta",
        -10.823218967342408
      ],
      [
        "PAN",
        -10.823534596491589
      ],
      [
        "Cavit",
        -10.823680961533132
      ],
      [
        "pastul",
        -10.824572918244886
      ],
      [
        "Pasku",
        -10.825495659179923
      ],
      [
        "lungu",
        -10.825606212563978
      ],
      [
        "mibili",
        -10.82652077600305
      ],
      [
        "Vol",
        -10.826833763178438
      ],
      [
        "erry",
        -10.827198011741892
      ],
      [
        "ukdu",
        -10.827647480101259
      ],
      [
        "byasa",
        -10.827839368523227
      ],
      [
        "kutkut",
        -10.82846107212048
      ],
      [
        "sibul",
        -10.82887789487164
      ],
      [
        "áliw",
        -10.82909205836257
      ],
      [
        "thur",
        -10.829758743511984
      ],
      [
        "magbalik",
        -10.830498585472583
      ],
      [
        "idae",
        -10.83390358582512
      ],
      [
        "comuni",
        -10.83431531429494
      ],
      [
        "View",
        -10.835194691986517
      ],
      [
        "makapagmulala",
        -10.835240576975973
      ],
      [
        "ference",
        -10.83530897607158
      ],
      [
        "katni",
        -10.835435122552635
      ],
      [
        "national",
        -10.835646947561905
      ],
      [
        "1997",
        -10.835880594582765
      ],
      [
        "ayni",
        -10.837131079517649
      ],
      [
        "Mandal",
        -10.837149204290334
      ],
      [
        "buu",
        -10.837924987996626
      ],
      [
        "layer",
        -10.838905171640576
      ],
      [
        "Char",
        -10.838946418114398
      ],
      [
        "179",
        -10.839220877093148
      ],
      [
        "tree",
        -10.839548922209712
      ],
[...]
